54
0A
5A
84
B6
99
3C
69
A8
38
8A
E7
A5
42
7D
73
69
00
65
7F
2E
F4
05
2A
C7
B6
CE
80
18
4A
5D
1A
B2
B7
C3
B5
96
B9
5D
49
E7
1F
E1
B0
EF
91
1C
D8
69
9D
78
F2
7A
51
8F
05
F7
A0
22
67
93
A6
D9
A6
FA
C3
9F
CB
E0
C3
19
24
AC
2A
BC
F5
C6
E3
C0
A0
BC
86
5E
B2
23
23
D3
3B
F0
6F
6B
8A
5C
D0
7F
45
F3
B9
88
E3
73
FA
C9
F4
24
3D
57
51
