DF
1A
33
A9
1A
E9
01
9C
A9
30
7E
B3
F1
26
4A
34
74
30
3C
94
76
05
93
C7
F3
19
C6
FF
39
07
77
2A
0D
FC
BA
1D
BC
7F
38
62
0C
AF
63
95
E5
D1
6D
A6
4D
E5
42
CA
FF
2E
50
4F
D0
CB
56
93
CA
C1
13
DC
AC
0C
66
83
7B
AA
64
90
A5
9F
A4
4B
99
B3
84
5D
6E
38
E4
EA
DF
7B
39
17
FD
BE
DD
04
4A
0F
62
73
6D
E2
6C
3D
DF
8D
11
16
4D
67
48
C4
