52
7C
70
86
7F
A7
9C
84
B1
60
57
8B
0D
EA
06
E7
7C
11
CD
E7
EB
D4
95
38
DD
55
F5
82
48
CE
61
FE
FB
8E
15
E9
CF
7E
2A
68
AF
7B
EE
FC
17
1C
66
F2
FA
C2
E4
DF
28
F9
82
33
32
37
4B
40
56
D3
E6
1A
F2
AD
03
E2
0A
A9
EE
01
38
53
73
15
72
C9
5B
F6
22
58
56
8D
F6
AD
A3
67
19
FF
C4
F1
64
0B
3B
50
8A
20
36
20
DB
30
0E
E6
1E
FA
D4
E7
