B7
72
BB
60
9E
E9
44
6E
21
4E
ED
7A
AF
66
06
71
C0
FF
16
1F
21
AF
C3
DD
74
C6
D1
09
07
1C
D1
4C
0A
6E
66
12
F3
2E
3D
EF
B9
A0
A2
F5
43
3B
15
4F
91
6F
26
E6
88
C5
C1
05
4A
54
44
DD
F0
0A
51
EB
A5
75
13
74
B5
B6
FE
5C
DA
BE
CD
B5
33
94
1E
82
C9
B5
51
B8
D6
59
13
04
7F
FD
7B
15
1B
4E
74
D1
94
B0
61
AA
03
3D
45
71
89
E8
E2
A3
