AB
DD
F0
E7
90
B2
80
3D
81
18
A6
8A
E7
42
E6
80
CE
C1
F3
80
20
46
63
0F
0D
3D
6E
AD
5A
DB
97
35
98
E2
98
86
35
EB
32
1B
84
A5
BC
99
8C
BE
75
2C
DF
95
23
82
42
0E
A8
8E
3D
B0
E8
FD
33
44
2E
BA
5A
8A
0A
C0
20
B5
3D
A2
87
C4
92
71
96
5D
CB
70
FB
05
33
EB
0F
DA
D0
F5
90
94
4C
0F
CF
C4
0B
A9
63
DA
83
BF
59
66
3B
0C
9E
AF
51
35
AF
CA
CB
E2
8B
91
B3
62
5F
B6
61
C6
73
50
26
23
A2
AC
E8
0E
E1
C0
1A
56
58
CF
CE
C8
5F
78
AE
44
7D
73
2E
7E
F4
25
56
13
5B
A2
4F
C6
45
82
2C
9E
B5
9D
3B
B5
2D
1C
D4
44
15
E7
B1
B6
A1
20
DD
FF
4A
3D
04
F8
75
07
54
9F
79
03
3D
18
70
F8
2A
6E
F5
4B
69
08
FA
2B
FB
3A
A5
5F
84
0A
D3
5C
69
AF
62
B7
9B
7C
53
3B
BC
CF
FF
91
CB
B3
BE
06
EF
B9
D6
67
6F
A8
9F
16
3D
38
E3
F3
F6
C0
64
C1
62
84
90
FE
3B
9F
B4
28
1B
5C
F2
19
61
9F
3F
4D
E3
67
AA
EA
33
D6
26
A5
A3
6C
FF
A5
E6
29
30
30
80
63
A3
2E
4D
F7
14
6B
96
71
5C
6A
84
F6
5D
38
80
33
46
49
91
9B
C3
8D
69
49
E3
46
7F
C5
DB
0C
43
8F
60
9D
C5
DF
8B
65
73
D8
21
15
CC
07
66
65
9C
35
0E
2A
13
FB
38
4D
7E
89
A6
A5
18
AD
4C
9E
10
11
24
5B
62
E8
E4
18
BE
DB
C1
9B
FB
8D
28
ED
8B
3B
D2
0F
33
DE
45
41
58
AB
6A
3D
EB
7F
38
8F
17
8F
A4
D0
A2
F7
3C
E6
1D
56
05
4F
9D
3D
11
CA
F9
24
09
BC
5C
BE
C2
7E
3A
42
D1
49
D1
C2
E8
1F
A1
06
99
1B
A4
E1
34
93
7A
3D
90
5A
F9
97
05
64
99
D1
F3
71
6F
B2
94
56
DF
1D
A0
68
CD
73
0D
39
19
14
37
44
5F
2B
9C
91
50
60
DB
86
D8
5E
07
02
F3
EC
C9
4C
77
80
D1
AF
4D
AB
95
96
09
70
78
31
33
5B
7F
A5
36
74
4D
F7
5D
2D
BE
52
B8
E8
CD
99
14
1E
0B
A8
74
07
56
5F
C8
F1
53
07
B4
5D
BF
D1
57
36
63
39
4C
E6
D7
10
C3
EF
CB
BB
2C
C8
40
51
3E
AC
85
A9
12
1A
B1
E1
C9
87
D7
7E
42
4E
AF
B8
FC
1C
65
AB
45
86
B9
E7
2C
49
CB
0A
CE
CE
A5
4F
34
12
1E
A7
A0
8C
20
97
6F
AA
8C
D4
06
EE
FC
DC
80
41
E8
EF
DC
15
09
2F
36
68
37
C4
2A
17
3E
EB
85
44
CA
14
5E
7F
