C0
40
D4
89
43
D4
F1
E2
ED
99
FC
FD
30
6F
0D
66
33
20
87
DB
71
7B
E8
DC
6A
09
ED
18
1C
07
5F
44
94
CB
D4
B4
D9
89
DF
88
4D
E7
77
58
08
CA
D7
DB
1F
68
1C
A0
1E
D9
51
B2
51
AA
EA
CE
2A
0C
90
EC
86
67
AC
11
68
C2
00
D2
00
BC
B4
55
3C
4E
D6
8F
0D
D9
4E
50
B3
44
E1
AB
DF
A6
B9
A2
05
8A
22
ED
5B
33
63
5B
85
2C
84
9E
8F
97
7E
A2
93
90
F4
7A
4F
35
B9
2F
46
6C
65
A9
E8
AC
D6
BF
4D
A5
18
38
2A
BB
B2
8B
99
4A
E3
1C
59
90
3D
34
4D
E5
AF
98
07
14
8F
2F
23
5B
40
C6
DC
59
C0
15
69
A3
B3
62
CB
D1
AD
6F
FC
28
B6
81
0D
D6
86
A8
EF
E2
22
DB
B5
35
0E
70
F1
F6
FC
BF
D4
5B
D9
46
55
23
1C
CE
4C
0B
9E
9F
A8
54
84
45
B4
16
9C
21
6D
79
F3
50
B1
F4
47
4F
8E
02
50
D8
69
D5
A8
33
F7
42
F0
79
7E
DA
A8
E8
06
07
75
AB
27
94
A9
C2
9B
EB
01
67
7B
79
9E
B7
D9
99
16
5C
4F
8C
02
95
B8
7A
41
89
6E
ED
3C
CC
CC
15
A5
B7
8E
1B
47
DD
1A
5E
8D
71
C3
9D
F6
74
CF
3D
5A
F0
BF
B3
A0
79
DD
91
81
4B
41
F5
88
CF
12
29
09
F0
D2
58
C8
F2
F7
21
01
AE
86
1F
61
17
75
6C
F7
91
BE
A2
54
29
29
CE
35
9C
29
78
F3
F5
3A
41
3F
F1
13
3B
9C
89
48
89
C7
C9
7D
1F
02
36
A1
21
3A
65
2B
8A
74
D7
0E
AF
EB
AF
4D
44
C5
07
45
51
96
D0
B1
1E
04
D8
64
2D
DA
6A
F1
1F
D8
75
9F
75
46
4F
C2
D7
B3
37
02
5A
15
F0
AF
8A
0F
B1
2B
B5
C1
FF
51
E0
85
CB
56
60
67
38
E0
98
D1
29
0F
68
6C
1A
35
43
B4
1A
65
DD
C4
95
A2
80
40
25
61
1E
11
7D
9B
6E
8B
E0
01
BA
31
86
EF
DF
E5
8B
08
EF
20
95
0E
ED
62
17
5D
BE
0C
AF
99
96
B3
C1
89
65
CC
C0
1C
77
1A
95
F5
51
3A
BA
4F
5E
C4
2F
23
2F
9F
DE
53
FC
2F
30
6C
5D
7F
30
15
AE
5C
21
D7
4E
CE
73
6A
C2
B7
A4
6C
04
D0
BB
73
95
7A
32
64
79
0B
D7
B4
F8
FC
18
63
F5
83
8B
A3
96
B6
2A
43
68
37
16
23
A9
79
EC
B3
2A
A2
3C
6D
46
CB
D7
44
B6
AE
7B
39
A0
25
72
69
C4
2C
10
2B
BB
65
B5
49
C5
73
9C
FF
02
5C
BB
37
0F
D6
FB
AA
E2
88
2C
7E
CD
5D
5C
D8
A7
78
5C
A1
9C
BA
C0
