E4
2C
7D
C8
11
8D
AC
C1
B6
C9
09
2B
FD
3B
62
18
31
82
23
83
8D
4F
08
07
75
98
C4
7C
C9
06
54
67
E2
FF
05
A0
88
23
5B
FE
E2
4D
39
F2
8A
31
C5
2C
BE
E6
6B
94
6B
6B
32
AC
CB
AD
4B
8A
42
AF
63
2C
B4
F6
E1
0C
A6
A3
8B
B9
4D
B4
1A
10
B7
DB
5E
81
9B
F5
F5
2F
4A
A0
12
AE
26
01
50
08
18
7F
EF
33
14
60
4C
BE
89
7F
E1
BE
AA
2C
2C
B9
0E
E4
E0
FE
D2
94
D4
22
2F
12
68
AA
55
44
09
D6
94
B4
54
7E
BB
0E
A0
27
73
21
55
EC
EB
D7
19
4D
DF
DD
0E
04
31
F3
BC
3F
96
44
DC
BA
8C
84
4F
5F
44
E4
84
E3
03
A5
31
41
DB
E7
C9
0F
4D
E3
2B
7D
C7
67
37
73
08
E2
4B
68
78
7E
68
34
72
D1
8F
FC
A2
55
07
91
BC
86
77
EB
C6
D9
2B
37
6D
09
48
18
21
25
98
38
69
D7
4B
8B
92
91
AD
BA
39
08
92
BD
08
0A
13
80
2F
F5
C5
C1
72
A4
47
6A
D1
C0
51
9B
28
E4
50
2B
2F
93
B2
2A
AC
C8
01
30
E9
C0
23
CC
18
83
B3
02
73
37
59
B8
4D
B6
67
17
6B
FE
0C
16
18
FB
8C
8E
92
3D
BC
76
26
CC
51
E4
76
C8
89
2C
4E
A1
83
49
4F
E5
64
56
1A
3E
E7
53
67
F6
A0
04
49
54
98
1D
BE
04
7C
66
43
51
7D
63
F2
BB
C4
8C
92
5C
87
09
FE
F6
9C
9E
1B
E1
E7
EA
D4
80
DA
A9
7A
06
51
AC
EE
2F
17
D6
CD
B6
A1
FD
A0
93
28
37
EF
B2
00
E2
89
E5
D7
1E
52
E9
15
79
1D
57
FE
D9
15
14
0A
85
02
C7
17
28
64
97
C9
30
68
E0
89
F9
D1
35
48
76
67
8D
11
2B
80
59
18
6A
37
90
9F
30
75
90
2F
C3
83
3B
F1
75
FC
DC
7A
E6
1D
A3
49
49
0B
83
31
AA
F7
BB
59
3F
22
AB
EF
1A
4C
4B
2E
A5
B3
7C
09
AC
9E
15
A6
A6
65
67
AB
A2
EA
8C
13
D3
56
8B
46
CE
C3
F2
EE
6A
33
7F
43
D3
4F
B4
B5
12
86
8E
42
DE
15
00
0F
46
DC
85
04
6A
4A
A3
E1
FA
B7
3D
A7
B2
E0
66
A4
98
39
0E
AC
44
5C
54
B1
B5
BF
80
D4
FF
FA
33
E2
01
66
B4
E2
2C
8B
21
A9
84
06
DC
96
02
7F
7A
9B
09
FA
53
18
26
36
12
B9
91
E6
90
9F
C6
69
A3
B7
EB
3D
6A
60
72
EF
50
EA
F7
59
60
8F
72
E7
A8
61
8A
C8
61
7C
F4
E8
E8
4C
75
61
31
6D
EB
EC
A3
EC
F1
4C
75
AA
4F
B6
B1
71
AC
76
D5
84
35
