70
74
82
DD
83
3E
CA
99
9F
15
1B
5B
46
D0
5D
8E
9C
B7
C2
C4
3C
6C
D4
AB
BB
91
10
AD
C8
CB
FF
5E
39
7D
7F
A3
E2
29
3F
64
F3
0C
53
D8
34
CF
AA
8B
04
AA
A0
03
71
05
3D
14
3C
F9
DC
ED
14
6C
C4
CC
B9
2A
48
D4
D0
42
40
EC
E6
10
18
F0
0D
0E
29
63
5F
93
28
CB
4E
9E
54
BD
D4
5D
EB
E0
B5
6E
80
8C
4D
EC
FC
33
28
0F
6B
3C
0F
FF
B8
51
32
32
5B
11
00
53
B2
50
27
3B
F3
3E
11
5A
F2
1B
21
21
DB
9A
D9
B4
C5
BA
BC
7F
4C
0A
63
18
DC
22
94
98
10
D6
80
3D
71
0D
9A
FC
65
F8
B2
AF
83
C6
8A
61
60
15
77
01
98
E7
65
98
27
3F
72
96
9D
C3
0D
53
F6
AC
5B
48
4A
D3
B6
47
5B
CE
9A
A9
7A
98
95
11
93
58
14
58
43
E3
77
AA
E6
83
97
F5
27
7F
12
58
4A
E4
17
B6
02
FD
19
EE
67
62
98
68
79
1A
2C
B1
DF
14
6B
77
26
CF
9C
61
B1
FE
C9
18
32
A4
F2
D7
26
2E
8A
38
A5
94
17
F7
7C
0C
17
B8
CE
B9
0B
98
20
69
86
58
1D
D7
A7
3B
18
1F
50
F8
E5
DC
62
45
8E
FA
45
C4
E5
2C
CB
B4
7B
61
4E
F2
70
32
DF
5B
68
D3
16
7D
23
04
C6
02
36
2D
7A
6D
C0
21
25
5D
89
23
9E
CD
8D
43
1C
13
38
A6
AB
CD
95
B8
9B
8C
C8
E8
4B
E6
CB
79
DA
42
52
1D
43
F7
05
C2
14
59
D9
96
08
9D
8D
7C
30
98
BE
15
61
A2
3B
8E
24
E9
E9
CF
14
DC
6E
1C
BB
45
C8
E8
16
86
CC
C6
D7
A9
F8
A0
89
94
14
C2
E5
40
37
B0
45
5B
BC
4E
94
15
31
0E
64
B1
1D
54
1C
A2
AE
12
3A
0B
3D
38
A7
E3
FE
2D
14
CC
57
D0
55
9F
19
46
62
D6
3B
BF
3E
EE
85
C2
2D
1B
F1
9B
84
4A
78
6F
0E
72
23
3D
FD
2B
08
14
68
94
FE
2B
6E
F2
46
DA
52
6B
DE
0C
4F
6D
6B
FE
A7
31
AD
0B
6E
9A
7C
74
6A
27
E8
2F
56
F7
02
83
03
80
BC
19
D4
31
19
14
97
12
5D
8E
29
6E
0D
62
76
CB
AB
5B
19
92
2E
5F
69
F7
E7
71
C1
1C
3E
F7
67
C9
14
98
07
0A
12
A9
48
E4
BA
A8
C1
27
3D
C8
4D
8C
F0
A5
93
5E
DA
20
41
7F
C7
42
43
B8
BB
6A
62
B7
43
CF
B6
9A
09
31
4D
05
EF
EA
54
58
35
DC
EF
55
E1
50
4E
E0
01
27
26
66
5E
04
31
DD
59
70
13
F8
2E
E6
45
06
BC
0D
9B
B0
6D
EC
74
1C
61
A2
6F
D3
0A
0D
AA
6B
5F
7B
C1
D5
44
01
1B
C0
7A
7F
76
E7
FF
D0
61
B2
03
1A
CD
B3
2C
4D
48
45
94
83
96
0E
22
EA
6B
1D
54
90
A2
81
7C
37
15
B0
7C
F6
04
A1
74
DC
3B
48
81
08
A8
AB
92
11
9C
F5
36
EC
A2
18
B9
42
71
BC
C4
7A
61
F9
1E
F9
C3
10
CA
35
2C
B4
2F
3B
70
3A
61
AA
88
23
0D
22
B2
88
5D
84
0D
EF
67
DB
EC
9D
0C
3A
44
31
28
1E
71
B9
77
A0
37
E2
F2
18
6E
B7
27
79
5A
FD
CB
52
0A
43
63
B0
9D
E3
A4
A2
72
58
67
B0
64
79
F3
B5
A6
6C
0A
79
61
DD
98
E1
72
38
0B
64
97
2D
79
8A
4F
C6
30
10
39
07
B7
64
1D
BB
6C
7E
97
87
DC
5B
42
C9
3C
3E
1C
9E
CE
D8
29
A0
A1
0D
CB
F5
4B
B9
76
CC
93
54
3D
32
CA
E7
9A
5E
64
16
1C
07
CB
F6
C1
F5
69
94
B8
21
D0
4C
BC
74
F0
80
1C
B9
98
87
67
A0
DC
CA
38
02
BF
A1
C8
A1
83
44
36
01
F2
29
73
87
1C
5F
AB
26
A8
0D
7F
0D
5F
B0
9B
C6
25
DE
A4
9C
31
FE
96
11
18
89
4C
AB
77
E7
44
42
1E
92
DF
C7
54
85
DB
DD
0E
8E
39
F4
8D
AD
CE
1A
45
C1
D7
0F
2C
88
9F
9D
3F
25
54
6A
4F
6F
44
47
32
9D
64
2E
30
9A
23
CF
2F
78
FA
9C
F1
62
DB
0C
9F
E5
9F
6C
BA
47
BA
E0
05
85
7F
0B
A7
B4
BB
2F
64
F1
56
A6
39
DF
CF
C9
6E
5A
F1
F5
BB
49
49
69
86
F7
5C
D9
F6
B4
F3
59
0A
E0
9A
DE
1B
6F
62
47
92
95
E9
71
55
4D
EC
BB
8C
5A
17
21
01
9F
56
83
3C
60
42
77
7D
F0
A3
14
D3
C5
EC
73
08
5A
8D
41
A4
94
43
3C
6D
C2
AB
71
CE
66
AF
0D
90
50
69
7F
D4
A2
76
51
CA
CD
1F
2F
B5
BB
F7
5B
8E
C2
D3
CE
DC
05
77
82
00
C4
90
3F
01
17
DC
CB
69
FF
B8
32
30
18
A6
F5
F8
23
9F
03
60
3B
C3
F7
8A
63
D7
3E
4F
6D
EB
E7
7C
A1
E9
FF
BB
CD
81
66
29
97
4D
A0
E1
59
E7
91
D7
C7
A9
6C
79
04
25
44
02
0C
36
9A
BD
7B
B6
3B
7E
B4
21
0D
23
FF
2D
7A
DB
BC
AA
70
59
59
81
52
A4
0F
A3
C6
14
F6
45
16
E7
89
23
C1
F1
19
95
D7
B7
3E
44
42
50
2C
A5
71
37
CD
68
10
60
B9
35
7A
B3
0C
95
75
4F
80
6F
03
6B
25
CA
05
DF
C3
6A
7B
BD
1A
F7
28
12
DD
9E
1B
B2
10
34
19
47
40
74
6D
9E
99
69
E4
CD
AE
5C
17
59
DE
3A
C1
8B
9B
60
22
CF
82
55
8F
8D
DC
B0
AB
E8
35
1A
4A
1B
6E
47
08
03
58
79
61
47
0D
EF
F5
40
5C
B8
DC
FD
92
85
60
9E
73
AD
0C
79
F5
18
67
A8
6B
61
DE
BE
03
88
91
D0
AB
3F
8C
81
3D
E3
7B
04
57
9E
D1
E9
50
92
19
B8
A9
70
04
0E
C4
40
58
F9
8B
D7
46
C2
52
61
13
6B
0C
90
99
34
3D
21
A1
6F
EB
E2
E5
07
A6
A3
9D
8E
2D
8C
37
E1
0B
3A
65
97
73
58
3C
AC
2B
F6
BA
95
F2
4B
AB
74
68
94
3A
51
3F
64
99
08
5B
6D
93
AC
05
E5
DB
DF
58
C0
E7
73
7D
EF
42
CA
1B
05
8E
53
39
EC
02
60
5C
6C
C1
FF
94
0A
41
49
CC
4F
FF
2D
D1
95
B1
F1
69
ED
4E
DF
82
8A
50
0F
96
A4
A4
20
A5
19
57
E0
29
B8
F6
88
AA
99
9A
D8
11
69
8C
0E
D2
94
CC
44
E1
B8
F8
1B
B0
99
D5
D4
54
0E
6B
E6
F9
66
B3
AF
59
BE
42
CA
74
A2
26
B0
E0
8A
BB
DD
0C
C8
80
30
B5
69
F2
DE
64
D6
6E
9A
C1
43
3F
02
D7
DD
C7
97
AE
DB
B8
10
22
58
33
15
1B
D5
8D
66
BC
D8
36
3F
F5
F3
1B
21
89
D9
27
BD
E8
B1
0D
92
E6
1C
EC
78
3C
ED
3E
2F
BB
3F
90
D2
CD
A8
1B
18
A9
5F
34
CE
68
99
6E
0A
E3
1B
5A
0B
AF
FD
19
81
E8
53
F5
64
2A
AF
E6
89
62
FA
B0
DE
89
C1
66
87
ED
16
ED
69
20
26
B0
00
0E
44
40
42
89
14
91
37
C3
77
2C
5C
3E
55
E4
26
56
B0
D8
D4
73
CA
0B
C6
7C
5D
0A
00
AB
5B
B4
F3
D5
A3
F5
87
E0
50
F8
14
A3
54
61
50
2A
A4
21
1E
75
E3
48
AD
E4
7E
87
F7
29
D8
81
D9
63
57
A8
73
F0
5D
0D
03
D8
7F
3E
1D
55
29
57
36
83
BD
B8
E5
19
62
B3
B9
DC
D4
EB
6B
90
85
D6
AE
A9
D4
F3
01
68
87
38
3B
82
44
BD
2B
97
27
88
02
50
89
9E
C8
3B
1E
6D
0A
F8
F9
5F
F4
60
FF
A0
07
CD
1D
4F
F6
F8
B2
7B
95
61
54
D6
C0
EF
A3
65
AE
2A
3C
1F
48
DD
1A
A2
8F
C7
E5
76
74
C7
22
FD
6C
FD
3B
4D
14
28
1F
E7
6A
47
59
C3
88
77
83
00
76
EA
5A
D6
57
BA
63
4B
18
20
E4
32
03
43
1A
CA
C3
F3
2E
8D
77
08
EF
87
CE
BE
85
87
08
6B
D1
87
BA
58
19
11
D6
6C
EB
59
FC
4D
17
69
AA
10
F3
2D
B8
A4
C6
DC
13
52
76
15
F0
97
2B
2D
D4
EA
8D
6F
3F
EB
8C
73
13
40
99
82
28
C4
2A
75
B4
91
2A
5A
55
8A
41
D5
E5
7C
6D
F4
74
ED
6E
46
B4
DC
D6
31
BD
97
9B
11
4F
A7
00
F2
84
D9
DF
D5
8E
28
8B
04
48
D7
6D
0B
93
24
B1
5A
50
EB
B4
7B
B7
8E
F7
5D
4E
11
3B
38
E5
0B
B6
34
75
95
A2
71
BE
64
BC
93
E8
77
19
97
25
66
9E
2F
94
7D
38
E3
42
32
8B
B3
BC
75
DC
22
0F
4D
84
37
64
D6
E2
7C
77
54
86
D1
84
51
8F
9C
02
03
DF
DA
76
76
33
E6
4E
CE
50
EE
5F
33
94
32
1B
F5
1A
80
70
40
E7
5E
0D
4A
6E
4A
11
A9
FB
15
AB
1C
73
83
EF
1D
4E
FE
1B
F4
16
17
15
30
7E
C0
94
BD
C7
45
2D
87
18
E9
21
E4
8A
B5
34
0B
3E
61
62
5C
B8
49
7E
20
54
81
EB
7B
B5
B2
04
DD
76
30
24
EE
09
13
9D
D8
B1
3A
A5
75
C8
DA
07
59
FF
6F
0E
AC
6F
F5
15
59
80
B1
6D
B4
FD
79
BF
EF
D5
17
4D
D6
45
86
9D
06
9D
54
A5
F9
36
3F
8E
94
61
F6
BB
55
CC
96
EE
98
55
F0
58
3F
85
F7
B2
C9
68
89
E4
13
ED
EB
A5
F3
17
0B
46
DB
54
84
17
5B
66
11
ED
4A
D6
DA
15
70
84
6C
B3
0C
86
37
DA
AB
82
5D
82
DD
F6
1C
9F
F7
8C
6C
89
82
B5
F7
0A
E4
BE
B1
9B
D6
4B
FC
C3
AA
85
87
F2
8D
61
3C
52
DB
CE
97
50
50
2E
F5
CF
15
D1
5D
39
21
36
64
8B
60
30
D1
E9
6F
B8
07
5A
03
02
EB
CB
06
15
D2
6E
2D
22
C8
3A
9A
1B
F6
67
A1
E8
6D
7B
6D
A9
2A
B4
E2
8B
E4
3A
24
F6
E3
FD
A1
80
72
BD
87
63
F4
04
AA
DD
7B
08
CD
74
0D
94
1A
F6
82
8C
F9
16
4C
34
AA
64
F7
00
87
1B
11
50
74
70
40
2A
21
74
C9
C4
A6
C4
70
8A
CF
A3
14
80
53
7C
33
1F
B2
35
43
DC
94
AE
75
37
F4
37
CE
8F
6C
09
B8
03
89
84
D6
02
8F
8D
29
6B
5B
97
A8
A7
25
BE
B0
7C
F6
1B
C7
54
65
14
81
D7
89
EC
B9
D0
5F
F2
64
12
04
E7
59
84
BC
4B
5F
42
79
13
41
D7
B4
BD
D8
9B
00
72
F6
AA
E8
5F
6B
DA
BC
32
65
CE
A1
65
C7
E1
90
27
29
86
50
E9
EC
1B
1C
54
69
81
C8
50
82
21
D0
C0
3C
3B
7F
72
F3
53
89
6B
C5
88
31
9B
0F
33
1D
B5
5B
56
BF
01
79
F6
28
D0
93
ED
21
FE
65
75
D2
E6
74
9B
2D
0D
30
01
5B
0D
D4
3D
C2
2B
5A
33
D2
EF
33
28
C5
D1
F8
CA
11
27
A4
70
CA
21
8C
6D
3E
EA
5A
17
4B
40
AF
BB
C3
E9
AC
D8
DD
11
97
46
A4
6F
C7
00
B9
21
0D
8C
4E
56
E3
7E
D5
B0
6D
9F
EF
4F
2B
67
B5
D2
6F
08
36
E4
6E
60
94
7B
27
8B
D9
B6
4B
01
1C
3D
45
1C
B2
7F
EA
FF
B5
45
87
01
1F
97
09
C2
B0
D0
0E
1C
8E
2F
6B
FF
4F
4F
6C
0E
EE
26
AF
5E
BC
AF
F8
6F
9E
E8
96
EA
8C
F6
EB
5F
87
45
3F
35
8F
4F
5B
C7
5D
08
57
1B
5E
1C
05
EE
C9
C3
9F
E5
1D
BB
3F
BE
E9
99
9F
88
37
75
5E
D9
C0
A5
26
D2
C4
3D
F1
A9
B9
99
31
7D
45
8D
0C
47
31
E2
A7
93
00
F6
20
80
D5
B0
88
3C
FF
2A
0B
6B
0A
57
45
EF
35
07
71
E2
C1
A7
30
C7
A7
18
94
FB
35
BE
C2
4A
ED
83
27
BD
7C
0E
C6
86
99
0F
DA
FA
B1
35
45
8D
CC
7E
F6
52
C2
0A
7F
F3
F9
1B
78
59
E3
06
C7
40
DC
71
F5
57
48
7F
CD
D2
8E
25
0D
6D
39
97
A2
1B
5D
DE
FD
09
FF
43
CA
82
7B
24
88
22
35
77
EB
81
D7
22
F2
5C
AA
85
72
75
DA
6D
13
E7
F3
A0
F2
89
D8
73
B1
84
E5
DF
B2
E3
98
6D
B6
79
71
65
C8
19
7A
62
8D
38
A3
D0
D9
B3
4F
B5
DA
72
87
DF
41
DC
00
8D
6B
BE
58
92
4E
B5
C3
D7
D8
F8
24
E6
5B
E9
46
8A
3E
AB
CD
46
C5
65
54
AC
2F
27
17
BB
62
EE
D7
57
8A
10
9C
F6
54
60
0D
F4
93
28
98
B9
86
78
ED
57
0C
B7
55
4D
41
59
00
97
22
AA
22
0A
63
6D
F0
C7
04
B5
CC
7E
0D
6B
74
AB
AD
40
76
4E
B5
24
1A
E9
7B
AB
B9
F5
D6
95
AC
C1
69
38
04
D7
D8
56
E5
AC
A3
12
13
49
8A
25
70
9F
5A
04
2D
FE
D4
FC
B0
10
7E
24
1D
F8
83
B7
FA
F8
B1
13
31
B5
91
9E
3D
89
AE
BD
AF
D5
F9
08
D2
05
00
08
0C
DA
A8
94
4B
93
8F
B1
09
00
76
24
6D
3F
5A
1A
08
D0
CE
21
48
00
22
99
B2
64
D3
2D
72
BC
2C
40
89
CE
83
4D
01
F6
34
C8
5E
00
2B
AE
4D
D0
A3
F4
AC
AD
CA
FE
71
6C
02
B9
8D
3B
7E
DA
A1
2A
B2
E0
01
AB
1D
2A
A3
25
32
AB
D6
6A
F9
72
95
01
AF
A5
59
51
22
04
4B
8B
A5
49
66
DC
16
89
F2
96
27
44
C8
6E
22
58
64
08
2F
E5
2F
87
5C
86
37
B1
11
94
02
4F
8F
F4
8D
3D
A1
A9
E8
16
CA
B9
BF
F4
05
67
81
5C
BD
21
03
3A
9C
7A
59
09
7B
BE
46
8B
F8
AC
D1
BD
BF
31
D3
7C
43
BB
06
73
22
CC
81
CB
54
C9
33
9D
B0
92
68
49
F5
C0
27
CD
8B
4F
EE
C3
78
E2
BC
AE
C5
EB
16
D3
EA
E4
4F
28
02
96
9D
66
37
DD
C5
06
AE
99
57
5D
33
9E
0A
73
7B
21
12
68
76
AD
9B
D7
F5
B7
36
C9
E9
76
51
33
3B
C0
A0
2C
FC
D9
2F
25
28
3D
07
A3
82
17
D1
50
9E
9D
97
54
39
89
69
39
26
F4
F4
2D
51
56
92
7A
6A
8B
CB
C2
2E
78
08
C0
0C
79
58
91
E7
A7
CA
81
93
61
23
67
22
71
49
6F
76
0E
77
83
10
83
B1
5F
66
98
64
52
76
AE
C2
D3
7D
C3
F8
A9
54
FB
1D
30
FE
67
FD
B0
23
C0
4B
74
13
1C
69
86
5E
33
B9
08
B5
16
26
C6
FC
6F
3B
1A
B5
1D
E9
94
ED
21
D9
22
96
25
CB
57
7F
DD
4F
DF
DD
E2
82
CB
1C
FF
66
D6
E1
87
5D
A3
C7
88
19
F0
FE
BA
72
5C
09
CE
25
42
AF
E1
E6
2A
08
82
46
07
CB
44
2F
E1
49
85
0C
78
5D
89
CE
4D
90
6A
31
23
24
A8
04
7E
7D
B0
68
2F
9B
AA
EB
AD
34
45
61
9F
7B
13
80
86
A2
DD
32
49
25
0C
3A
8B
6A
98
14
36
34
BB
00
FB
22
72
51
E7
6F
3E
8F
16
09
CF
BE
CA
C1
96
3E
B3
E2
95
82
0C
8A
9A
A1
CB
BE
61
F2
C6
B5
FA
47
34
97
CF
23
3E
BE
88
16
EB
C9
12
35
49
10
4B
81
C6
B5
C1
47
32
23
82
90
B9
17
54
03
9A
F0
DC
73
06
62
81
F1
76
D1
41
75
31
5D
03
72
97
4F
F3
96
56
61
4D
7B
98
1A
BF
86
2B
58
69
28
23
F2
EF
21
B8
1D
69
DF
60
34
74
32
A4
58
50
B1
E9
6A
4C
24
66
AC
6D
6E
B3
D1
7B
B1
7C
BD
C2
E0
BE
39
52
87
06
14
CC
E7
5D
FC
0A
6E
BB
C1
AA
0C
DE
F1
5F
CC
78
0E
8C
1E
6C
47
67
53
ED
A5
12
07
24
70
6F
91
14
46
EC
94
61
60
0C
13
2D
2B
CB
37
14
44
91
BE
E7
34
4D
D8
D3
21
F8
B1
61
21
46
77
47
C0
68
CD
5F
25
74
D6
33
04
6D
E2
DD
24
3C
8E
FF
23
0E
C2
1C
A7
D1
CB
44
7D
30
D8
DD
E3
31
5F
CB
D1
7C
58
A6
54
05
F2
1A
F5
E4
57
F4
E9
CA
AA
CC
B2
BD
F1
6E
11
72
98
89
8E
21
EA
23
0C
34
5A
5E
52
6A
8C
0F
4A
EB
EF
E6
CB
D6
5D
EC
C2
75
56
A3
46
B2
DD
59
E2
FA
D5
6B
12
CB
52
53
BE
80
67
FE
A0
54
27
A1
2B
66
C4
A4
CA
B5
A3
C7
D4
70
E9
43
43
E9
0A
3A
07
32
77
9C
D2
0C
61
1E
CC
B0
86
41
0E
C3
CE
58
5A
91
54
E5
49
93
4B
02
89
00
0E
FC
B0
6A
EE
ED
01
09
A7
E9
EC
B0
F4
6A
E4
A0
1E
44
56
D9
D0
15
9B
A3
5A
4F
31
D6
FC
C8
6E
78
59
34
28
E0
87
AF
2F
A8
26
C8
0F
B7
91
F0
86
AD
AA
4B
07
0F
D6
AE
8A
B2
2C
29
7C
28
7E
03
0D
41
C7
70
CD
1E
68
D1
C0
D0
3F
D1
7D
60
9D
29
AC
8B
49
AA
5F
5C
A8
F4
93
FE
57
60
B5
3A
C0
A9
CA
1A
27
7D
33
0F
AB
02
F5
2B
6F
BA
9F
E7
BE
E5
2F
90
14
50
F1
AF
AC
CB
7A
57
6D
8A
75
FE
7A
50
7B
04
57
A2
12
8B
22
68
90
98
56
B1
CE
12
C9
BE
F2
21
A9
7B
24
E1
07
C5
AE
DE
C4
62
7C
14
FE
05
B8
22
5B
1F
DB
15
D4
0A
65
13
43
2A
CC
C0
AB
26
AF
8D
7E
8C
8A
73
F7
0C
F5
A7
C9
26
DA
CA
9C
AD
BB
02
A5
A1
62
72
0E
C2
74
BA
09
9F
AB
33
8F
43
A9
DC
7A
67
DA
F6
46
F4
E2
AF
FD
40
14
96
5E
C8
90
66
5A
70
5F
A7
75
F1
D0
D2
70
06
3C
4C
C6
DA
7C
93
49
02
F8
BF
80
55
EB
68
7F
CF
A5
84
79
C7
23
32
29
C4
0B
4E
4D
30
49
3C
3F
39
11
35
8A
DD
59
34
B6
1B
8B
96
3F
72
C3
66
23
9A
7D
D0
42
F1
C1
17
ED
15
B6
DB
C1
5D
7E
D6
4E
64
2D
B1
57
46
D8
34
93
71
87
28
0D
DD
7E
63
52
0C
3C
FB
57
95
39
60
7A
CA
77
79
A3
04
86
5F
E7
15
5C
61
D0
CE
47
8E
11
7E
7B
41
F6
34
45
39
DB
26
4D
08
BF
24
26
BD
8E
1E
38
C9
6D
3D
1C
42
AA
DC
14
93
4C
66
9D
4E
0E
50
6E
2F
21
7E
0D
EB
C2
E8
0E
B0
A0
05
16
B6
20
68
B6
87
82
50
85
FE
F6
A1
D8
7D
AD
56
17
9E
CC
33
C2
B4
3C
9D
98
2C
7E
0C
58
DA
52
B9
34
96
EC
DD
C2
C6
4A
F0
62
48
2B
34
E9
32
CC
93
B0
DD
FD
85
B7
D5
2B
FC
73
81
B7
36
D4
C4
9B
9E
4B
2F
19
3A
9A
25
0D
92
0F
5E
89
C5
D6
AD
8C
61
FE
FB
B5
9B
AA
5C
10
F9
06
EF
9C
8C
3F
06
2D
B3
F2
87
6C
FD
39
EF
1C
49
4A
86
3F
3C
FE
C2
58
A8
9B
FC
3C
2C
C8
FE
57
86
9E
4C
ED
D1
36
90
D3
55
F8
17
3C
0D
A7
C6
39
23
2D
60
F6
07
71
1D
16
0B
5D
D1
35
A7
BF
7F
9A
EF
6B
60
62
E0
C4
FC
AF
D7
A0
27
03
69
8F
79
4B
E6
70
34
E7
BD
06
52
9A
8D
CA
B6
1A
B0
A4
AB
C6
32
EE
79
5B
BD
3A
F9
58
04
46
AF
D7
D2
96
7D
86
C2
D2
B9
CA
00
C2
89
25
67
9C
6C
D7
68
B7
0D
06
64
F4
02
EA
7F
EE
3A
FB
60
EF
3B
E9
30
29
BB
4C
F8
6E
3F
C5
ED
1F
66
47
90
B7
19
95
C8
97
26
F9
5E
B1
C1
8F
22
83
6D
BA
C2
B1
4E
03
0C
15
D6
95
73
5D
FA
B8
A4
DB
06
B3
25
7C
07
3A
4D
BF
BD
B5
85
83
25
D4
F9
FA
69
C3
DC
1A
C6
8D
3E
50
33
11
FC
46
BC
FC
F8
51
AF
69
B0
7B
D4
35
08
A9
8D
4B
A3
06
35
B9
16
DA
10
12
4E
2C
2B
8C
75
16
A0
69
B8
E4
8A
EE
B1
8B
BD
9D
EE
29
18
44
3A
06
B2
2D
71
4D
37
0F
86
3B
16
4E
2E
C7
3A
8B
FB
B2
A0
A3
58
6E
88
85
E4
9E
4E
94
56
0B
CC
4F
4A
B9
68
DE
B7
BD
8D
FC
ED
1C
8E
CA
87
9B
D8
11
23
49
32
F7
A9
11
CC
91
26
A9
E1
98
40
93
9D
42
F3
C1
CE
B2
2B
4E
7D
00
4C
23
4A
DC
4F
AE
E3
FC
AD
BE
09
D7
8C
FA
4A
7B
24
24
FE
B7
0D
D6
70
DB
79
CA
10
80
8C
A5
0E
D7
ED
E2
F0
45
8B
79
F1
CF
36
36
91
E0
9B
27
82
75
15
E4
D2
C6
53
6D
5B
E5
EE
11
81
D6
92
8D
05
5E
CA
C4
0A
24
9D
0B
8C
68
B5
93
97
50
59
E5
75
41
0E
44
C5
6C
1D
B4
B5
72
1C
3C
9E
D6
FB
46
8B
FC
9F
38
94
E4
74
E6
BF
92
9D
BA
EE
48
6B
D2
C2
D4
72
D2
B9
AF
0F
71
6A
43
A3
A1
EB
13
FF
37
B7
F4
51
CB
D9
68
E8
51
5F
03
AF
58
96
7C
E6
8C
24
EE
1B
83
00
C4
3D
95
E3
E5
F9
4A
58
E4
D2
41
3E
11
B7
31
58
56
37
3C
D7
9A
4A
E5
19
87
10
C1
05
C9
BD
2A
BF
A5
14
F4
5F
67
A4
D8
24
54
EB
F5
83
17
72
3B
4C
FC
A1
8D
53
D4
E0
BF
32
E0
1C
6F
6C
77
43
0E
E1
4B
DF
5B
64
43
BB
C3
08
82
0A
95
23
12
D9
5E
18
3B
51
4D
E2
A3
7F
87
B6
83
74
4B
D4
0A
5F
DE
EE
AE
BB
20
85
CA
DA
B5
E4
15
CF
00
50
C5
49
00
C0
DE
6B
5F
AC
52
A1
BA
FF
97
A0
D2
E7
78
89
9D
56
FD
E9
F9
51
AB
3B
2A
8D
06
19
24
89
F5
69
13
DD
D4
18
9E
28
85
01
17
BE
CA
59
67
26
FF
53
9F
02
22
02
22
3A
53
1F
97
D6
55
00
2D
C8
86
17
01
82
E2
31
FB
98
1D
AA
6B
B9
84
F7
D2
72
8E
2B
62
BA
66
20
D4
4B
89
25
9D
CE
E7
6F
DE
4B
D9
33
6D
E5
17
22
01
1E
FF
10
93
1E
79
39
2B
76
FC
2F
FD
01
A7
2A
3C
7E
3C
2F
5F
C9
9B
2B
5E
A4
56
20
9F
A7
43
CA
EB
4F
46
56
46
35
90
E5
32
1E
33
DF
4D
64
B5
52
50
6F
26
CB
0C
BB
95
DB
A7
01
83
81
EA
38
AF
89
14
5C
DF
52
60
8E
41
9B
8F
01
97
AE
96
35
D5
87
E2
66
DF
6A
DA
1E
73
96
70
A1
F5
AF
B3
BA
FC
6C
8E
15
62
DD
06
F6
05
5B
53
EE
D5
3E
59
5C
61
4C
D7
65
0D
F6
9C
33
2E
24
9C
27
7B
0B
6D
3C
8E
49
AE
48
5E
72
B0
42
3E
50
2C
71
34
C0
5A
CB
BC
D5
82
3A
70
0E
F6
C1
E1
4F
7D
96
71
53
84
FC
35
76
73
FC
CE
09
2B
22
29
29
73
71
DE
99
68
17
E0
30
E7
2D
A8
FC
50
7C
5C
F5
B9
25
A2
96
DF
40
6F
BF
E9
34
1C
10
75
91
38
A1
5B
44
93
68
6F
E1
6C
38
03
42
46
55
7B
36
3B
FA
91
75
4B
83
38
7A
AA
C6
26
43
18
44
5D
B6
7F
5E
41
C8
A2
52
54
BE
C9
C3
77
74
95
31
F3
0E
50
7D
C8
63
38
D5
AC
6E
81
42
63
56
43
D6
1E
70
42
C3
67
E3
C5
ED
AE
39
EF
57
AE
FD
CA
7F
93
9D
85
BA
CB
3A
7E
CD
09
68
2C
70
0A
25
26
68
F8
D3
45
72
4D
3B
0E
3E
10
39
15
C2
FB
7E
45
EE
F2
1E
07
D4
FD
2E
BB
19
D0
A2
86
7F
1E
CF
99
00
B0
4D
56
5D
D8
D5
B7
72
DB
B9
F6
C3
79
C4
78
CD
5F
DC
2B
91
67
34
C1
0B
DC
3D
CB
A5
16
16
7B
29
81
E3
50
A3
FD
81
15
0F
BF
39
39
C0
97
71
14
42
1E
3A
F8
A6
5C
DD
D4
FD
A8
75
CD
62
0F
2F
A1
FC
5E
70
A1
F5
DE
74
47
3A
86
76
B2
CE
3F
D6
C1
25
2D
CB
FD
8F
8C
BF
22
D0
70
DC
97
E1
AC
2E
A5
C9
25
16
1A
8A
F3
4E
FD
1B
11
9B
10
5A
AE
67
26
E5
BD
A6
AA
D1
7F
56
24
6E
8C
58
A8
EF
FE
C3
77
5D
51
88
BF
4C
75
85
A4
4F
EC
D8
1B
81
BD
CB
06
93
1D
E5
F1
CB
6E
EA
7F
DC
B7
18
8D
ED
A6
4A
15
47
45
49
A6
25
65
C7
3D
ED
15
EC
08
B7
B0
5F
B6
EE
67
02
F6
D3
40
26
BD
FA
04
06
90
E2
BE
CF
BA
A6
90
38
90
1E
6E
AD
10
4F
D7
8C
F1
96
4E
69
C9
A1
E4
E9
ED
5F
1E
A5
6E
10
7D
65
38
6A
E3
AD
79
17
7E
5C
EE
A2
D5
70
6B
75
36
93
BC
96
D1
65
DB
87
AD
D6
04
B5
89
12
AE
56
5C
66
3D
94
B1
01
80
12
11
B9
69
9E
D5
93
D5
31
DA
33
95
46
4D
2C
CE
6F
58
8A
B3
17
93
4A
01
2D
59
D0
35
87
E0
97
7A
4C
01
32
D6
02
A4
D0
0A
A1
CC
80
D8
FF
C5
A3
4E
4C
48
8F
A2
B8
48
C8
CD
75
CF
CC
EB
39
6A
AD
F1
DF
9D
1F
D0
A2
14
F8
3D
14
54
BC
38
40
1E
7C
05
41
16
76
CC
B8
83
FF
66
29
0D
05
F4
2A
59
CA
55
19
2D
3A
23
C2
A7
4D
AD
D7
F1
8B
FA
99
19
BC
7E
87
ED
65
06
AE
DA
1A
66
A4
C0
AC
85
C7
27
C4
3A
51
DC
1D
C6
91
4A
17
D4
CB
26
5A
CA
A3
70
96
3F
67
80
13
BC
81
1C
03
0E
53
92
83
87
77
50
8A
90
02
99
A5
A6
67
C4
3D
51
6B
C1
2E
B3
21
26
62
B6
7D
1F
9A
7E
70
01
B4
14
6D
CF
7E
98
AD
EE
5F
F7
BD
93
AB
D8
45
ED
D5
2F
E7
D6
18
50
B8
14
68
5B
89
D9
F0
85
57
DD
1F
7B
11
BA
2B
02
A0
BD
DE
E3
E6
D4
FB
AF
86
70
F8
B8
2C
C8
04
32
6F
7A
13
25
EB
E5
22
7B
9C
FB
48
70
52
02
D0
35
A5
45
FC
8A
26
4E
06
06
FD
82
BE
B3
98
57
B4
7B
90
6C
62
92
3C
E5
C1
6C
32
E6
13
75
24
99
D6
6C
42
EE
FA
C3
17
52
74
35
79
62
C8
60
F5
FF
7B
F2
D1
59
B7
FC
30
D8
E5
00
D9
DF
A1
F2
94
52
3C
E4
CA
E1
16
B5
B8
9A
A5
BC
F9
DA
F2
E1
A8
E9
0C
2C
90
26
A7
64
F2
92
E1
78
6C
3B
DB
94
65
47
25
FD
94
BA
CC
45
43
68
C9
A4
FC
41
B9
E2
DF
C2
9B
20
D1
18
95
78
BF
0A
28
75
2B
B5
40
89
7B
28
DC
77
1B
4B
54
DD
23
21
61
CD
A4
71
1A
CC
7E
A7
89
EA
2B
C3
5D
52
31
C8
0D
15
D9
A7
61
16
70
BF
64
50
B6
F0
7E
29
F6
70
66
4C
57
FC
CE
56
89
02
FD
FE
25
8A
27
4E
30
82
29
8F
47
B8
CE
09
01
A3
3C
E1
2B
D2
9B
6E
22
7D
10
6D
F7
01
19
1B
73
62
04
B9
94
3A
8C
38
38
AD
5D
49
5A
7F
98
C9
16
CF
6A
E9
1F
6D
B0
7E
D9
76
84
74
FB
D9
79
5F
46
F4
C0
CD
A0
B0
78
2F
10
37
7D
41
7E
88
C4
DD
C7
0D
90
B1
A9
36
58
E7
10
76
B8
67
2F
15
C8
84
E9
69
0C
08
EE
A8
D8
EB
AF
E8
BA
69
D1
68
FC
76
E3
37
CE
8C
38
3E
74
1B
66
D9
D9
26
BC
B4
5C
04
FC
ED
14
2F
2B
5E
DD
20
96
3F
01
77
CB
67
66
9F
79
22
BD
57
D6
D7
26
52
34
5F
D4
70
20
94
F7
A5
F4
C1
F8
75
37
B9
0A
82
1B
06
DC
23
EB
4F
40
55
96
C4
62
2E
3E
66
FB
37
06
5E
21
D9
6E
48
BF
14
81
EE
A7
29
C0
C7
4A
C8
83
5C
79
AA
07
42
AA
D1
7D
A7
24
6B
30
85
9C
8A
1C
5C
DE
F7
51
5B
37
28
36
37
EC
10
A4
A3
76
43
5E
5D
94
D4
05
66
84
F4
EB
9D
CF
7D
97
41
D7
39
FB
C5
5E
01
6F
C2
8A
0E
68
3C
7F
43
CE
0A
D0
8C
27
D2
5E
68
0B
CB
0C
43
3F
11
6F
50
2D
74
1A
F5
F0
7C
C9
5C
0D
FD
23
93
9A
02
AB
EA
73
A2
3F
F7
24
2C
66
5C
CC
8C
1B
C9
F8
66
38
6B
E5
15
1C
B9
6D
84
D9
C2
E5
C5
92
D4
3D
AD
38
CB
42
C7
D9
9A
4F
E6
86
15
4B
D8
D8
02
0D
EF
3D
B4
61
92
78
64
F1
D5
89
7B
DE
91
11
38
A6
3F
44
22
84
1D
2F
6F
4B
12
C4
43
19
EF
75
78
50
72
87
0B
6B
89
B9
20
34
81
38
5C
3E
9C
FF
05
0A
51
62
41
20
18
61
23
28
87
D1
61
27
58
80
DB
AD
32
91
94
03
A9
7F
C1
DF
9A
7A
BB
DE
3E
84
CC
0A
59
F8
9A
D0
07
BC
46
9A
22
AA
AD
07
FF
70
3C
94
86
9A
DD
E0
3C
91
09
7E
F5
B2
DF
F1
95
E6
78
7E
1A
58
DC
04
8C
E5
61
FC
13
36
27
BD
A1
FC
D5
1F
11
46
40
58
DF
8E
AE
39
64
98
80
47
EC
EF
24
9A
56
D6
5B
19
33
B6
FC
A7
0E
B5
21
1C
B6
48
C5
C8
FF
A9
49
51
7C
61
B8
06
B3
B5
F9
69
1E
74
37
14
31
D0
58
CF
57
B8
E7
C2
F3
3D
6B
5F
DF
52
79
09
86
A3
01
3D
2E
33
4C
DF
92
2B
B8
87
2C
A3
A7
DF
6A
DE
69
71
60
35
36
03
63
67
1A
9C
38
56
E8
8B
55
F3
F7
F4
43
B6
DA
E4
DC
05
C7
63
6E
04
77
FE
F8
E4
B9
B2
EC
CE
30
12
1F
37
F5
E4
E4
1A
7F
6E
9D
50
68
1E
EC
2D
26
6B
D0
F1
B7
19
D1
14
45
6C
0A
CA
34
85
59
94
7B
1C
7E
76
B2
10
6A
69
05
FA
AF
9A
03
93
65
06
C4
A9
8C
55
20
6D
03
69
32
AE
C4
DD
6C
49
3C
DA
DD
C5
81
18
03
FC
D1
B2
05
EF
64
43
76
5F
C8
39
88
01
AE
D5
85
C9
98
D2
C6
24
9C
21
9F
5A
30
EA
3C
E8
F0
B2
19
92
32
22
B5
F2
CB
56
2E
28
CB
8A
B8
8F
23
00
9D
FC
B8
49
A3
72
FD
7E
A8
D3
AA
3F
5D
BB
65
A1
06
B8
01
FA
C8
E3
83
55
8A
3F
08
E1
A0
04
90
F4
C8
91
AE
23
97
47
98
B0
11
8C
8D
B4
D1
68
B2
C5
69
49
99
A0
3E
23
3E
96
53
92
54
84
3B
9E
FD
E5
E9
FF
2E
EE
62
E3
BE
90
2F
5C
D9
B8
12
6C
11
80
51
16
6B
5F
56
9F
79
00
E6
70
72
01
68
FA
B1
A5
54
0A
22
BC
7E
C1
62
06
88
DF
06
07
41
F9
00
75
08
84
D3
26
E8
F8
90
22
FC
5E
E5
FA
48
0C
B5
2F
D3
55
3B
FF
D9
BF
19
68
A2
22
67
E8
71
52
A8
8D
0F
1C
1E
D9
B7
96
AD
2A
13
52
19
64
1C
4F
64
83
8B
5E
58
6D
8B
8F
FB
F9
48
99
AF
F8
F5
02
21
6F
9F
79
70
8F
AA
7B
24
23
99
16
7A
FE
D1
B8
DB
B1
D6
88
83
D5
42
B2
53
08
48
D7
DE
D7
CC
20
DD
EE
93
CD
BD
EB
59
5B
48
01
C7
17
14
2E
7C
6A
4C
A3
7D
31
FF
1D
30
33
10
A5
D4
C6
BA
56
7C
25
51
9B
21
2B
09
05
84
58
B9
E0
BB
7D
D5
50
9F
37
46
67
F1
C1
C8
5E
DE
2C
4E
F6
54
B3
B9
0A
4E
80
39
C8
5D
56
63
F0
FB
EE
82
63
15
73
35
02
D9
E7
DE
38
A4
D1
EF
25
67
3F
69
6D
8D
EE
A0
06
3A
87
19
54
0A
E1
77
4D
12
AA
F7
90
C0
87
4A
FF
3B
1C
FD
4B
D4
0C
18
70
E2
80
FD
38
E8
1C
92
C2
4A
B1
3A
B5
8B
24
A5
52
23
00
49
DC
73
6B
00
CE
05
44
86
4A
E0
74
C7
34
4C
AF
FE
10
66
B6
C8
55
37
F1
1E
CB
A7
C1
EE
29
1A
6E
61
88
9D
FB
5B
7A
F3
3E
F3
45
5F
15
DE
82
44
5D
6B
3E
16
0A
CE
94
01
1C
7D
7B
05
69
0B
BC
F1
02
FD
A0
6D
AC
70
19
94
CC
06
30
7B
F7
3A
33
15
02
0B
9B
D2
49
45
0B
08
C3
E1
16
6A
0D
FF
9B
1B
FC
17
FA
47
D6
F1
6B
97
50
F4
4B
76
40
D1
D6
0F
B8
F1
EC
3C
8E
A9
71
91
BB
68
63
17
B5
ED
0C
A7
74
63
F0
1C
81
97
C7
25
51
1B
B4
51
BF
ED
09
7D
E6
C2
3E
03
D5
D5
C0
F6
1B
3E
5F
38
5D
1B
24
D6
CC
1D
9B
C9
F7
67
2E
B9
42
DF
0F
3C
02
4A
8A
84
EC
C4
58
1C
B4
30
EF
64
99
F1
F6
F2
03
3A
91
73
8F
33
5A
9F
5B
7B
BD
C3
47
DC
5D
0F
B5
78
E6
8D
67
38
EF
0F
0F
5D
C0
C3
1E
09
B4
9C
56
98
49
F8
81
E1
45
8A
48
BC
F8
A3
5A
02
81
11
AC
FE
64
9A
35
BD
6C
39
BA
3A
FA
67
BA
C1
D5
ED
95
77
5E
32
EB
4C
6F
92
A1
9E
CB
5F
48
2A
B9
70
E0
16
25
85
7F
2F
0A
40
E5
4C
EC
08
FD
08
3A
22
B7
5B
CE
79
A1
DE
12
67
62
D1
B5
DC
F9
36
20
EC
EE
0D
04
FA
99
59
78
0C
C6
3C
05
DB
AC
C9
B0
FD
EF
FE
06
2C
EC
36
33
35
DA
F1
AE
27
4B
FA
A4
68
D0
1B
B0
64
94
7B
88
0B
AA
CF
B5
39
55
49
B4
95
D9
F9
0D
AD
26
47
CA
7B
8C
99
A5
15
E9
4F
AD
AA
A9
95
97
71
2C
F4
EC
8A
56
6D
C5
47
B2
FA
EE
65
DD
52
6C
98
76
9F
DD
BC
10
74
0C
CC
DA
C8
67
06
53
A2
6E
EC
BE
E0
80
8A
86
0D
BF
F6
B6
FD
26
1D
83
E2
E7
59
F0
3D
9E
6F
1E
D7
18
DB
5D
30
87
CA
5E
E4
8A
97
B7
4E
78
24
83
A6
37
B1
51
44
91
EF
53
B1
E3
D9
27
0B
75
E3
67
19
4F
21
F4
37
37
6A
6F
48
89
F2
2E
91
87
01
31
37
22
8C
96
B7
2C
CA
32
50
04
56
25
63
82
E1
88
17
B7
56
BC
A2
BB
2C
CF
8E
41
C0
94
92
8B
EA
08
A7
BC
AD
73
47
02
EA
18
35
BF
BA
70
84
A6
78
23
50
C4
40
6E
02
4C
CC
AA
FA
91
2B
4D
1C
E8
71
50
CB
CB
B8
1B
56
65
90
BF
3B
69
4C
2C
F8
E0
51
68
93
F1
38
B7
FB
D2
28
2F
95
F0
36
87
05
1D
BF
8D
9A
FD
25
0E
48
5B
00
7F
CA
43
6D
A6
90
5D
94
98
86
CD
42
3E
10
5C
DD
3A
5E
D4
E4
CA
A0
A5
38
9C
74
6B
B0
02
E6
38
55
26
BE
6D
BE
15
79
65
96
64
04
53
67
7E
E3
32
3F
A8
54
A7
99
13
E6
F4
D8
92
49
34
80
8C
B4
D9
5D
5A
19
DE
2A
12
A3
E4
94
CF
23
40
0C
41
13
E3
39
C0
10
FB
AE
82
4B
98
0A
97
28
05
1F
EB
9E
77
2C
25
6F
AE
0E
81
B1
D3
0B
B7
37
1E
71
CF
6C
F6
77
DC
4B
EF
BC
24
DE
2D
96
EB
8F
D4
C4
83
D5
6F
0B
4D
B4
9B
DF
D0
D7
29
17
AB
B0
FF
32
2C
5E
4B
7C
50
E1
51
FC
53
0E
97
CC
7B
AB
61
C3
AE
35
C5
A0
5C
22
3F
28
E8
49
CE
1A
99
82
39
D7
69
F8
35
E3
65
CB
BB
7F
D0
04
DE
EA
CB
2E
09
11
F7
5E
30
53
5B
7D
CD
21
88
57
B3
9D
5F
A1
13
6F
E1
26
09
7E
4F
4B
CF
87
2F
78
28
F1
F5
DC
8E
F2
1E
58
3D
82
B6
EE
38
37
DA
51
C0
F5
DC
E9
5E
79
00
1D
08
33
7D
E4
D3
39
DA
18
75
58
F4
58
F3
8E
DF
3D
06
C8
BA
11
C9
E8
8A
B6
9A
C8
F4
19
58
91
E2
5C
70
BB
81
FB
93
82
2D
7F
0F
DC
00
7B
08
C0
FE
10
DA
B3
45
00
CA
25
C6
79
D6
A2
41
62
D6
E7
01
1C
7C
75
EE
D1
DF
93
F4
0F
93
77
44
F9
B1
AF
0C
33
FA
67
92
69
A7
D1
52
33
C6
9E
2E
D7
91
A2
80
20
1B
68
E2
05
26
A4
F8
2F
C2
25
91
78
C8
BA
70
86
45
1B
F8
5F
5F
0D
1F
37
AA
EC
5F
8C
D8
61
F4
49
55
06
C7
05
83
F6
0A
E7
FF
1A
93
15
08
42
07
80
FF
71
DB
40
D1
8A
D4
22
4F
43
65
D0
E8
2C
A5
B6
E5
67
05
1B
C2
52
01
08
11
1E
C9
8E
92
B7
E9
1D
83
21
48
CF
A1
A4
B6
EA
F7
CC
02
A3
10
6A
41
F3
54
C2
E3
C2
25
F0
C7
50
B0
1A
C8
77
69
C6
19
50
F4
AA
E1
A7
96
44
AF
D3
FB
9B
5D
7D
27
77
65
F0
9E
B6
87
DE
C6
E0
C2
7B
75
79
4A
35
C0
05
58
DB
1D
45
73
F9
DA
94
C4
E0
E6
A9
FD
C1
61
3B
CB
47
11
5F
F6
83
56
10
1D
4C
0D
38
9A
43
B1
E9
2A
E9
9B
68
84
EC
F7
D0
FF
A6
65
C3
13
66
6F
2F
33
95
CD
79
14
20
42
D6
82
E7
C3
4C
28
44
7C
25
7B
57
F5
D4
F1
B5
E5
79
BF
67
B3
E1
6B
47
CC
B9
F6
7F
E9
6E
C3
7B
A7
88
D7
8D
EB
5F
C6
C3
CC
D9
97
D6
D9
9C
33
B5
EB
9D
CA
69
D7
0E
01
62
94
6E
F6
8D
FA
B0
2B
6C
D7
EC
28
00
44
C8
45
9B
4A
09
06
C1
BE
65
25
B5
07
7D
D1
9F
B3
2C
AC
FA
28
A9
08
A4
60
07
34
EC
07
D6
1B
87
22
A3
FE
3B
89
8A
7F
C0
DC
44
12
4A
B1
E2
C3
77
C1
76
83
7A
20
6D
0C
32
E8
62
DB
56
2F
51
F8
3F
C5
2C
0A
BF
4B
F9
F4
72
24
82
01
5F
CC
AA
C5
EB
A7
75
8B
CC
FF
6C
7D
23
C8
9F
F6
0A
D1
E0
E7
88
7B
40
A4
5B
DE
AE
37
96
F2
36
57
B0
4F
A3
FD
EA
78
D0
33
76
81
BA
F6
DE
C2
B3
FB
C6
00
BD
7C
52
AF
C5
C8
28
34
7E
D9
EB
8F
1F
83
BD
57
6B
68
A9
5A
39
EB
BF
C6
E8
83
08
56
93
B0
A0
4B
7F
33
8C
71
DB
21
16
40
37
15
A0
61
E4
8C
C2
87
85
3E
0D
F8
D4
0E
E3
CF
08
A7
20
1C
0B
25
64
2B
B9
68
23
25
D2
F5
06
82
20
EA
D6
2A
E6
36
F6
99
1C
AB
1B
87
0E
74
65
44
F2
77
62
91
6A
41
46
C6
C5
41
4B
5F
89
AA
E5
0A
6A
47
87
95
3B
A5
DC
54
3D
D1
82
45
84
F5
FD
EE
D7
9C
FF
CD
E2
4A
1C
F5
F7
B7
F1
EF
DD
85
7E
23
82
08
2D
99
F0
95
DD
7F
94
AD
9E
EE
7B
F2
C0
38
3E
58
EA
1A
69
F9
1A
D9
96
1E
12
71
AA
14
91
8D
66
25
D2
B0
6A
33
D5
77
D8
92
E1
BC
0A
89
7A
8A
60
AD
C5
4C
B8
E4
63
16
A6
4B
90
EE
47
52
59
16
34
FC
DA
90
0C
C1
55
36
17
4E
6C
47
05
25
B8
54
0A
3D
B1
6D
EE
47
BD
67
6A
AD
0D
88
40
A2
04
DD
29
65
85
A9
72
AA
B7
54
FE
7F
FA
58
F3
9D
DA
62
CC
48
31
AF
77
3E
E7
80
B1
9D
BD
1F
14
70
47
A6
CD
52
AE
4B
8D
9C
67
43
43
C1
2F
94
16
DB
71
17
E1
C7
AD
57
18
D8
06
E2
FE
C9
66
FA
D9
15
E7
33
4A
A2
87
17
4A
A9
EF
11
FC
97
54
BD
AD
19
82
05
52
9E
DD
48
82
56
49
00
03
FD
66
EA
38
81
BD
01
5E
FA
DE
8F
84
A6
24
5D
FF
60
8F
A9
11
D7
45
99
A2
8B
E8
E2
58
E4
7C
0A
B2
48
98
D8
85
AB
51
04
3D
2A
0D
78
3A
EB
04
5B
25
C2
16
02
A9
EB
CF
B0
E2
D6
8B
43
0D
57
12
D4
69
60
80
1C
7C
DD
31
0D
01
A5
F6
09
B7
FD
B3
53
4B
EA
F1
10
6E
C1
7F
1B
32
27
E5
E4
DF
95
D1
90
9A
CA
62
D7
A1
BE
49
91
C1
BA
CA
5F
F5
CB
0F
5C
7F
12
35
BC
48
13
14
97
2F
76
7F
54
F0
48
C2
D6
0E
AA
B9
58
9B
B9
C3
43
50
51
0B
C4
BE
68
9D
53
CE
EE
07
F4
E6
35
3D
65
6B
51
42
1B
8D
27
87
93
40
63
E1
B7
DC
1A
38
4E
05
8C
A6
AC
8A
2E
EC
FD
7E
C7
19
65
99
6F
80
50
AF
EA
FA
F1
71
96
6E
B9
30
76
91
48
25
3A
35
85
89
4C
63
B2
8D
7D
88
B5
6B
06
0C
3A
FA
31
EA
35
B4
67
05
85
C9
41
9A
50
DC
82
0F
5C
BF
69
C1
9A
4E
A6
E2
AF
A4
D6
13
9F
E7
FB
8A
10
59
06
CB
FA
B4
C3
E6
6B
2B
F4
B7
83
09
B6
36
7C
39
07
E5
8E
CA
1F
53
9E
01
12
E1
9F
7E
75
36
69
AC
8B
B9
09
F2
38
35
D7
CF
89
83
D9
52
CD
5F
D7
44
5A
C7
59
97
EB
81
83
17
14
FF
C5
F4
93
35
F2
55
78
B9
6A
45
83
DE
C3
4A
92
F2
D1
78
1C
A2
6C
73
46
8B
A3
C0
3F
31
9C
43
F4
D7
EB
B0
E0
B8
F8
56
C7
41
B5
D6
8A
82
55
E8
20
65
11
85
18
C5
B7
55
A0
D1
A4
51
E3
B5
17
C9
19
4E
FB
88
23
A3
36
A0
0A
FB
96
59
1D
E3
68
56
38
8D
2A
2D
60
92
5A
D1
89
7E
12
8E
DC
E7
56
98
18
AB
62
0C
5F
D6
34
02
C3
FF
5C
09
F6
2B
98
11
38
E4
87
10
7A
FC
AC
C0
E6
3E
30
AC
21
A5
4F
72
55
4A
30
68
CC
5B
CF
67
35
55
7E
7E
32
EE
54
25
E3
FC
E8
57
05
08
46
28
BA
4D
EE
40
35
81
39
CC
10
E3
B9
5B
99
77
3A
D4
57
3B
81
31
88
53
5C
8F
01
14
C3
AD
13
7F
8D
4B
5A
56
0B
1A
05
7B
C5
EE
F1
9A
53
84
DA
FF
BB
9F
76
55
11
7A
F5
BC
F0
CB
D7
DD
4A
4D
4E
26
D7
00
36
A3
2F
1A
2F
25
48
73
39
40
0F
B4
E0
84
F6
DE
A9
65
CD
91
C9
74
96
56
94
D7
39
CF
05
42
FF
B9
1D
48
4B
3C
96
60
5D
A8
23
F2
A3
CA
6D
C8
F7
26
78
F4
BC
4A
F0
18
60
C6
02
BF
D2
1C
59
8E
CE
1C
A1
DF
89
22
1D
94
58
BA
D1
49
97
38
D0
19
B0
FD
EC
A8
B3
AE
72
45
3E
F5
A9
46
74
3E
94
A4
DC
CC
75
49
97
9A
57
22
D6
88
03
7A
AB
41
B0
4D
C1
AC
FB
48
7F
5D
AF
4F
65
BA
D8
C5
C4
E3
32
9A
26
02
17
BA
17
80
2D
AC
34
1A
73
1A
AA
99
1A
DE
D8
98
5E
72
74
30
6E
3F
AC
01
B2
61
AA
21
62
0A
AE
E8
73
2E
C6
69
13
89
5A
7D
4F
8B
FA
DA
FB
05
FD
41
5E
2C
AD
3D
C6
76
D1
64
91
3C
27
9F
87
7B
CC
D9
9A
B2
41
DF
0D
83
5C
ED
91
85
35
EF
40
93
C1
1D
F7
09
69
FE
9E
6D
28
C7
13
29
51
C3
45
B1
06
94
FF
DC
33
13
2C
82
E3
95
00
22
18
DF
92
2C
8A
C7
26
19
B9
E2
76
59
0C
39
9A
16
AA
8E
37
90
F2
87
8F
33
43
11
CD
17
C1
51
E1
BC
06
7A
06
F6
31
18
13
70
F0
35
9E
7C
E6
1A
D5
ED
2D
71
53
CB
EF
22
4E
5A
60
B9
98
13
6A
9D
6D
99
E4
AA
00
B0
17
1B
90
8B
AD
C7
4F
53
F2
91
E4
64
FD
79
D4
A2
9A
96
1A
45
C3
82
F7
C2
65
E7
76
54
89
EF
7A
37
5A
A0
E2
40
95
A1
17
7C
4F
FC
BD
D2
5E
BF
33
21
EF
07
32
CD
1D
AA
C1
EB
42
B4
38
DA
F6
A3
ED
65
C7
06
FB
E5
DD
E9
36
7D
B8
BA
34
A7
42
5B
58
14
C7
62
12
1D
7D
6D
6C
AA
7E
9C
8C
52
37
61
1C
E3
3D
4F
DF
F1
E3
C3
85
1B
BB
28
77
BF
50
DE
C8
1D
38
B9
F3
46
85
5B
80
33
95
E7
97
DB
70
24
49
42
FF
2E
62
C5
7D
7E
05
31
B3
EB
AF
F4
FC
FB
93
F9
E2
23
E5
7C
24
34
4B
56
54
BC
42
55
B6
73
B6
32
9E
F5
11
9B
79
45
14
19
BA
25
E2
AE
34
EC
BF
0F
62
6F
A4
EA
08
8D
12
9D
63
56
D8
98
28
94
37
47
73
63
BD
68
1D
02
11
C4
CD
C0
E7
92
1C
A7
9D
AD
43
A9
B7
1C
6D
4E
69
DE
FB
F7
F2
40
6F
83
A9
95
7B
2F
34
08
F4
87
E1
24
13
8B
C9
06
9C
97
55
EE
F9
72
31
7A
D3
D2
7E
27
3A
EB
03
FB
86
4C
3E
F1
B7
02
C2
CA
93
41
70
45
3A
FD
F7
20
BA
CB
37
DE
CF
7A
B0
F0
FD
B7
DB
5D
23
A0
95
E6
C1
39
8B
67
2C
5C
B0
CF
36
00
0C
30
3F
DA
68
CD
7A
AA
20
71
DE
8F
AE
D1
3C
28
3F
FA
AD
A9
52
B5
FD
F4
68
9E
1E
A6
90
6F
BA
9A
EE
EE
2D
5D
21
C8
82
D9
43
25
74
13
26
36
3D
CE
C7
D5
C5
CE
E0
D4
CB
8E
80
D2
2A
4A
84
C0
37
70
DF
7D
53
D9
27
2E
2E
7F
3E
07
D0
9B
80
AB
90
CD
A2
57
8C
5A
D5
93
F4
A3
DC
94
20
98
90
E1
A9
34
5D
02
3F
A5
62
B2
FE
9B
3B
34
E9
B4
80
3A
98
67
83
C0
84
D2
88
31
B1
0F
2C
B3
E5
28
9F
DB
9A
61
44
72
B3
F1
0D
18
44
3A
B2
D9
2C
69
D9
79
AD
D6
96
78
46
DC
AD
3E
E1
1A
D5
59
71
38
9A
D1
51
5C
58
71
6E
07
23
C3
0B
B2
C3
AC
C6
92
1F
7A
BB
E5
48
54
1D
53
C1
50
D7
55
A9
B3
05
FC
31
8E
3F
9B
38
76
BD
1A
E6
7F
A7
5F
74
0A
1C
0C
BF
04
F0
33
AD
49
86
0B
F4
3D
62
53
D8
08
85
37
FC
7B
CA
A2
6E
DE
45
94
C9
03
62
B7
E4
99
6C
81
58
02
E0
5E
67
91
9E
59
35
57
0C
27
34
25
BB
16
9C
0A
BA
23
A4
31
D6
3B
44
7A
07
D0
0D
43
24
2F
E0
EE
3C
A7
9A
05
E4
BE
04
3A
60
BA
F2
90
AA
C7
75
3A
FE
7C
F8
63
EA
C6
AB
E8
12
75
8E
0A
13
F8
42
EF
0D
36
00
6B
5D
E2
97
4F
18
2B
CB
21
70
7F
6C
DD
66
27
3D
3F
39
6A
4D
DC
E5
FD
38
CE
6F
EA
E9
F5
25
D2
13
42
79
9C
B9
07
4A
A0
0D
B6
5D
4B
CD
2C
E3
36
EC
B6
80
90
B4
CE
70
56
22
81
FD
FD
BD
17
CD
59
BC
DE
76
D9
F7
CD
48
7A
92
F2
01
48
53
FB
07
6C
29
D2
F4
F3
AB
A9
24
EF
D6
19
41
FB
61
FB
86
B8
00
C2
2D
3B
43
F9
D6
14
67
86
45
E5
FE
20
26
5C
D0
92
19
E2
D9
D6
09
22
4D
4A
2D
0A
AD
C7
83
47
32
C0
70
AB
1F
03
7A
F5
63
E0
26
4E
D3
26
8C
B4
CF
69
B3
AC
F2
99
02
02
92
FB
DE
E9
EC
40
30
54
26
FF
AF
7F
D7
C1
4E
70
8D
F5
16
6A
9C
88
3D
9A
29
79
E9
EB
0D
1C
EE
7F
73
98
5F
F9
8A
A0
DC
11
4A
B8
EE
0F
2E
EB
FA
83
67
C5
3F
EC
17
AC
58
21
95
51
30
15
B0
46
EA
84
B6
63
58
56
36
5A
FE
3E
D4
0E
38
C3
45
C9
E9
24
4D
E5
EB
C6
48
51
B5
49
A2
76
CF
B9
2B
D5
80
19
A3
46
03
0A
58
28
B3
48
0E
10
0A
22
2C
4D
EF
DD
79
E2
AB
EF
3D
BD
A2
4E
5B
A7
DA
14
B1
78
60
78
CD
95
1B
14
0C
29
12
85
68
E4
EC
D5
9E
76
A4
2D
04
FE
29
A4
52
C9
18
71
87
21
06
5A
8C
F8
5C
DA
A8
00
6C
2A
10
6C
9D
14
1F
FE
58
E2
04
E8
3D
EC
7D
CF
10
FD
88
4C
01
DF
6A
F2
CA
0C
A1
A4
17
DB
EC
5F
DA
8D
00
B3
D3
32
A7
CA
E4
42
CE
F9
FB
7B
B5
4D
17
D5
7D
5D
BC
9D
1F
3F
98
58
7D
51
96
19
E1
F1
F1
B6
62
6D
8D
8E
F4
34
1E
8A
70
12
0D
D7
B1
46
A1
8A
BA
FF
C1
EF
DB
D9
A5
DB
D0
89
40
47
BD
6C
6C
78
ED
D1
EA
49
0A
36
79
D8
16
9A
4E
45
76
8A
09
5D
19
81
48
27
3E
93
BE
2C
AD
41
43
6E
44
2A
9A
74
59
F3
D2
C8
85
3E
94
7F
FC
70
4B
B6
32
52
77
7A
2A
54
7B
E6
E1
BD
EE
CE
A9
DF
11
5B
8C
CC
8E
90
FE
F5
7C
92
18
12
71
E3
81
AB
3B
C4
0D
A9
A1
83
90
AF
EE
E5
68
ED
86
39
67
4A
2B
DF
A7
A3
26
21
26
29
2C
77
98
06
4D
DE
DA
D5
27
E8
2F
57
61
0E
72
A3
AD
71
D7
A9
1B
1E
30
03
20
E7
A0
EC
4B
10
1A
8F
E7
C6
2C
D8
79
6C
1E
EB
BD
38
3E
7F
59
88
6F
B3
FE
ED
A5
82
16
05
CE
28
12
3E
6B
74
FD
83
F7
35
8E
E8
A7
6B
CD
64
B9
C9
77
9D
40
9C
0D
C6
0A
29
D9
AA
8E
09
78
D4
60
47
FD
1B
B8
06
5A
AF
6F
67
D4
10
DF
00
37
79
98
32
E5
F7
A6
83
55
37
20
E5
40
56
1C
85
DC
D8
B9
B4
28
D8
E1
A0
77
57
C7
80
58
B4
F7
F1
35
5B
0A
D0
A8
9A
8C
BB
7F
EA
44
EB
69
AF
F1
BD
C0
F9
D2
13
E2
16
14
E9
EB
E5
02
BC
92
69
99
4F
8C
FF
A0
5B
69
9B
5D
CF
70
DE
15
9B
18
DE
3D
C6
50
B4
04
C0
F5
B6
92
BF
37
4B
08
FA
B7
40
39
FE
F4
F3
17
21
24
FC
A6
9D
6A
E0
CB
0B
9E
A4
ED
94
A1
3D
3C
49
56
80
7E
C0
39
7D
2F
71
08
C8
EC
2A
EF
11
DA
92
4A
9A
B1
0C
0C
F4
3D
CF
C1
B5
E9
F1
A0
92
B4
71
FC
9D
94
76
C5
3E
25
54
C8
2D
75
AE
DA
4A
E2
61
19
8B
DF
4B
0C
FB
3A
51
79
48
E3
E5
98
9D
60
6C
FE
91
AA
E3
B1
6B
10
00
21
20
44
DF
F5
7F
AB
1B
62
3B
D3
93
3A
19
BE
71
08
CF
16
B1
34
13
66
CF
BF
67
C3
B1
BB
97
99
2A
7D
AC
5D
B2
12
83
AF
FF
72
7F
AE
76
F1
5B
2D
EF
37
57
1C
D8
EC
90
21
CE
C3
7E
09
E4
9A
12
13
A7
4E
D0
D7
67
A9
F1
21
FB
16
48
64
B0
30
4B
8C
BA
E3
6B
56
18
60
12
89
7F
DC
33
D5
A1
64
2B
2C
85
E7
59
7F
FA
70
18
CD
8C
96
E2
58
06
B9
2D
51
1C
25
C9
D3
64
B0
6A
76
40
A5
5F
5B
E7
F0
BC
87
9C
E4
21
04
9F
B8
45
D4
27
83
6B
13
E3
98
6F
78
99
8F
C5
AB
09
C3
ED
CF
8A
36
0B
39
F9
BA
4B
93
A5
CE
BE
F2
C0
72
CB
D8
93
0E
AE
C6
AF
66
28
58
D5
8C
10
63
7E
A6
2D
72
52
B9
A2
49
6F
C6
74
A7
B5
74
4C
0F
20
EE
3B
03
92
62
2D
09
D9
2C
E7
B2
9F
87
62
2F
1A
FE
0C
DE
4A
94
34
CB
DA
E6
98
13
18
16
D3
1F
C7
AE
9A
C1
BE
F3
BD
3B
13
E7
10
0A
A0
12
FB
13
54
89
BB
16
21
B9
88
7E
AB
09
78
4C
31
D6
16
22
56
1B
B9
90
15
26
5E
09
5B
B1
D3
E7
EA
B0
D6
25
88
A9
52
CD
D3
98
65
52
44
07
7C
1F
20
A7
74
F7
37
C1
42
35
EC
76
69
E0
62
96
33
38
C7
41
3C
6A
FA
26
00
D8
EB
BC
12
18
8E
B0
F6
8D
33
39
2E
2C
B0
E0
70
AB
5F
2B
5D
75
8A
58
03
25
01
D5
3E
7C
CC
49
02
23
C6
9E
92
57
79
D1
49
E8
EB
28
9D
7B
6B
91
03
A6
D9
EF
91
A6
30
E0
5F
0C
41
BD
15
C1
BC
1C
10
A1
5B
B7
AA
7B
64
0C
0A
0E
CD
73
62
39
94
5C
AB
6F
03
CF
E0
3A
C0
26
E8
C1
A9
8E
86
33
8F
CD
68
D8
C0
A2
15
44
96
36
D6
E1
1D
5C
02
F3
F0
7D
07
66
D8
D7
B3
04
B2
16
C7
2A
DF
87
66
07
A9
13
10
F0
18
BA
49
4D
F7
A3
D6
5C
53
7A
72
DD
C2
E2
E1
3E
57
88
12
E4
94
35
C9
C3
15
59
64
A2
9B
1C
D2
C6
29
90
50
D9
73
BD
8F
1F
32
D9
CC
EA
7F
CF
43
60
3B
C3
2C
75
C9
AA
A4
17
FC
9D
C1
31
CD
85
70
75
61
1A
80
BA
BC
5D
01
C0
9B
F6
14
DC
3F
11
7A
7F
DA
3C
F8
6F
40
B4
A6
EC
29
F5
BB
25
E1
8D
03
A5
89
95
42
94
78
11
9F
96
C8
ED
94
AD
54
0C
A7
C4
2C
62
E6
FE
BC
79
28
9D
5D
49
EE
A7
E0
5A
6E
51
2C
2D
BB
45
80
DE
F6
44
97
48
BA
A9
39
5A
E2
91
25
01
47
BA
97
2B
69
0C
0A
61
FD
76
86
8F
59
D3
C8
54
3E
65
C0
C3
1F
14
57
E3
16
C3
26
02
09
4C
96
35
FA
51
85
26
4C
4C
E1
20
27
CC
68
B6
F0
E6
75
88
85
E4
B0
67
F5
BC
CC
DE
77
62
44
01
D0
A5
07
24
D9
A7
A7
CF
59
9A
75
8B
65
B9
B3
C4
24
D9
F6
8E
80
CB
E1
74
98
C1
64
32
0B
2A
5A
81
A5
79
D3
34
35
7B
DA
B0
6C
13
34
3F
D5
A2
C3
0F
B1
36
E1
75
7A
49
8B
26
BF
47
57
1E
3B
A7
BA
76
C8
2D
B6
70
5E
E3
9B
96
80
DE
06
FC
48
4E
F8
A8
CA
A9
7C
64
8E
91
9F
85
06
F5
90
2B
0D
0E
FB
2E
AE
D2
9F
97
39
D7
81
52
3C
62
FC
DE
5A
41
D1
40
45
8C
70
9F
ED
6C
8C
5F
17
38
29
8F
9F
88
9E
40
31
78
C4
16
81
62
40
F4
FD
41
CE
D9
30
ED
01
57
6A
8F
74
CF
8E
6D
08
82
ED
E3
91
D3
ED
81
C8
B3
29
8F
A5
F9
90
47
33
3D
34
F9
A1
2E
2A
00
DB
CC
8E
D1
30
43
FF
F5
F6
7A
59
68
21
B5
7F
99
A0
D7
A4
AB
5F
CE
51
84
3E
0B
6C
14
42
DD
80
22
D6
C4
CF
67
3D
81
43
DB
A7
7A
6E
35
89
C6
07
D9
79
85
92
DF
AA
B7
E3
7B
DA
31
52
EF
B6
CA
6D
B1
07
3C
B4
6B
93
BD
C0
2B
A9
9C
A7
54
31
A4
F8
03
DC
A1
65
7A
42
F1
A1
29
0A
AA
46
A8
C4
0D
B1
A3
F1
35
9D
17
3D
78
F1
E0
62
72
F1
84
E9
3C
84
B8
E4
F4
21
42
F5
E4
51
0A
E8
92
CC
AC
D6
DF
EB
5F
82
01
8B
15
99
A9
11
8A
14
8B
86
F9
8B
F0
36
A5
EE
30
F6
BA
1E
5D
57
55
9C
1A
9B
83
77
38
C8
E6
D0
9C
D4
C2
15
66
E7
F5
C7
B4
83
89
48
A8
73
E4
63
F6
3F
12
AA
3F
49
51
1D
CA
B1
9B
04
6C
5A
5E
52
55
EC
10
7C
13
A8
17
DB
5A
D7
80
27
73
28
04
F5
C7
32
9F
6C
24
8C
34
A5
1F
51
50
38
A4
96
B8
4A
52
84
D4
08
36
B5
E8
97
54
92
AA
0D
99
9A
55
CD
9D
31
66
15
D2
18
A6
16
E2
3A
A1
1F
55
B0
CD
C0
42
C2
4F
3D
91
05
04
15
F6
BA
11
47
EB
63
83
63
D6
D6
EB
A2
C4
6A
F2
7C
D4
EE
DB
7E
DB
1D
6C
33
EA
4E
5A
FF
85
02
45
6A
0E
DC
8A
A9
37
12
AE
BF
7F
AA
D4
B6
40
72
50
71
30
F5
1E
DB
87
3D
E1
A6
A6
45
0C
B3
A8
11
16
31
09
45
F8
C8
A3
41
40
93
4C
B4
C3
E6
60
87
1D
54
AC
ED
9E
CF
FC
BD
2E
17
16
D3
8F
EB
78
69
AA
43
1F
BA
82
54
F7
9C
0B
B2
26
63
CB
91
C5
98
8A
99
BF
B7
0F
DE
74
E5
9C
99
14
CD
74
C8
EC
2D
94
54
D7
C0
6C
58
F7
79
EB
78
43
AD
E9
97
BF
A1
39
CB
10
0C
AA
85
0C
85
F1
13
E3
A8
04
96
49
73
B3
84
71
7A
8C
9B
34
F9
50
67
29
F6
8B
D1
27
F1
D0
CB
70
9B
00
58
88
9C
07
C8
B4
9B
8F
08
88
70
8E
66
7A
FE
12
B9
60
C1
98
5E
F5
17
1E
B1
4F
83
E9
A9
BC
46
81
A6
DD
FE
78
D2
F4
A7
3A
96
99
AF
D8
52
B3
50
1E
F0
72
11
C3
4B
9D
58
C3
9D
E3
66
F3
60
84
E4
8B
A0
F2
BA
90
89
50
94
D4
82
A5
D7
1C
66
55
1A
D5
FB
38
D0
A3
B0
94
4F
67
40
2C
FA
CF
8F
78
13
3E
00
37
7D
0E
88
5E
8E
1D
6F
DB
23
ED
4D
5B
2C
B2
68
F9
A6
0A
E6
6B
DB
B8
99
1C
12
0C
DA
CA
93
D6
D2
38
F9
E7
3D
33
0F
36
39
2F
C2
E8
2F
06
4D
E1
12
6E
FB
3E
4E
C8
9D
FE
A6
93
60
D3
37
E3
55
81
40
0B
04
C7
8B
5F
83
D1
3D
73
85
B7
F7
CB
E8
F5
DD
05
1F
06
F5
9B
59
AA
14
FC
AD
9E
C3
FB
55
BC
87
5F
7F
95
95
DB
D1
BD
E6
E1
C0
1B
07
9A
51
18
7C
83
4A
F3
13
F5
13
C0
31
44
D4
9F
68
52
2E
D8
2C
9C
A6
AF
92
E4
F2
4F
8B
DA
FC
DC
46
EC
EE
E9
E9
B5
2D
17
49
8D
39
50
A8
19
0D
7C
4C
B2
8D
A9
68
DE
D9
45
8E
2A
23
4D
BE
A4
56
59
AC
B7
AC
7B
29
66
6E
5B
33
70
2F
6E
98
F8
EC
A3
10
BF
0C
9E
81
D1
70
FE
6F
2C
D3
7F
FA
4A
4C
9A
70
4D
53
C1
18
3B
0F
D2
1F
C8
1B
DB
35
64
71
AC
BA
7A
D5
2B
E7
AA
A7
38
7B
2C
C3
14
A8
E8
44
36
CB
0A
AF
FE
63
C0
B7
6C
98
47
E9
8E
81
6F
7A
A1
EB
3D
7D
67
EB
AC
DB
82
4F
C8
20
80
A0
67
29
FC
65
B4
0F
17
F9
CF
C1
AA
59
85
51
1A
C4
BB
EE
88
8B
3A
16
57
41
CC
BD
90
25
17
89
5B
82
EB
67
26
35
B6
03
36
26
FF
3A
C3
78
9A
71
7C
9B
2E
19
DC
92
AF
2D
2C
57
72
A4
9B
D0
46
5E
B7
19
92
24
64
08
CF
AC
9C
17
9B
D6
EB
C2
D8
59
F3
E1
F2
F5
1C
0D
62
57
44
14
C3
22
0A
D7
A1
FD
81
01
45
60
C3
3D
04
B8
89
10
F1
EF
F7
70
8C
83
66
18
80
78
6B
F6
51
94
C7
06
11
89
FD
49
C4
9E
76
35
5D
BF
D6
92
4A
06
9A
84
E5
35
56
38
8C
14
6F
83
A9
FA
E1
45
31
A6
A2
FB
E7
C7
D0
D4
4D
5D
EE
C3
4F
29
B1
94
31
0E
49
0E
6F
1C
F5
D3
29
4C
01
29
59
EF
10
41
5A
21
5E
FB
5D
AF
4F
8B
93
EA
17
8C
DF
09
38
EB
F2
33
46
46
59
24
52
F2
C8
24
8F
89
3E
0C
60
99
4C
A0
23
6B
5D
F9
2C
05
9C
85
09
28
73
7F
3E
4F
70
93
2A
5C
4F
76
32
4C
9A
6F
CE
EA
AD
F4
6A
68
98
77
02
D3
2F
81
C1
46
5F
C7
EA
94
8B
84
E9
D1
4C
38
A2
CA
ED
FB
DA
F1
82
65
44
D2
86
1C
4E
0B
34
F5
23
6D
5A
FC
30
E7
A2
30
E0
DD
69
2A
00
BF
34
4B
CB
B9
10
79
A9
87
0A
31
A8
D9
6D
56
48
31
3F
05
B8
7C
96
F4
FE
92
13
45
F9
F1
49
7C
73
4A
E5
0B
93
47
E4
05
DD
71
99
27
0D
C0
C0
38
79
BB
D8
5C
D6
B2
49
6E
5C
FC
4D
05
F2
EB
27
AD
E9
C2
C1
C0
E2
DF
D8
8F
B3
B8
AB
CB
DA
A7
93
D9
35
6A
52
69
30
39
14
D4
DA
11
13
FC
1D
9E
2B
97
82
8B
D2
AD
0B
B2
41
92
6E
8C
64
BE
9E
CD
35
47
A4
99
3A
31
9A
51
39
F5
EE
4F
62
D6
73
87
AC
13
97
8F
EE
F1
6F
C6
A3
65
A8
D2
7E
3C
67
8A
2C
A9
BF
1F
BC
AF
0A
FA
16
F2
5A
87
37
BF
48
41
64
80
0F
91
1F
4E
0D
F8
5A
E5
AE
30
9A
79
9D
28
D4
1A
6D
52
F8
18
97
E6
15
88
E9
F0
4F
2C
8C
B0
E8
50
E0
15
C3
0F
76
C8
B2
CB
7D
01
67
8F
08
2E
EB
71
B0
3A
11
A0
99
25
AA
79
30
D0
86
EA
29
8F
95
10
AC
9F
CC
8A
71
6D
21
70
4C
6D
B7
42
94
30
B1
14
9C
A8
39
0F
5B
1A
B0
4C
97
48
8C
E2
CC
4D
7B
20
77
71
96
7A
A9
8A
A0
55
53
22
C1
BC
66
1F
36
3A
46
0F
C0
03
A8
8D
01
49
2F
AC
F6
7C
4E
9D
FC
25
D8
8E
62
53
E2
1F
8A
70
4C
CA
C3
07
FE
2B
61
7F
2A
7E
92
C6
07
8B
2E
D6
D4
85
4D
83
3E
76
F0
89
F4
4C
4B
55
77
DA
8F
3A
3E
CF
48
CE
05
A9
63
BC
49
93
69
72
F9
5C
18
4C
F0
3D
E5
00
33
34
A3
C1
E8
51
C7
F1
14
2F
1D
63
8D
6C
74
41
73
35
80
83
FA
98
A0
D4
EC
1F
F6
80
39
99
00
D1
E0
8C
A4
F4
98
56
91
29
37
9C
56
27
52
3D
58
79
08
2E
45
F0
F0
7A
4A
0A
EE
7B
DE
8F
F3
E5
C3
5A
E4
5F
62
FE
E3
6D
21
BB
A3
30
B9
92
B8
95
B0
3C
CE
43
08
A8
84
18
FC
1D
50
18
E4
BF
5D
D9
D2
81
86
C6
60
D2
85
F0
77
89
CE
9B
41
7A
F8
1F
03
AD
33
54
B8
AD
ED
D9
56
C2
C9
F8
68
9D
C5
92
20
B2
69
DA
36
68
36
EF
6C
D8
F3
CA
1F
D2
FB
65
10
39
E8
4E
44
31
CC
3B
DC
91
0D
14
C9
2A
80
35
2F
5C
E0
36
87
BC
D2
FE
4C
F6
C8
3C
32
A3
A4
28
B6
70
30
32
52
51
EF
CF
AF
F5
8B
DF
97
A2
84
7C
E1
C4
45
22
49
C5
73
3F
ED
B7
76
18
8B
37
8A
1E
D7
7D
F2
3E
D6
94
B4
3A
81
71
E5
4D
1D
D3
B6
DC
CB
86
C9
ED
46
69
4E
89
2B
4B
31
56
5D
92
B4
F6
8D
E7
7C
EA
1A
14
E6
40
59
CB
36
99
99
D4
5B
47
28
CD
02
F0
CE
CB
77
27
E3
6E
8F
17
CD
74
AC
E2
32
12
50
10
87
1E
A3
27
DE
AE
12
E5
0F
A9
83
91
D9
5F
3A
D3
AE
92
58
85
D4
DE
DA
08
63
EB
8B
42
C4
C7
3E
88
A1
47
B7
39
34
25
1A
8C
46
08
C3
0A
0A
9A
7C
9D
36
41
97
EE
34
B1
D0
4F
8B
6D
FB
76
71
91
F7
34
CB
27
99
44
98
83
D1
E8
CF
FA
15
3C
55
3A
45
9E
EE
38
12
64
64
3C
FC
49
88
AD
64
2E
9C
C4
A1
BA
40
74
8A
DA
C8
04
77
2B
1E
8E
57
A6
66
C7
AC
1D
C4
EE
24
48
DC
86
96
E9
13
88
A7
49
AC
EF
AA
52
23
4E
03
77
50
FF
51
49
87
38
DD
1F
DA
A9
0E
A5
59
E4
E4
AF
89
69
96
03
9A
FC
FE
3A
9F
79
8B
12
78
40
43
76
47
34
43
A6
D0
B8
B3
6B
67
19
A8
FE
78
81
68
D6
29
94
CD
55
D6
B2
3A
ED
34
CE
39
C4
D6
F6
77
21
03
43
BA
9E
AD
46
C7
5D
6E
6B
96
19
6D
BD
80
A5
05
8E
37
48
1D
70
CA
FD
6B
E8
DA
79
0C
A7
03
56
7D
23
1C
57
1A
68
10
60
A4
3C
B0
81
55
B5
D2
CF
24
EB
EC
80
66
56
32
01
1F
0A
F9
D6
04
7D
B0
31
F7
A7
17
80
73
B5
F3
F7
B7
A3
2B
D5
EE
0A
73
F6
1C
62
ED
AC
FD
53
F5
A3
D9
77
A8
C2
D2
8B
38
E7
DB
DA
EB
85
FA
12
B7
43
3C
2A
1F
15
02
B4
9E
01
48
3B
F0
92
33
D0
8F
65
29
83
9F
D1
CF
29
6B
13
E5
68
29
3B
C4
BB
79
13
0A
93
21
5F
6D
A5
E2
1D
BC
EB
FA
54
2F
69
A4
32
C7
EA
8F
A9
3C
2A
54
7B
E2
3A
8C
E8
72
F4
79
59
59
4D
77
6C
C9
76
51
55
7D
29
C1
41
03
2F
77
AB
83
ED
A0
9C
D9
B7
68
6C
DA
65
51
33
9F
9B
5B
E0
1F
73
E4
59
F2
D0
A2
DD
79
CD
A4
31
00
FF
CB
3A
52
83
27
6A
7C
0B
87
4B
A8
1E
35
CC
43
BD
58
DA
16
70
86
AE
37
FD
01
06
6A
A1
60
8C
C9
89
37
16
1E
B8
E0
3F
38
B7
67
C7
35
A5
7B
9E
EC
70
B8
A0
82
1E
B0
85
55
5B
D6
85
E9
4D
C4
13
4B
B2
7C
E4
CA
BB
4D
6D
F3
FC
07
25
54
E1
53
73
77
17
BE
68
14
0C
51
27
10
6C
D6
86
CF
0A
DC
64
CC
F0
C6
28
B6
A4
57
59
E0
1C
AD
C0
4C
8C
D8
90
A3
A6
CD
4C
C4
27
E5
47
1F
6E
42
D6
5C
8C
74
05
7C
60
AD
00
78
F9
4D
D8
9D
35
42
AD
82
A1
29
3E
24
2D
3F
EA
FA
72
7F
5D
2B
84
48
2B
D9
D3
B4
B9
9F
60
C6
88
7B
36
59
DA
D5
7D
06
4C
11
6A
06
F5
28
32
EB
CB
1B
87
79
D2
A6
59
A3
86
29
81
73
3A
15
FF
0C
DA
C4
EB
C2
E3
39
5E
13
4C
EC
4A
C8
4E
A7
69
34
07
77
0E
FD
98
16
05
55
B2
97
EA
B3
CC
7D
61
EC
BE
91
37
60
9D
6D
C3
3C
FA
07
61
D6
26
FE
83
7C
83
E8
87
D6
20
34
A8
65
4D
D3
F9
73
33
7A
8E
59
5A
07
89
5F
76
01
1B
3C
4E
9F
72
37
6A
07
55
DB
54
69
95
5D
42
B9
B1
27
E2
86
F8
50
B9
45
8C
3E
D1
64
D1
B8
3F
CA
AC
F7
7E
41
2B
D1
C9
34
5C
D8
72
A2
CD
83
9B
95
31
99
44
52
D7
5E
B1
6E
D4
3D
54
D1
B0
CB
45
55
60
B5
73
40
A8
EF
CC
AE
A7
BD
50
DD
70
91
5C
99
61
09
26
46
A4
23
7D
60
ED
81
B6
D1
BC
3B
BC
EF
FD
D8
25
71
1F
AE
32
20
A6
48
60
E0
41
EE
94
26
9A
9F
59
AF
31
C4
6F
40
D7
B2
A8
59
D7
42
C4
27
84
50
A6
14
AE
4C
F0
97
DE
F7
38
66
73
C2
52
B6
69
DB
63
78
D3
43
68
2A
08
51
FB
7E
B7
37
06
35
ED
62
3C
E1
E9
0D
17
B6
B8
8F
9F
A9
13
4B
A2
C1
82
4A
23
58
82
41
8E
E4
F1
20
6E
ED
B4
0C
3B
03
E3
1D
46
1E
35
19
CE
C1
1B
71
8B
BE
53
D1
82
D8
9F
0C
07
42
6B
43
31
C1
89
7A
EC
58
CB
20
FC
C6
C6
8E
02
5B
7E
90
20
FF
4C
05
BB
2C
7E
04
DE
13
02
A0
A6
4E
6E
35
59
76
2F
8F
D0
84
3A
AD
33
00
36
97
6A
4E
EC
7C
43
9A
4A
04
6A
5B
51
C2
10
D2
5E
E2
6D
45
91
7C
C6
E0
B4
DA
6D
16
26
4B
B6
01
13
31
93
2A
6F
A8
5C
8E
7C
D8
AA
5F
E7
B6
1C
A7
7F
50
CF
D6
FE
70
A4
A9
9D
13
C5
9B
5C
DB
09
80
4F
B1
EC
6B
27
7C
86
81
42
22
E5
7F
50
B1
E1
DF
7B
CE
1D
C6
53
A0
11
DC
A8
42
87
FE
A4
C6
62
6A
0B
89
20
04
7F
E8
2D
28
4B
D9
C6
B9
C4
28
2B
8D
C9
A7
9C
88
B3
85
D8
F3
7B
A0
C4
55
40
0F
DB
AA
F3
17
FB
C4
C8
F7
36
17
DE
DD
42
F3
D8
3B
C7
0C
58
78
19
30
99
49
E5
EC
B9
8A
A1
7B
ED
AB
14
39
46
D5
49
6F
C8
02
3B
E0
2C
A5
DD
6B
98
FF
8C
8A
E1
A7
7E
FA
E7
D6
EF
A9
59
EC
17
B1
99
77
34
13
34
12
C8
6C
85
27
B3
08
F7
34
BF
33
5B
F6
80
F1
07
CC
54
03
E2
A3
1D
ED
5D
42
0C
6B
1F
55
C1
D5
09
58
79
37
79
93
B7
0C
81
9B
EB
93
89
B8
6E
B3
66
82
09
04
8E
55
C1
7D
B8
6B
40
E2
A6
A4
9A
3B
F4
78
D2
7B
81
E5
53
0A
85
91
D5
BE
41
53
F2
0F
49
2D
B5
60
DB
04
E7
46
DF
6A
94
53
A8
7A
1E
C3
9A
48
32
B2
DB
DC
29
B1
8D
50
C9
AA
46
CB
6D
46
30
38
29
16
A3
99
34
64
0A
20
17
D4
B6
60
A2
1E
76
23
D7
26
62
5C
15
2E
87
15
3B
EF
CF
FD
36
89
20
51
6A
A4
00
10
9E
34
0F
2B
A9
4C
98
B3
0A
51
37
D7
D2
12
9D
15
36
27
10
EB
F0
A9
88
C4
13
5F
0E
80
DB
4A
A1
D2
E0
B4
71
1D
61
CF
2A
A6
29
6C
CF
CE
D6
4D
AF
ED
21
FB
A9
F9
43
F6
55
A2
0D
EE
AD
44
CB
B9
73
FE
0A
2F
43
C5
A7
46
55
58
B9
D7
02
0A
E2
53
79
32
93
5D
73
3E
29
1F
9F
55
35
8B
60
7A
AD
9D
D6
21
FE
7D
F2
78
66
C2
7B
EB
DE
6F
12
F8
CB
BE
52
B6
6A
C3
C6
4D
C2
E9
7C
7A
A2
AA
62
C8
6F
55
B0
13
F7
61
D4
CF
60
C1
58
B9
48
B2
7E
D0
63
0E
6A
10
68
0C
D2
21
45
16
90
E9
5F
83
77
FD
30
44
4B
CA
43
E0
66
62
92
86
35
BD
99
B5
F6
A1
BF
F0
23
E3
7B
6D
5E
C7
A5
44
5A
92
24
28
CE
73
33
60
0C
71
0C
29
11
60
1C
5F
95
7D
BD
09
10
77
65
08
2D
D6
DB
27
70
F9
F1
9C
60
41
ED
E7
95
47
C9
EB
44
5C
D1
C8
9B
A9
3C
61
A1
32
99
50
09
C6
40
B0
D9
B0
8C
5D
B2
7B
04
20
A2
9C
D4
42
21
5E
9A
E1
8A
1D
7D
91
F4
62
12
49
AB
98
73
63
55
6E
77
AD
07
C3
0F
EE
42
70
BF
72
1F
EA
68
90
4A
BD
26
4D
18
25
65
F6
EF
10
73
23
19
49
7B
9B
7B
80
0F
AF
42
11
2C
47
6F
BE
93
34
88
AD
B4
DE
90
92
C5
5B
1D
7C
69
46
EE
31
C7
63
EF
77
5C
EF
4E
FF
92
B0
DA
5F
38
4A
2E
35
AF
BD
F8
1E
18
72
98
60
48
E1
0A
D5
65
DE
7D
C0
82
F5
D9
E8
26
DD
0F
2D
84
C1
CD
22
AF
9D
85
EB
68
F0
E6
30
9E
FA
8F
50
59
27
87
A1
DA
B3
B1
1C
19
B3
C9
85
D8
DB
FE
00
23
21
0D
B6
BA
EC
6B
1A
BA
6C
13
8B
AE
9C
82
03
21
58
1E
F6
59
33
13
4F
9A
2F
EA
B3
F4
E2
D4
7F
CB
A8
0F
0A
BD
20
19
33
66
A3
19
FD
7B
0F
EF
53
60
2F
EE
99
51
37
59
9B
14
7E
1B
E9
CD
6B
56
47
59
A8
DE
C1
B7
1F
54
67
A6
0D
CA
59
49
53
F3
9A
EB
4F
0A
60
58
E8
FA
7C
CA
97
05
B6
48
26
F9
46
AD
CD
88
35
EE
6C
B4
2D
E3
46
FF
A3
4E
6E
1C
7F
03
FB
E0
94
A2
E8
62
B0
D3
5D
4F
21
2B
10
4A
79
29
E5
62
56
04
59
B5
A1
CE
4D
63
A7
9A
1E
7E
86
24
F3
BB
59
08
D3
9D
E7
79
54
57
33
33
3C
02
30
07
D6
25
76
C7
69
C8
50
6E
42
BF
5E
AB
B9
F3
E6
82
40
75
58
0C
5C
AB
24
C5
A7
13
BD
91
18
DA
8E
DD
40
CA
01
9E
6E
7A
8A
F5
D6
95
5F
5B
2C
05
DD
4E
47
7D
10
64
8F
FD
D7
37
60
AC
AC
9F
0F
0F
C3
C6
5F
81
77
A6
59
31
F1
DC
FE
A5
BC
B7
6C
0D
AD
BA
13
DE
1F
46
FD
9F
12
47
0F
9D
C2
9E
4E
95
03
94
DB
A8
18
E9
AC
35
C8
AB
25
9D
14
3A
E7
F4
D6
65
FB
87
ED
3C
DA
E9
5C
62
06
2C
DD
A1
A1
47
58
F8
EE
55
70
5C
AB
A8
DC
96
6F
B1
61
92
F0
DA
8D
00
EC
6C
95
BA
1B
5C
2F
12
F8
67
32
C8
EA
40
CF
78
5F
C2
0A
AA
95
41
FB
F5
6C
01
BA
6F
09
D2
0D
95
D2
AD
06
C5
8B
76
C4
F2
3D
7D
B9
64
20
B7
27
83
73
60
DC
1C
7A
A6
50
68
2D
57
DD
CE
64
4E
98
91
41
2C
CD
83
44
35
7A
8B
91
55
A9
7A
33
20
55
00
34
64
2B
5E
1D
06
04
A7
FC
6F
67
38
CD
14
1B
E5
1B
AC
CB
61
99
41
E3
3A
1D
74
BB
76
AE
B6
CC
49
D9
CB
78
C4
A8
27
94
DE
C5
A3
5F
3D
FD
85
30
6F
89
30
B7
F9
C0
3E
38
D2
F4
46
54
F7
05
83
BC
AC
49
14
64
BB
00
C0
25
D2
1A
F2
C8
56
17
44
E4
F8
F4
E2
81
E5
0F
59
82
34
B5
15
AA
90
16
B9
49
A5
F6
92
22
D0
DC
8B
C8
E4
DC
F5
A7
84
35
18
EF
BF
44
BF
FC
65
16
C2
7C
67
E7
7D
FE
3D
06
47
F5
EC
B8
3D
DF
24
93
62
54
F9
6E
47
39
EA
C3
3E
21
17
7A
BC
18
72
19
8B
E9
C7
D3
C7
B7
4D
30
B5
1F
72
58
87
6D
96
9F
CD
64
7E
F6
1E
95
34
10
EC
7E
FF
11
EF
58
9F
F5
5B
C0
5E
42
D8
6C
CE
BF
EE
63
59
FA
23
14
BF
F0
9D
E8
B2
85
0E
CF
77
BC
63
DF
9F
2E
89
FB
B3
25
E3
14
92
BD
48
74
99
62
94
9B
0D
83
48
FB
EC
4B
74
92
27
54
16
F7
C3
F1
02
0D
18
11
F4
D6
98
AE
B7
17
CA
85
D4
13
14
CD
13
9F
43
24
1D
E7
A5
15
4A
C9
C6
68
E0
B3
99
31
F6
40
35
D6
AE
DE
0B
BC
27
33
1C
50
53
64
19
D1
4F
B9
46
0A
DF
CE
CA
AD
EE
67
FB
17
99
5E
72
72
56
5B
6D
42
D9
09
0B
24
54
45
F1
21
78
0E
5A
E0
A5
AE
AA
2A
80
DA
A0
A0
21
09
A2
7F
4A
94
41
06
F9
12
D4
3F
63
43
E2
67
46
15
33
58
91
3E
E7
22
C9
25
79
72
F2
0E
18
A1
49
45
51
A1
99
71
CE
7E
46
CA
93
BA
25
2B
27
B9
0E
9D
80
CA
01
67
CC
8B
1E
17
57
DA
D9
55
A6
9F
85
5D
6E
44
5D
AD
FE
AB
93
83
9B
A1
50
F1
1E
DB
D0
05
B7
FC
CC
25
43
6A
0F
19
65
03
F2
92
A8
2C
5B
01
E2
7F
BF
43
9C
3D
33
F7
41
81
2C
44
DC
9D
5B
2E
5E
31
64
62
D7
B3
5A
9C
F1
67
C2
3F
14
B2
5A
4F
4A
2C
E8
FD
22
44
4F
EC
40
A4
FF
8B
11
94
C3
D4
A7
F5
82
48
97
90
B0
8A
FC
90
D2
07
87
6A
57
3B
0D
F0
0B
99
3E
80
25
9F
CF
2B
49
A6
05
AE
84
83
80
1B
5F
E1
98
39
EB
5B
EE
BB
F9
D8
95
A1
1F
F2
67
DE
00
75
90
C6
C0
7D
72
DA
4E
FC
E7
70
99
76
7F
2F
EE
AB
D7
AD
96
E2
76
82
4E
52
B1
45
EF
A2
F9
9D
39
B2
85
B8
F4
B2
14
E7
BA
E6
47
6C
3E
9C
87
CE
BE
CD
59
F8
CE
54
A6
E0
78
A3
B2
EC
9E
E5
2E
69
F2
CD
1A
AA
68
67
9C
E4
33
71
28
66
AA
BB
9E
D5
E9
0E
3D
BA
F4
32
FA
68
C1
31
F1
51
84
DD
E6
42
5E
6E
12
A9
F0
36
90
91
CE
0B
42
94
A4
B1
89
19
22
BD
F0
9F
7B
84
11
88
21
9A
5A
E8
A4
4E
5D
10
EE
59
21
40
9A
08
89
43
18
67
5B
F4
6B
67
5C
0B
01
A2
66
FD
8F
8C
80
97
63
EC
1A
08
B4
2B
FA
95
1A
EE
F0
BF
D6
AD
F5
EF
DC
60
9E
E8
4D
61
A4
35
EC
76
F7
BF
03
43
4B
80
7B
CC
9D
1C
8D
C9
B3
EB
6C
34
BA
41
7D
6C
7A
FE
89
00
F9
DF
0D
0A
E4
E7
39
B1
F0
EB
A1
88
7D
47
4C
25
9D
FF
F0
D6
A3
D9
19
8C
A9
F8
66
84
8D
4A
72
18
CA
F4
E4
7D
D2
97
9C
09
69
27
D0
84
24
23
EE
15
3D
66
29
29
E6
33
BD
D8
2B
8B
C9
64
B4
1A
B9
93
D9
46
84
1B
05
D9
4E
14
3D
2B
EB
8A
30
67
E3
DC
3C
7E
30
44
B0
6B
F2
24
0B
03
20
B0
C8
A8
EE
74
8D
C4
3D
C4
FE
EE
09
20
B2
43
0F
2C
B9
B6
9A
E3
C4
F0
51
87
66
AA
A4
73
45
73
48
F6
63
89
4B
85
12
8D
6A
8E
B9
0E
FE
8E
AC
85
76
F4
42
8B
4A
EF
67
0C
25
88
DC
73
37
3C
4A
8F
9E
37
F8
F0
7B
84
B6
3B
39
7D
C9
B9
52
99
B7
36
1F
D6
31
8D
EC
CF
A4
74
B5
7D
DE
A8
70
7A
FA
D1
05
B8
8F
FF
68
E6
3A
4D
5E
22
80
38
A0
09
9D
F7
24
5A
EE
C3
14
CF
B3
FE
E1
14
40
B9
C1
8B
B4
0F
D3
08
C9
B5
C4
8F
AD
7E
0F
C8
C1
59
79
77
5C
EA
8C
DC
9E
A8
F4
B5
6B
9C
4B
7E
91
4F
94
16
AA
4A
31
26
04
FB
B1
EA
FE
C0
4F
F0
DE
A1
EC
7F
FE
DD
D0
D7
9B
95
AA
15
9C
CF
0E
36
26
8C
6E
9E
9F
F2
A5
49
67
57
06
2E
A0
D2
E9
E9
D2
71
BA
1A
D2
B3
72
7F
75
01
F7
E1
9D
C9
E6
2F
54
61
78
A6
12
24
E8
D7
13
FB
56
FB
77
0E
9C
94
2F
EE
84
0E
F7
B1
74
50
DC
7A
BA
75
86
D7
BC
2C
40
2D
00
12
91
8D
EA
B4
4E
20
E3
D8
CB
16
AE
36
AD
E8
E2
E7
D0
A8
35
55
80
92
8A
68
2C
EF
D1
F2
36
54
1F
B0
B0
97
F3
E9
76
FB
AB
4D
C6
07
69
7D
DA
49
23
BC
3C
95
B2
3B
9C
EE
81
DB
8C
A6
84
4B
22
F8
17
5A
A2
AC
1C
73
FC
CC
96
17
3F
8F
59
D5
FD
6C
51
A6
BC
F0
29
7D
DA
BB
D4
BC
4D
6F
AC
E8
44
C9
CC
71
28
04
95
E6
FB
9B
FF
FB
B5
95
08
63
BA
EB
41
96
78
C5
0F
47
32
D2
0F
DB
4B
C3
42
71
A9
68
71
5C
1D
AF
BE
CE
EB
59
15
A6
54
78
20
47
28
B2
2D
5B
13
6C
34
60
A9
E8
98
0A
34
5A
E8
29
E3
95
97
E4
AA
CF
8B
7D
82
17
0B
98
00
F0
9E
A1
34
62
71
15
17
AD
74
81
69
BC
87
B2
CA
BD
4C
8F
3C
9D
44
8A
00
C7
3F
CD
38
3E
DF
5F
18
D7
96
D5
C2
3D
29
44
D6
91
78
63
B5
FF
40
D6
2D
2D
67
3D
C9
30
28
FF
39
C3
B1
12
00
D6
1D
9C
A5
76
67
A9
C7
04
E1
96
29
67
09
3B
C7
21
47
C8
9B
F4
D6
91
55
F7
B8
5E
E3
82
51
64
40
90
6D
50
62
47
F2
B6
9A
C8
A2
11
B8
2A
E1
9A
F4
9C
ED
54
EF
E1
3B
80
38
38
D8
DF
1B
29
F7
8D
17
A9
11
3A
F5
82
DA
6D
31
5F
D8
CD
09
2A
FC
A0
B4
AA
73
A3
07
8E
AD
76
26
A3
59
A6
1B
44
EE
77
9D
21
AC
4B
F1
A9
B0
AC
D2
40
F3
98
66
E7
DA
8E
43
19
18
13
18
45
9C
21
B2
A0
C4
39
5F
DE
ED
3B
1A
19
34
FE
57
A1
84
CD
99
50
61
9D
C4
8F
BC
6B
DD
B2
DF
8C
EB
BD
EA
CD
7E
B9
8B
5C
C2
21
6C
D9
D6
44
11
42
49
C2
06
58
78
0F
82
DA
A7
F0
1C
AC
F8
25
CA
27
30
CF
F8
CF
B7
64
87
A5
33
8A
DF
CA
40
B9
2A
DC
3E
C1
7B
2E
36
EE
71
F2
80
FD
F5
F9
E5
A1
EC
57
D8
83
2F
9C
0E
80
A8
A1
4A
68
1C
8A
D7
D9
BA
13
FA
F7
99
93
22
33
C9
C8
A2
D2
61
37
AF
37
17
96
24
FB
56
63
94
DF
94
F6
60
F1
BB
70
FA
3B
60
DA
42
67
26
57
EF
9F
23
67
6F
48
C7
18
C6
E4
33
D8
E3
04
5C
EF
21
FA
C7
20
D5
9A
FC
9E
59
57
29
C9
FB
09
CF
66
AA
FA
4F
4E
E8
6E
A5
80
75
ED
48
B5
FD
BC
3A
0F
0A
73
0C
54
5D
D8
F4
3A
04
50
76
C1
CA
6C
08
7C
FA
13
C4
82
73
2D
39
8E
CB
AB
05
1F
22
6A
09
F7
2B
D0
1C
B1
9A
6D
F7
6E
27
5E
B8
DA
50
17
DF
63
EC
F4
97
E2
53
BD
F3
BB
77
1A
B7
66
88
0C
B7
D7
17
E8
3A
73
43
05
07
75
CA
C3
CD
F2
EA
76
EE
76
D4
D8
7A
87
8F
C3
6B
06
C0
3C
9C
83
69
42
5E
DD
5D
97
17
09
E6
BC
48
3B
F3
7C
34
18
95
6B
49
29
C8
FA
C5
2E
FE
F5
CC
5F
10
52
39
F7
15
A2
41
F5
08
B0
17
DF
9C
DF
38
71
50
E2
98
1F
6A
B1
B2
49
91
45
8C
F6
2D
97
49
C8
EF
9E
9B
98
8C
5C
03
D8
44
49
9E
E8
3D
88
EE
F5
EE
0C
80
0F
B9
45
50
B0
F7
67
7E
8F
3D
AE
C3
5D
1D
96
EC
A5
8D
0F
78
04
79
AC
88
06
0E
53
22
CC
62
07
9E
07
21
74
A9
20
1B
58
44
3D
81
47
3B
C9
F6
FF
DE
73
FC
B4
49
D3
FC
3C
06
9F
C8
4B
08
DC
69
A6
8E
80
02
33
04
5A
03
44
62
93
90
7C
83
36
77
99
9A
BE
A5
CB
0E
4D
3C
34
5C
CE
63
9C
35
05
65
BA
B7
33
A0
7E
EC
01
71
34
05
FB
03
36
15
DC
5E
E8
67
26
2E
71
4A
F7
B0
CD
D4
F8
BF
FD
B9
78
27
0D
40
1F
21
63
E2
FD
14
81
0D
73
7E
D4
0B
B2
33
1C
7F
C4
F6
78
2F
D5
18
FE
F9
5B
54
4C
63
1F
B2
6C
10
5C
1E
6A
5C
E7
38
EF
11
82
D2
DC
49
3D
8F
59
98
DE
DE
07
3E
0C
70
04
40
45
D3
C6
44
14
EA
04
69
BC
2D
28
22
F6
1D
9C
D4
0D
C6
CF
29
58
BF
E7
32
46
13
55
9B
6A
0A
24
B8
95
09
CD
4A
7F
F6
25
81
1F
C6
51
66
A8
4E
AB
E7
1F
A1
76
69
A9
09
14
F9
B3
C1
17
1C
DD
63
26
7C
50
58
CA
D1
E7
6D
AB
95
B5
FC
D3
F4
65
89
EF
BE
BD
7A
77
43
FE
A0
94
51
54
77
5E
4B
D9
A7
0B
3A
2A
87
72
B1
82
9B
F5
F6
A5
70
A1
14
D0
E1
BF
6E
FF
50
46
E8
A6
41
68
00
C5
F0
DE
1E
D4
B4
74
D6
2C
72
68
BB
2D
97
83
99
72
BB
A0
4A
67
A7
26
2B
0C
7A
C1
52
33
3C
B7
07
08
65
0E
24
B8
97
9E
4A
44
65
76
A5
2A
02
8A
ED
06
C0
84
CB
E5
46
F9
EE
2B
08
43
F3
AB
EC
9D
4F
65
6C
E0
54
DE
92
FF
D5
43
B6
05
9F
79
C6
1C
71
4C
FA
3C
6A
2B
23
83
A7
CE
D7
CE
8E
27
1D
9E
55
CC
E4
B5
29
AA
C7
16
84
EA
C1
ED
94
3D
21
35
4B
AA
74
5D
D9
D9
30
A5
0F
92
5F
18
DD
F4
49
AE
23
30
67
BF
7B
C0
A4
69
4A
4C
E1
59
3C
98
C4
EB
F9
D3
97
30
D6
28
4A
36
F7
16
8C
DA
FF
B9
BE
E1
D3
D7
88
8D
60
2A
84
85
3B
68
6D
A3
EC
70
D6
0C
71
E6
0A
C4
FB
A7
9B
95
70
9D
E9
46
65
A1
AD
10
63
6D
6A
5E
B7
89
46
7D
0B
68
7A
C2
94
3B
C9
D6
88
80
AF
E1
B8
8B
CE
A3
12
AD
8D
76
27
FE
8A
4A
CD
F2
59
E1
5D
5C
81
F9
B0
4A
88
13
10
E8
F8
4C
5A
90
BB
FB
9C
D3
BA
AA
A5
39
FA
3B
ED
25
50
A8
3B
05
B9
6E
8F
BD
6D
E7
43
D3
40
01
12
C9
0D
6B
50
89
36
2D
EE
DE
F3
08
CC
19
FD
09
22
39
DE
EF
35
10
73
08
E2
34
6E
12
90
CD
98
D7
B6
04
D0
51
33
42
FF
E8
A2
6A
36
F8
48
F2
A4
3B
96
93
80
48
3C
B2
FE
92
21
AD
06
1F
A5
CE
4B
37
80
42
B5
D7
86
82
79
5A
32
96
0F
A7
B8
88
6D
60
92
8A
36
4E
38
AE
1E
85
72
FC
8E
57
02
B0
37
FF
AD
F7
DF
35
AE
F9
EC
84
FB
AB
11
67
1D
70
81
6B
5C
E8
DB
0D
3F
8C
EF
E0
9D
87
72
41
4E
BE
C5
49
DD
15
6C
2E
BF
25
0A
CA
17
1A
72
3A
A0
19
ED
DC
CC
16
05
2C
2F
77
F4
4A
3D
FC
2C
0F
99
66
87
4F
8A
DE
2F
49
B5
DC
09
D3
FD
40
C4
8E
63
49
D6
EA
FB
2E
C5
F6
3E
3C
1D
D8
50
AD
D0
D1
AD
83
37
BB
21
9E
5D
63
9C
03
E5
2C
F0
1C
0D
F2
13
48
58
BE
E4
4E
84
AB
AA
2B
44
B4
9D
E8
82
0F
7D
02
0C
4C
08
BA
C9
DC
C0
4E
E8
53
C0
78
DD
D2
30
B4
CE
2D
29
8A
78
1A
42
85
D7
69
F1
2E
8B
16
8B
06
6C
64
6F
72
E3
52
7B
6D
37
78
9D
43
D7
E8
62
D4
DA
F4
47
00
0A
FC
BE
B7
92
9E
79
FA
8E
93
90
D6
CA
2F
C1
4C
60
D4
B5
2A
CC
F4
7D
9B
B7
3B
27
9C
EC
E1
D8
11
FA
9E
BA
56
F7
88
B6
DB
B4
26
76
48
D6
CD
13
F4
03
A5
08
BD
90
59
9B
6A
A3
07
3C
05
51
D3
9C
8F
F8
97
06
E4
8D
82
61
80
BA
F5
74
15
09
9E
52
2D
DB
6C
53
BD
66
19
10
96
7E
C9
FC
94
4F
37
72
32
49
56
DE
7F
2F
2B
56
5E
2A
5F
D3
25
DA
78
F3
9B
2C
49
80
2B
B1
96
AC
5A
49
9D
CE
A6
95
C6
75
A9
91
51
44
29
40
2E
C1
3B
B9
86
8F
7D
72
5D
C7
38
47
96
64
4C
28
FF
7A
5F
10
DD
2B
06
DD
64
13
32
CB
96
12
E0
32
D2
C7
6E
66
E7
8E
ED
DA
1C
17
CC
E0
FE
18
1F
35
F6
D8
06
0D
CF
B7
4B
4E
8B
55
A7
5B
E5
EB
8E
C2
63
A3
3A
C9
7F
29
70
25
8B
BD
54
6E
8F
78
8B
5F
02
09
FB
54
20
BD
4C
15
76
62
E7
52
6E
49
A9
1D
A9
9A
26
39
B7
EB
3E
FB
1F
D9
81
7A
72
E3
1C
C1
BF
B7
3C
A5
8F
1A
FF
81
69
E5
EF
AB
03
07
1C
50
2D
15
E3
2E
F9
F9
25
ED
62
12
06
8C
DB
F4
1D
92
A9
B6
D6
E8
1A
6C
72
F2
05
66
DB
B7
F1
0C
B7
2F
4C
7B
D6
A0
6E
9E
A3
74
B4
9A
A9
EC
1C
4B
DC
A8
66
FC
FF
13
CD
EF
03
CD
31
11
D3
F6
6E
CB
04
89
E0
1B
2D
C7
4B
A6
4A
DF
4D
D4
81
3E
D5
48
FF
13
41
05
68
56
86
B3
35
02
51
73
6B
EE
06
4A
D7
9D
2C
C6
3A
2F
A2
09
20
23
FD
31
FE
C4
28
82
15
E5
DF
2F
2E
6E
1A
7D
85
B2
6C
4F
17
5C
54
C3
DC
13
67
26
B0
CD
9C
DD
DF
A3
B5
AD
74
72
BE
5A
EE
36
3C
33
DD
A9
10
73
ED
55
13
3A
7D
29
6C
78
32
F3
2E
93
75
59
00
53
28
AA
A3
F7
F9
9A
4E
BE
42
35
F4
E9
58
6C
A8
85
5B
A8
4F
DD
78
01
F9
E9
CE
9F
EA
87
50
C4
7A
A6
81
76
39
4C
5A
DA
3E
36
63
28
AD
B4
4D
E6
30
2A
2A
56
BB
63
7A
94
54
5F
1F
0B
25
C7
8B
2D
D0
58
16
20
25
04
8F
CA
39
68
AB
EF
8F
87
01
D3
FF
2E
06
9A
5C
56
14
CD
6C
FA
B9
AE
C1
3F
5E
3C
4D
25
96
23
6E
A9
7D
FD
13
A7
BB
27
8B
A8
78
81
58
03
18
3C
7D
09
22
99
2E
68
E2
64
9C
F2
AC
A4
26
4F
86
66
A2
5C
C4
5D
CC
61
1F
3D
DB
EA
34
FF
81
7F
44
AC
6E
95
18
2D
B2
99
5E
2B
10
A7
D3
FF
60
95
55
59
E4
F5
65
73
76
A1
4C
85
7B
D2
E6
46
34
D8
81
55
D9
23
55
E5
FF
E2
3C
29
56
01
88
6F
BC
BC
32
95
FF
4E
01
8F
35
14
AC
CC
10
7D
1F
42
17
F6
C7
2C
6E
BB
4F
AE
88
F2
60
77
3A
A9
4A
38
32
B6
9F
57
17
50
07
E3
76
84
DF
3F
C0
8A
54
86
28
40
D8
90
A3
A6
78
3A
A0
C1
13
22
85
83
C0
71
BB
E0
94
9E
60
B0
06
BC
49
AA
78
43
37
7C
79
E7
0A
A1
D8
6F
99
87
88
C1
68
31
55
A6
D6
F0
81
8D
98
5B
F4
DD
9F
63
92
74
1F
B9
3B
09
76
C1
C5
79
53
04
BA
5C
AD
55
44
E5
29
A4
2C
6B
F4
54
3D
81
44
C4
89
59
3A
ED
7A
31
AF
55
C0
22
DC
B2
19
BB
7F
13
D9
35
D0
ED
BB
CE
B1
D1
11
E4
9C
FE
3A
6B
4F
24
94
50
0D
00
2D
D2
EC
5E
0B
BC
AF
FB
E5
9A
0E
B5
CD
A9
D2
19
70
FE
25
D1
9F
7C
06
12
A6
0F
C5
DC
E2
2E
8F
C4
D0
6B
C9
87
B6
B2
A5
59
36
BA
D2
79
09
B9
F5
EA
22
52
2B
D9
4F
C8
64
8B
05
D2
25
90
7E
36
D8
62
43
74
22
94
BD
CA
CC
12
F3
E0
18
6F
08
60
F2
76
9C
BC
70
5F
46
4E
24
47
CF
B9
04
7B
85
EA
9C
13
2B
A5
66
5D
3F
95
9E
AB
F8
A8
F2
57
FC
BF
32
FA
42
C9
60
FE
2B
8A
00
61
73
16
12
56
CD
8D
19
4C
8D
5D
A2
41
88
A1
07
17
E3
C4
9A
5A
96
0B
20
39
38
72
3D
97
F3
F0
F3
48
38
AC
36
E9
8E
E4
1B
58
BF
78
B1
C9
06
AA
4B
A2
93
1D
9D
D7
BF
4B
68
1D
12
FD
E7
DB
85
DE
F4
0E
B2
BF
A7
EB
26
9C
3A
EE
C0
A0
2D
3C
46
A1
97
CC
E2
79
57
75
18
90
39
47
65
50
9C
62
96
E2
87
A3
D8
B0
C2
61
E5
92
AD
97
B9
0F
FC
A6
0A
F1
35
BE
A1
90
DC
66
1E
B9
FA
DB
A5
D2
C7
9D
75
A3
95
5B
71
0F
DD
61
F6
48
2C
A9
AD
18
A6
4F
8B
8D
52
CD
08
44
63
5A
8C
F3
04
B3
BF
05
C3
CD
F9
13
11
EC
13
7B
DE
99
3A
D6
A3
7E
54
EA
57
F9
95
DA
79
CD
40
F5
28
D5
E7
CF
E4
E8
3B
1E
5C
7C
7C
04
9B
8E
28
60
0C
3E
50
59
6D
04
AC
4E
85
AC
03
FF
68
D1
45
79
05
BA
AC
AE
95
D8
B9
3C
D4
76
F0
9C
5C
66
52
2D
DC
3A
5D
DC
A4
3A
96
2B
A7
8E
9F
FD
67
FA
3E
F4
FA
40
F7
33
37
8D
DC
BA
A3
F0
07
5A
24
84
D4
8E
FE
A0
D0
EC
31
F2
D0
FC
BB
4A
77
0D
79
68
54
20
3A
37
CE
70
1F
D9
5A
2D
7B
B7
98
DE
5D
B3
A0
F0
31
B5
C1
31
BC
F7
73
A8
DD
98
69
11
BC
6D
FA
D4
42
9D
8F
2B
5A
E8
B6
28
97
9A
A3
2A
A2
91
47
BD
2F
5C
4F
0A
D3
79
06
64
FA
EF
44
F7
3F
4E
56
FE
B1
7A
07
9E
7D
8D
82
35
34
05
A2
C3
92
92
71
35
2E
59
23
F6
FC
E5
FA
32
5A
21
63
6A
3D
B4
4E
B8
06
5D
1D
C7
93
D3
0E
17
B7
9B
DC
B4
E5
C4
C3
56
CD
05
E1
4E
D2
46
56
76
C5
DE
39
26
AF
34
E2
37
3D
9C
9B
D5
2B
42
DE
7D
9D
4B
A9
3A
86
25
60
24
AB
4F
91
66
CE
62
84
07
36
77
88
09
66
A7
D3
F1
82
3F
65
5B
77
89
72
8D
1C
01
88
FD
E0
AD
11
78
CC
06
B7
44
29
5B
8E
E4
94
5B
CE
15
8D
34
FA
FD
CC
1F
4D
F5
E7
33
3D
A0
B9
05
A2
20
D2
99
27
12
F9
DB
B2
38
0F
2A
EA
DC
2D
46
7B
BF
AC
65
3B
A4
CC
80
E3
34
7C
36
EE
C0
ED
2D
37
AA
AA
A9
E9
2A
F6
0B
53
38
8C
9D
CA
8E
AF
BE
F8
67
91
61
28
2C
FD
1F
B5
A1
F3
20
10
62
95
06
68
A0
39
36
18
BA
54
96
7D
B1
E2
78
5C
9C
72
03
D6
64
DA
F8
88
6F
B0
6F
B7
7E
51
45
D8
28
F1
49
E8
D9
F1
30
96
60
C5
51
75
B5
7E
38
01
87
FF
00
2C
9B
48
B5
76
62
DF
F6
C0
BD
28
EA
A5
B1
57
84
85
72
3E
13
AF
27
90
92
AB
5F
D1
BF
CE
00
87
AA
06
8B
9E
7E
41
63
2A
CC
BD
AE
3F
D3
9D
EE
9F
9B
DC
C5
E7
6B
4B
6A
1F
C3
33
DA
55
01
E1
50
E0
72
5D
BE
CB
AE
23
E3
0B
5F
22
37
D7
CE
41
E7
B8
D2
B1
DA
EA
E6
82
FD
84
DD
69
58
AD
91
4B
4C
47
23
03
92
3E
1F
36
C7
EB
8A
B3
7B
AD
5E
BA
30
03
AF
C6
9F
C4
C8
13
BA
66
15
12
D9
91
7E
87
0E
FA
ED
C2
AF
01
B3
1A
EA
25
85
CE
57
33
01
87
B2
3C
A5
11
48
B0
12
1C
51
A1
2D
2D
BD
60
AE
F2
FD
B1
43
A3
AB
4A
4A
82
EF
F9
1E
F5
33
60
63
88
6B
95
43
89
D2
62
A4
E7
B6
0D
7E
53
FB
AC
1C
C1
BF
68
D5
F9
5F
2C
D5
00
19
A2
88
DA
A4
F9
24
83
2A
95
3E
AF
67
B8
BB
64
49
6C
0B
FF
C0
F1
4A
5F
6A
39
9F
11
75
8D
42
4D
99
8F
6B
2C
67
3E
D2
6F
9D
FE
FB
FC
17
5D
8D
0E
58
9E
C7
B2
80
9B
34
BC
DD
F0
CE
03
DF
A6
00
92
D5
21
03
57
D0
18
F9
5D
98
1D
C7
4C
53
6F
6E
8A
2D
D2
31
1B
80
BD
65
F1
B7
F6
95
B8
6A
E1
0C
4A
38
8A
72
35
A0
F7
E4
40
A1
54
92
2E
8E
FD
23
F7
5A
29
22
E9
6C
E0
55
75
DA
F6
74
03
77
CD
6B
E5
34
75
09
21
17
63
CF
F0
EE
7E
0A
4B
01
06
5C
B5
86
61
A8
D7
ED
0D
88
3C
81
A2
F3
64
58
C1
6D
F7
38
03
C7
DF
0D
D5
4F
D2
97
1A
78
5C
EB
40
F2
65
8B
4D
0E
70
1E
00
CC
DC
70
86
0B
52
65
A2
2C
93
A0
6B
28
F4
3B
01
8E
82
B7
CE
F9
27
5D
EB
CB
C4
A6
0E
66
96
1D
6D
94
44
8A
E9
D7
DD
51
68
7E
1F
37
84
B4
17
7C
72
12
70
5F
FD
9A
B2
2F
27
1B
72
BB
A4
F2
B9
04
C8
3E
A9
40
FC
3A
22
F7
6D
83
1F
A6
73
74
B5
79
BF
FC
F8
7B
5E
DD
2C
51
61
CD
AF
3A
40
8D
6B
4D
2C
1C
55
07
17
3F
D4
4F
9E
B7
DB
8B
7B
35
B0
0C
7B
CF
21
CF
BC
C0
8F
28
0D
6A
0A
22
46
03
E0
8D
84
54
EB
7D
08
EA
E5
55
A9
95
92
0A
B7
04
5B
3F
E7
84
9C
7F
88
A1
E4
09
E5
43
35
C3
D0
9A
B4
8D
BA
65
C2
C0
12
94
D1
41
60
8B
D1
8B
6E
79
4B
EC
75
94
D1
DF
38
DA
9F
BC
20
88
E9
09
CA
A8
63
80
9A
D8
73
20
28
C8
7B
71
20
08
52
D6
92
1D
37
6B
3E
55
3E
28
C6
0C
83
18
F5
BF
F7
A4
4D
07
8A
39
DB
A6
82
4A
AF
25
9A
85
13
EB
6E
07
C1
AA
CF
8B
88
96
AB
35
78
7E
91
DB
5D
A3
9D
9A
93
C0
D7
6A
77
B4
45
3D
15
31
AE
D7
AA
2F
21
4A
F1
5D
76
99
D4
C0
4B
93
74
E3
29
91
C5
4C
16
FD
8A
EF
E3
1B
AC
6C
27
71
F6
EB
0E
EE
95
03
72
70
7C
D1
CF
EF
F3
D7
EC
39
30
B0
38
1C
18
F4
6E
CB
E6
E9
8D
AC
68
0F
CE
9A
D4
B6
8B
7A
9C
A2
6A
2A
35
F4
74
97
F5
F5
22
87
58
06
98
D9
5D
9B
4D
BC
F0
EB
01
84
46
CC
11
03
45
8E
22
B0
3D
1E
08
C7
9E
1C
8A
79
AE
3E
D9
6C
04
37
42
14
82
58
44
1C
27
DA
DF
BC
2D
FB
68
E1
90
81
C9
99
22
C8
25
F1
99
FB
45
CD
BA
E2
CA
84
16
1E
50
0A
B1
7C
BA
D3
99
69
41
8E
80
B7
28
B9
F5
54
17
D7
47
BB
B1
73
21
84
04
F1
A4
91
14
FB
28
A2
05
96
C2
E0
83
8C
60
A9
08
27
83
28
44
ED
54
00
43
9C
B9
0E
7D
1C
C6
16
88
A5
D6
4D
91
F1
F9
08
3A
FB
98
16
AA
5E
56
DD
4F
E1
70
0F
C1
EB
33
50
1C
78
49
6B
AF
DE
F7
5D
32
57
54
33
A9
87
4B
73
23
1B
47
CA
4B
03
6C
D9
F9
BF
6C
94
68
66
A0
03
2C
D0
4F
5C
64
C4
5D
1E
E1
F4
5A
49
A2
D9
66
AF
67
D2
29
90
05
A9
C1
F6
FC
C2
1A
6F
A4
A6
8D
A4
23
A9
44
0E
D3
FC
D8
42
8F
EE
49
AA
C7
D5
15
85
EB
1C
F0
7F
15
52
98
F9
44
E4
E2
46
44
06
30
87
F5
A4
58
4A
3E
32
9E
5F
EC
B0
E9
73
4A
2D
28
62
6A
19
DD
D3
12
82
8F
F7
E6
0A
4D
6C
D0
E9
0A
B8
E4
C4
EE
D6
65
8F
EA
AF
FC
D5
C3
6C
7D
E9
67
3B
7E
30
75
D4
91
62
3A
8F
71
BF
78
EE
48
A7
53
5B
71
54
44
05
F2
D8
7D
3D
90
A4
EF
0F
28
EA
42
E5
A0
16
4F
22
D3
7F
16
62
B6
49
43
1F
51
BD
64
48
97
A9
58
74
4C
3A
85
EE
A7
BC
97
C3
1B
4B
85
32
6D
9E
19
F6
C2
66
D9
BE
E3
AE
F3
6A
CA
6F
1A
A7
A6
4C
40
B0
14
DE
A4
EB
A4
94
B0
A2
81
0A
01
D5
05
AD
A7
64
33
3A
8E
B4
04
8D
9B
B8
AE
C4
87
50
2A
1B
8A
97
5F
9C
DD
7E
64
65
8B
C2
71
79
CA
F1
27
F6
92
31
8A
9B
F0
05
D0
BE
3A
5C
8D
54
59
CB
01
33
D5
AB
A6
A4
76
40
BE
1E
F3
1F
3E
45
5D
2F
76
C6
38
C5
91
12
73
3B
E0
1B
29
22
5D
D7
4B
0F
4E
6D
0F
53
DC
63
F2
FD
D9
AD
CE
3C
80
BE
AF
DE
FD
BF
9C
0F
90
EC
63
85
35
C4
49
45
79
00
11
B7
7B
CC
58
E9
A6
08
7D
8E
AF
CB
E4
06
41
A3
C3
CF
8E
E6
4E
04
15
88
42
D8
13
D5
4A
B4
5C
27
98
3B
D8
2F
EB
5D
AA
07
B2
75
B7
4F
D0
3A
97
61
85
A2
E1
71
45
82
2A
19
7B
FA
14
D9
44
44
2F
BB
C4
AE
41
49
5B
64
72
68
CB
E5
0F
49
20
B7
A7
CC
9A
D8
14
9F
ED
1D
B3
15
02
95
64
07
AC
F5
07
99
C6
E4
F9
28
E3
0A
CD
B5
9E
60
6D
3B
79
CE
B6
B9
18
61
FE
CE
7E
B9
55
5D
ED
C7
D1
05
37
48
39
74
71
22
04
68
4A
1E
A9
8F
4A
4E
6E
3E
35
DA
6C
67
CB
9B
1D
07
FB
AD
5E
6B
89
6B
08
31
77
4A
F8
44
D3
F0
5E
78
55
04
5E
A7
60
F5
28
E7
40
F0
32
2B
A9
80
B8
22
7D
67
C8
F5
FF
89
E4
D2
1F
2D
3C
29
81
B9
05
F3
6D
E9
76
50
0F
75
E9
C6
E8
5B
19
4B
AA
30
C9
A8
97
76
05
5F
39
BF
34
AC
D8
B2
3C
89
DF
BC
A0
6E
C5
D1
F3
14
B7
3E
AC
3F
A5
19
5D
04
3A
D5
27
7E
0F
E6
17
1D
18
9D
5B
EC
BA
EE
2C
43
7E
3C
25
80
5F
42
9C
09
EC
A6
F2
D0
54
7F
6B
D5
CD
3B
CE
B7
9D
DB
87
4E
E6
43
3F
DC
C2
7C
56
23
17
D9
6A
AF
62
7B
C8
28
F3
ED
32
89
57
9E
CA
0F
C3
41
05
E7
76
C4
AE
C0
94
ED
B0
E6
65
AA
CB
EB
21
3D
F7
AB
66
A0
E1
3B
05
1E
54
DA
25
5F
9F
C2
E7
0E
B5
82
4C
A1
23
22
FB
3D
58
17
70
1A
62
84
9F
62
E1
CC
D8
68
92
CF
73
ED
24
CA
37
30
10
11
FE
3D
CF
0B
9E
89
0F
23
8F
5D
B9
64
15
43
AB
A3
F1
BB
C3
F1
84
81
30
BA
54
4D
F8
C5
FE
C6
5D
C0
32
AF
32
25
1A
6F
E1
A6
9C
6E
04
9A
FE
37
60
37
4A
32
B9
53
15
39
AD
48
EB
BB
B6
4A
00
E8
48
04
EC
06
FF
5F
E9
C7
90
74
D6
4A
8B
D3
5C
09
97
B6
2E
5B
37
48
56
F1
B6
CA
4D
75
79
12
D1
1C
F3
E8
0B
AE
7D
3B
27
A7
CB
90
9B
75
4E
4E
2F
8D
0F
A0
25
98
7D
C0
F2
0B
56
FA
84
98
D1
79
90
4B
15
BB
8E
5F
6D
57
9E
C6
AB
BD
18
EF
5E
AD
8F
4E
2A
D6
B2
F4
4E
10
F7
7A
F4
2D
F4
94
14
E3
AC
B2
7A
55
5A
12
07
99
52
12
30
89
BA
7D
E7
A5
25
D5
E3
1A
36
2F
7C
10
A5
0A
69
F2
B3
7B
E5
D2
2B
43
85
6E
40
30
50
60
58
C3
67
DB
2F
B4
6C
A6
70
E9
AE
00
97
14
A3
E2
A5
C2
7C
BC
0B
F4
5B
A1
1C
3A
78
27
04
32
6E
65
58
FC
16
C6
20
A9
9E
45
D0
69
6D
0B
BE
EA
4A
1B
5F
60
3D
7A
75
3F
D3
12
80
DD
FB
14
2E
EF
5F
12
F3
10
D0
2E
80
63
38
5A
5B
8E
E9
58
E5
F5
65
41
33
F7
45
4D
AB
F8
40
24
A2
19
24
01
26
30
43
15
75
8A
DE
23
C2
D4
4A
AD
E8
21
10
0A
84
31
86
98
D5
E3
33
03
F8
39
A2
AD
76
96
81
50
89
15
A7
F7
0E
3C
24
CE
12
28
F9
5E
9A
4E
38
1A
D9
A1
64
ED
41
84
09
3A
02
73
CB
69
B0
B9
50
52
7B
CA
AD
6B
CC
7C
59
BE
FD
54
84
BB
73
30
84
C7
F7
F7
77
16
48
B5
65
72
C4
0C
EE
15
4D
1E
1A
92
1C
10
04
51
35
CF
3C
4E
8D
B3
87
0C
46
65
9E
BF
35
E3
60
0A
18
A7
94
E6
A5
CB
E2
44
3E
58
14
A7
64
7D
32
67
48
AB
4E
37
07
45
E3
C0
A1
E3
3A
8F
71
03
F8
3A
8F
B3
01
69
6B
82
9D
75
E1
AB
39
4B
C3
79
DB
AC
E5
C1
D0
7F
20
58
EB
E4
0D
80
13
94
FC
93
A7
19
65
38
9C
99
93
BA
84
0D
C6
D0
58
69
6D
B3
89
EA
02
A6
D2
89
64
43
BC
90
56
50
68
76
D6
95
6F
6D
9F
46
80
15
16
26
AE
57
FB
7F
61
4C
21
1F
B8
FB
11
35
0D
D9
2D
C9
98
42
D4
E0
D9
54
99
B1
14
F0
DF
C9
0F
FD
96
C4
C9
BA
ED
4E
9F
C4
07
27
EB
B5
A5
0C
AC
71
24
EA
3F
3A
47
0D
53
9A
13
22
48
0A
10
4C
3B
BE
BA
DE
F9
0B
C3
25
61
87
35
5A
DE
B3
92
DF
92
BA
FD
1A
2E
6C
B8
6B
DE
B0
69
49
BF
43
18
59
9D
60
73
2E
2E
3C
C8
37
D7
87
9C
7D
20
F3
58
D7
D1
82
22
F3
14
1E
DF
CA
5E
5D
EF
53
3E
39
63
62
E6
84
B2
9C
29
09
5B
2B
BC
D1
47
E4
68
80
B5
F3
7D
86
4C
A1
72
33
DC
50
2A
15
B9
5C
43
44
66
C5
19
A2
A7
FD
A0
6A
8A
76
6B
56
FA
2F
20
F3
19
C8
30
1B
F4
85
53
BE
4A
7B
28
E4
F4
CB
C7
7C
F1
EC
23
86
2A
00
C7
8B
E8
CC
5E
1B
B9
B3
76
4D
A2
42
95
45
39
44
E9
3C
2D
6E
FB
35
73
2B
F1
40
C0
19
AE
9B
31
46
52
E5
49
E7
13
48
81
F7
56
67
BD
11
97
DE
55
E4
7D
7B
AB
04
AA
9C
B8
36
D7
3C
16
7F
63
77
F5
1D
48
AB
66
9A
E7
1A
39
5D
0F
94
24
39
1A
5D
A3
97
2C
81
0F
92
A4
30
FD
DD
0C
8B
43
E5
B2
AE
51
F7
01
15
49
A0
4B
96
4B
C0
68
6E
AB
74
60
89
58
99
56
4C
F9
24
3A
DF
6F
24
FC
C3
3F
2B
0D
86
F3
12
66
AB
FE
7B
B0
37
95
98
1D
1F
8F
76
F6
1A
00
8A
6D
43
BB
85
F0
3A
99
D8
61
1B
05
82
08
4C
96
52
CE
0D
5E
57
17
2E
29
0A
6F
1E
24
B2
28
25
78
6C
BB
77
53
36
D8
54
1C
F8
E3
38
32
DA
1F
CC
AA
CB
AE
F1
C3
31
14
4B
A5
08
A9
98
77
6A
E6
F4
EA
DF
45
48
F3
35
6E
A4
C0
78
58
EC
52
9E
01
70
61
5D
9E
77
46
7A
37
EC
C3
58
9D
0A
D3
5F
BE
5F
5B
98
0E
59
A2
79
11
5D
D5
87
1F
6A
D6
6B
0D
B9
18
A8
BD
20
EC
DA
D1
2A
DA
92
E2
ED
CF
1F
33
8D
D9
24
15
F0
0D
CB
0D
38
DA
41
E5
AD
C3
A7
CD
B6
4D
D7
21
86
2B
59
55
4F
CB
A9
CF
45
4A
EB
37
62
CA
72
EF
4E
4C
2D
B4
F7
BE
2E
B0
0D
6F
4F
3E
0A
F8
01
8F
95
F5
5F
4F
DA
D7
4F
27
FA
D5
A5
25
73
0A
0E
91
03
48
F2
16
F9
76
7B
FF
32
EC
97
6D
94
61
D2
2F
E0
36
DB
E7
E2
0F
49
51
54
AC
E7
AD
6A
06
D9
70
2A
6A
77
15
55
5E
B4
7C
71
F1
78
35
31
11
20
27
DA
FF
3F
1D
02
02
A5
FE
92
01
9A
EF
7C
D4
26
B6
24
BA
1E
B7
60
A0
A7
29
5E
63
A2
A9
EF
88
24
BD
E7
94
E4
F4
9F
7B
64
D1
D9
C2
C2
7E
52
0C
91
B4
35
31
A6
51
52
E5
0C
E8
A4
A1
D6
34
37
3F
27
BF
2A
D5
BA
00
50
06
52
F8
ED
97
87
EF
9B
5A
76
69
79
64
85
CE
D2
C5
DB
C4
8E
64
1B
1A
21
F1
2F
10
CE
35
6F
3E
DB
F3
58
7F
3F
BF
85
A8
78
CC
79
78
7B
4C
78
B9
24
B8
4B
79
D8
A8
C6
B8
01
31
A0
DF
CE
34
29
7E
B2
B0
41
A5
7E
7E
CB
D9
C1
B8
C5
79
9C
DD
BD
41
C7
51
81
DB
4A
9C
E6
AC
13
18
16
16
BF
9A
5F
F1
FF
82
A0
93
F2
31
2D
23
F1
B9
91
A9
7B
35
C2
F6
50
AE
56
95
67
A3
96
BB
30
DB
02
0A
E6
65
B6
1B
2D
61
33
2C
62
2A
FF
7B
94
DC
67
79
5B
CD
31
F6
90
2D
33
95
AD
3A
69
50
75
D6
93
BE
93
54
31
9E
EC
5A
B6
0A
CD
51
DC
23
F9
23
DB
4D
DE
58
04
22
A7
A0
A5
7E
FB
9D
22
96
E8
62
B0
1C
6D
74
3F
96
D8
C2
9B
EB
6F
75
C5
7B
D0
48
FC
FA
5F
E2
A0
E3
EE
D0
42
0F
19
7C
63
66
87
29
44
53
95
A0
28
D8
66
57
20
92
F2
54
52
D9
CE
55
7C
5F
CA
50
BE
BE
0D
9E
18
31
96
C7
61
D4
53
28
45
C8
A5
6C
76
2A
FA
90
7B
12
EA
CE
9B
70
FC
24
F5
78
FF
B2
E9
D4
72
BC
F6
11
E6
06
40
85
C2
65
BE
22
E7
AF
72
0D
E6
A5
63
3F
38
71
4F
88
35
7B
DD
A2
06
58
77
01
DF
1D
E0
F2
4D
4B
B2
05
B2
02
E9
62
8D
68
7B
78
AE
D8
A3
98
2C
A4
D5
48
B1
A8
33
B1
52
A2
8D
DE
11
51
17
86
81
C1
62
3E
BA
2E
EA
9B
31
46
C8
01
45
38
0E
40
3E
6B
6E
64
73
BF
4B
FA
41
FB
83
BA
86
A9
7C
97
B7
A2
FE
BD
43
A0
05
E2
96
53
C9
C6
66
2B
E8
25
99
EA
DA
FA
C2
80
49
DC
15
C5
97
3D
17
4C
07
C0
B6
24
59
FB
E9
5B
FE
76
D8
C3
FD
B2
76
B7
4F
DD
19
78
3E
33
AA
73
E0
6D
EE
70
DF
DF
E6
16
74
49
0B
4B
E9
61
9E
C2
A9
3E
45
4B
D1
8A
15
B8
3D
2F
9C
34
1D
F0
6F
BC
80
64
26
A7
DA
B5
6D
F5
41
DA
59
ED
A9
B1
3B
7A
F3
EF
7A
4A
AE
49
1E
9A
0F
25
22
5A
C9
D5
07
51
46
D7
DA
93
7D
87
C8
A2
E4
05
6A
64
44
F6
A2
E3
7A
43
C1
2E
93
C4
1C
9F
99
85
27
D2
1B
6E
60
D5
A6
1F
07
C0
AC
25
4E
28
12
72
04
A2
7B
B8
86
8A
04
D3
C2
98
80
E7
59
16
F0
6C
09
92
2F
E3
35
81
45
FE
82
91
0A
3F
33
5C
61
35
2D
7C
9C
70
A8
9D
AE
0D
25
A9
A8
3F
69
7E
3C
B1
0F
90
7F
AE
90
AA
BB
35
F7
06
C4
12
5C
4F
75
CA
B4
4F
90
A6
C7
4A
DB
C0
5F
23
D9
7D
70
4E
47
E2
23
C2
49
D2
B5
2D
34
FD
58
3C
3E
3B
87
E9
D4
A0
6B
DA
42
FE
1A
8A
53
1F
0F
D0
07
23
39
70
69
97
4C
8F
E6
AA
6F
30
CB
C6
B0
CA
FF
C6
24
B5
A2
2D
9F
07
D1
AE
F2
14
71
C4
E5
9F
69
0D
D3
F8
3F
AC
63
9B
5A
B3
AC
A2
C3
D9
98
51
C6
75
BA
30
2E
31
C3
8B
82
40
BB
A3
ED
4C
4F
80
F0
3F
1D
7B
26
16
88
92
47
7C
22
10
CE
53
BC
E5
52
C6
92
9B
6C
45
FD
B2
FF
BA
1A
9E
2F
48
A9
69
FA
5B
4E
02
67
49
ED
9B
E2
B5
9E
B7
38
E2
BE
95
67
C6
7A
D0
22
D8
C9
6D
D6
DD
49
39
3D
EA
74
8C
48
99
D3
0D
DE
2B
9A
37
41
4B
0A
1F
1B
8C
56
E3
8B
B5
5A
F8
F8
76
30
3A
DC
27
94
47
01
03
01
F4
18
B4
4B
82
A8
F3
E2
B7
90
80
5E
44
DB
05
D0
17
9C
36
D9
17
EF
41
A0
6D
94
75
3D
DC
24
ED
6F
EF
37
DA
CA
BD
B2
91
C4
6A
10
E9
3C
7B
1B
1C
30
1E
E5
34
BF
44
5A
A0
3E
13
93
82
86
5F
BB
93
62
95
C4
83
B3
91
58
51
BE
4B
5D
87
53
39
50
D5
6D
E1
0A
68
C1
B5
1D
55
DF
72
42
52
16
02
11
9B
17
C8
12
C1
DB
82
1D
48
9E
07
14
62
1D
1F
E0
D5
CE
E6
36
19
E8
DD
02
21
2D
32
A2
46
A8
5F
B1
5D
6F
59
D1
B0
8E
C4
C4
58
74
44
D2
B0
20
61
91
C8
CF
10
F0
1A
18
14
BB
C0
9F
08
A8
20
25
FB
A6
47
9B
15
05
30
7B
9F
74
3E
72
9D
60
9F
4F
F9
61
E7
AB
88
1C
12
22
FB
F0
E3
ED
07
C7
B1
ED
D0
F8
EC
F1
A3
1E
15
B9
B9
A6
E6
BB
1D
1B
59
2D
82
32
42
AE
38
07
ED
84
A9
72
88
D4
9B
F4
A2
14
1D
7F
46
4B
24
C9
4E
53
0A
C2
83
DB
53
55
24
71
F3
AA
1B
54
5E
60
FF
E0
CA
83
88
B3
36
0F
22
5F
2C
AE
6F
3E
6D
28
EF
96
28
06
F2
46
BB
4F
98
92
D1
C6
08
51
4B
63
BC
87
2D
36
33
C6
B6
9E
E0
6D
0A
A8
90
61
AF
59
CB
59
2D
1D
08
B3
60
F4
35
4E
4D
1D
84
5C
C1
57
FC
DB
20
09
BE
64
0C
F1
7B
04
05
E9
AE
15
D8
BA
D9
5C
C4
9A
6C
AF
5F
E6
92
89
A9
5C
E2
1B
02
B4
41
CD
AB
C9
2C
B9
8E
91
46
EC
46
A0
C8
3F
53
82
D5
98
BD
9E
69
23
95
4A
20
D6
AE
7C
75
21
55
4C
4F
7D
07
02
AA
04
24
39
57
99
2A
42
C7
CD
B2
62
5D
73
EC
1B
99
4D
81
20
2C
B1
93
A9
EF
15
3A
63
22
9D
A5
3F
EC
3A
70
D5
50
1F
3E
73
B4
79
CB
DE
65
68
7A
5A
09
88
90
A4
28
AC
A8
24
71
49
BE
41
7D
C0
57
F5
10
8B
87
3D
7E
91
F4
EE
46
59
26
47
C1
E1
A8
15
0A
92
02
80
3E
37
CE
D3
F1
43
F8
F9
C2
0E
06
7D
AD
83
F3
1B
13
8E
13
C6
8C
8F
21
80
D6
3B
B2
26
10
91
A7
AE
DC
B7
DC
21
F5
A1
E3
3E
EA
AE
08
E4
E6
BD
17
F8
9F
7F
D7
E5
E2
7C
59
59
E2
04
46
77
61
DB
AE
EE
54
A9
C2
DE
0F
49
EC
98
16
97
DE
AA
8A
59
0B
01
7B
CC
5C
2F
8D
0B
A5
4F
C2
58
36
54
46
36
84
05
E7
DE
D4
22
AC
64
A8
61
F2
7F
21
C6
CA
8C
BA
EE
20
64
39
FC
D2
A8
6D
C7
2C
73
DF
8B
B5
FA
C0
9E
F0
BA
E6
A7
E8
8B
DE
89
32
EC
FF
BE
72
87
61
5F
7B
0B
69
39
56
77
27
36
96
2D
04
56
1C
A2
01
10
05
E2
8D
69
A6
73
AD
30
84
F0
36
98
5F
38
FD
59
A7
E1
B9
D9
59
23
1E
85
CD
7B
13
41
51
D0
53
34
14
2B
8C
78
3A
99
6D
F9
D8
86
64
C0
93
73
AC
13
17
DD
5E
16
82
46
44
18
55
FC
4C
83
47
07
BF
AE
6D
11
F6
24
38
B7
4B
C1
6D
A9
05
8A
5C
94
F2
F8
46
08
90
C4
45
31
CB
87
FA
95
A8
3C
45
A5
7A
2A
4B
6B
77
D9
BE
1C
1C
F0
D5
B8
B5
55
2E
A4
F0
FA
D9
46
D7
30
58
68
6B
EC
12
6F
1F
77
E3
DB
24
DF
E2
74
46
E0
8C
E5
DB
13
D8
98
A5
11
EF
F6
D8
DA
2C
B9
DB
53
9F
AD
06
F4
9D
B3
35
A7
54
7B
64
8D
7D
6B
8A
5B
A9
50
C8
C5
6C
85
21
12
E7
74
30
A9
6B
E2
FD
54
47
2D
BE
49
E8
64
2A
D2
A9
B2
67
96
86
4E
D1
F7
82
FA
AD
E3
24
F8
2E
0A
02
1B
13
7F
91
95
BC
91
F2
C3
13
97
7B
2A
F5
1A
A9
01
0E
88
88
77
2E
AE
B8
AF
4B
48
97
39
05
02
06
1B
C7
A4
60
1B
C6
03
D8
A0
6C
82
A9
98
E1
C6
61
22
88
3B
65
31
0E
13
B9
80
37
E5
D4
62
20
4E
65
33
36
F3
37
23
42
F5
E7
E6
2C
0E
B9
27
39
FC
91
3F
52
9F
A6
B2
51
29
31
6F
40
6A
A0
44
97
8F
1B
F1
A4
86
B7
60
24
8F
18
4E
B3
5F
8D
38
CF
73
B6
8E
6F
79
53
26
B9
EC
E6
90
CC
52
D3
5D
08
C1
86
3F
1B
1E
83
09
B8
C3
DE
02
52
4D
9D
80
02
45
3D
E5
9A
AB
B8
94
2F
6F
A4
CD
E5
0C
B6
CC
C7
7C
FA
BF
FA
61
F7
7F
85
4C
54
1E
D4
0A
40
FA
45
18
33
44
34
5B
02
14
59
20
4C
B8
6D
16
86
76
40
2E
45
A7
F2
56
FE
9F
22
34
45
EA
8C
D6
A1
DE
04
3E
5F
5A
08
9D
0F
D4
65
41
E5
D8
AA
AE
87
D3
A9
74
94
0B
F9
80
78
63
73
82
0A
35
21
EC
31
B5
12
4F
56
5F
89
8A
05
94
44
E8
6D
04
B3
1A
8E
90
9A
8D
8A
D7
DF
EE
9A
16
98
C9
CE
70
10
22
AC
D9
9A
EC
A5
A0
C9
FF
03
39
C3
29
CD
57
75
6F
AC
2E
89
6D
89
F1
CF
12
78
E0
E6
6E
B5
CB
35
DD
9C
B1
BE
5A
8B
2C
C7
17
B7
A7
47
02
A7
98
A7
2C
53
8C
E3
D0
A4
41
D7
6A
C1
26
8F
1C
13
8B
1A
AD
0B
D1
D7
FE
25
08
03
1F
9D
9B
E0
C5
2E
5D
64
9F
51
89
7B
94
F1
66
C7
C7
49
49
94
27
C6
70
9D
1F
29
CB
F0
83
04
30
C7
A5
AF
05
D8
42
DC
E3
78
F5
72
35
98
40
7E
33
A7
F7
62
07
5C
D4
66
B8
62
29
B2
E9
71
61
8B
F7
7B
C2
89
A2
62
73
24
E7
BC
D8
7C
89
CC
D7
41
18
93
E3
42
72
79
16
0D
C9
DC
52
2E
E0
38
98
93
7B
26
45
6C
F1
05
94
70
9F
40
0C
B3
DC
DA
6C
43
C8
43
66
72
1C
6C
D4
19
9C
BB
1F
2E
3E
61
F1
CE
28
48
C9
48
40
20
77
02
75
99
24
81
0D
C6
74
E6
C7
A3
D1
A8
3F
87
80
F5
8F
8C
1B
1D
A8
1E
B9
A4
9D
09
7B
D0
FF
05
AB
02
64
77
62
08
B6
0B
39
07
C6
FE
99
08
72
5B
10
77
3B
CE
84
90
51
02
F3
97
96
3F
99
C7
77
D5
42
F4
27
3F
00
8D
12
7B
A3
B5
13
A4
20
4F
83
14
D4
11
FD
61
84
F0
EF
DE
4C
D7
65
CB
3A
A6
C3
AB
A2
73
85
89
13
AE
59
9F
1B
1A
42
BB
37
5B
6D
4D
F8
46
E0
A4
C7
E1
75
E3
0E
DA
76
AC
8A
21
37
2C
70
FF
E0
A8
30
66
FC
6C
89
92
28
17
04
85
03
5D
CA
9D
62
8B
5B
5B
47
02
1F
8B
20
83
5B
8E
CA
D8
70
6C
2A
31
BC
A6
E5
B9
4C
66
2B
60
EB
3F
EF
DF
4F
3F
50
3C
5F
0E
A5
5E
C7
B9
76
29
B0
63
E3
65
01
42
2B
89
A2
00
F2
C3
BF
06
74
0D
6C
88
45
76
CF
00
2C
DE
10
04
AD
BF
E6
2E
F8
34
79
63
53
7B
A0
09
D3
A8
5A
01
54
5D
55
16
8A
D9
8C
66
41
5F
6D
DC
05
1A
20
B7
9F
40
F8
92
C7
67
B9
A5
75
95
E1
2E
03
AA
C9
53
A2
A9
76
CB
38
72
63
CA
93
6C
F1
E2
E0
DE
2C
B3
2B
AD
D2
FB
CE
A2
9F
30
D3
AD
E6
C6
17
B0
F4
96
98
D7
AE
F6
2C
54
B3
31
37
8F
DB
10
88
9C
1F
2F
C9
4A
E4
78
37
B0
65
01
66
8E
17
C4
9C
55
EA
BD
75
18
F7
54
85
69
A2
0C
AB
67
55
3C
C4
AB
25
0A
41
9D
70
D7
DF
7E
B9
60
34
BA
CA
1A
35
80
5A
F6
A4
36
AA
22
20
52
7D
11
93
9F
E4
D4
7D
40
6A
43
00
8C
66
BC
40
C7
B9
28
D0
8F
5F
5F
B2
C8
37
AA
C2
1C
08
B0
33
6C
63
8A
2B
75
76
42
8C
9A
BE
B2
B3
5C
B9
33
A5
6C
B4
76
0C
1A
4D
54
83
A5
33
AA
3E
75
76
B9
1C
C5
59
CD
73
2A
38
45
5C
AD
03
F2
6B
D5
C5
F4
62
B9
87
9C
AF
7D
0F
9E
C6
EB
47
EE
FB
93
B4
1B
A5
09
03
6A
36
02
61
B1
77
B9
6C
23
0A
A6
0A
5B
55
47
ED
92
FB
7C
DA
C2
04
64
EC
0B
57
DB
7C
E3
21
42
5F
D7
F7
6C
99
4B
52
FD
72
17
5D
66
BB
40
5F
20
3E
5B
F5
B2
A7
4F
9E
7C
11
94
6F
19
BB
DD
2D
A5
B1
61
E4
24
C3
19
41
D0
CC
75
A2
D2
96
A2
89
4E
E1
DE
70
9A
5D
FB
FC
6E
EF
4F
90
3E
3E
39
93
7C
EA
A9
AA
24
E7
9C
99
02
07
9C
FE
4C
F8
88
6D
64
FA
4D
C9
8F
5B
78
0B
27
61
47
65
C0
1C
01
F4
D7
E2
CA
34
F8
38
01
A9
D5
70
FA
DA
B0
AB
6E
AD
14
6C
91
5C
45
2C
44
63
DD
02
FB
17
B6
C7
79
CD
6C
0D
B8
B5
4B
EC
C6
F1
D8
AB
96
DD
B1
F6
12
37
09
F0
12
28
63
02
B9
4B
72
39
6F
97
49
F5
D2
13
0B
18
B0
61
7D
BD
AC
55
BF
36
FB
50
84
15
E7
97
5A
36
1B
33
4D
6A
4A
EF
0A
4B
31
2E
36
B3
8A
1B
41
18
36
57
E9
F4
88
7A
4B
3C
8D
2B
05
2A
E1
AA
D8
EB
DC
20
B3
20
70
68
E5
E3
94
BC
EB
78
2F
52
F9
50
39
54
D5
F7
C4
68
34
FF
E0
4E
AC
F8
88
DE
60
4C
C2
9E
58
3A
CD
D6
C9
B8
11
BC
C0
51
0B
C3
DD
A4
D6
C8
74
E8
CD
9E
86
10
7B
92
1E
BC
0F
C4
A0
57
A4
BA
E9
F8
93
7A
95
F3
13
5F
A5
E4
8E
9D
05
0D
E8
88
10
37
18
38
C5
2C
90
75
7D
C2
0B
E7
8F
F8
6C
C5
6E
0C
A9
DB
2F
0A
26
7D
5D
D1
FA
DB
54
72
B7
9F
FF
99
B4
0D
19
EB
46
08
C3
F4
C7
EE
94
F1
D7
AF
C4
F5
2E
C6
B4
FA
18
38
02
0D
D4
DE
37
7B
B1
EF
17
29
75
8D
23
16
20
FE
F4
7B
C9
E1
CF
C5
D5
7C
26
E1
D2
F0
7F
B5
1C
7A
7F
D0
02
8B
61
94
26
F4
E0
F6
03
6D
63
E3
A4
C2
3A
9E
5E
A8
5C
E9
85
25
AE
41
DB
18
E9
AE
89
63
6D
06
0B
95
B2
1C
ED
B5
11
39
75
56
74
18
41
B4
DE
AC
82
F5
9B
68
C0
58
20
ED
3F
6D
EE
4A
22
BE
26
52
97
2F
0B
22
AE
28
2E
E0
6F
00
77
9C
33
0D
18
65
21
CF
FB
AE
53
DD
EA
4E
4F
0C
AE
B2
DD
9D
43
82
6E
F8
DE
2C
E6
D5
38
71
98
C7
4B
4E
C4
C9
EE
E9
9C
21
F5
32
E4
AF
DF
77
5B
0A
F1
99
BF
73
FF
46
B4
3F
2C
91
B9
60
B2
D7
28
26
D9
80
56
0C
AE
FF
DF
5C
CA
4B
ED
8F
EE
A5
32
80
AF
3C
7D
3C
1E
40
91
C4
F1
E3
28
FC
22
3D
62
B1
81
0C
BC
DD
C5
0E
6A
B9
09
A8
17
7A
C9
13
2E
FF
02
05
1B
55
3C
EA
23
60
9F
31
14
61
B3
18
B7
96
1B
4A
44
F5
FD
7B
99
BE
F0
E2
F1
1B
B8
B2
B5
98
42
23
D6
D9
B0
D9
2B
17
14
F0
A0
69
D8
2B
99
BE
C1
D0
78
43
12
70
95
FC
D5
AD
93
01
61
40
01
32
68
69
28
9F
7D
41
35
EA
BE
E7
B8
69
C8
4D
91
0F
28
87
84
3F
4D
96
F5
74
07
5F
DF
6B
3E
04
2D
74
EB
95
4A
E8
A4
68
94
E4
75
3B
95
19
D4
2F
02
58
DB
45
08
14
95
F7
01
32
58
EB
ED
BC
2D
95
1B
CA
3E
CB
21
81
3B
DE
B4
C8
74
83
3A
BD
18
32
09
29
A4
6A
52
30
5D
CF
5C
E7
BC
CE
FC
2E
2F
6A
01
39
15
92
2F
66
7D
2D
85
A6
3F
6A
2B
F7
E0
C2
B5
73
F4
83
C6
28
13
C3
23
D5
92
3B
87
82
F2
FE
52
4C
B4
33
09
81
EB
C7
A0
0D
35
FD
E4
3B
30
25
65
2B
37
F8
DA
4A
92
52
5C
53
BB
6B
12
60
A4
73
11
2E
E8
83
72
51
6C
20
B2
FE
C2
D3
16
EC
BC
C9
80
5D
D0
B9
3A
B7
D5
86
F3
0E
7C
19
6A
72
C7
F1
82
82
E6
5F
09
E6
DC
96
7A
E9
09
40
C6
B6
DC
85
30
03
1D
FE
37
EB
48
12
59
E8
AA
BF
8F
88
3B
26
26
57
3A
0C
6C
8A
7A
D9
5F
E3
68
E6
CB
F0
9C
FD
2B
AE
8E
ED
07
2E
49
6A
87
1D
51
55
2C
CD
61
CF
8A
A7
58
A4
F8
75
A9
A0
60
1B
9A
AE
98
E8
84
F5
10
A2
C3
BA
DE
8F
F6
3C
52
B1
89
B1
EC
5A
7A
8B
FF
AD
49
8F
B6
D7
A6
68
4E
1D
2F
F4
FC
E5
AD
8A
37
F4
2A
83
2B
E2
D3
44
34
CF
64
1C
F0
4A
6C
7F
A2
C3
96
14
26
2A
F3
9F
81
54
B4
04
61
90
CA
14
18
63
8C
6D
A5
69
34
BE
C3
CF
F2
45
4F
B0
DE
B4
1F
11
2D
E5
4E
AB
65
E1
E9
66
FD
DD
4D
EF
04
6D
A8
D8
7C
D6
4E
8C
C9
0F
46
F0
05
DE
06
51
22
76
C7
E2
2F
4C
D2
5A
3A
23
11
0A
16
6D
10
13
BF
A5
D1
10
CE
4F
D2
CF
10
0C
74
68
09
16
67
3A
BE
5F
4C
4C
8E
EC
3A
31
35
15
0A
58
AD
9D
7C
9F
DC
00
32
F4
EE
21
06
14
E7
F5
9A
47
C0
34
BA
33
02
FF
24
86
64
73
04
71
35
8E
3D
EE
48
0D
FF
35
2C
3D
C7
40
A1
45
49
C9
3D
E9
E4
0F
15
B4
59
20
4C
EC
4E
C2
9F
EB
36
18
C1
DA
8F
57
C1
ED
DC
D4
5B
8B
5B
A0
20
85
49
AE
1F
13
37
68
E9
4F
E7
EE
A3
16
B2
FC
B5
EB
C3
DF
88
E5
AD
E7
60
C9
3C
30
36
E0
67
F7
4C
96
74
A8
34
6F
4D
42
A5
D5
EB
F0
01
54
20
E8
75
75
36
4E
E5
A4
F2
CC
B8
1C
11
C3
96
CE
8B
5F
30
F0
49
B4
4F
BB
14
B0
B4
88
60
27
98
9D
CD
8F
FE
B1
C8
4E
44
3B
99
44
6D
64
FD
84
33
43
CE
F4
BF
22
94
7C
5C
B9
95
0B
9A
45
B6
7E
78
CD
2D
21
2E
0B
28
09
BB
1D
EA
9D
6B
16
04
B3
F2
2F
2B
94
75
34
8F
4C
33
AE
F3
6C
9E
8F
FB
9F
94
63
A2
B1
2D
FE
04
F6
33
90
3D
40
FE
D7
59
83
64
9D
19
62
FB
15
3C
45
B5
C6
B2
D5
A3
D7
44
77
43
CE
B7
B2
4B
89
31
63
B4
47
7C
F5
0A
A9
23
6C
92
8A
97
53
38
21
CE
43
9F
1F
1D
92
3B
65
44
4E
8E
D7
E7
CC
55
E2
AF
46
6F
D8
15
C3
E4
6C
20
68
AC
4C
44
82
8A
20
F9
67
1E
29
5F
A1
A2
4F
FE
88
F1
11
31
84
B5
38
EF
A7
31
93
16
7C
D8
AF
FD
D4
67
17
89
1D
39
E9
A3
76
3B
AE
71
FF
C5
BB
10
B1
99
AD
B4
7A
F7
D7
5A
47
2E
9D
F9
10
4A
CE
EC
44
66
E0
87
1B
BD
03
E7
00
D7
60
AB
B9
D6
1F
BC
23
FB
E6
79
92
62
6C
F1
F0
73
09
85
E8
B1
1C
46
A4
DD
1C
59
AF
24
BC
D0
4D
86
69
A4
CD
F7
11
35
ED
0F
98
FF
D3
8E
6A
16
C5
49
08
DA
10
6D
64
B8
62
43
91
32
41
1F
8B
E7
A7
B1
4E
39
E1
1E
A1
92
0D
1C
E3
9A
BB
6B
F2
D8
56
85
88
E7
5D
6C
45
18
37
80
96
94
F5
7D
AA
7A
45
14
F2
18
51
FB
08
7C
B6
A0
C3
B2
FE
41
00
46
AD
32
70
22
E0
7D
06
45
C8
14
7A
67
E1
EB
72
B1
56
DE
A5
8E
57
15
8E
97
41
40
33
30
16
97
01
43
D2
B1
16
06
3A
7B
65
5D
32
AD
4F
7F
95
75
0A
50
18
44
C7
B5
9D
3D
A7
F9
F8
DF
41
25
6C
98
A1
5D
6F
79
21
2C
48
C0
C8
66
DD
11
38
88
C0
D7
8B
36
2B
D1
AD
D2
A3
79
9F
33
B3
2B
9D
CC
05
88
47
6E
69
35
B0
30
4D
E0
15
E4
D8
6B
52
B6
18
C0
BC
D2
81
9E
E6
45
13
A3
9C
CB
38
A7
73
CE
83
36
F0
6E
B2
82
83
82
E7
3D
FD
43
14
E5
F2
64
9B
E7
D8
25
EA
B1
FA
C5
B6
51
FC
30
DD
5A
A9
5B
0A
BF
A5
07
47
DF
F1
F2
FA
89
17
73
3A
A0
8A
F7
43
FF
16
5E
18
AA
4E
D4
66
9F
CE
F5
EC
A9
50
AC
E2
A2
3C
1C
BB
16
8F
4E
EC
9C
0F
B0
A5
E3
9A
17
FD
E6
78
94
BE
8A
70
70
A1
8C
50
16
D9
3E
E2
5E
F1
90
96
E1
F4
3B
6D
9B
7F
A3
99
9F
17
FF
45
95
D9
76
AE
BD
19
0B
02
42
B9
91
93
75
3A
77
F8
48
D8
83
61
05
32
06
D3
40
05
0F
06
15
50
95
9D
B2
E0
B3
E7
C3
6A
9E
D4
6C
24
B1
53
73
1D
6F
CF
B8
9E
D4
81
C7
C5
8D
EE
36
76
93
8E
E4
54
D5
62
A9
33
9A
50
FA
CB
0A
8E
B3
9B
F8
4E
BC
AF
3F
19
12
D2
C7
42
6B
E9
1E
F7
80
67
4C
3E
A8
49
31
FC
BE
03
C8
07
D7
6C
01
CA
2F
E4
39
F5
D0
45
41
74
9F
52
65
98
B1
FF
1E
7F
8D
47
AA
1B
10
35
74
6F
5F
96
8A
97
E0
67
16
4B
1D
94
74
3B
78
56
1D
87
F4
DB
88
4F
6E
93
AE
0D
B2
5B
19
CD
61
4F
EC
FD
DB
EB
C3
E2
BD
8C
8E
6C
97
A8
27
B3
77
E5
67
ED
FE
A8
BD
EE
BE
DA
69
B9
8D
DA
AF
E7
F5
B2
39
4A
21
7C
19
8D
BA
70
D8
38
6E
A3
68
E8
C0
95
E4
FE
55
FC
84
8B
A0
12
AA
C5
6B
B3
B1
1A
75
D0
E9
3F
6E
2E
57
D4
39
14
44
11
11
7C
96
21
6E
1F
69
B2
66
C3
E2
50
8B
7C
92
4D
C9
19
3A
61
C1
22
A9
38
81
4A
AA
CE
C5
DB
24
BC
D3
A8
62
15
E5
11
E4
AD
1B
AF
E7
71
77
DC
3D
7B
7A
9B
CC
6F
29
E6
51
F1
02
74
08
95
AF
C7
FC
AD
E4
24
97
5A
E4
24
B7
E4
E9
EB
C0
93
D8
13
C8
30
56
91
63
FC
8C
FC
F0
4B
38
0C
51
12
D7
D4
C1
1A
82
A6
E7
DF
71
F4
F8
4D
BE
56
02
4F
F2
76
C6
F8
25
31
39
77
3A
BF
7D
F6
1B
E0
B9
BD
19
AE
A8
C2
53
26
F8
E8
5A
6B
63
85
40
C5
52
02
49
2F
E1
C7
C9
6E
85
A9
3C
52
B1
8D
B8
2E
CE
11
F5
EE
E5
00
00
DE
92
86
9F
63
65
80
F2
46
F0
BF
1F
0C
53
99
EA
96
66
2B
9A
15
08
44
8C
69
87
C3
10
0C
0B
34
9B
DF
3D
4F
58
5A
18
46
33
14
4D
9C
71
11
A6
9F
A3
60
75
A8
2E
75
64
25
C1
99
23
A6
9F
6F
67
B8
1F
5A
BF
04
C5
6A
34
6C
F5
6D
FB
26
5E
01
75
5A
7A
19
30
DB
B6
B5
A6
CE
C8
80
99
F0
6A
5C
8D
81
F8
89
4C
90
F3
DB
DE
60
7F
1D
D3
98
4F
BF
CE
E0
58
AF
49
C1
27
BD
45
5E
1B
84
F6
67
50
71
E7
DB
1E
E1
F8
53
76
2A
13
81
56
DD
A8
C4
1E
F4
3F
35
99
BA
3D
07
03
A7
E1
9C
E6
0D
A6
E2
6A
F6
0A
49
FA
FC
DE
70
6A
F5
AB
25
6A
20
15
81
F9
C9
26
16
B9
0D
60
A2
74
E0
DF
3D
F4
24
3E
46
4E
D8
8E
BC
E4
62
EE
98
E5
1D
87
D6
16
00
6B
B1
C4
BC
99
DC
68
C1
30
1E
FD
6F
28
45
BB
92
3D
85
AA
85
35
A9
D8
E0
54
54
DD
7B
F8
3A
F6
FE
AE
8E
99
56
6D
9F
C2
8A
73
05
73
42
20
E3
C3
4C
20
BE
36
02
78
0A
AE
8E
1C
2B
D1
BF
37
FC
BA
A9
7B
B0
E4
07
BC
D3
CA
0D
D1
C4
CA
49
FC
C2
E3
2D
AB
C0
8F
28
FD
B0
39
D1
47
D1
6A
AB
30
C5
D8
62
C8
4E
00
CD
9D
FE
7E
BA
94
F7
D9
41
2B
C5
AC
F2
18
06
5D
82
02
5A
F2
ED
2F
7B
85
FB
29
9D
DA
64
31
45
33
96
40
56
12
CE
68
BD
65
35
56
F8
EC
1C
23
CE
AA
8E
6F
E6
12
51
88
D2
26
8F
4F
91
6B
E7
01
4C
9F
8E
01
C8
EF
12
2E
46
40
3E
E1
E8
D8
A8
4B
AD
2E
96
5C
3E
8C
7D
9D
ED
49
EC
58
94
D1
97
13
41
A3
C2
51
7B
D5
0F
1D
E9
C5
02
87
C5
9A
03
6A
97
47
8D
0B
61
97
81
E9
BC
93
B0
7F
B5
55
C4
9C
70
08
8E
2A
67
F6
31
8E
CE
FC
66
6F
1C
E7
38
72
F8
77
4F
6C
1B
F1
D9
AA
2B
A6
79
7A
1E
D2
05
B4
62
F6
38
53
08
71
F5
C9
DC
00
EE
70
88
0A
6F
3A
2D
68
D0
01
AC
E9
F8
B7
69
C9
45
71
20
00
85
86
2A
DA
B9
A2
9C
50
76
FB
A5
7A
7E
05
99
EB
7B
02
3D
AB
F4
A7
25
32
3F
7C
61
10
F5
71
67
66
EF
BA
7D
F6
92
50
C1
6A
A3
10
4C
77
1F
4A
04
C1
FC
0D
AE
6F
60
9E
25
16
D8
7A
1C
A8
9B
EE
FE
7D
9F
3A
E1
3A
99
C9
BB
C9
20
39
7B
F4
3D
D1
76
69
F2
A3
92
5D
AA
3A
A1
E2
E3
43
9F
18
F0
A1
D8
90
52
47
0F
FB
45
A1
D7
6D
25
CA
C1
12
A2
1F
53
D1
3E
29
F2
51
46
C5
7D
2D
B0
18
85
22
94
57
A3
C9
F8
0F
64
16
D6
67
12
6C
61
E8
C8
D5
B9
1F
F2
2B
0D
69
B8
08
2B
C8
6E
9F
59
A6
A6
59
D5
F0
5E
5C
45
21
F7
BA
BA
37
E8
29
2B
EF
94
BD
08
48
1E
92
8D
95
3F
EF
FE
0C
0A
5C
11
57
06
74
51
5C
AF
7E
16
16
74
F8
8D
8F
62
22
AD
FE
A6
CB
AF
B4
C3
87
4F
11
2C
D8
23
8C
11
DA
73
98
06
6E
E8
3D
62
2A
16
BA
E8
F6
45
3E
3C
2C
6D
4C
4D
85
DA
56
BD
0C
04
4F
77
0A
D2
27
3A
65
6C
50
17
C5
E7
3B
75
C4
68
B1
61
86
F5
A1
D1
36
68
7C
6C
B6
08
57
EA
12
44
1A
E7
6A
B1
FC
B8
05
9F
8E
DD
D8
E9
E1
6D
08
70
62
30
93
AA
6D
92
18
18
5A
8E
31
85
8F
B0
47
0E
33
BB
B1
95
FB
DF
E4
B7
B6
4A
A5
95
79
E3
41
8F
F9
64
38
04
54
EE
15
2E
21
FC
37
C3
8A
CF
23
CE
7D
C2
B2
8C
94
25
43
08
EB
6F
EF
4D
65
BF
00
94
B9
88
2F
20
89
D0
A0
45
33
A0
97
2E
BC
E0
B0
03
B4
7F
C4
CC
C0
EC
39
EE
5F
69
2F
4C
58
82
B8
57
FE
5B
BF
27
B4
A7
62
61
42
2B
E9
0C
72
02
F1
3B
3F
F9
B4
F1
A1
92
BB
D2
66
17
7D
87
23
79
71
9A
DC
99
59
B0
59
F6
70
81
A8
F5
AA
6B
D6
E6
A8
84
FB
5F
6A
C5
2F
CC
99
AF
9E
40
BA
2B
97
0E
68
27
9D
F4
B0
5C
EB
66
F3
C9
3E
CD
BF
D2
2F
B2
84
B8
AF
A7
AB
D8
97
07
11
46
AB
9C
FA
4A
5E
3C
B8
39
31
5C
D8
AB
33
E3
6F
80
2D
A4
E8
4F
39
21
27
44
9B
B9
65
D0
26
0D
70
85
1F
08
AD
44
A1
94
39
EF
20
1E
54
81
4B
F2
97
13
AB
50
9B
F7
A9
D5
2D
8B
B8
52
C3
B0
8A
F9
47
36
88
E6
B5
E4
E6
C0
F0
BE
3B
AF
20
77
F7
6F
42
FD
9D
5F
70
74
55
F2
53
DF
27
CF
A2
D6
37
6D
26
E6
BC
52
EA
CC
9F
59
F8
31
A2
FD
AE
F7
BC
72
46
3C
18
C8
DA
98
60
D0
04
A6
F2
CE
F0
F6
ED
EA
A4
18
CF
42
00
0E
91
5B
D5
EF
20
25
7C
D9
55
76
B7
D4
B8
63
86
C7
F8
E5
70
79
90
55
BF
0D
0B
0C
07
B8
13
C5
6B
9E
AB
C8
7D
25
9E
2C
7D
9D
47
74
DD
07
08
87
BF
81
63
60
B8
46
D1
A0
1B
6F
69
72
99
34
9A
62
FD
4F
2F
6B
21
00
5B
33
F0
C1
B1
C1
5F
6B
4A
E5
15
F8
8D
ED
7B
05
8B
23
93
0C
D0
7D
8D
1F
C6
4D
96
0A
2E
D5
42
66
AE
C1
92
B7
60
BB
4D
B2
F5
9A
E7
7E
A7
54
26
96
0B
BB
A4
32
5A
96
62
54
0B
CF
80
6E
B4
AA
FA
77
38
E5
12
0E
04
06
0E
F9
F7
4D
D8
57
5D
65
00
10
6C
79
1E
89
1D
FE
E4
17
35
B0
B3
3C
23
A3
AA
73
74
CB
FF
04
91
55
AD
CC
EB
93
55
93
01
40
31
00
85
83
13
96
A0
35
68
6A
17
B1
BD
F8
D1
66
EE
A6
CC
61
2A
DC
79
31
04
CE
C9
E4
CE
8F
9B
22
F7
FA
53
36
41
40
33
5D
8B
19
4E
E2
FA
54
64
9B
7F
10
C4
A4
B8
6A
7A
25
BB
C0
C4
99
B6
14
5A
0B
46
F6
4E
78
41
B2
DD
08
C7
6F
9D
27
48
4B
73
44
F9
52
6C
DD
9A
82
AC
30
9B
DD
72
0D
A4
A3
0C
8A
4E
78
1C
45
12
14
AA
74
DD
BD
15
1C
B2
E7
23
53
0C
8F
59
1B
2C
10
63
D5
05
BF
F2
63
DD
34
44
81
80
A8
11
29
69
82
6E
17
FA
B2
D5
94
78
36
B7
4B
E5
7C
8D
A0
18
C3
2C
F9
E2
E4
D0
E1
99
2F
1B
FA
8C
09
B7
4C
12
29
32
41
89
50
26
4F
AC
FC
CF
2A
46
05
12
3F
0E
6B
E5
7E
D6
B8
24
C8
E3
48
41
7B
6A
58
95
6D
9E
C8
FE
68
7D
87
6B
8D
87
F4
83
87
FA
EE
E6
5F
1D
28
71
3B
61
E4
24
28
60
02
6C
1D
00
63
3F
1A
0F
C3
09
92
71
2B
47
DE
0A
BE
BE
EE
9A
9B
F6
43
55
89
43
23
A7
00
0E
F1
D2
BC
6E
B4
AB
D2
81
F2
45
FF
19
70
77
9A
9A
7A
B8
0C
42
4B
AF
09
66
F5
A7
5D
65
DA
26
F0
4A
07
D3
A3
DC
74
82
69
76
17
B6
EF
53
95
00
8B
49
3E
16
23
6C
71
E5
B2
8D
35
C2
C5
CC
14
BD
DF
AC
40
72
AC
4B
98
A1
8F
C9
73
90
29
39
6B
2F
9D
1B
10
5A
AE
35
16
34
ED
2D
8E
3C
1E
87
98
66
64
38
4F
D6
E6
86
02
65
F0
50
12
8A
97
61
35
8E
52
D2
C0
59
2C
F4
C7
75
2C
47
A7
8A
9C
B5
09
86
3B
1E
CB
2E
F5
8C
A5
EF
A2
71
F0
87
FE
1F
F3
04
B6
F4
95
D0
44
D3
2B
56
38
66
C9
C1
D7
C7
6A
5A
A3
FD
32
3E
D1
53
93
14
CF
0D
69
C6
73
4E
73
76
BB
B2
87
78
12
D1
9E
F4
FC
8C
8A
65
EF
72
67
59
F4
E4
B7
DD
5D
04
26
8B
CA
C2
CB
6F
9C
CB
16
8A
DF
B6
AA
B5
D3
93
BE
D0
47
18
0C
89
75
16
3D
76
57
E9
59
EF
80
F2
D8
0F
5D
8B
92
8E
08
37
BE
B9
BB
03
82
CE
F6
A8
0C
76
D0
77
0B
53
92
82
33
83
FF
0A
FB
DF
07
C0
4A
FA
54
C3
F4
15
FD
2F
98
A2
40
15
C6
8D
D2
50
CF
5D
A1
2B
0E
1E
00
72
0F
C9
19
22
6E
45
5F
E6
3F
5A
A8
E6
68
7F
48
4F
60
0A
CB
DA
8E
23
CE
F1
2E
C9
53
51
0E
4F
43
98
8B
17
C3
74
6C
D4
5E
5E
7A
FC
C1
01
C2
A7
DB
05
51
E8
72
7D
FF
E3
B2
52
84
70
F7
6E
98
29
1F
17
5B
F6
F7
CB
F0
EC
90
DB
57
D6
37
A0
FF
14
F6
F0
43
5F
DE
4D
6F
F4
23
5A
8A
D0
4B
2F
AB
FE
8B
B1
71
32
44
95
36
50
57
42
32
36
F7
C3
79
D4
C1
51
03
7B
C7
12
14
83
51
A3
26
3D
5C
76
07
56
35
F7
0A
98
5C
96
E4
DF
42
7D
6E
C5
1F
C0
DB
8D
F2
9F
39
28
78
E3
4F
E5
F5
A2
6B
E9
DF
FA
74
B8
D3
56
54
A5
3E
5D
7E
BD
56
BB
89
28
AB
4C
85
2C
56
4F
B9
CF
3E
73
22
7D
51
B4
7A
5F
40
6A
C6
8F
23
DD
0F
12
73
0A
59
24
91
7B
04
EA
2C
1D
08
54
51
96
36
CE
22
33
AD
BC
AB
CA
6C
19
DA
72
D4
5D
E5
7E
0B
67
5B
0A
EB
CE
5C
E6
53
BF
D3
A5
AC
EA
1D
14
E3
7C
A9
F7
30
8C
7C
0B
17
5A
DB
FB
96
56
FA
D1
F2
A1
3B
69
E9
7A
D7
4E
DB
61
4E
BE
59
16
9C
EF
D4
F9
CA
0E
F4
6B
B9
18
DD
F9
7E
01
19
93
2C
7E
14
35
AA
61
BA
C8
F3
B2
26
B9
7F
B2
1E
3A
3B
66
22
93
17
83
CC
EE
57
7A
1C
26
F6
FF
18
F8
E1
E4
53
4D
B7
62
53
F0
17
89
D4
D9
68
E0
C6
5A
97
80
40
E1
39
CF
75
DC
4F
85
3E
9F
BD
F7
E1
A8
0B
07
AD
EC
4A
D8
66
44
15
D0
18
43
93
B5
FE
56
4F
3B
5C
14
DF
C7
04
E0
0E
A1
4B
E8
21
31
B2
97
B5
E8
D8
8F
9C
77
EA
1F
5B
B6
83
D2
68
36
89
99
4A
7F
A5
02
F1
0E
FD
E2
64
08
21
E6
17
41
B5
51
96
CD
ED
78
6F
F5
6D
73
39
8C
52
86
C5
EF
83
DF
63
F3
B4
57
D8
A1
E0
8F
61
62
F4
34
31
24
F5
D7
CF
36
82
03
90
4E
8E
AC
D4
ED
81
1F
66
A1
4E
E9
0E
04
1E
E1
68
44
3D
52
19
E9
63
CD
D4
1F
7A
65
24
3B
DA
39
D8
DC
4B
0C
57
96
22
95
F4
BB
6B
FB
8C
E1
EA
DE
9D
9F
D5
2B
CA
D4
AA
AB
2D
D4
78
1D
06
C4
6B
96
A3
10
A4
0B
52
E7
8B
EA
3D
11
17
0D
F2
86
26
23
C5
1A
C3
2C
FC
AC
37
C7
9C
9F
7B
17
10
52
49
FA
BA
66
5C
76
46
85
62
82
CD
69
9C
4D
A6
5F
EA
B2
BD
1B
1A
F1
00
19
5E
CA
D0
FB
69
EC
10
1A
86
B6
E3
9B
CF
FD
8B
7A
29
25
A1
16
43
5B
BD
68
BC
56
34
02
EA
D1
90
6E
8F
13
63
88
9A
60
C6
9D
70
01
CC
70
8A
E6
CF
7A
F2
E4
48
4A
66
99
B1
01
E4
F2
AC
F3
BD
01
BB
D5
A8
C2
F3
80
90
D3
E5
FB
EB
C9
31
EA
CB
29
8A
95
90
D4
E8
E8
54
27
27
B2
D3
88
37
B7
B3
81
61
D2
68
9B
75
85
F1
02
DE
34
16
0F
C2
A8
47
83
85
80
FE
16
ED
22
FB
DD
D3
66
2A
65
50
18
69
4C
F6
62
40
85
41
DD
09
C9
24
C1
29
36
4E
92
5B
D0
0E
65
56
87
F5
4E
26
48
43
0E
4A
61
A5
E5
4D
50
D6
E1
99
F3
76
91
18
EA
00
18
FF
71
C0
9E
2D
D5
3B
71
0D
BF
57
6F
20
42
0C
48
C7
28
43
21
0B
27
14
C4
20
DC
DE
D2
4B
66
E8
13
05
9A
C1
E2
F0
26
C5
79
A3
F6
6F
0B
F3
34
96
91
DF
27
D3
BD
D8
33
E6
21
2D
24
A4
1B
03
42
00
74
57
92
19
33
07
A1
36
33
2B
CD
C8
A6
02
54
E1
10
E8
FB
1F
DC
5D
41
57
36
45
89
2F
F2
FA
33
B4
D8
71
A9
29
97
E5
BB
C3
0D
E5
D0
10
23
40
01
D6
88
8D
DA
87
02
69
80
3E
CF
EE
B1
BC
0D
D3
A3
DA
2B
ED
60
87
32
C2
15
7C
2B
76
70
41
F3
21
E2
06
17
95
E1
43
97
1B
51
E0
F5
3A
A3
44
31
8B
78
C1
93
FD
02
00
24
1A
AB
C2
3F
47
75
6C
34
D3
8F
CE
86
C8
FB
02
DA
40
8A
BD
1E
50
09
61
36
30
B2
89
23
50
A9
2A
88
2F
D4
C2
96
1A
18
4B
94
0B
E2
54
55
8F
77
49
4F
A4
05
55
AD
3E
6D
69
1C
2A
FE
32
FD
25
AB
09
BC
3B
07
D4
06
3A
A1
97
55
C0
28
A4
47
40
6D
17
B7
0E
00
9D
0B
81
82
1A
E7
33
33
DA
CB
62
65
B4
3B
26
DA
54
53
13
F3
C8
3D
01
4C
2B
39
89
AA
53
12
8A
2E
D1
A9
C9
71
11
A6
30
52
13
01
93
12
29
06
A2
45
78
7B
F9
2E
A0
74
80
74
E8
61
19
4D
0E
FA
AA
04
0A
37
D2
FD
CC
47
FB
3F
13
75
81
6A
AA
49
38
F3
42
87
85
AC
EC
76
AA
BF
BB
E3
84
AC
85
67
D5
23
18
48
53
88
43
17
F5
96
09
16
53
9F
4D
51
9F
DC
8F
C0
A1
AC
56
7E
21
9B
B9
75
0B
E7
F9
C8
0D
B3
AE
BA
96
0A
A3
4C
47
FE
C6
7E
B9
92
B7
9B
ED
3F
33
38
5B
40
5D
74
89
48
B4
A4
37
38
5E
4D
94
41
86
A0
36
83
72
50
9C
9C
71
F3
14
03
0F
0C
55
7B
D8
F7
16
80
BD
7C
2E
5B
0E
AC
2A
11
2F
49
F4
ED
83
E8
04
8C
EA
60
C1
E7
00
28
44
45
2E
D4
82
B0
59
70
4E
F6
BF
6F
60
EA
D1
C6
FE
AE
F6
96
7B
66
3F
DF
FD
55
48
9E
08
FC
6E
E2
2F
1D
BC
5B
3F
9A
46
89
36
C7
44
2E
40
6A
93
ED
7D
9B
48
02
72
F4
BA
16
26
81
23
7C
3C
13
BA
08
81
CA
1E
7A
2F
4D
67
3E
66
97
A0
F9
C3
4C
7C
1A
53
47
C5
BC
E4
AB
40
96
D2
94
15
30
11
95
85
FF
D3
48
DF
AB
35
F9
52
E6
FC
B9
56
10
C6
69
4D
1C
39
7F
8C
DA
D0
6A
27
66
E3
0A
7E
0A
80
4F
45
B0
89
F1
D6
E3
B1
B4
E2
69
97
08
9D
DD
13
C2
78
73
E5
F5
B6
7A
D9
63
40
50
F1
33
B6
2D
D5
72
4D
10
BA
E9
CB
82
B1
8C
33
0C
59
80
67
94
EA
AB
E1
5A
7D
4A
C2
31
0C
97
2B
74
9D
84
6C
20
3B
FF
C0
21
D4
C1
C5
CF
5C
D0
42
6F
A8
D0
47
99
28
93
F9
8D
5D
BF
8B
98
D0
8E
36
FA
6A
43
6A
D7
C1
35
7C
E9
0C
0A
DF
F3
C5
96
D1
9C
EC
80
35
92
4A
A9
F7
8E
16
F1
68
3F
C3
2E
58
76
94
72
B0
80
1F
F8
93
24
DF
C3
46
57
1B
25
D3
BD
6B
81
C8
84
95
2C
06
D5
CC
9A
8C
75
0C
E1
E3
C6
CD
CC
67
4B
F0
EE
11
52
0F
3C
47
2F
54
51
40
82
69
0A
CF
1E
7A
C4
0B
E7
B0
9C
CA
2F
D0
18
5C
1F
6C
4D
DD
69
66
B5
14
90
8B
AF
C5
3E
6E
AD
64
2E
98
28
DB
12
59
E5
F7
B6
26
28
8C
0A
5A
BC
99
77
69
64
EB
CB
77
8A
5D
49
07
AB
5F
28
F2
1F
E5
4D
26
30
E2
9E
EF
05
15
23
83
F3
B6
8F
8B
38
88
D6
92
05
C8
B9
74
2E
9E
6F
25
3E
A6
E3
CE
B0
43
70
C1
95
5F
51
AE
42
22
7C
5F
92
23
AE
E1
B6
B6
AF
EB
A1
60
09
BB
28
DD
3D
63
68
D6
CC
F3
06
03
5A
26
38
00
E1
E2
0F
5A
0A
C2
3A
9C
F1
DA
A5
64
5B
91
88
7F
3C
64
F9
FE
FD
62
CC
CF
DE
62
21
02
20
5B
2D
78
BF
BD
A4
CB
98
26
2A
93
70
15
2E
F0
40
57
85
A5
7C
52
FB
18
83
07
A5
38
A6
EE
6F
69
9D
80
7A
D5
39
73
F3
AF
8F
E5
3C
0D
18
45
83
CC
9A
CB
84
C5
F8
79
45
2A
4D
07
3B
02
E1
49
CC
46
9A
E1
ED
BE
AC
C4
57
8F
CB
73
5B
41
C1
D9
4C
43
DE
30
69
4A
5C
C8
F0
11
9E
C0
B7
F2
27
26
51
D7
A7
52
BA
D7
07
56
FE
79
D9
40
06
CE
C6
36
C3
29
4C
29
1E
E2
F4
0A
D7
40
93
7C
D5
99
3A
BD
54
AB
E8
17
2F
F9
A8
6D
29
F1
1D
C9
59
C5
D0
46
1D
21
7E
78
74
1F
BA
4E
F3
0B
6D
72
7D
70
90
22
32
80
79
00
A2
95
A6
D3
BD
86
5F
D1
32
3C
D8
24
D6
91
2A
7E
77
E5
9B
56
6C
ED
9C
70
E7
2C
E4
01
B1
1E
EA
C2
9D
AA
B8
6F
92
1E
1A
10
DF
35
D4
5A
31
C5
DE
5D
B5
11
17
B8
FA
4C
63
93
52
CB
1E
B7
55
69
E8
75
83
BC
E3
09
EC
E2
7F
2E
0B
42
A9
1D
8E
62
9D
4C
F9
91
95
E7
8E
F1
D9
4C
89
4B
B3
CA
75
CC
F1
FD
3C
48
B5
63
92
A7
81
53
B4
84
97
2A
C7
CF
86
34
F2
8F
C2
42
38
59
98
D2
DE
6F
74
A8
08
E1
D1
6B
1C
D4
0B
F2
06
0D
A1
71
C7
02
A1
9D
68
FE
83
8C
90
23
C5
06
4E
16
7F
98
8F
76
95
A6
C6
A6
2E
97
69
3E
DB
F1
52
F9
D4
08
A5
E5
CF
5B
58
A8
9F
D1
4B
81
FD
EE
DF
DF
E1
31
AE
BD
AD
AB
09
EF
D6
4A
FA
0E
99
30
97
E0
65
2C
31
BF
32
25
C3
22
5F
C4
7D
F8
21
2D
2A
9C
6A
95
A4
61
00
B3
AC
16
5B
C1
E9
DD
EA
96
35
1E
45
A7
FC
80
9E
74
E6
23
AA
1A
2A
37
6B
43
C3
16
2F
4D
E3
4D
40
E8
24
21
DC
81
D8
E4
B7
36
A8
E0
10
4E
DD
6A
9A
48
7F
DE
11
35
80
1D
0F
0E
5C
FF
AB
DE
0F
B8
7B
46
24
C0
6E
BF
A4
05
43
EC
86
57
60
58
27
D1
06
30
B2
D9
D7
C3
3F
E9
36
34
E0
5E
A6
A0
71
1E
98
99
15
1A
F8
00
2A
DD
23
91
3D
DA
58
61
B5
9E
0B
2D
9A
63
5D
4A
1C
E7
7D
27
0F
DC
C8
37
D4
33
F2
1D
8A
29
68
40
14
19
70
DC
88
D2
3E
F1
1A
11
89
A7
7E
46
7F
7C
E6
03
15
F4
55
70
03
D9
CE
10
74
2A
6A
EF
D6
36
96
1E
EA
75
32
BA
A5
2C
DC
49
38
BE
E6
B6
87
E3
4F
1A
AB
36
82
80
E6
7E
8F
F9
46
AF
87
B0
28
E5
59
2D
4B
79
A9
A8
22
10
C8
CB
4A
6E
A2
84
9B
EA
C6
90
1E
A5
C7
9F
5A
6A
E2
D2
BA
77
2F
5C
C6
27
35
5F
EC
D1
FC
2A
F2
AE
ED
A5
36
EE
66
D0
01
CC
23
72
BF
96
05
C0
20
0C
C6
C2
F3
4C
0B
E0
B8
FC
66
08
F8
C6
BA
5A
70
B2
40
37
A5
2B
B1
66
47
52
AA
51
51
18
AA
30
BB
26
B0
96
CB
84
58
F0
7C
64
CB
7A
90
A5
B6
FD
76
38
5A
6D
C2
D5
56
D3
80
7E
D2
CC
88
F4
D4
1E
2A
C8
B1
15
93
DF
14
4E
FE
A8
57
6A
1B
FD
0C
6E
99
6F
A9
79
C7
79
F2
1B
73
1E
E3
9B
08
51
77
3C
08
F5
8E
4F
AF
75
B1
00
37
45
80
BC
E5
A4
32
2A
20
47
A1
91
DB
81
29
A2
3F
A5
3D
AD
55
A2
5E
1E
40
C5
F1
40
00
E3
9F
6F
F1
FB
63
A5
72
2A
3C
26
1B
F8
5C
9F
C9
1E
B5
35
EC
E9
C9
ED
9E
7F
B9
B5
70
6F
D4
27
55
FB
E3
DC
AA
2A
97
79
1D
0F
9A
E7
9F
95
14
05
8F
FC
11
EC
6A
04
F3
9E
BB
F7
36
5D
3D
32
43
CD
E7
4A
2E
C4
A5
00
35
D3
18
E4
11
9A
37
2E
7F
77
FC
01
C8
AE
89
79
F3
59
3D
74
FC
E6
B0
64
BF
90
F1
66
30
38
8A
5E
5D
98
14
E7
A2
53
B9
D4
EC
66
E8
78
DD
8E
CC
AC
A6
08
FE
6A
ED
FD
B9
EF
FD
78
BC
A3
B9
DF
01
72
38
60
34
60
05
D8
B0
45
CD
F7
5B
89
ED
40
68
1F
DC
02
A0
F4
DF
FC
09
AC
4D
BA
DE
33
13
58
7C
D7
31
4F
7B
75
08
8B
09
2F
CB
C4
EF
03
8D
F0
F5
E0
77
D9
9C
D7
96
09
BA
86
2F
73
8E
17
E1
77
E2
24
4F
58
42
18
D1
B0
92
A4
FF
C2
01
E2
37
2D
22
85
E8
9F
C7
68
78
09
37
07
27
98
F2
AF
60
CD
34
66
C4
D1
9B
DB
A6
DD
E7
C8
C9
C2
DD
5F
55
40
30
8E
2A
C6
F4
42
EB
D8
33
48
E0
87
65
2B
79
77
BB
ED
9E
2D
6C
9B
45
16
DF
3C
63
ED
94
40
82
4E
B3
40
83
B2
60
A2
F7
A4
C9
5A
9A
3A
30
51
E5
6E
00
E5
58
E6
07
59
E4
BC
F3
81
1A
F6
C5
3F
68
49
A3
AE
63
BB
20
6B
ED
72
EC
F9
AE
58
81
29
3B
1B
86
C8
23
4B
D8
51
75
85
2F
2C
AD
27
23
C7
3C
90
D1
C9
A9
CC
32
37
FA
05
93
BF
06
03
76
F2
9D
C9
8C
3B
31
1F
30
7E
73
20
4A
53
AE
1C
5F
1B
DC
F6
CA
B5
A7
75
6C
F1
7F
54
07
3D
E8
DD
E8
74
04
BC
4B
35
45
45
95
8E
B9
CA
16
B4
AB
EC
68
2F
C6
B4
6E
E1
E6
BC
53
55
1F
4B
34
13
4E
9F
21
B4
72
02
27
72
4C
75
BC
1F
D1
D5
6F
9B
49
97
09
92
A7
79
20
AD
38
B5
8A
B1
0A
B2
06
FF
A7
5D
78
00
67
E6
C4
AE
AE
68
6B
D6
81
6B
C2
9E
DA
DB
6B
0E
B3
37
5F
FD
75
29
36
3F
77
F2
87
0F
EC
E0
AA
F6
F1
4B
0E
13
EB
16
BF
14
C7
E3
88
8F
30
D7
70
D3
BA
71
D1
5B
25
5C
E9
A6
0F
2B
C1
18
77
57
2F
99
57
6F
73
4E
FB
23
E9
94
FA
7E
A2
AC
D6
07
9D
2A
76
FB
6F
E1
4D
EB
37
AB
1A
A6
25
18
49
23
9E
F3
7A
F2
46
8A
9B
88
B8
13
D8
3A
CE
4B
C1
FC
18
55
2C
E3
D5
AA
A0
7C
E5
78
7F
DA
A8
8C
3B
6F
77
3B
B1
EE
3C
ED
7D
0C
AB
BD
AD
A6
A5
09
22
96
49
B0
EE
5C
54
78
28
A4
26
1E
B9
B0
58
31
CC
49
C8
91
B6
86
6A
89
84
75
6E
5E
04
2D
84
DA
95
3D
77
3A
21
0A
4C
E9
C0
C5
29
D9
BA
82
F2
65
90
1D
FF
0D
32
D9
D0
CF
B0
E3
A6
77
88
60
CF
47
C9
04
AE
79
7C
33
9D
01
8E
8A
F3
91
6C
F2
F0
DA
9C
88
95
32
FE
CC
91
1E
B4
08
07
DF
98
29
82
04
54
13
1E
F7
D0
7B
92
5A
DA
4E
88
8C
1B
0C
1F
61
96
6E
91
41
66
B3
C4
13
63
B2
77
E0
02
46
6E
D0
20
E6
F8
FC
C6
EC
D4
67
44
D0
EB
BD
59
A2
6B
7D
10
A8
6D
55
50
7B
BE
43
6E
D3
6B
3C
42
1B
F2
82
42
2F
18
28
21
82
48
C4
07
F7
24
3C
2C
97
FB
E7
3B
98
33
3A
B7
A0
74
F8
45
C3
A8
F7
64
C7
3D
6D
6C
45
AB
A4
FD
DB
72
FD
95
E7
BE
2A
A0
37
82
4B
B1
45
F0
7C
C6
2C
C9
01
F0
4A
44
2F
E7
8C
82
C4
D2
EA
23
9B
6F
F5
AD
2D
AD
65
66
57
33
AE
6D
0D
76
5C
12
32
49
D9
8B
EC
D6
8C
27
3E
41
1D
B4
CA
94
44
D3
AC
97
3D
48
1A
AF
06
75
68
78
95
E3
C6
0C
63
5E
83
3F
5D
10
D8
04
44
43
D2
91
D9
C1
E7
73
B2
C9
A7
CA
88
2F
8B
24
BC
60
76
35
D0
12
B4
1F
11
3D
F4
1B
1D
22
C3
55
CE
E9
36
2C
A4
4A
B0
1B
61
FB
49
40
E3
96
A5
45
92
53
E9
CA
D7
2C
8C
29
F8
6C
DA
A0
8D
AC
7A
0F
71
4B
21
8C
0C
02
FF
94
03
11
EE
3A
62
6A
56
EF
6A
9A
02
2E
C8
98
16
A6
2C
8A
D2
6D
76
D9
C3
7D
98
5F
47
D7
31
BD
36
2A
D3
4B
30
9A
97
5E
88
6C
A2
DE
72
A4
72
86
18
71
39
A7
E5
02
63
89
9E
4B
9A
30
C9
06
78
AA
F1
B9
D2
91
F7
13
2D
03
B9
4E
E6
7E
8A
40
C0
EB
36
72
0E
B4
82
C9
80
9C
F8
8D
10
56
03
CE
3F
9D
4E
61
4C
3C
2E
F8
FF
C5
6F
30
0B
64
7F
D8
98
84
7F
DE
3B
A8
C0
49
BE
9F
FD
24
15
96
D2
FB
DD
A2
11
85
24
84
48
05
C9
5C
B2
1B
99
63
B6
65
80
A7
5C
78
81
1A
D4
CD
20
0D
14
8C
2E
F3
5F
0C
3C
5E
EF
F8
F2
0F
B2
7A
F4
00
97
09
A8
F1
6F
4F
8E
E6
C0
A6
B4
53
FC
62
E6
89
3D
CE
F6
B4
01
96
58
F4
C2
24
84
12
6A
78
F7
16
D4
07
EB
82
43
D9
D5
4A
6E
BB
55
88
D9
55
BD
6B
92
04
14
81
49
79
A3
CC
F8
E1
74
39
8B
1A
46
C3
D8
7B
4C
82
BD
92
B1
E1
71
AA
7B
4A
7F
2A
83
21
AA
22
24
10
69
EC
64
C3
C8
D3
75
E2
0A
F2
69
3A
06
FF
E1
DE
05
36
27
9F
96
3C
11
13
F5
2E
11
0A
FC
65
A4
AB
A4
4C
6E
7A
F2
37
D5
43
D3
51
D0
1A
D5
91
02
FE
7A
C0
D8
30
1B
DF
F8
F6
42
34
80
79
FE
F6
D3
66
4B
58
B1
0A
9C
54
44
22
0B
DA
83
10
39
8A
57
77
CA
6F
DF
9C
AC
80
D2
E1
94
D2
20
45
DB
5F
D3
15
7B
07
83
C1
1C
92
23
30
DA
B6
B0
9B
EA
0F
5D
E1
71
F9
81
92
EB
E2
8C
AB
F2
41
67
72
03
0B
78
63
03
5C
50
7B
E6
49
D1
0F
FC
BD
A8
62
F2
55
BE
DD
D0
61
2B
A6
09
B9
4B
DD
5A
FD
7B
4E
4B
14
BF
69
98
24
F9
83
5F
04
C1
56
DD
C5
E2
50
59
9F
07
4A
7B
42
09
4E
C2
09
98
11
0D
C4
BB
AC
5B
57
A0
58
E7
53
59
E2
F4
3D
2D
5B
84
24
D6
B7
FE
DE
6C
8F
8B
AE
0A
1B
51
D0
08
83
03
30
C4
40
82
17
EE
9D
19
51
CF
C5
8E
99
8B
03
C7
69
BE
53
94
36
D7
58
6F
06
29
CC
5F
EA
BF
80
FF
CD
8C
7E
2A
A8
EE
17
B2
F0
AD
F7
0D
81
0F
19
F3
9D
AA
39
1B
F0
9E
83
47
D0
05
BB
E6
7A
66
18
2D
13
A8
C6
47
37
2A
68
60
C9
AB
AA
13
17
DF
C7
43
6B
A4
9F
9F
8B
88
05
9D
5A
54
47
13
0E
C1
93
BE
48
FD
EE
11
D1
DC
EF
66
AF
3E
1F
9F
3C
26
00
17
C6
AD
65
97
1B
B1
BD
06
6D
41
9E
0A
E3
A9
D0
37
02
E0
E1
75
EB
4B
84
BB
0F
83
8E
6F
A3
A8
B7
38
83
D1
F3
8B
E2
9B
35
E9
08
64
E3
BC
F7
1B
D2
A6
6D
95
65
48
0B
E8
B1
DC
49
B0
CA
6E
ED
C0
C4
62
2B
2F
F1
CA
6B
EC
C9
FB
C1
A7
2C
EC
92
9B
F3
AD
0C
BE
2D
E4
E9
B8
61
5B
B6
05
46
7A
F4
F6
68
36
E0
75
57
85
40
FF
D4
DD
5B
74
73
87
67
E3
6E
51
C5
24
64
DE
73
74
5B
0B
82
46
06
D7
6C
2D
56
47
98
98
C0
4F
78
86
F0
2D
6B
84
B0
29
B3
E7
D9
51
0F
7A
04
61
2A
03
FF
9C
37
00
D5
49
C3
4D
1C
80
87
5D
66
F3
66
4A
FA
B5
CF
0C
13
44
FD
05
76
55
AB
8F
63
2E
A5
C3
AB
1E
96
42
44
E6
05
4F
07
29
2A
76
23
16
2B
B9
1A
CC
CF
CB
A0
42
75
EA
15
19
4F
97
69
70
FD
FF
51
CC
16
F5
58
98
8F
E0
6E
36
E3
5E
E2
53
CB
EC
AB
AD
E4
30
09
7F
08
3D
83
9F
D1
99
E6
32
88
98
27
19
EF
A0
03
93
D4
07
76
AA
B9
AE
66
68
C0
D9
8F
72
3A
15
69
D9
96
90
08
B5
44
8D
6D
6A
92
9D
E1
D5
22
E3
9D
71
60
A1
1C
0A
B6
C7
98
97
6D
E4
E0
A5
D1
11
88
1F
27
84
DE
1A
8D
BA
23
28
53
FD
FD
60
73
05
4D
CA
0C
E6
3E
03
FA
C5
FE
45
34
00
22
54
4F
4C
48
AF
E8
D6
5A
2B
5E
F9
F0
18
26
56
67
8E
E2
8A
64
D2
53
39
24
83
78
84
FC
FC
40
08
14
CB
B7
35
AA
5F
27
81
D4
A3
AD
6B
6A
81
CC
B8
F1
B6
86
92
55
71
2C
C6
AC
17
15
7D
E9
E4
86
98
1B
07
79
09
8B
02
D3
DF
33
F8
33
1C
49
A7
E4
FE
51
6D
63
9B
01
A7
43
0A
1D
65
F8
FB
E3
61
C5
92
F6
08
ED
3F
26
38
42
F0
70
1E
02
D8
5B
3D
39
E6
C2
F0
77
37
EB
CC
C2
5D
E1
B1
FD
21
EC
10
FF
1E
C2
68
63
C7
56
90
B5
45
8C
E7
08
1B
8D
4E
B5
37
03
97
CF
47
E7
43
B2
87
18
BF
0F
06
78
81
0B
4F
7D
6E
65
40
DA
E5
93
9F
78
6E
B4
45
3B
9E
1E
6B
7F
11
DD
62
E2
C9
14
AC
E5
BB
82
69
C6
99
14
C2
5F
19
5B
80
9D
B2
1B
07
A7
C3
84
44
B2
6E
46
13
DC
30
F8
21
0D
ED
C4
75
53
3F
48
13
7F
80
AE
D2
FA
EA
D4
1A
41
8D
93
A8
B8
78
A5
23
64
86
E7
E4
0F
20
73
C3
F1
50
A4
6C
B3
E7
39
71
32
3B
90
4A
D0
73
29
D9
E6
12
DB
CF
6B
21
DE
50
DA
B7
60
F9
0C
64
9F
F1
0D
4A
3D
48
DE
96
5F
7A
A2
63
6F
72
C2
5C
77
69
80
EB
56
AA
A0
EC
94
B1
02
91
D8
FF
09
45
A0
1B
DA
18
FE
E4
02
2D
C2
5D
B3
CC
85
41
90
38
70
C6
91
41
FD
A2
70
15
5B
21
7E
8D
F5
AD
C9
73
41
25
8E
82
1F
7E
DA
E0
3F
BC
F2
3C
99
BC
2A
4E
BD
2B
A3
1D
04
6A
22
42
8A
3D
15
36
7F
D7
5E
D6
49
21
EB
18
CE
AD
55
4E
D1
8E
8F
46
B0
97
15
7A
CD
E3
4E
FF
5B
38
FF
07
DD
84
EF
66
BD
88
7D
49
3B
CA
27
DD
CC
60
6C
21
D3
E8
96
8C
01
BB
18
1B
58
30
A5
AA
EB
5E
71
6E
BA
6B
06
28
6A
41
FF
46
72
AD
59
46
4B
41
9C
2A
98
6B
AC
82
C3
B2
F0
82
A9
9D
92
E1
4B
1B
B7
C8
C6
B5
FA
0A
B6
BA
1F
BC
A5
81
C5
81
E7
FF
31
40
FA
22
0F
0D
DF
CA
5C
43
AA
54
F2
74
C5
EA
5D
BB
F8
80
FD
A0
B4
98
A2
8E
DA
2D
A6
BE
E2
01
0F
BE
7F
D5
76
23
14
7B
59
00
93
AD
A4
2A
12
AF
4E
16
A0
2C
56
78
F7
E8
4D
CD
3E
51
7F
FF
C3
EB
E2
D9
BB
E2
25
5B
12
B2
EB
57
FB
6F
72
6D
F3
6E
55
F5
70
D4
B4
6E
9B
A7
33
4D
15
CF
A8
14
32
9A
E9
E3
57
25
30
C6
7A
