06
EC
E6
65
23
1F
D8
55
25
7A
7D
83
CF
E3
DB
D0
33
64
94
CD
8E
DE
74
CD
0E
0E
2D
11
E9
90
4B
5B
3E
1A
FD
97
C3
A6
C7
49
1A
E0
A3
C5
D6
35
CA
41
CA
AB
BA
72
FE
B8
BB
33
E8
E7
3F
46
DB
5A
E0
F3
4F
D1
A6
64
28
36
A9
71
19
FE
1C
45
51
72
9C
28
52
3E
B7
C4
82
F8
0B
50
48
5D
90
E2
63
4A
1D
1B
03
CD
23
67
57
7F
F4
99
9E
16
41
E8
2C
CC
CB
A7
BA
27
85
BD
2C
23
38
02
EB
95
98
73
D8
24
DB
7C
3F
01
74
68
95
5F
71
A1
8E
B1
FD
AF
7A
67
5B
14
8B
F6
54
F5
99
A9
4F
C2
1A
58
03
19
1C
6C
F0
82
0E
F1
D6
03
AD
EA
DE
A4
E6
E8
90
48
C7
D3
34
6E
12
39
CF
AF
F5
20
9D
77
6E
A8
99
AC
E9
30
76
3D
FA
A2
C0
D3
17
B5
EE
60
4C
F5
CC
6C
DF
9C
0A
6B
64
AC
83
46
83
A8
EF
8B
6B
AE
4F
3A
2B
74
E2
7F
4D
BC
77
95
E1
7C
B2
1C
A1
38
18
5F
18
07
D6
70
07
11
DE
8D
CD
77
05
F6
09
32
10
8F
C2
FB
58
03
A5
FE
FF
B4
1C
96
F4
2B
49
B6
C8
24
12
7E
0C
98
9B
2C
BE
B5
50
A7
FD
25
9B
3A
A2
88
92
78
1A
66
64
40
13
39
26
12
30
9B
21
9B
24
30
60
09
15
86
2B
AD
92
6D
A9
56
44
06
5B
E5
8A
ED
E8
C8
8F
59
09
97
10
D4
55
3E
A4
A0
FF
BB
AE
52
65
F8
CE
C8
F9
24
04
AA
2F
02
3B
D5
74
20
35
6D
E2
FE
22
BE
69
53
9D
E3
92
3B
B8
D8
CB
4C
A0
DD
AB
7A
0A
D5
0B
BE
73
B9
32
83
96
9F
78
28
60
67
B0
53
6C
AA
1B
9F
1E
64
81
D4
AF
72
78
BB
79
14
2A
68
EB
1E
07
D2
FE
16
0C
E4
15
6D
42
72
A2
1F
F8
0A
7B
EE
AE
FC
DC
19
52
AB
37
B5
01
D6
15
9C
AB
EC
77
BF
2E
32
05
05
DD
90
12
1D
14
C6
DE
AB
9D
C8
56
CE
5B
B1
ED
85
9E
34
D2
40
35
82
65
8E
55
3D
7C
09
0B
3A
52
69
BF
52
06
89
F6
9D
9E
F2
05
7C
6D
B4
12
74
02
91
2E
43
C8
73
87
05
C5
78
16
AB
1F
04
74
06
EE
7E
69
AA
F6
1D
C1
3E
10
23
D3
DD
15
80
6E
AE
BB
81
D1
CC
CD
7B
00
46
65
20
39
98
67
28
27
CF
5E
0A
21
94
C4
27
7B
1B
77
1F
CF
2C
A7
AA
2C
6F
FC
33
C6
CC
F7
9A
DC
BF
78
15
17
DA
97
A0
D5
66
28
FE
45
58
2E
4D
6F
07
8F
20
D7
38
D0
F7
1A
30
6D
B8
A5
AC
1D
02
3D
09
F4
82
11
7D
AB
C7
7E
7D
8D
F1
6C
A9
A8
AA
7F
07
E0
04
63
A6
4C
20
91
25
82
BB
04
26
77
2F
12
82
E0
EE
A9
9E
13
83
76
84
DA
36
A4
DB
89
6B
12
76
82
10
BE
1D
A3
9B
DB
E6
04
93
AD
B7
D1
1A
7C
25
2A
A6
9C
E0
1C
B1
56
1B
A9
59
91
27
2C
A3
A2
F7
C6
EA
FE
01
63
B7
70
88
CA
95
6C
D6
E7
EE
69
D1
62
71
58
77
38
F0
20
BB
BF
08
60
28
06
EA
5E
22
00
FB
37
62
4A
D9
1F
C2
6C
7E
EB
7F
56
4C
E6
B8
7B
02
73
83
3B
99
72
F9
51
9B
2F
76
0F
88
7A
E7
74
A0
4D
A0
32
DF
1D
2E
54
A3
1C
C5
F7
AF
D8
CA
9A
83
3C
86
84
F9
DF
41
45
D4
0B
7B
97
9A
F0
CC
9B
71
0C
D8
27
BC
16
4F
9B
1F
7D
CA
5D
5B
3B
AF
E4
FA
EA
D9
B8
1B
8B
C7
CA
64
8C
9C
BE
6B
CE
51
5D
76
E3
D4
E1
F6
BB
5E
DB
63
38
D7
52
1D
E2
61
13
DD
AD
89
7B
50
17
ED
5C
01
61
0B
0B
C3
06
FD
97
90
A5
64
02
C6
24
09
D6
56
FC
ED
07
E0
98
3D
8B
8E
58
F2
70
C6
7C
A8
59
A9
70
08
BB
CD
D4
B3
87
97
88
FC
16
88
63
B2
28
54
FB
D8
38
A5
D5
57
6E
B8
4C
A4
F7
AF
86
26
CE
A4
87
F5
5D
5F
31
73
67
D1
74
9D
38
83
10
25
73
96
A2
9B
6A
75
80
FF
8E
40
9C
0F
6F
A4
A4
3F
E0
E9
F1
E7
8D
0A
4E
06
7E
86
CB
51
34
40
3C
B8
93
B9
70
49
90
B0
38
56
7A
15
52
6E
D1
A8
E0
FB
61
0D
80
E5
19
EA
0C
91
E2
40
ED
AF
11
17
29
FC
83
84
DA
02
61
DF
38
00
C8
61
E1
7A
F4
81
C3
08
76
90
F7
D6
D6
CE
CF
0D
82
1B
F5
48
BE
93
50
44
9B
D8
95
A2
D1
B3
8C
03
58
BC
8B
D9
53
A2
63
F9
FF
F3
19
04
E0
FD
21
D0
48
84
07
A9
74
ED
89
04
B1
D1
2F
03
C7
4E
26
E3
28
EC
8E
07
B9
F1
34
54
48
DA
D7
FB
D2
CF
BF
C2
5E
C6
BE
BF
E8
BD
A4
1A
41
6C
AA
D5
5C
1B
55
F7
63
84
72
8D
FD
A8
3F
3F
B8
5E
97
4A
09
D6
39
83
50
54
EC
A3
CE
BB
84
2D
63
23
78
C1
01
A0
CC
83
27
66
75
D0
A0
DA
BB
C6
F7
49
38
5C
2F
E9
FA
6C
14
16
7F
07
76
D0
96
C3
C2
EF
95
F4
08
85
44
8A
FF
38
78
46
3A
7E
6C
C2
A7
B7
3B
FB
FE
43
F6
00
7C
F1
B1
79
50
B4
01
0F
9E
E3
FC
90
D1
65
DD
F6
C4
77
DD
D9
98
6D
70
45
4E
A8
A6
EE
57
E1
96
2B
54
85
AD
21
E3
AD
33
29
C0
44
89
5A
95
40
AD
B4
CF
C6
9B
09
34
96
97
34
E2
BB
65
F4
07
A2
82
63
3A
69
E7
9F
7C
6B
5E
EA
E9
5A
BD
05
17
82
A9
DE
C1
EE
2E
D2
E0
35
04
01
DE
9A
D8
28
79
51
30
57
D4
A8
7B
34
75
3D
40
D8
5D
45
6C
21
CF
21
34
D3
1E
49
E3
B5
11
44
86
4E
5A
45
ED
97
3D
70
C0
18
E8
6D
48
B6
05
31
9E
25
6B
68
68
43
D4
2A
75
84
2B
1D
99
C2
62
2E
B3
5E
11
EF
09
82
DA
D7
1B
4D
4E
CF
78
85
21
7B
7D
FE
53
D6
85
F8
BD
34
82
02
CF
EE
70
6D
84
67
F4
49
7A
13
6D
AE
76
29
71
61
49
80
42
CE
68
B3
17
32
70
89
22
75
90
73
52
DB
29
E9
45
FB
38
3F
A7
C8
B7
D8
B5
F3
35
CA
8B
79
4A
62
DA
02
8F
41
28
07
A0
BC
98
A1
CE
1E
69
59
D7
79
02
BD
39
19
EF
36
B1
55
71
83
CA
03
0C
88
0B
B2
55
B9
4E
D7
22
C8
D9
B2
2E
9A
74
83
DE
09
A0
3F
6E
60
6E
E0
7B
1E
DD
4D
9C
7F
5F
37
AE
19
54
C5
1D
22
A4
CE
CF
63
8B
CF
90
D3
EC
C3
7F
D4
74
0B
D2
62
4C
C9
0A
8A
E3
4B
AF
56
0A
91
E3
07
50
4A
2F
3E
09
A5
F7
4C
8B
8A
10
49
22
47
6E
46
12
06
A3
EF
25
FF
29
BE
73
67
FE
5C
61
A0
E3
4A
B4
38
71
50
93
CB
EC
F6
13
83
8C
D9
12
F8
23
1E
DF
43
A0
E5
8B
CA
9E
FC
BB
7E
94
E0
36
42
1A
7C
B6
D8
DA
2B
35
57
8A
B9
54
B5
00
DA
14
8E
98
3B
2B
5E
29
13
79
E7
B3
BC
25
8E
97
BB
27
9A
DA
84
AD
2E
75
64
07
13
50
A2
3A
F1
CF
DB
34
FA
45
26
4C
C1
72
50
F5
D7
5F
1F
F7
A1
BB
55
97
2C
74
0C
DC
F9
45
64
19
97
81
8B
83
4F
45
7C
FD
B1
B4
E4
B4
A6
F5
B0
6F
65
8F
80
35
DB
32
9C
18
68
6F
21
C5
1C
CA
65
91
8F
9A
23
24
85
A6
9B
0C
1D
D2
46
8B
D4
18
30
F3
8B
25
EB
53
6B
54
7F
94
B5
6E
07
D1
0C
67
78
71
14
4C
77
A6
DF
CB
FC
29
C7
07
8A
57
13
CE
27
37
7E
D9
6B
ED
88
46
C0
0A
0C
F3
BB
68
E0
06
5E
0D
E1
C7
9E
98
E9
4F
D5
10
D0
9A
5F
5E
02
B5
43
24
8A
70
A7
E7
75
03
8E
08
21
57
84
03
7D
96
FA
C9
86
34
6D
E6
32
56
C7
BC
98
E5
E4
26
82
CB
A5
3C
16
58
F5
49
28
35
81
A3
B3
84
7C
A2
EC
37
ED
8A
36
C6
B7
90
8C
E1
39
B8
9D
7E
63
3F
95
1F
26
10
60
38
FC
7D
B3
B8
1A
62
A9
CA
93
67
4A
35
FE
DE
FF
D0
7A
28
4C
6F
89
58
43
53
FF
D4
79
0C
A8
A7
03
2E
F1
68
0B
2B
E6
EF
99
68
7E
77
F8
9F
B0
08
90
98
75
54
61
1E
D8
3F
D3
14
AC
0B
DF
DA
92
0C
4E
50
0E
C4
A9
20
29
7C
FD
FC
91
1D
83
EC
A4
D6
D5
16
46
32
5C
0F
C0
1C
51
15
8E
0C
77
E4
B3
9F
B9
AE
D4
BB
1C
C2
5B
C6
AB
97
9C
8D
4A
DB
A1
02
29
09
25
3B
9D
48
21
FE
01
44
DA
35
59
2C
55
59
2B
05
B8
DE
2D
DB
4C
FD
D4
FA
63
A6
A5
FD
A6
64
92
A4
88
C2
60
6D
BB
37
F3
25
75
B3
76
8E
1F
F0
2D
06
66
A9
16
4D
F8
81
06
09
E2
2C
78
1C
5C
6E
A4
2F
15
67
B8
E1
93
AD
46
D0
19
89
87
F5
A5
AA
37
64
F5
26
FD
38
03
84
5B
38
36
F6
F2
21
AB
BB
BA
D6
CB
09
14
39
04
C5
F6
D2
BB
CD
2F
A3
E4
DB
35
DF
25
90
58
C6
BD
50
4A
76
79
14
59
DB
EC
5A
C9
91
94
BD
BB
B1
DB
5A
4F
1D
1F
33
A3
7D
25
BB
EE
41
EC
30
A5
04
A2
9B
3F
BD
AF
10
61
5A
56
BC
B5
EB
42
1C
57
D9
B5
BC
02
20
E3
EE
9E
99
19
70
70
91
B8
CA
B7
AE
43
5F
28
D0
8C
29
BE
1D
B5
94
40
09
C4
04
0D
E2
0A
1A
28
15
0B
0A
5B
97
21
65
C4
27
3E
7F
CA
6C
D4
E8
A8
49
50
9D
82
41
9A
29
72
08
84
E8
04
C3
98
1E
85
26
6B
C2
C5
17
7F
B6
C9
7C
0B
C3
2B
75
EE
53
3A
1B
BB
45
E7
76
4D
11
73
6A
16
B8
1A
1A
0C
D0
F8
C0
74
91
FB
A1
1F
AB
D9
82
F3
ED
62
9F
3D
09
90
A2
28
8E
54
12
33
8F
CD
8D
3B
69
98
AF
8E
58
6D
02
CD
B4
EF
A5
F7
12
EB
CC
06
BE
04
A9
75
5E
9A
D2
2B
12
70
A7
17
95
CD
06
63
FF
96
DC
D0
65
51
34
98
5B
33
A4
3F
2E
88
16
7B
8E
49
60
6D
E4
82
14
FC
6B
8F
48
B4
7D
66
49
EB
47
41
23
44
D2
DE
FA
7D
36
43
82
07
F2
5B
4C
D5
50
63
FA
C1
47
A6
19
13
F0
28
D5
5D
9B
6C
14
20
ED
65
E3
7C
CC
6C
0C
20
CF
8D
02
94
5C
F6
D9
5F
59
73
D9
EF
5C
76
D1
2B
18
49
DF
BC
A4
69
