B8
65
BF
B2
1E
B4
E2
81
82
B7
1A
ED
74
E6
FF
BB
C2
62
BB
CF
59
66
EF
1E
B1
1A
1B
D4
90
12
A6
38
BB
5F
D8
91
C9
4E
C7
53
41
E5
59
4E
57
E1
D3
37
CA
AE
C1
37
17
A2
2E
64
62
61
C3
53
D6
ED
42
8F
9F
13
E5
A0
D6
03
58
AF
E1
37
33
2C
68
F8
B9
F6
12
3F
36
42
41
C5
4B
EE
3B
D6
D2
77
72
D7
F3
91
C1
2B
A9
3B
0E
42
F1
BB
F7
59
B1
96
54
5C
6C
F3
A2
43
55
EC
C4
6A
5E
15
EA
C8
82
BF
9A
47
71
01
57
EF
9A
AA
06
F5
A0
07
05
3C
2D
95
ED
A9
37
90
7C
27
EA
7C
20
0D
49
C3
39
A6
C2
2F
B0
9F
F8
5D
90
BE
0B
E5
6D
CB
94
8B
29
0E
A0
3F
5D
95
30
84
C7
04
60
17
A7
E7
42
18
AD
FE
00
C0
C6
9B
53
52
C5
23
F5
2C
C3
B3
F9
04
80
93
34
5F
4E
35
57
1C
5E
AE
3D
07
D8
F0
D5
CF
6E
E2
16
23
60
71
54
D4
B3
12
57
2C
A2
5A
4C
CD
76
D2
ED
0D
44
C9
10
BA
84
AB
1A
A8
E3
8C
16
CB
90
24
46
D6
B4
7F
C5
AB
33
99
91
5F
8D
32
7A
AB
79
3E
E4
DF
1C
39
D8
AA
87
E1
9D
36
E1
4E
98
83
67
C9
4C
53
00
53
04
5D
38
0B
4D
84
98
24
FF
A5
37
85
A4
36
25
15
91
AD
55
72
53
89
70
C0
EE
E1
BC
4E
DA
D5
6F
34
10
3C
AE
94
A4
9D
35
A7
2A
43
2D
F5
3F
A2
C3
07
3C
B4
03
F6
80
8A
DD
92
5C
2D
C1
47
61
ED
DC
6C
DA
76
AA
2C
91
EE
3D
F9
20
05
E3
D3
41
83
D4
38
17
24
FC
40
46
4E
7B
E0
C8
AD
7F
7E
A7
75
D4
A4
59
BF
6F
42
C2
2F
54
8C
85
1D
03
76
E7
A2
40
2C
4B
3A
3D
0D
06
80
59
CD
51
19
77
E6
71
1A
F2
24
F4
6E
81
0B
99
32
88
24
49
20
F6
28
C9
7A
B8
A1
F2
6F
2C
08
39
E3
91
CA
6A
BB
6F
FB
FE
90
AF
8E
F2
AE
F8
13
79
AE
29
42
CC
47
28
93
CA
56
CA
B3
7B
AC
58
04
48
92
D9
8A
7E
ED
FC
7B
87
72
B9
5B
F7
58
E3
BC
BC
A8
29
27
41
54
22
85
F2
0C
A5
CD
49
92
42
EC
48
7E
FA
34
D9
3E
28
2C
C6
4B
62
E0
CD
A6
31
DD
80
53
67
1B
0F
D5
55
AF
FE
F5
C7
E5
95
75
4E
16
C5
2E
2C
31
F4
AD
C6
C4
AD
4F
92
F6
E1
A6
E7
51
88
82
69
FC
E5
09
90
55
EF
DC
C0
5E
F4
2E
EC
E3
AA
6A
DC
61
BE
E4
79
F4
6D
BE
4C
3C
5B
F0
00
E8
1B
84
0A
58
41
E8
39
A7
91
58
EA
52
93
43
7F
F6
16
AC
A7
1F
EE
47
D5
E4
76
F3
E2
47
B7
69
BB
D3
50
7C
F2
3A
B2
23
2B
3E
58
77
05
A2
DC
81
9B
DE
92
A7
9E
85
3F
AA
F6
CF
7E
1A
07
54
37
C9
04
C8
E5
40
69
DD
21
B6
B5
3A
42
EB
6F
78
CB
25
EB
5B
81
AB
10
D1
C0
74
A5
11
71
03
08
C9
E0
09
C9
55
62
34
D3
68
8E
04
4D
6C
CE
AE
0D
63
AC
70
99
AA
AF
C3
DC
04
C2
40
70
09
01
D7
BD
BB
F0
AE
5A
19
CC
4A
18
D8
67
B9
CF
E3
57
EE
A3
2D
39
E5
61
ED
8D
8D
CF
16
BC
C2
A0
61
50
B2
02
BA
59
0C
D6
E0
C3
98
8A
AF
22
5F
6F
E4
6B
1F
B9
DB
E4
45
BF
AE
8E
F6
91
93
D9
62
2E
C6
74
1F
E8
B7
FA
28
AB
F1
3F
41
DC
22
03
19
BA
EA
49
D0
31
3E
5F
85
C4
5E
5C
9E
D7
E8
6A
B8
9C
F1
90
D6
DC
6E
B0
B3
7B
49
07
84
59
16
71
73
E7
A0
82
60
42
13
B4
85
01
11
FE
EB
98
1E
2E
84
FF
D4
47
09
92
C1
0A
B1
A7
59
2B
DB
01
D3
44
0C
D2
DF
16
3B
40
C0
BB
B5
BD
C8
46
D9
5A
1E
0B
95
B5
63
A2
23
AC
40
B7
32
C5
9E
24
79
1A
98
CA
2B
96
DE
A6
F8
2E
2F
45
DC
DE
65
53
5F
0B
09
32
88
54
6A
1F
5F
F3
7B
33
69
41
80
ED
31
84
30
20
9A
88
47
44
1D
93
53
8C
A2
6D
9D
84
BD
51
D8
F3
0A
7C
B7
20
C5
3E
F7
F8
FF
D5
3B
11
F8
47
D5
29
5D
61
BC
FE
C5
48
42
C1
0F
46
59
4C
3E
1D
DA
31
DA
7C
14
45
0A
D1
78
36
FE
DA
9F
45
FC
0F
DF
FC
D0
D4
C6
27
57
84
F8
14
DA
F6
5D
DD
4F
9C
48
3D
A0
2E
AE
EC
E7
64
87
1D
EC
6A
1B
C9
95
7D
29
26
09
15
CC
01
37
CD
03
48
C4
B8
CF
9B
E3
52
AA
B3
AB
A2
E5
4C
FE
D7
99
B1
0C
E9
90
30
16
3B
DA
41
8B
C5
85
BC
DC
BB
FE
DA
83
39
D6
F8
63
02
63
08
B1
A1
9C
29
86
2C
19
D9
13
31
61
31
EA
01
C0
26
CE
0E
61
2F
F9
A4
F1
AF
23
8E
2C
1D
43
BB
9A
2D
6B
5F
63
7D
36
54
17
9C
E1
BF
BB
9C
14
D0
FF
7E
8F
E1
FB
D1
8F
DF
DE
2C
61
F1
93
7B
03
6E
FB
56
0C
B3
2A
72
69
16
1E
1A
AC
62
4B
C9
12
24
54
8E
FC
6A
E0
BC
67
28
7D
6B
E9
E4
FE
38
0A
38
B7
A0
B7
60
CC
D0
D5
18
79
F4
1A
1F
F3
CC
7C
09
58
32
3B
EA
0A
C6
5D
44
E7
96
EA
08
AD
3B
A5
44
7E
F2
67
BC
DD
90
F2
8A
78
68
AD
62
A7
90
0A
DA
32
4E
BA
C3
F0
39
EB
49
44
D5
AE
66
C6
EC
9B
E0
3C
45
E7
7A
26
AC
CE
65
64
2B
3B
07
A1
45
62
B0
AB
07
16
97
B3
CA
78
E6
FF
32
0E
A0
00
6D
DE
E8
64
BA
E0
EA
79
33
6A
12
57
29
F9
01
73
DF
88
36
61
72
4D
8A
7E
2B
05
E2
20
8A
B1
10
E1
99
28
A9
1B
48
02
3C
91
45
A4
82
27
4A
30
55
CC
8B
B7
22
49
74
B0
D4
55
25
95
D8
FA
DD
10
66
F7
AF
24
41
46
F0
77
00
17
06
72
86
0E
9F
A9
93
7D
E7
5A
AA
D5
15
C4
76
A9
E3
7E
85
47
2D
74
36
E2
CD
DE
63
4B
5A
A1
F2
DA
9E
C6
FB
A0
21
8A
14
56
80
15
32
E9
63
0D
AD
4D
EB
E3
A2
72
28
BE
63
BB
C5
78
07
E9
1F
2C
F1
BF
6D
BE
43
68
24
08
6A
9C
D9
23
8F
BD
7F
73
42
46
B4
AB
C6
6C
9A
DD
BF
DC
7F
3C
01
C2
9C
26
00
BB
39
70
B9
A1
4A
03
00
20
51
04
65
99
27
1C
72
F4
CF
26
86
C3
18
5D
57
96
92
17
C4
24
86
94
D4
DF
5F
3D
5B
3E
69
31
FF
3C
BC
43
71
03
2C
89
37
07
C6
35
C7
99
CB
B4
B7
C7
AE
C8
B1
D9
69
21
5E
56
95
AF
AC
F0
91
A3
D8
91
54
AE
BA
3F
19
7A
A6
75
79
8D
FB
9B
C2
FC
94
AB
46
90
B6
59
AC
B7
F7
AB
56
BC
38
2C
50
A8
F1
E1
1E
45
65
FE
08
92
A8
08
4F
5A
DC
63
53
FF
45
96
23
DF
51
5F
FF
FA
30
CA
11
4F
AB
E9
C1
89
A2
F1
DA
8B
5A
E5
86
74
04
2E
E0
B3
C6
29
4D
76
C9
12
FB
FF
C9
D8
A7
6D
B2
40
6F
6F
38
B8
09
88
B9
7E
97
6D
5B
9E
09
46
23
DF
B3
D7
89
07
42
ED
B1
73
35
CE
E2
B7
7F
7D
F4
C9
27
BB
E2
D2
8D
D7
A4
37
96
76
6F
80
AD
79
93
AC
ED
52
0C
DF
E1
B7
CA
C2
D5
9B
79
E5
3D
56
6C
2B
50
E0
92
57
F3
9F
5B
3D
3F
E2
65
45
95
7F
37
8C
C6
1B
2C
33
FB
5D
3B
5D
A8
6D
C3
AB
AD
E1
B8
04
F8
76
35
AC
DA
1C
24
00
45
FA
D2
FE
A6
7C
24
47
91
AD
F4
2B
C2
31
0D
4D
41
68
5E
1B
6E
DC
DB
BA
AB
06
FB
5D
E3
40
E3
14
BD
90
AB
7D
28
A2
65
6F
98
18
D2
5E
62
2A
29
83
9E
D5
00
6C
A8
67
16
10
A5
C0
F6
45
3C
E6
55
9E
2C
DB
F2
85
45
76
B3
82
D9
E8
79
6E
FA
08
CB
06
1D
73
F5
05
AE
CA
45
40
CA
47
6B
18
3E
E2
C8
A8
0D
24
33
4C
A0
AF
24
36
0B
AF
74
52
9B
44
02
6D
EE
4F
E1
1D
87
1F
07
85
D7
E8
89
33
D4
61
2E
79
C7
AB
A8
7B
55
D5
3F
A2
4B
A5
29
3E
0B
59
2A
FA
34
8F
7C
E8
C4
08
88
FF
B7
0B
0D
3D
37
46
E4
77
92
EE
5A
13
6D
FD
E8
82
C0
A0
DF
29
3A
AD
83
D8
7A
FE
01
6C
9E
E6
72
30
90
89
E0
91
5D
C6
D4
D3
C9
B5
00
24
2A
8A
EB
BF
63
0E
4A
79
10
26
40
76
B9
A1
AD
C3
40
59
BA
13
C0
C3
CA
FF
6F
95
7C
B6
4C
C7
FF
C2
E1
DE
86
09
26
C5
41
E3
C7
44
8E
A8
ED
39
47
B9
08
1F
F5
B6
B3
F9
73
A2
0F
8F
78
41
C4
FE
2E
2F
2F
2D
59
40
5A
13
27
AB
40
9C
FC
F3
BA
EF
29
24
76
43
B2
57
19
4A
22
64
20
3B
F3
EB
74
B0
ED
B5
30
66
E8
6F
8E
56
28
6A
DB
97
54
BF
BE
F7
7B
F0
99
8B
38
28
FC
19
25
EB
A6
3E
C7
55
6C
7F
EA
38
20
E4
5F
8A
94
6D
87
39
21
1C
EB
45
76
53
C9
8B
1A
0A
3E
B7
41
A5
56
F5
4A
9A
64
12
60
6D
A1
A0
FB
F8
8F
E2
3C
E6
BE
CB
A8
26
6C
72
EE
84
B2
6D
E0
B9
E8
84
80
81
6E
68
5F
7A
9F
A7
EF
0F
A5
5B
A4
BF
E7
14
10
EC
B7
B7
3E
A9
ED
82
57
2D
C4
42
6D
70
10
99
41
87
55
E6
99
5A
26
9B
B6
CD
28
B0
1D
C1
2F
F2
27
37
D1
61
B9
52
9B
EF
01
87
4C
64
AB
C9
B1
86
9D
3D
E9
31
0A
AE
00
5F
7B
C2
74
20
E2
93
B1
A9
78
90
12
BC
69
5E
E1
3B
21
DB
3A
36
80
34
C3
C0
01
E5
6A
12
DE
B5
C2
65
13
A6
A8
A9
62
17
89
3D
B3
B9
1B
75
75
F8
21
B0
99
8C
26
39
8F
FA
EE
EB
69
62
FA
44
56
21
7D
0E
EB
A5
52
81
9B
1A
69
9A
85
E8
B7
CD
A7
69
B3
90
AB
6A
6D
F2
B3
F6
E3
2C
7D
50
78
C6
7A
66
6A
9A
70
63
82
22
22
5D
16
38
76
6F
90
26
1E
B4
46
E5
D4
12
99
54
C1
2D
6A
E2
99
7F
91
C4
02
5D
FB
60
8B
7E
ED
1F
93
4A
2D
41
A4
96
45
2C
FE
99
1E
C6
E1
5C
5C
2C
AA
29
88
9E
F4
9C
75
AF
77
8C
A2
C8
D2
E0
50
2C
88
DB
3B
BF
99
F4
4B
AE
A0
83
3E
9C
67
95
63
A2
F9
AE
B3
3D
E7
0A
2F
74
43
13
