2B
5F
26
DD
26
57
91
48
84
99
A2
98
18
D6
40
E6
37
17
0E
93
E9
38
73
CA
78
A6
28
D0
59
22
FD
94
3F
95
4B
C9
C7
62
62
AB
D5
F3
DD
E3
B3
84
6A
53
58
DB
80
8D
6F
A5
00
93
4B
B8
B7
F7
88
EA
DA
4A
89
7A
03
FF
EF
59
FB
66
09
DE
D5
1D
C8
EC
C0
C3
3D
B3
7B
D9
59
5D
72
3E
E2
59
F4
7F
DA
9C
BE
D6
3B
8C
37
63
DE
DB
39
60
92
4E
F2
9C
6A
4A
3C
88
25
C2
53
0E
85
52
24
F1
8E
6F
A7
81
DC
C4
66
AE
2E
AF
F2
DE
AC
4F
46
A5
F5
69
A5
36
84
EC
2B
B6
4D
E3
27
6D
34
58
09
EB
C1
D1
81
F0
3D
98
9E
3F
16
5C
B6
6D
2B
60
FD
9C
33
FB
BD
5B
2D
36
80
66
92
02
C7
70
D7
F2
08
03
53
DB
FA
84
2E
B8
13
20
5A
2F
CA
A1
33
AB
32
53
17
34
FA
CC
90
D6
A3
90
58
F8
BC
73
AD
54
A8
E1
3F
6E
46
D1
76
74
86
CA
DE
EA
A1
88
9B
46
A7
8D
B1
A8
A6
56
FA
2B
E9
12
3F
77
6F
A8
9B
27
31
49
55
A5
BC
B7
37
9E
E0
5D
3A
4C
DC
8E
84
DB
28
9F
B5
51
7E
0E
AB
D5
9E
10
A9
71
7D
2B
C7
C3
BA
87
7C
45
09
49
E5
61
C6
E6
47
06
D6
B1
5E
FE
C9
08
2F
E7
12
02
D2
53
89
FB
F1
DB
E0
9D
45
6D
7A
DD
4D
5A
FE
17
42
40
63
94
AF
3C
EB
C7
40
DF
7D
1C
AB
72
D3
FD
DD
1D
1C
37
FE
A4
FC
87
3E
10
89
47
2D
A3
CA
AE
92
41
B4
3D
F5
9E
C0
3C
BF
78
5D
7F
D2
67
06
70
48
B5
CE
F1
46
10
29
DB
6D
4B
B5
71
E4
3A
DC
2A
B1
4B
5C
A9
3E
24
FA
43
28
FD
46
B0
F4
F0
07
72
06
EA
1F
DF
88
F1
55
B6
03
83
A8
08
58
EE
39
60
B0
2C
82
67
CB
DC
7F
ED
85
66
E4
C8
51
56
2E
18
E7
1F
9B
D0
14
06
ED
5E
8E
AB
65
ED
7F
04
7E
B5
C2
54
EA
B3
C1
44
DA
39
B7
68
C2
3E
F6
B0
0A
A8
68
4F
73
81
67
1F
0A
2A
FA
C7
47
08
43
B9
54
0E
9F
18
9D
A5
C1
E2
FA
1E
6D
4A
E6
8D
9C
7B
13
EE
41
C8
B5
AA
A1
8B
3F
8D
FD
B0
1D
EE
1A
51
DD
CB
3B
5C
F1
AF
75
D8
28
55
A6
01
09
52
2B
7A
B8
97
E5
67
E0
32
D1
2E
B5
7E
23
70
C9
DA
12
E2
1B
F2
5A
C0
BF
31
2C
0D
61
BF
D3
3E
5F
29
94
D7
04
BB
96
87
E4
34
DD
CE
DD
0B
D8
64
43
82
DE
26
B7
8C
9A
BF
CA
1F
0E
CE
EF
7D
14
7F
1C
77
7D
B8
91
D2
58
89
1F
A8
10
70
F0
67
37
2B
8E
25
31
5A
14
FC
86
DA
46
D7
75
CA
3E
C5
79
C5
6E
25
31
83
48
F7
3B
18
2F
E4
7C
E6
AA
83
D2
D1
13
73
73
D2
43
79
86
09
C0
8C
A7
6B
65
C1
AC
5A
86
E5
BA
C4
5A
E1
F1
19
C7
4C
57
42
D2
F6
CA
36
8C
2E
68
D5
15
53
36
C7
1C
72
3F
E7
77
CC
C0
D9
8E
3E
B5
DE
EC
35
5F
C7
20
87
A7
C2
AA
8B
B4
4C
77
46
2B
87
0A
2E
BE
2F
4F
DD
81
08
EF
58
CE
9F
79
9B
94
80
6D
EE
D7
C5
0F
00
31
33
66
25
D0
86
33
CE
6E
06
E5
A1
B3
CB
88
54
F3
D9
CB
97
88
26
F9
51
62
B5
E8
1E
93
67
10
62
D2
5C
73
53
91
E2
58
A1
53
8E
1F
90
1D
E4
2A
71
E7
EF
EA
2F
40
42
EE
A0
17
AC
F5
CC
D7
6B
93
25
AE
3F
DF
F8
D2
B2
5C
F8
DD
78
FA
36
59
7A
C7
BA
69
76
D9
2F
AB
92
0D
40
FB
9F
76
74
E5
32
63
B9
9C
8B
6D
BF
4C
DE
34
93
43
FA
16
48
6C
CF
F3
1B
90
D9
16
05
FD
47
9E
2D
60
6F
8D
8A
84
2B
93
0A
5B
C6
E3
F4
FF
39
2A
CF
57
B8
2A
64
D0
85
3C
8D
D6
E0
D4
30
57
E7
14
93
8C
4A
AB
B1
54
A2
B4
50
B5
26
46
9A
4B
65
51
83
7F
B0
3D
2F
0C
65
09
3F
26
AA
F0
45
16
36
1B
DD
F1
56
B3
68
6D
6D
56
50
6A
92
01
B3
5B
59
C2
3E
8D
60
83
A3
90
2C
78
C0
17
8B
40
88
F4
F0
80
04
B9
8D
B6
C4
BE
6A
9C
44
21
35
08
C2
B2
E6
19
60
6F
04
2C
9E
D5
58
DA
E1
89
2E
78
C9
75
27
50
F3
C7
48
92
55
94
19
6B
B7
A4
91
99
E1
06
90
16
7E
59
BF
6A
9D
0C
C6
FF
A3
4F
6A
86
D2
1D
F9
FB
69
9E
F2
D8
8B
84
D9
7F
4C
9F
91
EB
37
0F
4B
60
F3
EE
63
DB
8A
C8
36
8A
1D
95
2C
01
5F
BF
3F
AD
58
F6
4B
8F
B2
AB
B1
2A
E6
27
9F
CD
79
EC
CB
1F
B9
24
7D
0B
D6
4D
31
73
07
0F
29
96
AD
2A
DC
E9
05
D3
4D
3E
AF
3E
29
3A
84
EB
7D
97
37
0E
02
F8
7B
F7
CA
F7
FB
AB
E4
67
71
D9
06
78
D7
88
66
66
4D
40
39
FC
C9
E2
5A
94
FC
2B
FC
88
54
13
F6
A0
45
EC
27
1F
89
76
46
73
7D
C5
31
19
23
E9
12
A7
67
C9
8F
D9
89
6F
77
95
2B
7A
FF
58
25
A0
D3
DE
33
4F
E3
93
8D
63
E3
15
EB
C2
BC
4D
22
58
46
E2
8B
58
2F
A9
16
4B
76
A6
1E
DC
C6
7C
E8
8A
1E
2A
EF
FF
13
17
89
73
77
B0
4A
8A
D7
98
DB
F0
E0
DA
E0
FC
FD
E2
0E
99
B2
77
48
34
BA
C9
86
8D
74
59
CE
3F
DB
17
8A
CF
03
9A
35
F7
F7
56
DC
89
3F
F4
4A
1E
F8
FC
18
DE
10
46
31
23
D7
8D
3D
09
89
A6
43
19
E5
12
68
13
C3
B9
D5
7C
C9
A7
DD
2B
A2
97
A3
3D
A8
5A
F0
C8
BA
E7
67
4E
33
23
FE
08
9A
B5
F8
46
B4
8D
F5
59
2A
01
77
17
66
85
01
8B
30
42
F8
3B
9D
36
0C
53
85
53
32
77
8F
C9
25
4D
62
96
E7
D5
06
4F
59
0F
DA
89
03
1C
82
75
D4
9F
FD
98
8B
D2
1D
85
E4
76
29
4D
6C
22
61
D4
2F
2A
28
6C
86
5F
4F
A2
9E
76
8F
AE
8D
34
3C
D8
EA
13
8F
97
63
72
1F
B7
76
E7
E4
89
FF
D3
D4
81
1A
07
60
FC
F9
79
46
33
75
E2
F1
34
F6
29
18
34
60
4C
51
A5
FA
E8
64
E1
93
45
DC
02
CB
6E
EF
4B
70
0F
44
14
FD
44
C8
70
04
34
B8
71
E4
AC
A2
76
FE
B2
8F
7A
6A
E1
73
25
8B
05
27
E7
C8
7A
DD
3F
79
20
47
7D
E9
CE
CD
61
F4
0E
5A
6D
B6
4E
F1
5B
A5
5F
25
B5
B8
9B
A2
BD
6F
88
96
27
53
46
C9
23
40
FA
CF
01
CA
F7
43
9E
55
4F
81
50
57
99
B2
6F
57
E2
3B
90
41
50
40
96
F5
56
08
12
E1
07
E7
71
CC
01
C1
68
8C
DE
73
63
75
B8
00
00
49
B3
76
27
33
B9
DA
61
EF
7A
C0
9E
CF
78
9F
DB
B0
5F
1C
3D
28
5C
D2
7F
38
02
DA
E0
35
87
33
59
9D
BA
0D
B3
5D
01
D6
CF
DE
DE
7F
5E
E1
BD
17
37
B2
72
C5
BC
21
30
89
A8
3E
64
BD
4A
1F
93
EC
1A
A6
1C
25
75
7E
90
3A
81
9E
49
D7
C2
46
68
CF
22
D2
95
27
98
91
05
19
9A
2D
3D
76
9E
73
EA
41
1B
B3
E1
7A
59
6F
1E
C4
01
07
BD
42
AA
1C
76
8B
38
B2
0B
D5
1B
24
0B
38
DF
F5
BE
34
32
D2
8F
B5
A4
2C
18
36
C9
E2
95
57
B1
4F
5A
38
14
3C
57
12
37
95
4B
BF
0B
1D
F4
3D
7E
BB
11
B7
AC
0D
2C
B9
28
58
6E
64
B9
9B
4F
E0
0C
AA
43
63
21
B7
8B
22
37
E6
B0
79
70
5F
A0
C1
FF
B9
D5
3C
FF
AD
BE
95
05
B6
11
78
84
B6
35
D4
C8
61
6F
97
72
EF
60
6E
53
E9
1A
8F
9B
10
E9
A2
FE
46
D2
07
3A
31
EF
40
8D
34
C6
17
79
5C
BB
31
39
D3
70
50
AF
42
1D
34
86
08
0B
9A
88
DB
B0
32
D0
5B
DE
43
E9
5F
51
E7
F7
BF
2D
30
4F
04
AA
14
46
F2
81
FC
E9
63
F4
B2
B8
60
60
C5
8E
A7
CA
E4
3E
DF
E1
B4
1D
41
4F
DC
CA
64
35
BD
96
6E
22
5C
F3
2D
33
E2
84
0E
A0
D8
E1
00
D4
3F
8D
96
53
BE
86
54
47
8B
9C
C1
B2
BD
E3
60
19
DA
CE
69
E0
38
F3
F1
BD
5D
94
6B
3C
05
C1
34
99
AE
99
16
24
DF
D9
61
9D
65
B2
33
5E
80
70
06
E0
CC
98
27
0A
57
77
C3
B4
E3
4F
7B
28
B2
46
EA
84
4A
7D
87
41
D0
E1
3C
8C
BD
ED
F2
BE
9F
D2
6D
D1
4C
BF
12
D9
C5
42
1F
98
F2
90
99
AB
2A
F3
74
8D
9B
C8
86
44
BB
22
22
3A
DA
27
84
B7
2A
FA
85
E9
5D
87
DF
B3
30
10
BC
41
2B
9E
34
43
DF
A7
8D
0B
1E
70
0A
CA
B5
C6
3E
43
FC
19
AC
AA
5F
92
5A
48
3D
5C
58
C9
80
79
A3
DA
C5
80
04
05
36
FA
96
0E
0C
5A
40
29
AC
03
23
1E
0A
30
4F
D5
9B
4E
D8
B4
1E
E9
9D
05
FB
A5
79
20
95
2E
2C
9C
07
91
29
14
EE
BD
69
7B
8F
71
1F
B5
82
83
7B
B7
66
2E
F7
6D
FD
46
3F
79
B7
CC
31
EA
A7
4C
42
81
8E
89
72
D4
C5
25
E0
A1
1D
E8
9F
1A
10
E0
83
A4
A6
9F
23
C6
41
B0
BA
95
43
0A
F9
43
5A
24
09
0D
E0
7A
71
61
58
7B
5D
16
91
AD
F2
AB
D7
AA
7A
E9
01
79
22
D8
03
B9
2F
C0
43
68
C4
72
DF
C4
1E
F6
86
1D
9E
6F
3A
CC
DE
CE
B8
EF
D1
5F
97
7E
F0
4D
07
C6
99
E8
AC
2C
14
3C
76
7C
F6
54
4A
59
59
B6
9A
7E
A0
EE
34
52
F5
F9
D0
DB
C8
46
16
4A
15
E3
32
A9
E0
54
AE
C5
A4
31
F1
EE
B6
E7
7F
E3
F8
8B
5F
34
86
CE
DD
6C
FA
0E
57
D7
45
90
17
A2
78
21
07
C0
DA
EB
EC
A9
29
22
2D
07
7B
26
CC
BB
33
E5
BB
E6
9E
CD
EA
BC
E3
B6
30
48
14
BA
0E
64
E9
84
6A
52
7F
1D
00
9E
9B
83
75
BA
B2
FE
22
24
C4
8E
BC
85
95
66
22
6C
BD
A2
7D
D4
72
EC
23
6D
A9
49
88
32
39
36
6C
C8
D3
C1
8B
46
4F
EB
CE
76
AF
3B
1E
5C
B3
17
60
B4
88
DB
8F
64
39
15
2C
A9
3C
AB
79
29
9F
1F
74
6F
BE
5E
0B
F9
96
52
39
33
79
B2
47
6D
F8
D4
77
77
4B
02
66
8F
0F
FF
59
4C
CD
45
EC
AD
1B
