9C
6D
32
7E
F2
E5
C6
BC
A8
19
85
54
29
8A
7B
89
61
4A
57
1B
C0
17
0A
D7
1E
36
12
F4
9D
DC
DD
56
6F
08
6B
0F
91
69
7A
B5
F6
CE
32
4C
79
A0
68
FE
23
FD
1F
1C
71
58
6D
84
C6
1C
39
E2
0C
68
C1
69
0E
3D
CA
57
58
4E
08
33
D6
1C
12
AF
BB
D9
90
69
15
3F
7D
06
FF
BD
80
12
BE
E9
A6
B0
D9
B3
66
93
C8
45
2F
FA
56
58
A3
5B
4E
E4
0A
3E
CC
CC
6A
55
16
BB
CE
A9
50
FD
3F
63
FD
3C
CF
D6
2F
19
6C
23
7B
15
F8
8C
81
98
F8
BC
53
7A
34
27
13
05
62
DB
54
4F
3B
9D
38
98
06
48
7D
75
92
3C
26
A8
23
75
D7
87
C6
7B
20
E3
B2
79
BA
BD
DC
6D
11
B4
72
C8
B7
5F
2C
13
DB
0A
0A
C0
38
53
2D
1B
F3
02
F2
74
34
DB
60
05
69
33
62
51
98
7D
D0
08
2B
39
3F
02
8B
9F
21
72
59
76
D3
61
64
51
10
D1
FF
60
43
4D
EF
03
9F
E2
60
D9
92
09
DB
66
32
16
08
9E
5F
81
4C
91
9C
DB
92
01
9D
A6
9D
21
0E
4E
2C
E0
74
9D
91
3D
53
31
CD
D8
F8
2C
3D
D0
0A
21
A3
69
60
83
63
83
40
4C
D3
35
23
B7
33
3B
B1
C7
12
A0
27
F9
91
FC
E1
83
A9
E7
2E
17
38
54
83
FD
D2
42
02
AB
0B
E3
80
9C
D1
B4
21
22
10
22
F8
5E
1D
93
12
DA
57
C1
AB
C5
CA
6E
33
D1
62
6E
A3
2B
16
55
7F
03
02
D1
D5
CC
43
E9
C3
71
F8
5B
DD
3D
64
F3
A3
4D
A7
E4
6A
11
AF
82
73
B7
35
A1
20
51
22
3B
D1
5B
DE
A5
4C
44
37
0C
8E
44
6B
5A
84
81
D8
B1
A6
6E
5E
01
CD
1C
92
DC
79
92
88
47
65
BC
3F
5E
AE
EE
5C
E1
6C
46
B5
70
B3
DB
7C
92
9C
A3
F9
83
AC
2B
B2
48
49
57
26
5C
CF
6F
03
73
67
FF
7D
BB
C8
76
86
AE
B4
34
29
A4
7D
B0
A3
32
3C
5A
68
FB
A6
48
1A
C1
48
20
39
04
A1
B1
2D
4F
3E
21
41
CB
49
4E
18
2A
1B
AD
48
7C
5D
C2
74
37
CD
DB
9A
CB
A7
9E
62
54
50
FC
B9
4F
ED
39
66
2B
CA
AF
B9
17
BE
21
EE
89
5D
3E
B2
3B
15
E3
D3
27
6E
CC
01
06
68
46
F2
42
66
1B
28
AD
3E
39
D2
E8
DB
C7
7A
B4
6A
DB
15
F1
9F
DF
B4
EE
F2
46
BA
9E
89
3C
DD
07
1E
73
71
4E
25
36
EA
41
63
58
FE
D0
6C
BC
7C
C9
39
2C
7B
93
EC
51
1D
22
3A
9F
07
25
8C
81
61
26
C9
E1
