5C
FC
46
6A
53
91
CD
77
54
CA
14
6C
BC
3D
24
69
F4
F2
F9
C8
15
C4
4F
D1
22
39
1A
32
E4
6D
22
E5
0F
1F
FC
D1
31
19
6E
DA
79
4A
14
A6
7F
8C
6D
AC
92
5F
B4
1F
38
3A
87
53
AB
9F
0E
12
E1
65
50
05
22
5F
D0
E8
71
6C
C9
C2
7C
47
AC
30
80
FB
F0
0A
33
73
3D
D2
54
DB
59
DD
DC
ED
6C
8B
C5
8A
60
1E
A7
7D
AC
25
6D
B1
01
35
77
3C
48
4C
60
D2
41
8B
90
7A
FA
16
D7
12
4A
3B
E4
E8
2B
E9
38
13
53
D9
81
4C
8C
01
5F
95
B3
65
78
43
DE
7B
FB
67
DC
3E
A1
CA
75
57
2B
2E
CD
EF
FC
C5
01
A6
ED
60
03
84
85
54
85
11
CC
07
4C
7F
BF
D4
BB
E5
63
AD
AC
2D
15
C1
8F
1E
11
0C
B0
1B
0B
82
ED
53
B3
50
94
D7
19
AF
A9
93
18
60
5C
77
4A
93
84
1E
16
4B
BC
CA
E1
82
55
09
38
98
FD
66
B3
A0
80
0D
E7
C0
C9
6C
7D
C7
8B
D5
56
A1
04
62
DC
71
33
1E
1E
57
15
B8
4C
47
5D
C0
66
7A
FD
71
69
4A
FB
F0
6C
45
F5
7C
6F
C9
36
AD
39
E2
24
D0
4D
0A
08
5D
4A
1C
67
19
29
A4
2C
F0
A5
A1
BB
6D
43
8B
8B
46
B4
84
E5
A0
09
B3
F5
FC
DF
4B
EC
74
29
10
38
7C
28
75
48
54
CC
AF
DD
2D
E6
70
6F
0D
C4
C1
21
E4
79
AF
42
73
89
D9
D9
75
09
36
37
41
65
05
AD
B5
DA
1F
15
5A
D5
C6
94
93
1A
EB
F0
CB
D2
DC
91
57
6C
F5
85
56
4B
C4
5A
CF
93
FE
9A
B4
40
8D
00
3D
D4
4A
00
30
B0
29
71
39
6C
38
27
C0
80
1A
27
81
09
46
6A
3C
62
81
97
0F
50
C7
B8
A2
E8
C7
99
B3
01
8B
31
FE
F8
0E
84
02
4C
7E
18
C7
B3
30
C0
68
41
A0
D0
39
33
33
52
54
5B
F5
0F
2D
AA
30
81
B1
FA
6F
C1
DD
14
E8
1C
D6
26
DE
6B
68
DE
DA
74
F9
65
44
08
59
2D
0C
C1
F9
41
90
8A
05
5A
FA
B5
10
A3
BC
7E
17
CA
0F
64
D2
6E
F4
52
AE
51
91
74
A5
7A
68
1B
E1
45
ED
47
9E
34
82
E2
C6
41
E6
0D
C8
39
63
1F
12
F9
F9
09
B4
51
34
0F
A9
56
0E
9F
D5
01
64
27
CF
CB
08
64
0E
95
B2
3E
AC
24
83
5D
BF
93
69
4A
7F
50
ED
1A
C3
F9
21
2D
19
69
44
A9
EF
1F
A8
03
73
49
0C
D5
F0
AA
6C
C4
F0
50
77
BE
2C
44
F4
EC
F3
2C
33
EF
DF
69
E1
44
3D
88
4E
C8
BC
B0
E5
C5
9F
5C
FC
46
6A
53
91
CD
77
54
CA
14
6C
BC
3D
24
69
F4
F2
F9
C8
15
C4
4F
D1
22
39
1A
32
E4
6D
22
E5
0F
1F
FC
D1
31
19
6E
DA
79
4A
14
A6
7F
8C
6D
AC
92
5F
B4
1F
38
3A
87
53
AB
9F
0E
12
E1
65
50
05
22
5F
D0
E8
71
6C
C9
C2
7C
47
AC
30
80
FB
F0
0A
33
73
3D
D2
54
DB
59
DD
DC
ED
6C
8B
C5
8A
60
1E
A7
7D
AC
25
6D
B1
01
35
77
3C
48
4C
60
D2
41
8B
90
7A
FA
16
D7
12
4A
3B
E4
E8
2B
E9
38
13
53
D9
81
4C
8C
01
5F
95
B3
65
78
43
DE
7B
FB
67
DC
3E
A1
CA
75
57
2B
2E
CD
EF
FC
C5
01
A6
ED
60
03
84
85
54
85
11
CC
07
4C
7F
BF
D4
BB
E5
63
AD
AC
2D
15
C1
8F
1E
11
0C
B0
1B
0B
82
ED
53
B3
50
94
D7
19
AF
A9
93
18
60
5C
77
4A
93
84
1E
16
4B
BC
CA
E1
82
55
09
38
98
FD
66
B3
A0
80
0D
E7
C0
C9
6C
7D
C7
8B
D5
56
A1
04
62
DC
71
33
1E
1E
57
15
B8
4C
47
5D
C0
66
7A
FD
71
69
4A
FB
F0
6C
45
F5
7C
6F
C9
36
AD
39
E2
24
D0
4D
0A
08
5D
4A
1C
67
19
29
A4
2C
F0
A5
A1
BB
6D
43
8B
8B
46
B4
84
E5
A0
09
B3
F5
FC
DF
4B
EC
74
29
10
38
7C
28
75
48
54
CC
AF
DD
2D
E6
70
6F
0D
C4
C1
21
E4
79
AF
42
73
89
D9
D9
75
09
36
37
41
65
05
AD
B5
DA
1F
15
5A
D5
C6
94
93
1A
EB
F0
CB
D2
DC
91
57
6C
F5
85
56
4B
C4
5A
CF
93
FE
9A
B4
40
8D
00
3D
D4
4A
00
30
B0
29
71
39
6C
38
27
C0
80
1A
27
81
09
46
6A
3C
62
81
97
0F
50
C7
B8
A2
E8
C7
99
B3
01
8B
31
FE
F8
0E
84
02
4C
7E
18
C7
B3
30
C0
68
41
A0
D0
39
33
33
52
54
5B
F5
0F
2D
AA
30
81
B1
FA
6F
C1
DD
14
E8
1C
D6
26
DE
6B
68
DE
DA
74
F9
65
44
08
59
2D
0C
C1
F9
41
90
8A
05
5A
FA
B5
10
A3
BC
7E
17
CA
0F
64
D2
6E
F4
52
AE
51
91
74
A5
7A
68
1B
E1
45
ED
47
9E
34
82
E2
C6
41
E6
0D
C8
39
63
1F
12
F9
F9
09
B4
51
34
0F
A9
56
0E
9F
D5
01
64
27
CF
CB
08
64
0E
95
B2
3E
AC
24
83
5D
BF
93
69
4A
7F
50
ED
1A
C3
F9
21
2D
19
69
44
A9
EF
1F
A8
03
73
49
0C
D5
F0
AA
6C
C4
F0
50
77
BE
2C
44
F4
EC
F3
2C
33
EF
DF
69
E1
44
3D
88
4E
C8
BC
B0
E5
C5
9F
5C
FC
46
6A
53
91
CD
77
54
CA
14
6C
BC
3D
24
69
F4
F2
F9
C8
15
C4
4F
D1
22
39
1A
32
E4
6D
22
E5
0F
1F
FC
D1
31
19
6E
DA
79
4A
14
A6
7F
8C
6D
AC
92
5F
B4
1F
38
3A
87
53
AB
9F
0E
12
E1
65
50
05
22
5F
D0
E8
71
6C
C9
C2
7C
47
AC
30
80
FB
F0
0A
33
73
3D
D2
54
DB
59
DD
DC
ED
6C
8B
C5
8A
60
1E
A7
7D
AC
25
6D
B1
01
35
77
3C
48
4C
60
D2
41
8B
90
7A
FA
16
D7
12
4A
3B
E4
E8
2B
E9
38
13
53
D9
81
4C
8C
01
5F
95
B3
65
78
43
DE
7B
FB
67
DC
3E
A1
CA
75
57
2B
2E
CD
EF
FC
C5
01
A6
ED
60
03
84
85
54
85
11
CC
07
4C
7F
BF
D4
BB
E5
63
AD
AC
2D
15
C1
8F
1E
11
0C
B0
1B
0B
82
ED
53
B3
50
94
D7
19
AF
A9
93
18
60
5C
77
4A
93
84
1E
16
4B
BC
CA
E1
82
55
09
38
98
FD
66
B3
A0
80
0D
E7
C0
C9
6C
7D
C7
8B
D5
56
A1
04
62
DC
71
33
1E
1E
57
15
B8
4C
47
5D
C0
66
7A
FD
71
69
4A
FB
F0
6C
45
F5
7C
6F
C9
36
AD
39
E2
24
D0
4D
0A
08
5D
4A
1C
67
19
29
A4
2C
F0
A5
A1
BB
6D
43
8B
8B
46
B4
84
E5
A0
09
B3
F5
FC
DF
4B
EC
74
29
10
38
7C
28
75
48
54
CC
AF
DD
2D
E6
70
6F
0D
C4
C1
21
E4
79
AF
42
73
89
D9
D9
75
09
36
37
41
65
05
AD
B5
DA
1F
15
5A
D5
C6
94
93
1A
EB
F0
CB
D2
DC
91
57
6C
F5
85
56
4B
C4
5A
CF
93
FE
9A
B4
40
8D
00
3D
D4
4A
00
30
B0
29
71
39
6C
38
27
C0
80
1A
27
81
09
46
6A
3C
62
81
97
0F
50
C7
B8
A2
E8
C7
99
B3
01
8B
31
FE
F8
0E
84
02
4C
7E
18
C7
B3
30
C0
68
41
A0
D0
39
33
33
52
54
5B
F5
0F
2D
AA
30
81
B1
FA
6F
C1
DD
14
E8
1C
D6
26
DE
6B
68
DE
DA
74
F9
65
44
08
59
2D
0C
C1
F9
41
90
8A
05
5A
FA
B5
10
A3
BC
7E
17
CA
0F
64
D2
6E
F4
52
AE
51
91
74
A5
7A
68
1B
E1
45
ED
47
9E
34
82
E2
C6
41
E6
0D
C8
39
63
1F
12
F9
F9
09
B4
51
34
0F
A9
56
0E
9F
D5
01
64
27
CF
CB
08
64
0E
95
B2
3E
AC
24
83
5D
BF
93
69
4A
7F
50
ED
1A
C3
F9
21
2D
19
69
44
A9
EF
1F
A8
03
73
49
0C
D5
F0
AA
6C
C4
F0
50
77
BE
2C
44
F4
EC
F3
2C
33
EF
DF
69
E1
44
3D
88
4E
C8
BC
B0
E5
C5
9F
5C
FC
46
6A
53
91
CD
77
54
CA
14
6C
BC
3D
24
69
F4
F2
F9
C8
15
C4
4F
D1
22
39
1A
32
E4
6D
22
E5
0F
1F
FC
D1
31
19
6E
DA
79
4A
14
A6
7F
8C
6D
AC
92
5F
B4
1F
38
3A
87
53
AB
9F
0E
12
E1
65
50
05
22
5F
D0
E8
71
6C
C9
C2
7C
47
AC
30
80
FB
F0
0A
33
73
3D
D2
54
DB
59
DD
DC
ED
6C
8B
C5
8A
60
1E
A7
7D
AC
25
6D
B1
01
35
77
3C
48
4C
60
D2
41
8B
90
7A
FA
16
D7
12
4A
3B
E4
E8
2B
E9
38
13
53
D9
81
4C
8C
01
5F
95
B3
65
78
43
DE
7B
FB
67
DC
3E
A1
CA
75
57
2B
2E
CD
EF
FC
C5
01
A6
ED
60
03
84
85
54
85
11
CC
07
4C
7F
BF
D4
BB
E5
63
AD
AC
2D
15
C1
8F
1E
11
0C
B0
1B
0B
82
ED
53
B3
50
94
D7
19
AF
A9
93
18
60
5C
77
4A
93
84
1E
16
4B
BC
CA
E1
82
55
09
38
98
FD
66
B3
A0
80
0D
E7
C0
C9
6C
7D
C7
8B
D5
56
A1
04
62
DC
71
33
1E
1E
57
15
B8
4C
47
5D
C0
66
7A
FD
71
69
4A
FB
F0
6C
45
F5
7C
6F
C9
36
AD
39
E2
24
D0
4D
0A
08
5D
4A
1C
67
19
29
A4
2C
F0
A5
A1
BB
6D
43
8B
8B
46
B4
84
E5
A0
09
B3
F5
FC
DF
4B
EC
74
29
10
38
7C
28
75
48
54
CC
AF
DD
2D
E6
70
6F
0D
C4
C1
21
E4
79
AF
42
73
89
D9
D9
75
09
36
37
41
65
05
AD
B5
DA
1F
15
5A
D5
C6
94
93
1A
EB
F0
CB
D2
DC
91
57
6C
F5
85
56
4B
C4
5A
CF
93
FE
9A
B4
40
8D
00
3D
D4
4A
00
30
B0
29
71
39
6C
38
27
C0
80
1A
27
81
09
46
6A
3C
62
81
97
0F
50
C7
B8
A2
E8
C7
99
B3
01
8B
31
FE
F8
0E
84
02
4C
7E
18
C7
B3
30
C0
68
41
A0
D0
39
33
33
52
54
5B
F5
0F
2D
AA
30
81
B1
FA
6F
C1
DD
14
E8
1C
D6
26
DE
6B
68
DE
DA
74
F9
65
44
08
59
2D
0C
C1
F9
41
90
8A
05
5A
FA
B5
10
A3
BC
7E
17
CA
0F
64
D2
6E
F4
52
AE
51
91
74
A5
7A
68
1B
E1
45
ED
47
9E
34
82
E2
C6
41
E6
0D
C8
39
63
1F
12
F9
F9
09
B4
51
34
0F
A9
56
0E
9F
D5
01
64
27
CF
CB
08
64
0E
95
B2
3E
AC
24
83
5D
BF
93
69
4A
7F
50
ED
1A
C3
F9
21
2D
19
69
44
A9
EF
1F
A8
03
73
49
0C
D5
F0
AA
6C
C4
F0
50
77
BE
2C
44
F4
EC
F3
2C
33
EF
DF
69
E1
44
3D
88
4E
C8
BC
B0
E5
C5
9F
