60
98
37
6E
00
C2
9F
B4
D7
00
80
1E
83
9C
C5
4E
03
2D
2C
83
7C
28
FF
3D
51
0C
4D
59
1A
5D
B0
12
AA
86
F4
5F
3A
A8
78
BE
1F
86
0F
9F
A0
28
04
B6
45
87
E3
CB
95
14
9C
A7
1F
DB
4D
BD
68
AB
44
69
53
BD
41
A5
80
20
D2
A9
B5
C1
E0
27
EE
D2
43
1E
F4
29
0B
8C
39
8C
C8
66
C5
E4
62
16
D2
78
0A
CB
0E
9F
0C
77
DB
BB
71
37
E4
43
1B
3A
F6
68
64
DF
12
92
70
BE
59
CB
4C
16
B3
37
51
EB
19
3A
C5
7C
D8
32
7C
6C
99
A4
00
B1
99
00
96
57
AD
1E
02
43
0D
AE
FF
F3
F6
5D
DC
43
0D
74
20
B8
09
AB
39
B2
8B
4E
1F
EE
25
F7
5F
31
6B
01
10
87
76
28
BC
17
ED
8C
47
42
21
C2
3F
88
A8
0C
86
0D
09
1A
57
D2
16
A5
FD
C1
FA
B4
E4
43
35
CD
2B
48
CF
56
75
2B
40
0B
6B
51
8B
E8
7B
18
17
53
B5
EC
21
82
4C
6B
34
B7
64
0E
F8
33
01
1D
87
87
52
7C
11
76
02
2C
03
23
CD
64
5C
FF
3D
7D
A8
BD
B3
9B
FE
DC
22
22
AC
91
CF
71
B1
61
17
3E
CE
F4
0B
BE
1B
6C
AC
4A
A9
EA
73
3A
4F
8D
9F
EC
4B
1A
F7
0E
73
9E
FA
3A
B9
0F
F8
55
DA
A8
C6
7C
14
36
75
9D
5B
E0
03
F2
7E
D0
49
ED
4F
10
A7
0E
37
77
49
F6
ED
EC
55
EE
D6
23
4B
82
73
0D
EE
0C
93
53
EC
73
E5
29
1C
8C
D3
8D
74
F7
BF
73
AF
52
98
39
85
71
9B
4D
96
E3
CB
DC
2C
52
C1
48
1F
29
EA
18
AE
86
CD
4A
4B
2C
95
A4
11
B0
9E
2C
4B
44
16
6D
02
46
2F
93
99
1E
4A
9E
9C
3B
EC
3C
03
73
46
D3
F3
7D
EC
CF
E3
4B
41
94
6B
4F
45
84
FD
ED
28
0F
88
2E
BE
A9
E6
1F
9F
D9
0E
81
13
AA
08
A7
B8
A9
A3
52
E1
0A
7F
0D
EC
0B
88
A9
59
AD
14
B3
E5
5C
1F
B7
FE
08
93
4E
EB
08
A5
44
19
BC
9D
0E
47
A6
CF
50
04
3D
D2
57
FD
76
10
20
0E
51
BC
AA
7A
80
CF
A7
8F
5A
3F
1A
4E
5F
3C
C1
D9
E6
4F
7E
72
F0
38
4F
43
C6
60
E9
2A
45
AE
72
44
57
92
ED
E2
FD
CC
67
8C
F9
58
2A
89
49
ED
FB
4A
44
98
00
D1
D3
D0
4A
E1
E5
E2
FB
C3
3A
E2
43
76
A3
E8
69
CD
2D
B1
A9
60
8F
CB
AD
5B
A4
27
F7
33
C4
9E
3C
24
CF
72
EA
07
92
7E
15
2B
73
BC
80
61
1C
20
C5
EB
58
8C
CB
84
27
53
A1
