15
DD
06
BE
A1
8A
7D
D2
B6
E5
F5
2A
9C
B0
BA
C0
A5
25
D0
1E
FA
A8
9C
BB
6D
8B
4E
11
60
26
4E
E0
11
FA
59
B9
46
69
08
B9
C0
5B
C6
ED
7E
F3
59
3B
4D
FA
67
8B
0F
34
09
72
46
E1
ED
28
5F
D2
9B
97
92
8A
F5
B0
01
80
70
B3
09
A4
E5
2A
B1
E9
BB
31
7C
60
70
4F
50
C4
7B
72
E4
39
DB
80
8B
2A
6F
D4
51
5D
BA
F3
FA
9B
83
80
93
D5
E8
BC
77
DD
47
95
77
1F
F1
98
2E
12
37
94
6A
58
82
E1
6B
7E
F4
0D
08
F9
B2
0C
CC
2C
65
50
4E
DC
CE
41
9A
80
CB
7F
94
91
9F
0A
47
FB
7D
BF
94
04
73
52
78
E3
26
D6
0A
6D
4B
8F
A5
51
4F
B4
47
9F
A1
DB
69
86
B8
ED
D7
C1
BB
AA
7C
4B
1E
BD
22
22
76
6F
76
92
67
4E
AE
83
CD
99
0C
92
DB
48
27
EF
6B
B3
58
D6
67
84
43
3F
03
49
29
6C
22
D9
92
2B
7A
A1
D1
98
67
AF
E4
72
A5
74
5D
53
40
4A
12
7D
65
7B
B9
23
93
33
3C
C2
99
DE
34
A5
BA
D9
91
92
3F
2E
AA
9B
A9
BD
A2
8F
9B
F2
FD
15
E6
8A
3E
6C
01
38
78
76
51
A7
F6
2F
83
53
E1
20
24
46
68
D0
95
C1
CD
87
D2
97
DC
98
CE
6E
2A
0E
C0
CA
B0
4F
19
89
23
8F
97
FC
79
95
1B
7A
6B
3E
39
40
09
2D
A3
63
5E
D8
78
82
05
41
2E
E3
38
67
AB
E8
80
D3
D8
E4
46
34
02
C9
ED
79
76
3E
C7
1C
DA
1F
FE
E4
7B
F7
B2
34
7F
99
22
8A
48
F5
51
D2
E3
8C
84
C9
64
3F
8D
95
92
83
DB
EE
19
59
9D
E8
AB
B0
03
24
43
E5
A6
18
63
D6
0A
E2
4D
94
7D
27
E3
B8
46
8B
95
E3
74
88
95
2C
B7
F8
BD
91
89
67
00
8C
69
8F
B8
A1
73
D4
E6
B6
A1
A8
CC
84
42
1E
D3
71
C7
2E
19
0D
1E
CA
EE
06
30
00
E9
10
EE
4D
96
56
45
3B
FA
F8
EF
CB
F3
E9
B0
E2
2C
5C
82
C1
25
FB
C9
83
55
7A
84
6D
6C
A9
ED
E3
F3
5A
D9
B8
1F
D1
BC
16
B9
AE
D4
37
E2
BF
0F
88
88
25
3A
CE
F3
C0
D0
87
5B
A5
F2
78
DD
40
B5
F7
9D
3B
CE
BC
23
E5
8F
73
21
28
0E
05
ED
92
F8
3A
F5
AE
E1
8F
CC
59
0A
B7
FB
97
C0
6A
2B
D5
AC
65
54
04
69
73
60
94
D1
36
D9
E8
B9
7B
A0
E9
FE
78
06
45
13
E6
66
2D
39
5A
D6
D1
6F
90
CD
01
D8
6B
D5
FF
38
FD
34
CE
E5
5B
20
36
CC
E1
A8
13
