C5
4F
A8
98
59
41
3E
8B
CA
7A
62
9B
29
6F
99
05
80
C6
5C
7A
21
CF
58
D6
D4
EA
07
F4
89
C2
15
83
04
95
B0
1B
59
75
1B
50
AB
9E
18
68
92
6A
58
66
94
18
07
E2
78
87
4A
0E
A1
79
E5
62
1C
9C
CD
B7
65
2E
B5
6C
CE
F5
1C
8A
27
FF
13
AB
CF
57
FB
E9
72
5F
62
AA
FD
F2
D4
76
11
E7
DC
05
7A
1F
12
D4
30
96
A8
74
BC
4C
36
30
40
08
61
55
CA
65
77
0E
A3
A2
B0
A0
DF
F8
CC
F2
DB
81
42
8E
45
01
C8
41
06
DE
9E
A6
3C
BE
65
D5
BF
4C
5D
A7
67
9F
E0
41
57
48
3F
41
C9
3D
E5
27
9D
50
18
3F
10
25
87
BB
AB
D3
CA
5E
C7
9F
45
C7
4B
FD
F0
3D
19
01
F7
D7
90
82
CC
AE
A2
08
68
DD
AD
6C
55
9A
6B
7C
AE
7B
84
23
65
37
2C
9D
74
66
4A
B1
54
E2
8F
80
3F
C0
39
FC
ED
75
29
4D
C3
91
5D
8F
86
20
BB
DC
1C
F7
B7
E9
84
36
E7
C9
36
60
85
A5
33
8A
13
E4
F9
0A
D3
F4
A2
56
17
AA
DC
96
5A
AE
E9
D9
C2
FB
7C
5A
D7
FA
A6
7E
33
76
B9
57
89
C2
50
EA
98
52
84
90
DB
4C
11
1A
D1
DB
F9
EB
69
EB
28
AB
AC
60
57
44
CD
CB
C2
E2
00
08
2D
61
D3
7D
FD
4A
EE
EF
28
E4
18
6C
BC
22
CB
14
2D
E5
6F
AB
E6
74
66
07
0E
3C
ED
FF
19
F6
C8
14
D2
B4
88
8F
2A
A2
A9
33
62
6A
BE
AC
DB
A4
68
BB
9D
EF
98
81
E7
AB
DD
6D
74
BB
2F
CD
2D
0A
B6
EF
8D
7E
E7
1A
16
72
DB
DE
41
D1
41
C2
DB
13
D8
F7
74
FF
D1
1F
DC
50
17
6E
71
72
51
50
54
D2
5A
82
9E
5F
AB
4E
01
A8
B7
B7
66
9B
22
DA
DD
FE
21
7E
DE
AE
E5
4F
12
2C
05
BD
56
B4
B0
58
A5
65
8F
BA
3C
79
D6
94
44
CF
DB
23
11
55
8C
90
37
37
0B
A9
69
D2
8A
50
5A
27
2E
8C
50
F5
3B
04
78
6D
30
EA
2D
DD
33
E6
3B
62
3C
C4
AE
AE
D5
C6
EE
FA
5E
CC
32
5C
77
E6
CC
74
DA
0D
5B
9F
DA
FA
66
DC
27
A0
E5
19
59
B5
51
E3
46
85
AE
88
CA
47
6A
28
B4
D9
FD
C7
3C
37
1E
B7
95
69
45
40
E7
42
11
47
D2
8C
64
80
25
D0
40
18
D3
19
C2
12
3C
A9
EC
DF
D2
BC
A7
D6
52
E4
DC
4A
63
CD
A8
59
75
E2
69
58
2E
93
0B
95
1A
F2
F0
52
D0
A8
E7
60
91
8F
46
33
7C
56
FC
98
13
9D
3B
6F
EB
C1
83
BE
29
99
A4
6D
28
1F
AA
53
47
F2
A3
68
39
50
EE
84
27
7D
92
EA
CA
E5
7C
CB
76
F6
F9
56
9D
07
17
B0
8B
E9
C6
07
75
55
9C
0E
3D
0C
AE
2D
BD
2D
9A
91
56
08
B4
B8
45
67
57
60
62
82
42
97
8E
9D
72
B5
7B
E4
A4
F3
E5
57
44
04
DB
7F
C6
B1
06
FE
A1
54
85
D2
B9
31
1A
69
24
16
01
8A
E2
1E
85
5B
A5
EB
3C
83
50
85
9F
46
62
E0
9C
A8
4E
AA
E1
A8
D4
F7
40
2B
67
2A
8E
56
BA
A4
89
8D
08
9A
09
C1
9A
CE
09
85
72
DD
24
6E
A3
9C
1F
F5
41
BA
23
95
F6
7D
3F
6D
08
AA
D8
41
75
D5
8E
99
11
CA
48
D4
B2
C6
0F
2A
A5
1A
68
07
B8
BB
52
4C
2E
34
AD
58
D7
E4
79
E3
C0
09
AB
2D
C2
ED
4B
46
1D
25
22
59
FE
71
7C
51
C6
E9
32
FA
66
48
6A
7D
DE
38
B9
60
04
83
04
34
7F
A9
A5
2F
D3
17
05
8D
0A
B1
B2
48
2B
F0
8D
0C
34
A5
AF
CF
DD
FB
0B
C5
CD
8D
71
AA
17
A7
D5
09
73
7C
EC
73
04
BF
B3
EE
7F
6B
E8
2B
DC
52
71
DF
B9
EA
43
B4
C3
DD
6A
88
6F
02
3A
3A
7A
E6
11
7F
B1
0D
B4
DD
AF
13
1E
4C
15
7E
22
4E
A6
21
03
4F
9C
54
08
42
C7
42
6C
C6
81
68
8E
02
24
B4
29
00
73
FF
BA
FC
F0
2E
54
3A
6F
C6
5F
2B
57
38
C8
CE
9D
E0
6F
CF
C1
61
1F
E7
5A
5E
4F
33
94
9C
2C
D5
53
3D
04
69
EF
F9
E9
05
9B
C4
9E
52
AD
C8
98
4E
BD
CE
B7
FA
EC
8E
00
25
C6
8C
3C
93
A4
0C
42
6C
5C
E5
D4
9E
4F
84
DB
A0
A2
F7
42
ED
3E
34
A9
CF
94
78
5F
53
D1
4C
DF
AE
00
39
F0
67
38
40
5D
86
61
84
3A
5C
F2
58
B1
0C
52
FD
CC
41
F0
0F
21
41
FD
4A
6F
A4
AB
93
43
FD
1A
9E
B5
78
B6
0B
D1
E9
A8
B1
DF
00
1C
A9
8D
09
C4
36
9F
DC
15
BB
C5
41
A5
96
6A
B1
6E
7C
FE
87
83
50
50
77
00
C8
07
7B
AD
DA
A2
EA
A6
F7
17
17
FA
B6
02
B0
0D
57
50
32
86
D3
23
AF
70
9E
B2
62
1E
33
67
15
E0
52
50
E3
D9
08
B8
B7
81
71
3A
0D
BC
D9
5D
D2
54
05
D8
52
02
63
15
98
08
13
A4
49
02
2E
CA
D7
2A
CC
7D
74
86
17
0B
FF
D0
23
94
65
39
84
8E
96
FB
B2
0B
C9
6E
26
55
4F
78
B5
66
BA
12
91
37
AA
08
FF
E2
C2
30
BA
69
94
12
B2
8F
92
F9
88
20
7A
F5
20
B0
31
0F
C3
A7
66
42
82
4E
B3
1E
A6
F5
36
20
E6
C5
3B
C3
A3
53
4D
ED
A0
D5
F6
9D
E4
01
06
F9
6A
B5
D7
BC
3B
8E
F5
43
0C
2F
BF
52
5E
61
5B
E7
98
B5
E8
43
15
2D
E5
CA
59
B8
FF
E2
B9
B6
80
91
89
BB
AF
07
D8
FD
85
35
C4
5E
B4
E4
67
9D
ED
C1
CD
9B
00
59
5B
B3
56
41
DD
60
68
9D
A8
A8
F3
D3
A2
70
E5
59
13
14
93
D6
E7
ED
38
39
4B
56
FF
CC
B0
29
1F
C0
5D
0C
98
AE
C8
2C
55
C2
84
59
C3
7B
AF
B5
70
00
7A
92
77
32
DF
9A
14
6C
35
A7
4F
0F
39
FA
12
71
8A
86
F5
87
C2
18
BB
05
ED
B0
F8
FD
1D
67
3B
EF
06
A3
EB
8C
17
46
92
28
AE
76
FB
DA
7D
53
EE
EC
9F
97
57
DC
4C
BC
3E
A7
EC
5B
3E
38
90
70
53
35
A5
44
F8
7F
AD
33
B1
F5
9F
A3
06
00
3A
DE
FB
11
C5
B2
5A
2E
B3
20
EE
8E
44
34
68
D6
FE
D7
E8
81
98
C9
62
8C
C2
25
C8
F8
84
AB
45
7D
2C
F0
BB
3F
70
04
DD
39
A2
75
45
59
14
1E
98
6D
02
88
B9
E9
4A
1F
73
3F
78
A8
E1
AC
47
04
C4
86
88
B2
82
68
B9
35
BC
ED
F8
DA
1E
B0
EB
F7
7D
B9
BC
1B
DF
14
3B
AA
CF
B9
B4
FB
8D
1A
13
0B
AB
4B
88
C4
2D
FD
FF
C7
80
5F
83
10
D5
F2
B0
07
23
F9
FD
E1
C0
EF
E2
D6
D1
71
05
11
48
D5
24
F2
E6
9E
4D
74
22
FF
CC
09
A8
3F
22
26
FC
35
D0
28
00
A2
50
6B
FA
C7
26
2B
C8
AF
76
C4
C8
51
29
2A
E1
88
57
D0
B0
A2
4B
AE
D7
73
F6
CA
61
7F
37
6E
03
3B
AE
AF
76
B4
F9
12
27
61
BA
14
E3
E9
5C
EB
DC
06
BE
02
FA
E4
C2
67
BD
33
E6
37
CF
17
CE
7E
E1
9C
C4
AA
05
CD
62
80
FF
25
04
57
ED
BD
AE
FD
D4
EA
42
23
CA
98
1B
FA
F1
35
FD
05
4E
9F
65
49
A1
F1
A6
EE
AB
A1
F7
E7
29
70
11
2D
D3
24
2B
E1
99
75
77
D7
F9
BD
62
96
F7
17
FB
13
9E
5F
CA
FB
A3
2A
FE
B4
2D
59
AA
A5
D5
B4
6E
FE
33
AB
A1
22
1F
9F
E4
A1
14
6F
DA
ED
CE
8C
97
B1
B1
72
07
2E
F6
69
82
23
07
6B
C5
0F
10
75
69
D6
BB
EE
E1
6B
A2
62
E4
B0
02
24
04
40
28
02
9F
3E
32
18
8F
33
C3
73
55
48
18
3D
59
CB
48
EF
7D
FD
C8
FE
0C
3B
2E
AF
71
64
8A
F1
6A
10
D6
7E
73
C2
28
DF
A4
FA
A8
C5
4F
25
7A
44
EB
1C
7D
09
A2
1E
16
DB
9E
E2
6D
5F
0D
BA
83
53
DB
35
99
DB
E2
65
4F
1F
1F
B4
74
57
6A
19
B7
E4
35
8C
52
05
CD
F4
1C
65
F8
B8
F9
BF
BA
12
B1
2C
E3
DF
44
CB
78
6E
D5
37
3C
1A
B2
DE
32
F9
24
F8
9E
E6
1A
ED
8F
0C
80
D5
5C
33
DD
B4
F2
61
12
F6
77
BF
C8
8E
2F
B9
82
62
DC
12
08
8A
41
52
A9
57
BC
02
9B
35
FE
42
92
0A
3D
19
88
7F
E4
05
EC
E4
50
8C
4C
AF
8C
ED
76
2A
4A
E5
8E
DA
B1
1A
84
D9
C7
68
88
6C
71
57
6F
76
7D
09
9E
72
67
0F
AB
62
F3
16
BD
74
71
2E
69
12
D1
0B
34
17
6A
9B
D6
10
36
4C
2C
F1
AC
11
8C
33
C9
39
CE
98
54
81
6A
8E
81
AD
00
B8
2B
90
25
F3
40
56
9C
E1
B4
3F
4F
03
5D
56
1D
03
08
C0
41
DD
F8
35
38
00
B8
AA
E5
E4
7B
4D
F0
63
43
CB
16
38
B8
B6
69
B4
30
0D
43
22
7A
F0
4D
03
61
AB
60
1E
5F
25
7A
14
1E
B9
2E
E2
CB
68
E9
6D
62
EB
C8
2B
D9
B0
C1
31
1A
0F
54
67
12
E1
EA
C5
7B
51
13
6B
47
EF
75
19
2D
49
D6
03
82
D2
74
47
21
1D
FF
05
51
43
87
40
94
46
E5
98
C8
4F
0F
10
A0
72
2A
5F
1D
F6
98
69
01
24
82
3C
CC
C4
D3
3E
63
F6
CD
2D
9E
36
EE
F4
13
A6
00
14
4A
B8
CD
17
BD
B0
2E
2E
58
60
49
78
AE
BE
7A
D2
2E
62
0C
BB
0C
6F
A6
A8
40
75
CC
F5
F0
A1
EE
9E
B7
38
F6
BF
F5
60
F1
39
60
3D
0A
AD
55
F4
F5
FE
AF
26
D4
6F
21
49
8D
9C
83
42
99
45
1D
BD
3B
32
25
F1
75
39
D7
1C
18
C3
7F
E2
B2
8B
75
1E
02
A8
C1
3B
25
6F
02
26
76
34
4C
CE
DF
E3
EC
00
AE
E8
A5
37
A2
BD
97
D2
CD
F3
32
64
DB
BD
B0
B9
2A
BD
22
5A
6E
D4
D2
94
C7
37
5C
B5
5F
8E
D1
C6
D8
A2
63
AA
F2
67
13
E0
86
D1
C2
B5
28
F1
92
81
B8
C7
75
8D
16
3D
B2
69
CF
CB
14
82
38
EB
15
8D
CA
4D
A2
04
44
EF
38
50
FB
20
78
A6
18
54
65
80
91
E6
54
77
4E
F3
E2
2A
36
5E
CD
5B
1C
C3
D9
E5
C2
85
27
EF
E6
37
C8
BA
48
C8
E9
4D
C6
82
FD
D0
0D
85
55
0E
BF
1E
3E
2D
42
00
76
06
B6
C2
77
A9
36
E2
ED
72
70
5C
72
06
9D
E0
C2
AE
D7
CE
AD
FA
7B
05
13
57
A5
A3
D9
59
43
0B
94
CD
EB
DE
7D
52
BC
92
1D
EC
78
BD
08
B5
F9
2A
20
EE
5C
45
11
BC
39
94
41
41
44
D1
15
93
3E
38
00
CB
DA
2E
DA
71
28
9A
46
54
0F
3A
ED
BC
F8
4F
9E
DE
97
0E
70
23
87
00
9A
53
A6
F2
DF
6B
5B
33
F8
13
E9
E8
79
AC
13
A0
1E
63
36
B0
66
2D
15
96
DD
74
AB
FF
87
11
03
25
64
C5
9A
49
CA
60
CF
14
63
C9
B7
48
39
91
AB
4B
59
F2
4B
3E
4D
BF
BB
EE
1F
21
D6
4F
D9
4E
4E
7F
7A
82
6E
7D
EA
47
9A
91
C9
F2
92
7D
1F
8A
56
1C
E0
AD
9E
76
B4
DF
F1
7D
F6
EF
77
76
02
A9
ED
08
C9
10
20
06
3F
2E
F0
82
9F
1D
98
91
11
AA
5F
5E
7F
87
B1
F0
83
27
44
F9
DF
C6
FE
E7
57
93
C3
50
BD
4B
EF
38
23
54
37
48
29
9B
06
15
00
1B
A1
BB
AE
3A
58
6D
63
BD
8B
58
6E
4F
7F
62
4B
EF
53
86
98
49
CD
F3
0B
B5
77
FA
E5
D5
86
0D
DA
06
DD
0E
A7
43
BD
28
69
17
3C
50
F0
61
45
58
C6
28
67
CA
DD
EE
F2
0A
6C
35
AC
FF
20
0D
AF
48
11
AB
9E
FB
02
30
6D
EE
64
3E
C9
68
62
D0
92
D9
E2
2C
44
86
DD
47
5F
FD
01
69
89
E9
3A
F9
9A
32
E5
CC
95
FF
B0
06
50
1F
A8
02
D5
DA
79
57
D8
E1
FE
AE
F3
FE
BE
D7
AF
86
EA
BC
EC
3B
2A
C6
A9
73
DE
1D
12
35
3D
04
3E
9A
09
67
15
16
3E
D4
53
BE
47
70
41
68
8C
C7
34
EF
5F
06
D4
24
4A
A6
92
27
B3
81
09
CD
CF
AA
52
0D
A6
8B
81
C7
58
1B
42
F4
2B
6B
8A
2D
A9
92
44
A1
BC
1B
05
D1
F2
62
3C
D7
27
4B
5A
5F
9B
5B
CE
D8
74
FA
C5
FD
3D
D9
45
28
94
E5
CE
98
D4
C5
0A
E5
DE
92
FC
35
03
3F
52
9E
A1
5A
6B
AC
41
74
A3
70
F4
88
93
32
63
F6
21
97
FE
A8
AB
2B
32
31
30
42
82
09
EE
A0
9A
C9
C7
2D
0D
E0
20
D9
8E
51
E8
3F
07
B5
28
10
68
09
C2
0B
DB
86
73
5C
4B
67
2D
F6
7F
9F
8B
14
6F
EA
30
E6
5D
35
3B
8C
4A
45
1D
D2
48
D2
65
A4
38
BE
5D
23
48
E8
D6
EC
59
EA
52
A4
12
21
AA
32
9A
2A
F0
90
4D
7D
F1
FC
A5
84
04
12
A5
92
F1
1E
4C
70
1E
9D
62
71
AD
88
F2
35
30
A4
F2
8D
C2
0F
43
89
37
0D
AB
30
4A
4E
B6
0A
93
2D
DD
9E
E0
DB
14
C1
9B
39
1D
89
40
33
AA
14
02
55
73
80
33
BF
75
FD
B8
9B
0A
2D
0D
B1
91
DE
9A
1F
E5
CA
62
1F
2F
6A
2E
99
25
49
0C
FE
6E
13
1A
30
CE
14
C9
2A
C4
A4
E1
7E
EC
E4
AB
5F
C4
8D
97
1F
71
B9
77
D0
3C
38
28
AD
63
38
F2
43
5A
44
50
A1
99
C5
EC
F9
00
97
44
86
BD
CF
C2
07
17
BB
B0
46
A5
96
66
71
20
2E
AC
4B
00
A5
BB
2C
4B
F3
0D
33
C9
CF
D6
4E
C2
F2
38
BB
25
B3
C0
9F
82
8C
FC
1D
73
F2
5D
E8
CA
EC
86
48
48
07
80
41
C1
65
58
8B
ED
9F
B0
4E
96
D5
29
8A
80
90
D6
F6
7F
04
50
AC
85
47
0B
6B
EE
7A
5D
7E
13
7C
B1
BB
91
B1
73
B9
E5
5D
5A
9A
7B
D2
E7
30
3D
8B
B3
7E
DE
D8
1E
F9
69
AB
CE
49
12
CC
43
3C
FC
43
57
F1
A7
BA
3B
28
1D
89
5A
EF
1C
2F
71
F1
B7
9B
D4
DF
D1
04
2B
98
42
DB
2B
EC
CA
2B
5D
77
6B
9E
EE
EB
80
0F
B1
0E
6B
7A
30
3A
A9
FE
D1
A6
EE
16
89
CA
C5
5C
1B
A7
02
6E
CD
B9
7B
14
16
01
5E
81
DB
EC
E7
16
6B
38
DA
CF
32
E1
6F
8A
53
17
E9
75
96
5B
E4
7A
F8
B2
4F
C8
B6
2E
95
81
BD
F0
3D
51
47
1E
6D
8C
C1
15
76
2C
89
0C
01
47
57
EF
BE
89
8D
A9
4B
5A
12
6F
27
50
1A
30
DE
D7
D0
D2
C8
14
1F
C0
6D
00
80
3E
83
8F
5C
E5
6B
F9
D4
0B
24
AA
04
4A
7D
E0
6B
F8
AB
85
38
4B
49
4B
C4
D1
A0
DF
4D
D6
7D
6F
2A
53
9F
F9
02
32
60
0A
B1
39
C1
D1
39
D1
E8
C1
9D
64
2E
5F
20
60
90
B0
2F
8F
B2
F0
EA
8A
D5
13
B9
25
E3
14
FB
D6
AF
23
7B
C2
87
25
26
6D
36
37
71
6C
7C
5A
55
1F
DE
EE
D7
3B
CC
0A
61
57
16
11
B9
6F
25
50
EE
D9
72
61
84
43
57
2C
4A
39
3D
99
9A
91
DA
7D
3B
9D
89
3A
35
F1
7F
85
0C
D0
4C
2A
D2
26
D7
5D
24
0B
B9
B3
6C
7A
40
66
E7
D9
EF
FF
28
BB
63
BD
EB
86
B5
F1
AA
D8
D2
DF
9E
F5
5A
10
D4
DA
29
4C
2F
9E
99
74
26
10
E5
2D
72
76
E3
A8
32
53
4F
8C
94
20
45
85
A9
02
F9
D5
AA
42
1E
E0
F2
E5
D3
A0
BF
79
21
83
3B
A1
74
CD
AF
AE
7E
B1
BE
03
BE
2F
48
6D
BB
62
AA
25
8E
1A
0B
42
A8
05
6D
6E
DA
39
1A
32
74
FC
C8
A2
84
BE
46
B3
BA
00
42
ED
FC
EA
DA
4B
A2
1B
83
2D
22
1C
BB
D3
A0
5F
13
2D
AD
9B
F0
CE
33
5A
26
E3
3E
A9
43
2C
2D
4E
E7
23
BC
5F
18
35
A9
0B
7E
F2
37
EF
87
4B
E5
37
4B
CE
1C
72
63
7C
02
0B
97
8D
4F
D8
27
CC
FA
34
0E
4C
93
61
D6
98
07
FD
29
47
66
07
FD
E8
02
39
93
CE
3F
17
0F
89
DB
6C
B7
B4
05
3C
A0
6D
B5
80
94
02
1F
58
68
16
1B
E1
07
F7
1A
4D
6C
FA
EF
E3
4E
E6
F4
45
C0
03
AC
AC
12
61
C7
88
59
6D
1C
6F
AA
6C
1F
80
3D
4D
DC
C8
1D
9B
77
97
94
1C
7B
3B
66
8C
A7
E6
C4
33
47
D1
49
06
F6
FD
E3
35
D3
AF
D1
DA
44
A6
D3
0A
BD
11
91
98
43
68
CC
7F
9F
5B
55
79
91
33
F5
04
E6
01
1D
7D
DB
64
D5
7C
DC
E8
40
95
47
A3
04
0F
3A
2F
15
36
20
74
93
F1
E0
57
1B
21
44
22
13
C1
5F
C5
12
F6
72
50
C3
88
6E
5D
E6
25
5C
72
C6
EA
F8
47
74
78
DC
A9
1F
87
C2
C9
DF
64
F1
4F
E7
4C
52
25
17
E2
60
99
78
DE
A5
1E
BD
CB
D2
FD
28
11
8A
B3
82
90
11
BB
B5
D9
1D
07
80
BF
8D
BC
BC
43
E3
22
88
EA
D4
21
D3
66
D2
89
E4
2A
6B
A7
06
18
C7
6B
14
B8
24
33
AD
24
8F
8B
20
BA
48
68
CD
88
38
9A
A8
ED
7D
92
02
47
E2
38
71
EF
D7
D9
F4
5B
5A
35
12
A4
BF
0E
76
26
05
DE
34
65
15
6D
8D
55
FB
A4
F7
D0
8B
BC
CA
74
DC
91
61
52
DF
DC
FA
67
9F
2B
7F
BD
93
5A
1D
2D
03
65
BF
9F
10
7F
99
4B
3A
53
03
B8
D2
94
8A
B9
73
1C
0F
22
E8
6A
2C
CA
A0
0E
E3
A1
63
55
9D
49
B5
56
21
65
4F
43
3D
CC
C9
FA
06
19
8B
57
CB
3F
8E
3F
32
ED
FB
0D
A3
FB
A7
A4
0E
64
D6
F6
99
AD
CF
35
5A
A1
CF
3A
85
47
B8
7F
DA
71
31
BA
94
6E
F4
D4
8E
29
E5
36
CB
E8
DF
AA
75
52
8E
B3
42
5B
2B
26
8F
B8
EA
4C
0F
8A
F2
92
82
D6
A6
B7
E0
44
34
D9
F9
8B
D5
A3
76
C3
FD
B3
E4
5F
2A
2B
55
8A
B3
2D
97
DE
B4
60
E8
A5
A0
A7
46
DB
41
4F
D1
06
53
B4
2C
3D
2B
B8
55
13
22
92
81
F0
92
E4
DF
4C
20
CD
3D
4D
9A
2B
DF
D7
DD
EB
20
99
7D
5D
82
B4
6E
DE
60
CB
16
93
73
52
8F
2B
DF
A7
3E
AA
CF
8C
EE
6E
82
46
3C
06
ED
5E
41
29
C7
4E
50
3D
68
91
C3
E4
E4
C8
A0
EE
60
70
78
01
EF
1F
70
D5
16
77
36
4C
16
E8
F7
2D
5A
5C
DA
F3
5A
0E
04
25
26
11
AE
5E
72
45
37
80
C9
4C
18
AE
D3
CA
92
6A
99
B0
8A
8C
64
1C
E1
3B
32
0D
DA
D0
23
AE
08
BF
A3
22
11
C3
55
34
E2
36
FC
90
6A
6A
AC
DC
81
1E
89
22
CE
F6
6F
15
C9
60
4D
BD
DB
8D
D7
DA
F2
D4
2C
7E
C6
55
BE
24
37
84
FB
42
4E
76
43
81
96
B5
22
C6
81
B4
20
38
E2
A4
64
C4
BD
5F
4C
2B
D8
B8
FD
0F
27
02
EC
5D
85
E8
C5
51
98
CC
EC
11
F3
8A
69
6A
B8
F1
9E
5C
B5
29
11
99
D9
B6
5A
2C
86
A5
84
96
1C
97
AE
D2
0E
88
8F
65
54
8C
13
C0
7C
55
D5
A9
8A
91
AD
01
6C
09
77
78
B3
EE
0F
25
4E
8B
A8
E3
BA
F3
54
61
F1
DD
97
D5
40
2E
AD
FA
EC
ED
6A
8D
03
D2
44
58
56
52
FD
9D
B1
74
26
8E
6F
09
80
BC
E8
80
3B
77
C0
B8
13
2A
CC
F3
4D
C6
D5
46
F0
59
9F
76
1C
2E
1C
76
0E
42
FA
8A
BB
A4
7D
B4
BD
E0
6E
7E
F8
1C
EA
03
A9
69
86
E3
70
22
AA
BC
39
25
03
D4
D7
FF
8A
55
DE
29
F2
09
C3
D1
B7
D6
34
56
95
84
95
53
A9
BC
77
0B
64
EF
38
37
F1
7B
91
68
0B
4B
89
A2
E9
F8
7E
C7
5C
9D
A3
D4
65
38
CE
EB
00
A0
69
32
08
A4
A0
07
53
51
4B
2A
55
C3
8C
92
F3
DA
97
F0
33
EE
10
7E
27
16
69
AD
21
F9
0F
A0
8B
45
48
50
E3
06
27
C6
2F
12
10
BE
B5
ED
88
8B
C8
8E
13
57
08
74
4D
F9
8F
EF
FC
74
EB
55
BD
C5
33
9F
9D
2B
E7
4E
FD
C1
DD
3A
2D
0B
F3
45
C8
B5
C8
C5
C0
72
D4
F8
7B
88
F3
05
4D
31
14
4B
2B
29
00
C1
80
6F
9F
D8
9D
05
75
83
40
45
15
76
99
F5
FF
45
24
A1
B6
FE
02
AA
CF
B8
2E
6F
32
E9
2A
CF
D4
BC
65
91
EF
72
89
02
9F
B7
D5
25
EF
64
97
80
B6
E5
E0
37
98
8D
DC
29
CE
6E
5E
AF
C0
52
B4
9F
17
F2
F2
AF
DB
06
F6
4C
B1
B5
15
9F
63
D1
95
BE
D0
B9
DB
45
94
3C
2E
76
0A
6B
DF
0F
2D
47
AD
0B
4C
9B
7B
49
FC
D4
6C
F2
52
B6
68
ED
ED
62
E9
C5
DA
EE
76
C1
7B
C9
1B
C5
C7
34
52
A7
8D
DB
3C
0B
A8
52
66
CB
6F
AB
56
02
CE
E2
FB
6C
00
1B
F8
13
74
2D
23
E1
3A
B0
2C
F8
DF
7A
9D
05
1A
C2
91
F5
3B
E6
81
A9
52
9A
26
5F
B4
F8
EC
79
3C
D0
67
E3
3D
CE
F0
FA
C2
F3
64
34
0A
E9
5F
3A
81
C7
C7
D0
30
B6
38
23
2C
5F
03
56
CE
9B
D1
C3
D5
88
B6
D1
FD
1E
64
CC
79
D6
F8
D2
90
D2
0B
73
C8
5F
69
F8
E9
49
57
46
3D
D3
2C
65
A4
E2
76
54
57
B8
44
D3
90
9E
B3
D1
E6
4A
C6
EA
7A
AA
2C
2A
E9
E7
D0
57
3C
49
44
01
49
FC
C0
91
15
88
AB
63
15
29
ED
3C
71
49
EC
D3
ED
B1
01
B2
8F
A4
47
E7
4C
E4
4A
6B
82
C6
24
C0
1E
D3
EA
10
B2
53
00
1E
59
C7
62
2D
31
90
16
31
48
E5
0B
AD
5A
D8
60
9F
14
CC
9D
62
6A
EC
54
D6
FB
CC
FD
BF
2F
AF
8F
34
4B
FE
09
0E
E8
01
A9
BA
45
E4
88
77
AE
29
91
80
6B
69
4A
84
17
F8
C1
31
6A
BE
EE
79
B6
8A
52
0F
6F
FB
CE
3B
8C
D3
E6
18
E8
7E
F6
20
86
F8
A6
6B
0F
B7
99
62
FD
48
A6
0F
F1
AC
68
42
9E
AC
C3
79
AA
9C
FA
8F
E5
A1
10
90
B2
F9
57
DE
E9
C4
FD
68
28
5E
92
F6
19
59
93
41
54
78
07
24
02
E4
3F
5E
0D
EB
A6
6D
6F
13
30
30
A7
47
DC
EF
C4
45
5A
00
57
91
81
FE
D2
C7
F2
1E
8D
BB
35
99
C9
74
CD
B2
C0
B6
76
81
72
33
69
B4
8D
18
A6
FD
BF
41
7E
4D
12
1B
BD
01
B8
E9
A5
C7
0F
58
75
56
50
13
0D
FE
DD
45
45
31
2B
24
3A
1C
43
0F
4C
15
9F
A2
D7
B9
5C
B6
88
55
AD
63
D3
E8
37
FF
86
66
91
C0
DC
E9
B2
4D
EF
92
36
0D
5C
D7
62
17
10
D4
46
52
BE
D1
74
25
5B
5F
B5
EB
A8
A9
AC
51
6B
6E
F6
08
27
81
9F
F3
BE
E0
F1
F6
69
3B
C6
FE
50
08
85
78
B1
B2
BF
CC
8F
F5
E2
3A
ED
9C
70
32
1D
8A
07
6C
64
1D
31
32
77
74
DC
12
ED
24
39
3D
05
E5
79
FE
CA
EC
B4
F4
2C
12
C8
09
DF
E3
42
A5
E1
6D
01
82
A0
C1
70
F9
FF
59
DE
AF
B3
9F
1B
A8
95
50
98
90
5C
4C
1F
56
BD
7F
3D
DA
90
FC
3F
48
A6
F4
58
C4
A0
B7
15
52
DA
5E
33
5C
97
49
46
0E
DB
A5
6C
69
12
75
91
63
46
7B
54
B7
2A
A9
BE
4B
33
D5
88
4D
34
5F
08
8E
B6
95
D0
72
05
C2
99
5E
64
76
FB
84
C9
F9
5C
2B
87
5F
40
02
2A
05
3A
2E
20
44
1B
9D
D4
27
08
EE
72
4A
65
0B
9F
70
53
0E
F9
BF
24
A5
59
28
CA
1B
C4
90
D5
B0
94
AF
87
56
B8
49
80
AE
A2
90
C6
CE
DA
B5
9E
4A
26
90
69
5D
8B
8E
26
F5
82
DF
D7
0B
5D
E6
BF
35
A0
7D
26
52
A8
3C
F9
1F
BA
ED
D1
80
99
7D
7B
8F
27
DB
79
0A
9A
63
F6
DE
18
FA
BE
60
27
E3
08
36
4E
8C
3D
A3
1F
25
09
1D
C9
74
7C
E5
67
C3
F5
43
46
98
BB
37
9B
44
B3
BB
61
D7
7B
58
F8
4D
30
61
2E
46
75
10
E6
26
5D
A0
7C
87
CF
FE
1A
FC
81
9D
B4
8F
29
0C
11
E0
B3
8B
43
A0
79
7B
0D
8F
D7
1F
24
87
D2
56
F8
28
15
5C
88
62
D8
FD
3D
15
A8
21
2B
47
1E
52
C2
09
7A
0B
9F
A3
D9
03
C6
FD
98
58
7C
1C
03
99
20
2F
82
51
E6
05
DB
BF
9E
60
73
7F
DB
C7
43
9D
7C
9C
34
79
DB
02
94
A1
01
EB
78
FC
10
77
02
20
3D
8D
30
FF
1A
43
BB
9E
A8
6B
0B
37
D1
7A
6E
3D
F6
B2
5F
1E
5B
86
D8
CC
7F
63
06
17
8F
36
8E
44
F2
02
90
B2
11
AC
D5
C0
4F
88
12
61
0D
96
9C
ED
83
03
70
08
51
F1
BE
07
A4
EA
FA
F9
63
7B
BF
6A
98
87
02
A3
0B
25
3F
5C
2E
EA
5D
E2
B2
C6
93
44
F4
5A
AC
B7
81
B5
DF
2D
C7
AE
28
89
0C
FE
E0
65
3D
8C
8F
49
33
7C
62
7E
C3
18
42
8A
42
2C
53
73
5E
07
39
07
6A
6A
A7
43
A4
1D
E5
F4
67
4B
C7
91
30
0A
34
F9
7C
14
09
7F
B1
65
60
D3
29
EB
17
FE
BD
6A
2B
F9
FA
5A
C7
ED
DD
AC
48
79
13
D2
6F
02
0A
09
4B
6B
FD
EA
AA
8E
65
A7
53
BB
57
03
D2
7F
F6
1C
A4
77
D0
BD
C1
C7
8E
1A
BE
ED
AA
49
CF
36
40
BB
82
45
A4
8D
83
78
27
48
9C
ED
C5
63
28
63
61
32
D0
D3
D5
37
79
1F
35
E3
FF
05
13
9A
F6
8F
93
DD
74
F0
33
32
4E
C1
2B
BA
EF
D1
56
55
6B
EC
E4
88
7D
D9
88
F3
C3
D3
22
31
C8
0F
FE
72
13
D4
BE
BE
92
EC
D7
CD
C1
0D
65
50
E2
3D
CD
32
46
91
36
DE
72
07
91
6F
44
84
EE
20
B2
57
B1
19
95
28
6F
60
77
6E
7F
5A
41
DC
25
66
DB
3A
BB
22
A4
08
F2
8E
FE
F3
7F
AA
E8
29
E4
49
3E
11
1C
96
67
2D
47
6E
79
7A
B7
8C
F1
D1
3C
CD
14
AF
21
38
F1
1B
47
18
24
24
3F
23
35
49
C9
DC
ED
13
91
89
6E
A5
45
2A
8B
A8
1B
78
FD
D6
52
26
65
6F
C7
E4
20
7B
47
E6
AB
BD
BF
B0
79
EA
BA
66
8F
93
94
8F
6E
96
67
E9
49
31
CC
5B
CF
84
68
03
3A
BB
72
7E
29
DA
F3
19
97
48
E2
B4
38
CD
51
1B
8A
67
73
7F
A6
0D
DE
16
DF
34
EB
3D
D5
72
E0
35
DD
5F
B3
41
D0
D9
8E
C5
C5
7E
19
73
EB
C2
F4
02
6A
CE
C4
0F
26
54
7F
35
C9
5D
C7
CD
2E
AF
8D
4A
63
F8
9D
CD
B5
EE
67
00
AA
CD
F5
C7
CE
6E
F8
42
91
B7
95
9F
AC
A6
6A
CE
4C
64
5A
92
24
A8
D4
EF
73
AF
89
4E
98
9B
96
92
D4
01
ED
95
BF
15
2B
AA
E9
F6
27
11
23
C6
3D
8E
34
EB
26
4B
0E
7F
7E
CA
74
5F
71
3A
41
7A
38
FA
6E
BC
82
3B
17
4F
1B
30
7D
23
AD
06
26
C1
23
04
FA
50
51
10
34
30
4F
CC
84
02
6B
DB
87
EF
E7
7F
D4
16
59
E6
27
BA
C7
F7
A9
64
73
CC
9A
E6
DC
70
1B
9B
B6
68
4A
6C
90
16
B2
68
87
80
4F
47
AB
A5
A5
20
6E
A7
F7
7D
04
2B
C2
43
7A
1E
CE
F4
0E
0F
13
46
99
94
6C
0A
55
C6
3D
E7
5D
8C
72
87
1A
F0
C4
13
0D
63
1D
3D
B0
E0
5E
AA
E0
33
D8
66
6E
2B
E9
5B
6C
05
01
4A
0C
86
84
71
AE
FC
24
78
50
43
00
D5
6E
B8
88
E3
E9
E6
B2
C5
D6
3C
30
FE
5F
72
83
06
E1
FD
A1
89
18
2D
51
A7
94
EE
00
03
9A
3B
05
C8
88
31
19
65
08
E1
32
F0
4B
C2
C3
12
38
5E
29
6D
E9
96
93
E0
ED
35
95
A5
35
FB
04
15
7E
01
C5
66
3D
B0
34
80
2A
0F
3C
70
B3
2C
3D
B4
FB
9D
B2
94
08
5C
D9
F0
E1
5A
E6
86
2D
21
95
ED
42
20
9F
06
D0
9A
8A
D5
D7
90
C6
4C
F9
31
16
16
84
48
34
BB
87
2D
A8
D5
2B
2F
13
59
58
E8
27
11
0E
8A
5D
74
D7
90
85
46
7A
81
B5
41
F4
B6
97
34
28
A4
AF
92
31
85
D7
BF
12
80
F4
8D
50
73
CE
18
44
46
A1
F9
C2
AA
30
20
F0
49
69
AF
8A
8B
EA
26
CE
10
CC
79
85
B4
00
6F
75
2F
27
D3
1C
83
54
6B
3B
22
D0
84
64
FD
10
70
9E
AD
5D
94
28
91
B8
3A
33
6D
27
77
BD
0E
80
4C
0C
82
29
0D
12
C9
2C
BE
0B
CD
FB
35
22
CB
15
FC
86
8B
9F
CF
A7
E0
39
AC
9A
9C
2C
F1
5D
B6
EB
B1
83
C0
44
FA
C7
7A
AD
A8
9E
40
5F
5B
7C
03
3E
7E
6D
4F
0E
80
72
CC
E4
FB
21
C1
1B
81
50
F1
22
47
54
02
C3
FE
BA
3D
B0
8C
92
70
C9
E5
AB
C2
6C
92
F1
FC
FC
FE
5D
B0
44
32
FF
4D
11
7D
94
26
43
FA
96
A1
E3
F8
A5
34
80
01
12
35
51
DE
59
76
EE
09
04
EE
53
C4
F5
08
BE
D6
91
95
20
75
9D
80
A9
1D
2B
7E
FC
DF
22
22
E0
40
1C
22
FB
6C
88
01
92
2B
79
65
DD
29
B4
22
31
02
5D
3D
17
6E
9A
27
FA
9D
59
76
D7
A4
FB
E4
88
1B
10
76
A2
32
0A
B7
50
72
6D
F7
20
D4
30
36
C7
7C
8E
02
43
0C
6B
C8
76
27
FE
70
B0
99
B0
30
03
67
4B
AE
CD
9D
00
E8
51
97
3B
1C
D9
25
A9
0A
75
68
75
38
8B
6D
0D
64
5F
C4
D9
DC
88
0F
2B
3F
8D
6D
52
28
AF
E9
A8
F0
2E
36
D3
18
C7
B0
28
8B
92
7E
82
AB
2B
4F
CA
8C
FC
33
00
66
BD
30
D3
F9
C0
BF
C5
78
57
2F
9F
3E
AF
49
01
3E
62
51
2E
5B
33
25
FF
E4
13
10
23
EF
94
28
BE
A2
96
35
3B
D6
D1
27
61
EA
17
1E
7B
9A
3D
59
41
C3
E9
99
88
37
16
E7
E8
F7
9E
4B
69
69
A9
91
1C
83
FD
E1
45
70
AC
22
0F
E3
3E
7A
71
EC
CD
77
4D
FA
AD
CA
27
2B
A1
37
E2
E4
F6
74
0F
1B
D9
1D
A0
6F
4C
AC
ED
1E
44
F1
99
A8
18
4A
4E
08
09
ED
49
4C
A2
33
2A
98
BB
C3
AC
B8
5D
36
EF
CC
62
E3
1A
E7
45
89
4C
AA
35
B5
C2
5B
FE
FA
27
38
0D
21
4F
0D
C1
BE
54
60
C1
9E
D2
42
7C
BF
EA
89
D3
DF
05
CD
0C
B1
00
97
63
9B
B9
0D
31
6A
75
95
E2
24
BE
7C
4C
DF
EA
61
6A
9F
EA
B8
7C
D0
A6
98
F3
E1
C3
4B
7F
22
93
B3
FB
F8
EC
54
06
B8
F6
4F
D1
E6
CB
7F
F1
BC
79
98
41
54
69
F5
8A
1F
73
C7
5D
E1
D6
0C
05
E1
14
5C
88
07
B4
8A
B3
CF
67
24
54
A2
17
44
12
16
62
A5
D1
FC
9F
9E
B8
D5
CB
73
ED
DE
02
95
B3
5C
95
5C
FC
A5
EC
23
FC
12
9D
17
56
B5
C3
8F
57
2C
B7
2E
45
23
A2
F2
24
B0
BE
3B
29
BB
BE
84
17
37
81
26
0C
C8
A3
5C
12
3F
D7
50
2D
3D
FF
71
CF
E2
88
D5
48
3A
C4
F2
B7
00
AB
1C
64
60
94
D5
F9
D0
02
16
1C
F8
D0
26
4F
D9
E7
FA
D1
4C
1F
98
CD
04
49
79
9E
92
C5
CF
17
39
D0
08
90
38
AC
64
E7
A9
2E
97
8B
48
C0
44
0D
85
BD
3A
4A
54
BB
B2
C9
F0
CF
02
F0
15
DA
AE
4E
34
F0
52
3B
38
AA
62
2E
7D
73
2E
AB
66
10
5B
B4
6F
A4
CB
40
32
43
58
E5
04
B7
57
FD
95
C3
9D
C3
FA
C5
62
E9
71
51
27
50
86
FA
B9
43
3F
9B
83
5A
B8
DC
CA
FC
5E
7F
EF
7F
22
F0
0F
50
4D
26
EA
05
76
91
F8
25
06
35
D6
F1
C2
B7
F6
BC
34
88
82
16
28
03
B3
C1
03
12
A1
A8
01
62
F3
D3
22
49
9F
CF
FA
9F
64
01
A0
13
AD
BF
E4
D1
FA
59
68
07
2B
CF
B1
9D
7C
01
8C
4A
5E
BD
72
9C
F9
81
72
04
11
72
06
BB
B4
E8
7B
40
72
E5
F9
7E
6B
68
26
BD
95
E9
6E
67
A8
DF
5A
46
DC
6F
30
86
94
F2
82
4D
1A
7C
10
D1
E4
3C
98
52
53
7C
7D
85
99
02
DD
2C
66
47
F6
67
54
BD
8D
7C
6C
1D
DC
04
3A
94
04
17
11
43
C6
C0
DE
58
F2
2F
17
D8
52
48
1B
5E
A0
BB
05
8B
D4
EC
BA
14
F6
95
A6
D9
32
45
FE
DE
D4
EE
C2
BE
79
F1
F7
3D
10
CD
3E
59
7D
D6
DB
18
D6
A3
70
2F
3C
8C
8F
C7
5A
51
35
91
1E
D8
2D
7C
0E
4E
94
EF
67
35
4D
C3
27
EA
E3
D6
40
45
E1
E6
13
B9
8A
C3
E8
12
D3
61
A1
E9
A0
C3
40
D3
F1
0D
1F
D7
1A
87
EF
4C
D4
40
95
14
66
2B
3D
EC
12
0D
DC
72
19
49
AC
01
2F
26
FA
C8
F0
93
0A
98
54
D9
A0
89
FC
50
25
EA
00
F1
40
C2
14
C8
BE
2C
4A
AD
25
22
8B
5F
FE
B2
58
BB
C8
51
28
1D
0C
A5
42
BB
AF
D3
54
C8
F4
3D
94
1F
F3
A8
B8
B2
17
91
0F
0C
23
E3
CE
40
93
4C
CA
B2
2A
5E
2A
FB
6C
24
94
09
B8
6D
37
67
C0
29
CF
CF
BB
AB
32
AE
62
D0
54
97
2A
26
13
E9
53
03
0F
1D
67
64
EF
27
C0
6C
C7
A8
72
92
07
E1
2D
F0
36
9B
3D
A2
33
B4
71
D2
55
60
C5
64
E5
2A
FB
1A
56
D1
68
78
1D
AA
99
CF
FA
4D
1C
30
E4
DF
A8
B0
BE
60
0E
46
8C
CC
79
E2
55
B2
64
23
B7
C2
12
1E
85
C0
77
53
4D
29
C8
19
08
46
E8
BD
CC
30
BA
19
4C
04
50
25
37
8C
5F
3E
22
2D
1B
73
84
94
8E
D9
60
43
B9
58
91
F1
34
8E
AE
E7
FC
7F
FB
77
29
A9
C3
E4
9B
CF
70
4D
48
7B
23
A9
5A
7E
D6
30
12
FA
95
B5
C6
25
DE
0D
D8
6D
0A
9F
DD
47
93
11
4C
AC
78
C7
81
9A
FC
92
91
42
E8
59
F4
80
1F
2D
A7
ED
F4
8B
F9
93
03
DA
B4
4E
B0
AB
87
60
B2
98
D3
F6
EA
77
88
34
69
DD
CC
A0
CD
C5
73
23
6E
6D
94
0E
BE
EE
5B
D7
84
98
2B
D2
EE
A9
3B
78
82
86
46
9F
1D
13
F8
D8
96
FC
9E
75
38
9C
74
63
FC
CB
7D
BA
41
B2
D6
23
6C
98
8C
29
83
48
2C
38
49
9B
E3
5F
5F
52
01
78
B1
3F
A1
14
6B
98
C4
C4
18
BC
C1
62
05
B5
3D
EF
9A
FB
2E
0A
16
DF
E1
68
22
21
01
A4
34
C3
D3
8C
23
A3
C7
E7
4B
22
D6
DE
93
84
24
85
1C
59
4F
8C
B4
D9
76
80
15
26
55
12
03
00
3E
E7
C6
C1
37
3A
F7
22
AD
FB
35
44
3E
9A
7D
09
07
30
9E
1F
B6
FE
B5
29
74
87
A2
18
F5
4F
3B
B5
EA
98
4F
1D
AA
81
C1
23
59
2A
43
3F
67
16
51
9F
16
69
48
C8
8F
BB
42
DE
54
BB
DB
3C
F9
16
DD
08
7F
82
07
48
67
79
DB
06
B3
24
75
E1
5C
B2
66
FD
B5
8E
3B
71
D3
B8
5B
AC
CB
8A
42
82
24
9A
04
24
D9
68
B2
00
C2
5D
83
4E
91
00
05
15
3A
4C
29
FC
80
BA
97
BD
92
DD
2A
3A
8C
D6
5D
55
EA
3D
B9
C0
20
24
48
26
DD
1B
BE
3D
15
3E
C6
6D
9A
F9
01
66
B1
85
8B
0B
72
D5
75
E1
CC
AE
99
B5
47
C6
47
07
B4
7C
87
14
BB
F6
A6
4E
31
44
0C
0E
41
A9
B8
7C
F2
85
71
6B
52
6C
20
A0
17
82
4A
96
44
D8
3A
07
07
CC
8E
C3
93
BB
21
69
F8
82
2A
12
62
34
23
58
41
BF
B6
55
C5
BA
E0
06
3A
BB
C0
44
CF
60
F9
5A
2E
F3
66
BE
A3
1F
83
EE
81
B3
92
5E
BF
0C
4E
46
CD
07
BB
A0
A5
4F
E9
95
73
E5
47
7D
19
00
50
4C
FA
21
D5
91
93
78
4E
1B
5C
C3
99
5D
79
51
2B
4A
03
1E
40
3D
D3
AB
83
78
D7
1F
4B
0F
40
50
D4
4B
D8
7A
68
2C
8D
8F
C9
9F
22
8B
2F
2C
74
7A
F7
F2
54
C2
51
EF
E3
C7
BB
11
33
2F
F8
EF
16
99
8D
B7
6D
31
7C
41
13
57
52
00
59
57
0B
1B
F2
F1
42
00
1A
AF
1E
48
A8
00
07
22
CD
F9
E3
CB
A3
B9
DC
7A
83
87
EA
DE
19
FE
49
0C
6B
33
48
80
27
F0
DE
B8
FB
3D
45
8A
CF
FE
7E
07
6A
99
6D
75
E6
9D
D4
7E
53
58
CC
2E
ED
CC
14
AD
57
F9
BD
0C
C9
1D
D0
3C
C1
DE
13
9F
FC
E1
4C
94
EC
8F
79
CC
48
1B
04
43
51
39
D5
BF
FD
13
CF
36
69
C3
79
E6
ED
F7
81
D1
5D
3B
4B
D0
02
CF
39
55
BF
96
9E
49
1C
F7
60
D0
B5
80
E7
1D
06
60
87
37
98
92
44
6E
97
01
1A
5B
2A
B5
2A
59
05
D9
47
1A
8E
65
84
BA
4E
A6
1A
7F
27
B6
66
11
DA
29
B0
61
BC
1C
69
F1
7A
5F
86
01
14
F9
08
F5
E5
70
D8
7A
5D
1B
46
84
F9
66
D6
64
E3
58
C6
37
C3
66
60
85
8D
4C
73
C6
A3
63
32
32
B7
12
C0
C2
D6
CC
1D
2F
44
F6
F4
69
2D
D4
09
5A
0E
D0
9A
A8
56
65
45
79
87
E0
8F
05
79
86
7B
57
B7
0A
8E
4A
0A
95
99
93
C6
3A
A8
E1
96
8F
5C
4F
AC
B2
6B
3B
6D
F2
5A
2D
68
7E
D4
E7
9A
4D
E2
DC
1E
C7
72
94
AE
A8
5A
33
F4
31
25
E7
67
CF
75
F7
41
C5
80
21
6B
83
C6
FC
6F
09
C4
76
DE
BB
61
B2
3C
BE
E4
4B
07
23
83
80
40
4F
0D
E3
98
91
A0
CB
10
6B
70
57
9D
36
8A
DF
97
81
A5
96
DE
CE
A7
B5
72
5E
E0
D3
FD
9A
1F
1A
33
41
A1
3A
3E
D0
C3
00
3C
A8
B5
0B
FA
71
20
31
FF
F0
7F
7E
4C
A0
43
30
B9
AF
04
AF
76
77
B9
2E
CE
8F
21
B8
59
70
80
82
1F
5F
CD
6A
6C
41
24
85
22
67
20
14
0F
F9
17
B9
88
B2
34
67
12
65
93
33
A7
C7
3A
1F
27
90
B8
17
AD
F8
7C
12
F2
F5
84
AA
6C
EE
AD
4D
82
3A
E7
7B
99
E2
F7
C6
64
FD
93
AA
47
3A
B2
C4
45
31
78
61
04
4E
A8
9B
D4
22
34
C0
1A
71
84
D3
AB
EC
BE
AE
25
F5
35
80
C7
CD
7C
A6
D5
60
52
3E
D6
C7
0E
07
58
A0
E9
91
46
06
AE
DB
4D
D7
59
EC
7F
51
69
60
A8
C4
3F
09
39
B3
B7
22
9C
F7
00
F7
D0
3F
6E
C1
B2
91
8B
BE
C5
9E
89
7C
5F
8A
AD
AF
3E
81
31
08
12
38
24
9D
9A
BA
28
C8
5D
0C
FB
41
71
9D
5E
6F
34
14
C0
E2
60
D3
42
C1
E4
AB
B1
F8
AC
69
6E
C1
0A
06
94
EC
77
6B
95
19
68
30
DB
1B
09
5E
FC
9C
DC
12
8C
BC
55
F1
31
5C
13
F8
80
8E
92
FE
E0
8B
57
73
D0
C9
DB
03
AB
16
FE
70
2F
5A
81
32
93
96
A7
E1
FB
F4
F6
DC
0C
C7
91
18
07
50
51
D4
9F
FC
01
2A
EC
BC
2E
D7
FD
51
B0
B5
F9
80
76
41
B6
27
F7
32
EC
9D
96
B3
AB
5D
2E
60
9C
1D
F3
01
F1
04
FA
D9
5F
9C
4E
5E
A5
68
7B
D4
43
90
58
89
22
EA
AC
91
0B
B8
51
FE
C0
31
14
F3
A6
49
AE
D5
4B
7A
1F
94
10
D5
F1
07
97
92
12
93
FD
F1
91
64
0E
2E
17
0F
CC
E1
AE
CB
81
54
69
AA
2F
64
9D
BA
4E
E9
5C
E4
1F
C3
F5
E0
B4
4B
54
8D
72
5D
94
26
A7
A2
2F
01
F5
DC
E8
47
0F
23
C1
81
19
60
AC
63
7C
AB
80
6C
A0
2F
15
02
76
47
37
2A
33
7D
A7
09
34
3B
25
18
95
22
12
4A
C9
1F
92
9F
40
96
C1
AE
FC
0B
5C
CA
99
93
71
A7
C5
F7
71
D3
A5
7D
D6
A8
F5
69
AE
0E
8E
9A
39
CF
11
C7
B8
43
AE
F9
FF
F8
8A
EB
F9
75
1E
62
FD
AE
3A
34
AF
F5
3A
6C
DA
65
AE
DE
2C
B2
26
46
D6
18
41
B5
DB
6C
38
2F
F7
4D
F6
93
1B
2C
08
4A
3B
B9
1F
CF
04
73
6F
36
91
83
54
1C
DD
4B
B6
6E
D7
4F
7B
43
A4
6F
BA
3B
CF
8C
8C
21
DC
F3
70
84
DD
53
5E
E5
18
9F
4B
49
A5
CD
4A
19
FC
B5
B7
6C
E6
07
DE
FA
80
16
17
21
A7
D4
21
1C
E6
BF
F8
29
B6
03
6D
A9
E6
BA
36
9D
5E
23
16
A9
A6
34
B9
90
5E
26
66
EE
FA
E7
D4
2B
E0
CF
B8
52
4B
A2
78
4B
98
BB
FE
54
F6
E4
B2
38
96
AD
A6
D8
AA
22
26
CC
7C
ED
83
FA
2F
45
64
5D
DB
2C
B7
07
E0
35
ED
67
25
21
A4
A2
59
A3
36
AA
17
2B
5F
3E
FD
10
57
53
84
BC
5B
BA
EB
EA
B7
60
BB
E9
D0
C5
90
43
43
CC
EC
DF
34
C3
A4
64
66
CB
0E
A9
7D
6F
C1
1E
C5
9A
E1
AB
65
28
13
27
19
8F
9D
22
B3
95
8F
A3
56
2E
2B
66
FE
C9
BA
86
22
79
83
9C
85
E9
9E
50
3C
46
99
7F
E0
73
F6
FA
D0
BA
28
95
E4
3E
FA
A9
C0
A0
4B
26
6B
1E
81
E1
AE
60
07
96
2F
CC
4D
F4
FB
88
97
3F
09
89
6A
96
CB
6B
27
54
97
AC
68
DA
7C
25
98
FA
C3
28
3D
99
E0
C7
39
26
AF
01
46
C5
F3
E5
9F
6D
B3
F7
74
2F
2B
EE
56
5E
96
CF
AD
80
08
CA
66
21
68
66
99
A6
56
D2
29
A3
07
75
06
FC
43
0E
37
3A
D7
ED
AE
03
2A
C8
B1
91
28
35
AC
81
AC
4D
43
2E
86
CD
2B
3D
48
23
98
07
97
04
33
09
9B
85
91
B6
2E
E0
86
E5
04
92
15
51
DB
96
03
7F
1C
7C
9C
8C
42
7A
D7
DE
1C
A7
75
69
DA
B4
A7
10
D7
B6
B3
95
51
11
71
D9
19
23
3B
2B
0F
32
E5
BB
EE
9D
A8
2C
30
68
CB
8F
F0
0D
48
7A
2C
9E
0E
3F
E2
72
FF
1D
01
25
7A
D9
9C
19
4C
68
26
61
38
02
1A
73
5D
DF
C9
42
62
D8
E9
2C
A2
08
44
A5
59
9F
03
BC
12
D5
55
EB
94
EB
4A
E6
D4
9B
7D
2A
8C
F9
66
2B
14
6B
73
30
57
81
95
BC
19
3C
BC
99
EB
6B
6A
25
37
AC
1C
74
1E
32
08
6F
1D
B4
D5
B7
17
0A
23
A0
10
41
4B
4D
F1
F9
BB
2A
A2
5F
4D
F5
F2
19
D4
A7
EE
13
BC
27
70
81
F7
B5
68
FF
20
41
DD
D7
10
E6
78
A1
86
94
3B
84
8C
3C
03
C3
0E
FB
A8
F1
E6
6E
C3
DD
00
B1
D7
07
A0
F8
82
8F
3B
1D
88
94
91
6D
0A
9B
84
BF
DF
1F
A7
75
EA
74
1C
6D
F3
25
DD
49
FE
44
09
FE
3C
A7
F6
DE
E7
99
F3
A0
5C
65
99
5D
E1
42
2E
88
6F
CD
B2
A2
F6
ED
A8
8E
61
D4
BE
2E
14
65
3D
A4
18
50
A1
9D
D4
29
59
BB
3D
56
18
EF
53
E6
0C
14
17
6E
DE
C6
C4
8E
73
21
A8
49
54
11
B8
1B
EC
4C
41
72
4B
A2
F9
36
5B
7A
08
35
05
8F
EA
1C
A2
4F
87
D2
AC
56
7D
18
BE
36
5F
5A
BB
D7
39
BF
CE
EC
46
5B
AD
CA
25
82
58
08
93
0C
0B
A6
FA
85
4E
F0
2E
B2
82
BE
4E
08
41
E8
E6
17
73
31
1B
52
0C
AF
DE
11
9D
EB
BB
2F
54
08
15
29
04
AB
E7
E6
B0
39
70
E0
C2
77
B2
56
A6
FA
17
8B
6F
31
E1
5C
EC
E7
48
94
C9
AE
3C
30
EE
F6
01
72
C2
18
6C
ED
01
FF
58
FC
DA
51
CB
ED
5A
10
B6
59
E3
92
03
0C
24
92
F2
7D
66
A5
E7
0A
8A
D5
39
C0
6F
04
7E
72
D8
51
0C
5F
41
02
DC
C6
80
6F
DF
BE
88
1C
9A
18
A3
48
1D
36
B1
C4
6D
18
BF
09
66
A1
2D
91
79
57
9D
12
FB
02
C1
9B
3D
35
7D
05
C0
54
7A
9A
0A
7E
F9
86
56
DB
6C
09
B0
F9
50
9E
10
82
1A
2C
8E
89
C5
4E
9A
72
55
BA
74
78
7E
D3
89
C7
4D
A5
CF
D7
54
E3
E4
88
FE
71
9B
8B
C6
23
81
E7
38
05
E6
EB
4A
0D
22
51
B6
6A
8E
ED
C2
51
BA
EC
79
3F
CA
59
86
B6
A0
3C
80
B2
36
88
E6
81
CF
06
1E
D3
4A
77
F3
7C
D3
77
F9
80
33
5E
04
27
12
74
4D
67
A6
E5
F8
59
F1
1A
E6
45
D6
E5
79
F5
BB
56
B5
17
09
F8
2E
57
C7
E5
2A
5F
41
1D
68
97
B7
81
93
AD
06
F4
EF
0E
59
10
84
AA
A7
C0
58
10
92
C9
AB
69
C5
E8
9B
6C
E0
5B
4A
F7
76
1B
A7
9A
7F
BD
A8
F0
0A
BE
51
5F
33
A6
2A
E0
63
D5
D3
2D
8B
78
90
6F
DB
B2
67
BC
BD
BA
1C
BF
48
E9
D9
23
96
EE
D2
ED
27
25
03
AB
C5
C6
D5
BC
31
8D
EC
F4
3F
B0
D5
50
92
1A
75
78
D3
F8
68
11
11
9F
4F
33
9A
4D
40
F5
60
1E
8C
D7
5C
A4
0F
FE
48
E3
66
81
EC
75
92
B1
2B
47
58
EC
39
F9
BA
50
3D
54
78
B8
B1
85
72
DD
5A
6E
3C
6E
34
97
15
F4
66
E5
0C
9E
3C
3E
A6
81
CA
C9
82
2B
31
3F
C8
4F
35
88
21
63
29
31
07
68
BA
F2
07
98
07
B5
E7
12
8D
FB
0C
97
ED
9E
CF
90
0C
BF
53
96
C6
8A
FC
60
4E
61
58
BE
65
41
71
E2
AB
19
0C
1B
2A
99
8A
46
F7
30
DB
12
FF
8E
24
02
91
AF
E4
25
A3
AF
B6
BC
9E
5A
DA
CA
83
83
E5
01
4C
41
9A
10
26
C3
C4
8B
5D
08
A9
39
B6
FC
66
2E
12
00
39
41
C3
5C
48
9C
40
48
B2
A5
27
8B
A8
32
5F
31
D1
66
CB
04
7B
80
4B
38
F1
32
D3
12
C7
55
CA
F3
14
73
F4
EA
BB
2E
74
BD
79
AF
70
70
42
9B
1D
B2
3A
C9
F0
47
0C
15
F6
CE
B6
1F
EB
4D
EE
F0
FF
99
F7
B6
DE
7F
33
C7
9B
65
28
01
EB
4C
76
EA
B0
46
6D
B9
5C
22
DF
0A
A8
8C
37
A9
55
3A
8C
00
6C
88
FA
77
30
31
A1
5B
9C
20
0A
23
80
C6
DE
9D
D4
7B
B9
C3
1E
B5
90
3E
1A
69
5E
12
22
9D
A0
8C
07
FC
43
E5
27
EC
22
9B
B9
7F
01
C6
C7
06
D1
26
85
C8
AF
BD
8E
D2
D4
C4
14
FB
1F
C1
A4
3B
B5
EF
C5
7A
4C
11
35
69
DF
A3
9C
4D
6D
FD
B9
37
A6
F2
58
2F
CD
DB
D6
9F
02
3F
E5
EC
07
82
5A
04
59
09
69
9E
2A
B8
56
F0
57
3F
12
F5
3F
BD
5B
9E
EA
A5
FF
CE
6C
D4
21
9A
FE
98
39
32
60
41
C6
B2
74
44
F2
D8
3E
5F
8C
C9
75
68
03
2D
B8
CC
8A
57
1D
5E
B1
20
DC
C4
14
1A
4F
F3
3B
1E
CA
85
94
75
78
50
AA
B6
6D
65
2C
D8
6F
31
29
DA
EB
F7
99
FD
CB
90
9E
D7
3E
6A
B0
74
F4
1F
7E
91
94
C3
C3
C2
03
82
02
EE
A2
69
26
9B
DB
AF
2F
6C
51
4F
94
B0
79
F1
E5
5C
18
A4
11
00
6B
E4
E0
E9
BF
CE
F2
EC
59
D7
69
8E
3B
FB
A2
D8
D4
64
1F
94
1E
26
79
80
DB
E4
B6
09
49
E0
8A
A5
75
B7
66
2A
2E
86
B9
EA
07
71
DE
02
95
1B
5D
71
67
90
A5
65
5C
CB
2D
F6
A4
6F
7D
18
E0
54
7C
AD
60
32
93
9E
45
DE
67
C9
A1
73
19
B4
65
28
8A
66
B2
CE
C1
1A
0A
B6
66
1D
3F
44
D0
FB
00
4D
D7
5A
ED
A3
5D
9B
E1
41
24
50
A3
8D
85
D9
DD
0C
B5
41
8C
EB
F0
5D
5E
7B
D6
F8
04
BF
AE
80
39
64
E2
25
84
5C
71
F0
CA
0F
2E
4D
CD
8F
A2
50
D3
74
52
4C
77
A2
66
56
C7
27
CB
F5
B9
31
A0
4C
14
22
62
57
54
4A
69
97
A1
B8
65
2E
BD
33
EF
50
35
C6
AD
C7
4B
C0
C7
26
3C
BD
E5
71
1A
02
9E
02
6C
67
CA
0C
43
68
43
27
A4
FD
A7
B9
6A
D6
F9
33
08
57
C4
44
86
B5
29
A4
CA
3E
D5
18
F8
6B
AB
FA
1A
FF
FC
20
0F
A2
10
D0
2E
FA
93
4E
8A
6E
EA
8F
82
97
73
E0
10
D8
7B
97
83
35
CB
04
96
92
B4
42
0E
3D
2B
43
F3
A1
90
BF
58
85
F3
47
16
FD
1A
B3
AE
C6
96
C0
25
C5
F5
08
D4
13
39
A4
34
49
C4
2A
0B
B0
FA
A1
E1
C5
F0
78
65
1A
B7
4E
B1
ED
5B
A4
17
D8
64
1E
8A
4B
5D
E6
38
88
AC
87
3A
D1
9C
97
5C
FD
8D
DD
E1
3C
87
71
C3
C0
2D
D0
1C
6F
9A
60
4A
7F
45
2C
AF
B0
86
2F
24
24
FE
D1
57
3E
19
71
DA
8A
A9
95
F2
2F
1D
40
4C
1D
D0
42
69
76
05
B9
B8
E7
42
E5
7F
C8
52
B8
E5
3A
D2
7D
8A
98
B5
AB
88
DD
D7
CC
82
B3
DB
8E
CC
4D
22
77
74
B0
22
58
CE
38
04
48
64
8B
65
6B
E2
4D
05
D4
CB
50
F6
44
22
B5
5C
44
F5
6B
16
87
74
86
EC
57
70
61
3A
51
83
1B
B2
E9
3D
14
BD
4C
16
23
64
9F
01
E6
1F
52
E7
60
00
9B
50
A4
B0
C9
AA
56
E1
BC
70
DB
EB
54
0B
DA
1B
E6
AB
C6
71
2F
7F
92
C6
CC
7B
11
A4
8D
CC
2F
1C
E6
5F
37
92
7C
41
07
6F
58
63
F3
F6
77
34
1A
6B
14
41
76
12
2E
4E
B3
B2
51
DB
CF
D3
5D
DB
D8
74
71
52
93
0E
69
54
C8
97
F3
D4
D2
68
47
35
CA
BC
48
0F
BC
34
56
CE
42
C7
7A
9C
47
FF
BD
34
FD
72
3C
C0
FD
BA
DE
1E
16
06
C8
92
7D
D2
4D
33
D2
5B
2D
C2
95
4B
04
C9
18
59
F3
59
8A
62
EE
7C
44
43
4A
9B
E2
21
74
D3
7E
06
DE
A6
47
B5
BD
A7
0D
DA
62
CC
0F
C2
69
E8
64
60
7D
97
6D
8B
18
A1
59
39
F1
16
EB
D2
11
AD
A5
33
C7
76
70
79
BA
CF
B7
D0
44
0E
47
37
B3
2A
17
51
C0
55
9E
02
DB
BE
09
8C
ED
CF
BC
5F
D0
A0
C6
3E
39
77
76
84
71
2A
87
98
7E
49
61
55
F4
DD
88
72
29
50
5D
72
3F
10
FB
47
24
DB
6B
33
D4
0F
70
CF
51
B9
D7
5F
AC
39
32
04
15
89
7B
63
7F
3E
AE
3A
A3
79
50
18
47
D0
D0
4F
31
AC
2E
57
B7
9A
80
0D
88
59
48
CC
C2
1A
B1
D6
75
75
76
33
02
91
83
18
89
3D
8C
DA
3C
48
68
47
EC
19
9F
37
70
C6
08
F9
EB
45
12
D1
64
7A
2C
24
C5
F8
9C
C5
0A
D2
7A
85
39
1C
5A
98
E5
82
65
93
C5
C8
41
16
3B
C7
D7
38
56
C0
54
B4
1C
C3
1B
BA
BB
D2
C8
75
28
D5
0C
50
49
A4
CD
DF
A0
4E
16
3C
E1
8F
1A
36
7B
97
AD
4F
F1
A2
7E
E4
69
2F
98
13
35
8D
87
02
31
D9
A1
40
1F
BC
07
24
01
2C
28
A2
74
91
B7
F7
B1
2F
84
7B
36
E6
5D
FE
05
86
C4
0F
E6
01
6B
6F
85
12
AF
FC
43
24
9C
03
D8
4D
70
02
7B
0C
78
6B
02
7F
1A
10
A5
79
BF
AB
EE
E2
DE
BE
30
8A
98
E9
53
B5
86
61
6C
DD
39
A9
CE
C0
E3
61
4A
D8
DE
90
A6
4E
70
17
32
3E
37
A4
E2
AC
3C
01
15
AA
B6
77
9E
B2
4E
0D
3B
CE
CA
89
D5
0B
6B
0E
43
33
B0
24
BA
3D
9D
39
61
FB
6B
AD
59
D7
C4
B4
86
C1
E0
51
B2
1D
3E
FD
20
E4
53
37
8B
0E
30
EC
3A
E4
AF
0C
72
E1
33
A2
86
AE
E0
A3
60
3B
EF
E4
1F
CA
27
49
8D
F8
29
F8
19
13
A7
5C
A1
82
58
A1
43
A5
E6
17
D2
61
7C
B4
88
63
1A
1A
5A
63
8E
C8
15
50
25
C8
77
AB
DB
49
5C
D5
60
8B
F4
E5
1C
8E
26
8B
FE
02
C4
A6
1B
1B
DB
53
39
08
39
00
51
A6
DD
20
53
1D
92
C7
69
38
E6
C8
D5
16
C3
AF
5F
9D
65
78
21
3F
AD
53
64
8F
61
07
FF
77
F4
F8
D9
A3
09
26
BD
1D
E5
2F
D6
2D
30
8C
F5
64
55
35
CE
4F
44
F7
24
FF
12
5A
C1
5B
03
81
3B
75
F3
56
0A
93
19
EB
5E
CD
45
3E
26
6C
14
0F
0D
37
FA
70
BB
DC
7C
89
0F
ED
B0
47
98
24
D7
60
E7
D2
A1
87
AC
D0
8C
F1
0A
BD
D0
88
B7
C0
5B
FD
BF
9C
32
4F
E9
7D
68
B7
B7
7D
BA
98
A2
7F
FA
A3
12
5C
96
8B
46
D7
E5
08
30
52
88
40
15
2A
E8
6E
74
C9
1A
9D
6E
23
A5
43
A4
76
B3
B8
B5
90
E8
54
E5
B5
B0
2A
48
90
74
DE
86
9F
84
BD
1E
8F
BB
B5
EF
32
95
AD
FF
73
95
B4
30
BA
59
3B
6B
FE
82
6E
9F
ED
67
60
37
16
5B
3A
D8
8F
56
20
2A
1F
2A
BB
3B
41
4E
DF
DC
67
1B
DE
C9
45
8F
D1
D1
C9
5A
79
66
E1
93
02
9D
BD
5E
E7
FF
9D
59
14
8C
72
EA
6F
17
A3
81
91
F3
05
41
A3
8D
2C
BF
6F
3A
20
FB
74
C8
37
75
80
12
33
C1
A8
78
35
DF
CC
CE
37
F3
2B
CF
74
C3
EC
9C
75
1E
9C
50
71
22
6D
4E
13
EA
54
A3
E4
68
27
9D
00
BA
65
B1
16
8F
B3
81
25
DB
C4
F9
13
D4
C0
A2
03
49
B9
26
F2
F6
B1
79
7B
FB
8F
FF
F0
1B
DB
C5
65
32
A1
B8
C4
C8
96
0B
85
91
D2
74
BE
E2
22
58
59
E1
78
43
80
6A
2D
8F
7F
9C
F2
A0
71
18
97
96
BE
8B
4C
24
CE
4C
67
2B
4F
0B
60
F2
56
5F
14
13
68
7C
36
2F
D5
DA
5E
05
B5
BF
38
C6
C4
42
BB
69
AA
84
5B
58
04
41
94
54
C5
A7
41
37
41
DD
5B
91
09
AF
04
CF
75
67
13
73
A3
4C
49
E3
ED
A4
E1
64
A2
62
70
01
AC
DB
E3
D7
16
FE
61
F9
BD
AE
1B
9F
2E
E5
02
6C
8F
DB
66
A5
A4
78
98
18
A9
5F
BF
61
A2
E1
07
74
EF
44
DF
C6
27
7A
5A
1E
0F
36
EF
26
C4
80
3F
42
0A
85
E9
66
32
04
B9
8E
DC
96
13
0C
6F
5D
F4
5B
6D
4D
8D
1D
CA
FD
53
3A
ED
E0
DE
14
4F
AD
4C
32
58
F5
01
71
B1
83
F7
A2
42
D9
83
B2
C2
62
E1
E8
40
E4
0C
50
0B
E0
71
0E
86
FB
CF
06
AA
8B
85
3E
EC
9B
0B
B5
2D
3F
58
AA
5F
55
1A
35
15
D7
C2
FC
4B
35
01
B9
85
EB
6C
AE
25
FE
E1
01
A6
C0
78
0D
E5
A6
F5
4F
BB
FD
C9
2D
68
FA
08
9F
54
AE
00
59
BD
BC
03
DF
5B
8C
4B
28
DF
8F
0E
C1
9A
AA
A9
2E
30
47
1A
73
70
33
0E
46
0E
96
F0
B7
20
3F
6E
5F
5F
50
9C
89
2D
EB
4F
64
E1
B0
3A
D0
F3
2D
D7
7F
75
16
A6
C5
C6
DC
A0
ED
8C
72
D1
F9
B4
22
4C
FE
A6
38
DD
1A
B1
FF
0B
05
C5
6F
38
57
72
9C
67
7E
3B
9B
3F
31
88
5B
88
C0
69
04
7A
A1
79
73
C3
12
03
B8
FD
A9
F4
B8
F1
F0
DD
EF
2C
34
5B
D7
0D
F0
14
DF
EA
6B
8B
3C
59
35
4C
84
26
9A
7D
9B
26
C9
31
28
B1
A8
8C
F2
DA
94
B3
12
47
1A
F6
AB
AD
08
DA
6D
CB
EB
5B
01
1C
4C
D1
AB
B9
08
E4
99
6C
43
CF
C0
12
F9
74
36
35
E1
94
BA
FA
50
B6
9C
C2
E5
09
06
FC
50
CD
D3
D2
08
76
C2
2E
72
5B
28
CD
BD
9C
CA
E8
B1
6E
B4
AE
1E
8A
A9
DB
28
1D
FC
79
CA
A7
AE
46
41
DA
ED
79
D8
B0
A0
29
F6
82
FE
2A
0F
00
BA
78
E0
1F
CD
85
53
26
4D
5F
36
54
A6
33
61
81
E0
B0
92
C9
9E
84
F4
9E
3E
1F
34
91
8A
F4
5E
86
D0
D0
8C
04
03
89
41
9C
51
A3
5D
C3
7F
A4
9E
2D
DE
C7
5C
B7
3C
AD
28
02
F0
93
A2
8C
98
05
A0
42
A4
78
40
47
24
65
75
B1
8E
7D
67
72
94
3F
BB
83
C3
DD
EC
A9
91
2D
94
62
96
5F
C1
4B
82
34
2D
17
DD
1E
62
65
ED
F7
EF
12
71
F2
3A
F6
4E
E3
72
63
FC
B4
A8
E2
9B
9B
BE
51
C0
C4
CE
27
53
2D
88
F7
12
5B
DC
7E
6E
82
DD
FF
BC
74
90
21
4B
47
56
D8
FE
4C
84
7B
92
8C
A3
06
7C
3A
B8
4A
A8
52
14
25
0E
FF
2C
92
C3
E6
13
E2
C6
25
DA
2C
17
F2
D7
93
A6
EC
12
DA
29
81
D1
DE
50
5F
9A
D8
A6
FA
5B
77
27
F6
96
81
3C
0F
AD
DC
2F
8A
4F
24
5A
38
D4
1E
18
14
09
EE
A0
D3
24
29
56
C5
B7
05
B5
17
FC
6D
46
30
06
D4
2B
C7
E2
E0
07
FB
2D
88
DE
DF
B0
C9
1A
53
8B
FB
07
11
8B
55
BA
A2
F0
DE
E1
19
E5
B4
04
E1
10
8A
DB
44
BD
75
61
2B
94
52
F6
AF
95
68
55
32
54
CB
2B
3F
E4
F3
F9
5E
AB
E5
28
EB
35
0F
D5
F1
F3
0C
54
8F
3E
A5
55
C2
44
8C
D7
1B
EE
8E
A1
B7
F4
11
3C
2D
11
8F
5D
E1
DE
A8
10
D1
0B
31
04
68
9B
69
B8
BC
CA
6B
CC
1B
C2
C4
B0
FB
69
DA
4C
69
DD
7F
BC
8F
EA
C1
1E
B0
CD
28
00
FA
4C
71
1D
A3
53
77
06
88
49
1A
D2
06
D0
BA
2A
0C
F5
40
C5
42
50
7E
B9
C3
8D
8D
E8
F8
DD
A2
03
1C
9D
16
39
66
41
EA
65
E8
E5
15
B0
7F
92
1A
66
7D
61
B1
71
63
B1
18
D8
73
3F
61
A7
00
6D
B5
C8
31
92
B0
E2
70
C8
5A
2F
F7
68
E2
1F
E4
EC
54
0D
E1
29
66
48
AE
2F
82
A3
5C
1E
98
B2
8F
08
EE
A9
B7
B9
43
61
63
A0
38
97
C1
08
0E
EB
28
9A
C2
0E
0D
87
8A
BA
5F
57
5B
D8
63
54
02
1A
14
C9
7C
F8
A1
26
F3
13
7E
D3
11
BE
02
E4
6D
03
FD
54
B4
1A
94
BD
08
69
A9
AE
7E
CE
E9
C5
4E
C1
5B
A4
67
58
96
6F
47
87
B7
57
A7
17
FA
A5
B7
19
1A
F8
0D
D7
2D
17
65
D1
AD
58
BC
9E
A7
23
0C
EF
CA
9E
E6
DF
93
52
FA
F6
4F
61
AE
CF
30
75
49
7D
07
03
6B
82
04
18
DD
9E
75
17
84
25
A2
90
55
15
79
3B
62
B3
63
3D
04
41
EA
CF
F9
6E
49
C6
8B
29
2B
71
A2
BF
1E
00
54
0A
B0
96
99
51
B7
DD
64
B2
2A
17
0E
30
17
69
4A
99
1B
FD
53
BA
3E
BF
31
05
C1
CE
28
1C
B0
26
3B
90
1D
10
20
E9
92
87
33
FB
CF
36
A5
06
06
CA
D3
71
6D
8C
79
39
9A
AE
BF
D0
08
86
89
39
97
C7
5F
C9
17
A1
63
52
9C
B8
B1
5F
A8
76
BE
AF
FB
1E
3A
31
F2
BB
8B
7C
48
1A
39
5A
36
59
D8
30
BD
F9
08
B0
27
2D
B0
73
78
7B
BC
C5
A5
08
50
48
7E
BB
CD
D6
23
53
D7
19
79
AE
68
EE
47
6D
FA
DA
56
0B
32
BA
B8
A8
AC
41
24
7F
42
EC
73
CE
71
A1
78
85
68
C1
74
3D
4F
CC
FF
CE
11
86
42
7E
E6
5E
51
F6
BC
FB
D5
3B
B1
18
18
4A
8D
92
7F
F3
89
D2
10
0F
C9
9F
C5
A5
85
89
AD
79
02
03
8B
AD
70
16
A4
07
55
4E
FE
87
81
D1
AA
62
E6
FE
25
48
4B
6B
F4
45
78
5F
4F
33
80
9F
33
3E
B3
EB
19
A8
64
94
69
00
8C
00
F5
EB
1F
22
29
40
98
33
80
36
F2
19
E6
51
A5
25
5F
92
84
AD
39
E9
64
D7
81
87
91
03
98
16
89
60
43
A4
B4
7C
59
C4
D2
66
79
96
A1
9D
90
B9
1D
DE
D5
45
9F
37
85
53
8A
52
02
B1
55
12
30
E8
9D
08
CD
45
00
76
C2
A7
05
98
2A
A7
4D
DA
D4
18
B7
6E
C8
4C
C2
3C
3A
34
39
A8
19
15
E6
A3
B0
66
CE
B4
91
20
5E
96
A0
F7
FF
54
87
D5
FD
1D
B1
43
7B
23
11
1F
92
78
9F
6D
BC
83
9C
54
3D
33
88
8F
D5
E3
A2
49
46
1F
03
5B
DA
E4
CF
0E
A2
0B
73
B3
AA
1C
7A
99
04
36
30
A9
7F
34
7D
CC
2D
CC
76
0F
22
53
09
FE
63
69
C2
6D
64
CC
9F
EF
7B
06
F5
C7
D6
A2
A0
0C
A3
3F
D1
A3
03
17
EC
41
BC
C5
CE
75
01
95
80
69
64
B0
D8
BA
A2
F0
00
E0
2D
1A
A5
AB
03
84
2E
5C
FA
9A
6D
D6
7F
FD
FF
91
BB
15
0E
0D
2F
16
DB
A8
77
15
08
89
03
06
47
4C
C5
D6
0A
A9
32
0E
FA
94
10
AC
E9
AC
03
D5
06
0D
55
E9
24
EC
B8
4A
ED
7A
D4
B3
5F
69
CB
B7
E7
60
86
AA
8C
CB
AF
BB
12
5B
5B
8B
39
C9
ED
F0
21
3C
4C
33
D4
44
EA
07
57
D1
EA
15
AF
44
A0
B4
C5
E1
E7
4D
5E
F1
4C
63
5C
E3
C3
0C
0C
53
7F
44
67
65
B7
41
16
6A
18
65
58
42
F2
93
9C
9A
53
8C
31
19
65
BD
0A
51
A2
E8
22
AC
48
C5
6B
A9
F2
DF
85
54
5D
D6
18
4A
A6
99
D3
46
16
18
FF
86
8A
91
16
5F
4E
1C
41
8F
EE
5E
02
8E
74
CC
F1
CC
15
EF
73
29
50
9D
2D
DC
AE
37
1A
F6
0B
FD
7C
AE
F2
98
8C
BB
A2
75
1F
45
21
25
FA
0B
80
68
BF
76
F8
A4
89
4E
9F
D4
16
90
83
A7
DE
0C
97
5D
3E
4C
C6
CD
BF
3A
FC
D9
A3
F0
4B
05
5E
49
95
CB
CE
1B
F0
84
CD
B7
A2
43
5D
D5
D4
55
FF
B7
9C
A1
29
6D
70
70
9A
0B
90
EB
0C
F2
9B
88
8F
96
E9
AF
54
88
2E
3D
FE
F5
A8
31
CE
BA
10
88
DC
A0
03
FA
06
BC
F7
6D
E6
F5
28
5C
B0
B2
85
52
6C
61
CE
FF
A3
0C
AB
07
B4
75
97
B4
46
9F
35
34
D8
7E
C7
3A
12
E5
F6
CB
87
EC
68
23
F0
D7
5A
19
5A
61
7E
FA
39
EA
1E
4F
C1
FB
08
65
C3
71
D1
4E
0A
8B
34
A3
60
74
7B
C2
D6
37
01
60
E5
CE
D5
4C
8B
1A
93
31
B0
4D
77
63
41
2C
69
E3
DB
C3
03
6F
0E
0A
E5
6C
20
81
AB
3E
3B
B1
3D
1B
AB
43
0C
D5
53
84
70
4C
C8
A4
93
94
E8
BC
B3
2F
B9
4B
85
54
42
C8
8E
AA
F9
AB
C7
D0
6D
EE
FC
1F
BE
91
3F
9A
F3
1D
FD
B9
E1
B8
5D
76
A4
2F
A3
07
5C
99
A3
B4
5B
8C
82
F8
1E
C2
5A
81
28
21
DD
A0
07
FF
7A
9C
BC
17
DC
9F
BF
77
CF
19
95
AA
27
F8
26
99
A5
B1
86
B9
D3
83
15
1A
2C
18
E9
D7
BD
10
4E
F3
CF
5F
6E
EA
D4
86
A9
98
D1
A4
47
71
68
3A
51
1A
77
0B
D9
FA
5E
2A
67
66
41
F6
B2
09
17
A8
CF
14
05
AF
C0
DE
7D
8D
48
7F
ED
3D
4C
52
50
E5
EC
46
59
7B
F5
EB
EE
87
1C
57
F3
99
FC
38
E4
19
AF
11
81
C2
B1
BD
19
32
2D
C3
2B
BC
EA
6C
E4
13
54
D7
00
AE
A7
61
81
EA
DF
23
E0
1C
36
0F
0A
C3
2A
C0
9D
A1
B6
B4
21
EE
E9
20
3C
EB
E3
2C
5A
11
E6
15
6A
B8
86
76
A1
2F
35
1D
C6
C4
2C
24
66
FD
22
08
E6
0E
BF
9A
01
6D
46
60
3F
D4
26
3B
5D
B2
F2
F3
EF
5E
2A
98
82
91
35
E6
7E
69
55
F2
C1
DD
F7
54
9D
50
C1
EB
64
08
6E
CB
DC
A1
51
33
A2
0E
18
D3
79
3A
64
19
E5
4C
ED
26
95
D6
EB
0A
FA
94
BD
3A
E4
E0
18
D4
51
52
C4
B0
3D
9F
D2
3F
E7
85
97
43
6C
1E
B0
48
35
CA
2A
F0
E1
35
EB
39
BB
F6
0F
3B
EC
BD
0F
D7
70
CC
94
CC
25
52
99
FA
1D
DD
12
C2
81
E9
53
C1
13
50
F6
80
