54
DE
89
63
16
41
70
16
C5
C1
98
1C
8D
CC
CF
B9
5F
52
39
1D
30
B4
36
12
70
51
BA
D3
71
71
C5
B3
2C
C1
9A
0A
CC
A2
F9
47
9A
17
60
B0
CA
13
CF
90
5F
E5
81
D0
C2
80
13
29
30
05
77
21
F9
18
F3
5E
01
D1
03
32
DD
9B
A5
1A
BB
E7
38
A4
C1
35
A1
77
66
37
CE
50
3A
38
9A
36
DC
DC
F6
79
3B
36
1C
30
15
46
04
D6
58
57
6E
1B
69
DD
52
23
AD
7B
F3
C3
34
8C
A1
9E
12
93
B7
A3
30
FA
40
F1
CF
DB
2A
28
10
22
B6
0E
F1
21
F1
78
7E
9A
5C
0F
FC
BB
2F
A9
9A
98
03
8E
EA
1B
C9
E0
12
87
C7
F5
EA
1E
40
0F
E9
F5
70
38
1D
4B
C3
5C
4D
C8
AE
54
AD
1C
AF
9D
69
FE
40
19
3F
81
FF
03
1F
3C
BC
5C
B4
BF
57
3E
96
5F
59
0B
23
CD
B1
BE
09
AA
9B
63
3A
8D
11
5B
65
72
34
8E
75
72
A1
15
9C
EA
99
F9
0A
8D
68
A0
F1
DF
81
D1
A5
75
03
40
F4
E0
72
D2
4E
9A
9F
B3
9F
AA
67
3A
5A
DC
71
E6
65
03
55
16
B3
C5
21
87
80
1A
63
9A
E8
7D
61
99
0D
50
69
85
82
1B
B0
83
1D
99
39
84
9E
E2
43
D1
80
F2
E7
1B
AD
02
E1
3D
8D
3D
6F
7E
A3
93
CB
66
AD
B6
7D
26
B6
C7
20
E5
A3
B3
0F
6C
AA
DD
40
B9
F3
E3
E9
0F
68
25
F1
51
2A
50
5D
DB
8E
63
27
D5
25
C5
5F
03
58
95
23
3D
2B
7B
77
F0
FB
93
59
A2
6C
7A
E6
DC
F1
5C
DA
F4
36
EC
AA
C0
36
42
20
93
4D
6F
88
FB
D7
DE
A9
CC
B9
25
C7
0D
6A
30
45
BC
38
B5
3F
A4
B7
E4
9F
DD
81
DC
6B
D9
F2
ED
00
F8
7B
FA
69
20
A1
89
B6
05
30
D0
B3
95
3F
79
22
07
FC
10
D8
64
56
0F
2C
98
87
5D
92
6F
44
6C
49
F4
B9
2D
9B
E9
DC
B9
55
7C
AA
0F
E5
89
3D
CB
FB
D6
78
05
E0
17
33
9A
95
C4
20
66
ED
EF
13
76
8D
7F
CF
FF
69
2F
E4
42
5F
83
BA
D8
83
E4
BB
E2
9F
6F
BE
42
8E
F8
6F
18
90
40
B7
F4
B9
E0
24
91
D4
DB
BB
A3
58
AD
69
63
A6
35
68
69
59
BE
F5
F1
2B
E8
FD
7F
2A
B3
D7
1B
17
5C
32
ED
E4
75
1C
87
C8
06
E2
5E
40
46
88
D2
1A
2B
55
F0
F5
48
D3
7B
48
E3
27
D1
2D
BB
C3
BD
E1
20
AA
EC
43
A0
63
45
20
BD
CB
F5
BA
95
16
E1
CC
2E
66
5F
11
A7
FB
10
BA
7F
07
64
58
C6
49
72
88
34
3F
45
93
BF
96
54
4A
55
5C
42
FB
1A
77
59
F4
1F
6C
DD
EF
5C
5F
2A
56
8E
B7
59
93
43
8D
B8
A6
5D
4F
02
CA
89
66
5F
90
5D
EF
F6
B8
0F
10
FF
DF
09
13
D8
30
C3
72
4F
D9
22
0B
60
45
1B
C8
B7
20
B5
7B
9A
7A
45
79
80
D5
4A
47
BF
61
C8
A8
71
2B
71
E4
08
33
0D
54
6A
58
C3
E9
EF
02
A9
9F
9F
DB
71
A4
9B
AA
EC
6D
83
C1
39
11
83
1D
9E
1C
48
C1
8C
86
B8
70
B6
27
D6
1B
CD
64
00
D2
CA
77
21
82
99
85
22
E5
38
93
FF
90
6B
36
0D
BA
94
B7
ED
28
20
48
57
1E
4F
B4
AA
AB
3F
C8
ED
DE
3F
C7
D8
34
F2
D0
D2
44
31
57
36
95
C5
E7
C7
DE
95
7C
1C
6B
16
D6
71
66
CB
A0
67
69
01
15
44
3A
E0
31
48
E8
2C
EE
CE
B7
6D
D5
D2
A2
F1
1A
4F
76
5F
2F
6E
7D
94
41
58
F3
AF
DE
67
B2
D6
8C
9F
C5
C7
81
FC
18
77
2D
89
D9
40
46
6D
9E
D3
7F
41
1B
4C
0A
BF
AE
08
EE
76
8C
88
19
0A
44
6D
BE
42
C3
71
30
08
AA
60
3E
81
AE
B4
14
A0
46
FB
B0
ED
25
81
4E
FA
EB
4C
4F
C2
91
1C
08
10
BB
6A
94
E8
7B
2A
B4
C5
40
C2
73
7F
E3
E6
F2
69
76
E1
77
C7
36
3A
36
0C
DE
E0
28
71
D2
0C
05
AA
FE
64
00
9B
40
BB
5E
7F
D4
F2
BF
5A
1B
AF
84
5B
4C
A7
E4
94
9E
99
F6
04
E4
D9
FE
DB
93
80
19
81
20
ED
00
6B
36
F8
00
31
CD
3B
5C
54
AD
1E
D5
78
CB
7F
25
07
9A
82
28
E2
79
96
D2
3F
65
90
9B
8E
6C
CD
84
18
C2
05
94
CB
B2
66
F0
55
78
69
3E
FF
DF
35
55
B8
65
C8
53
9E
44
BE
8B
ED
99
78
85
3B
A3
97
9C
3F
12
E0
6C
EB
F6
E5
F7
8A
11
A5
67
0B
B0
A7
BC
2B
1E
C4
22
C6
4E
04
F8
68
F2
CD
4A
77
76
F7
7C
16
83
B0
33
1A
D6
97
20
69
D7
BF
98
69
8B
98
0D
DF
FF
B1
DC
5A
C5
E8
34
31
EB
8C
3C
60
EF
A9
F7
4D
08
91
0C
CB
B4
7A
0E
4A
9C
30
36
0D
77
1B
B4
0E
D3
D3
C7
A8
52
F6
2E
3B
E8
4F
AC
BF
17
14
60
0D
26
89
4A
C4
98
2B
BF
37
E2
3F
F3
2A
CD
D1
0E
35
24
B2
14
34
8B
7D
23
AC
A4
F9
C5
00
A3
2D
98
F4
4B
CD
2B
E8
41
49
80
0A
7D
9E
29
BA
77
FE
BA
1B
48
91
F1
57
82
95
20
A6
61
7D
66
23
D0
66
FD
01
79
34
9F
C9
4F
E0
97
2F
D8
09
B8
05
04
78
78
EC
A1
43
F7
38
7A
E5
F2
87
D9
EA
06
0E
CD
98
13
FC
5C
F6
B7
5A
EF
32
F6
E1
7E
BA
6B
59
D6
CE
E8
A1
8E
0E
C7
9C
E7
4C
FD
CE
06
06
92
05
C8
93
F4
BC
C6
7A
E2
FD
C6
A2
3F
86
EA
FF
2A
C7
2A
BB
2B
3B
8A
DE
98
B2
A2
10
10
24
E0
EE
26
40
B1
DA
98
6A
A0
9F
62
4B
25
1D
26
99
EF
DB
26
60
33
18
BA
C0
D7
51
ED
62
F6
74
C1
53
01
07
0F
4B
47
5F
34
79
12
EB
69
29
FB
0D
CD
11
EB
37
9C
02
7F
2A
E6
14
7E
BA
C1
4A
70
70
F9
14
B2
A8
09
13
3E
D4
01
68
7D
28
DA
CD
0D
1F
8C
92
1E
32
B5
80
C2
1A
01
18
3E
54
A9
4C
09
CE
0D
35
C6
C1
D0
63
08
7E
32
E9
0B
0A
6B
4B
39
5C
30
A8
35
68
A5
45
1B
76
E3
DB
44
AA
A1
3F
2D
69
1C
85
E5
2B
6E
37
2A
C8
7B
21
92
1E
3F
47
63
02
16
F3
E4
63
16
7B
E3
6E
F7
F1
5B
49
0F
B3
AA
28
2B
22
2B
A6
3B
D2
EB
4E
C6
A4
35
F8
6C
40
B7
1C
40
E0
24
01
92
17
4F
6D
AC
5E
02
E7
60
FD
AE
A4
61
B4
E7
6E
80
2C
5E
A9
0B
69
FC
A9
98
65
F7
CB
56
E8
DC
D9
58
96
A4
D0
DE
2F
CE
92
57
0F
05
99
89
6D
E9
18
C1
09
68
5A
A0
0B
FE
23
E4
02
23
0D
D6
41
0E
CA
81
C6
2E
09
83
2E
A6
3A
96
CF
FE
1C
FC
72
AC
91
6D
60
DC
FB
28
AF
96
6D
25
D1
35
C9
D6
48
BB
4D
37
B5
A5
67
CB
B4
76
C9
AB
F5
58
77
BF
03
31
BB
17
06
C5
BC
5C
64
67
A5
A8
C2
AF
83
1B
64
67
5F
3D
3D
44
5C
8E
F5
F9
39
BD
CE
7C
59
09
B1
11
84
7F
13
AB
35
E1
BB
2D
D1
1C
71
B7
E2
9E
C7
5E
93
3E
FC
05
6A
56
12
5B
F8
91
DB
9A
C0
06
B6
F3
03
9A
12
E2
92
88
A7
93
FF
13
48
0C
C1
FB
2E
00
B1
74
27
27
52
D4
1F
2A
D5
5B
A5
83
C0
31
70
BF
55
BC
5C
3B
CA
42
A8
22
82
6C
19
B2
1A
C9
7C
07
CC
90
2B
6A
17
62
EC
B9
C2
94
72
49
FC
C8
47
83
55
D0
3B
32
1E
9F
8C
0C
53
2F
BB
51
AF
A5
FE
AD
A9
1B
B0
70
BF
D1
49
04
EF
BB
3E
42
10
45
47
54
70
39
57
1B
BF
C5
64
5A
5A
D0
54
65
6B
B4
35
0A
E5
09
09
51
46
01
C3
DC
AE
E0
1B
53
AA
EA
0D
66
63
98
A5
47
D5
A5
A7
A9
0E
00
A9
A2
92
4F
85
B3
B8
59
73
E1
DE
E8
C4
56
5A
CB
1E
B9
05
48
A0
10
12
0C
34
15
BD
46
FA
BE
9C
F8
F5
5D
2B
00
94
B0
52
9E
24
3C
49
FC
15
A5
56
E2
21
7F
92
D7
E4
AA
7A
C2
08
42
46
37
6D
AC
B7
92
21
0C
2B
03
98
BD
46
FC
02
B0
E2
1B
DF
B8
14
2B
07
1F
E8
1D
2A
A7
6C
23
A3
4F
09
B4
97
0F
0E
69
F0
07
80
79
30
80
B2
BA
4B
24
34
C3
FA
90
F5
D6
5B
08
DD
CA
6A
A4
A8
03
CB
67
76
0A
FD
7F
46
F0
34
7C
7A
34
0C
84
2E
7B
0C
A2
A0
57
B4
97
3B
35
61
3D
0E
F3
6E
BB
38
53
9B
96
20
2C
32
57
50
90
2B
96
7F
3F
B6
EB
18
B9
1A
7A
F7
0C
D8
4D
E5
D0
88
F6
D7
B2
41
97
E2
33
2C
AD
E3
8E
1F
80
9D
83
97
1C
23
51
03
DA
0F
6A
60
68
F5
08
FE
D2
CD
6F
CA
E0
BA
77
60
D1
0F
42
18
60
53
DA
6B
3E
1B
51
B8
4D
DD
D0
9F
46
53
C9
B2
4F
BF
B8
D6
74
6E
64
E7
8B
BC
77
77
98
5A
9C
16
10
BC
AE
7F
4C
2A
73
BE
04
CD
71
88
B4
1C
84
CE
D2
F2
F7
A2
02
DC
6E
06
0A
23
C5
71
F9
5C
BF
B3
E0
FF
E7
20
F6
37
3A
A6
51
DF
22
77
AB
7C
04
7B
0E
71
31
42
6D
09
3B
D9
4D
28
0E
07
AC
99
DA
79
2B
74
6B
03
9D
3F
72
19
53
C7
66
66
23
99
E0
63
3A
9A
97
4E
37
9D
14
A6
90
47
01
51
29
CF
D2
B2
23
68
AC
09
DB
3A
F3
ED
4C
F4
51
9E
A5
76
09
34
C7
CD
AC
3F
3E
F6
A4
02
C3
1F
96
DA
24
BA
AC
CE
9E
8B
A8
21
B0
F9
40
06
55
EE
F9
D6
67
ED
FF
75
C8
08
3C
05
5A
9C
75
62
E4
0A
85
F0
90
43
C0
CB
7B
B7
11
C8
C5
C1
5A
F5
56
93
6F
F1
B7
B2
FE
9E
C6
0B
A7
80
C1
96
A5
EF
FA
FE
AC
EF
A4
B2
10
20
81
94
D9
FF
13
9D
8C
1B
EF
7D
09
06
F6
84
FA
45
9C
72
E5
0E
7C
6A
D9
05
60
B3
1E
02
72
0B
D6
E2
56
75
31
B9
9D
DD
7A
41
B9
A8
53
11
94
DD
96
78
03
7D
2C
7C
13
98
DA
FF
57
9C
CE
10
94
44
A5
AD
20
CE
8A
98
33
07
87
ED
31
D1
4D
A3
5D
00
7F
39
5B
D9
0C
0F
AA
12
D5
D2
F5
33
A1
82
21
5C
C0
8D
A5
0F
64
B7
3A
30
DF
2B
0D
D6
CA
D8
DA
43
09
08
D4
0A
5D
F1
1C
B3
4B
54
A7
36
E9
D6
8A
F5
E8
F6
B4
86
E1
42
EF
34
76
AF
FD
DA
60
90
B2
33
8E
D6
D3
11
4F
8E
C4
2B
FF
2C
16
12
61
05
9D
A8
C8
EF
FA
95
E9
37
AE
ED
F3
5B
1C
C2
DA
59
52
C3
2F
8B
8D
B0
0E
26
35
7A
62
37
C5
97
E1
E7
6F
67
27
63
FF
35
1D
EB
EE
62
6F
2D
9E
DC
16
52
EB
99
08
09
FC
A0
9F
E2
F5
5B
22
FF
B6
B1
30
21
E3
39
5F
FE
4C
39
AC
E9
53
9A
0F
13
F1
42
1F
45
05
64
18
2B
55
E8
5D
AF
9D
03
24
F5
DF
79
24
F0
B0
05
A2
9E
C8
8D
2C
D1
2D
46
87
20
5B
1C
E7
19
2E
83
F0
CC
02
65
AE
70
AF
5A
23
CB
14
E3
75
7A
28
06
D8
4B
70
E6
51
79
20
39
66
49
EB
BA
89
EF
AE
18
00
E9
AE
8B
F9
8B
D9
F2
C3
5D
4A
EE
D9
E4
15
50
CA
F8
30
DF
8E
BA
C7
03
FE
78
AA
D8
5F
AC
1A
A9
CE
1E
BE
E1
5B
B5
81
3B
56
6E
07
74
82
A0
15
91
72
82
86
86
1F
41
97
26
FE
16
8C
6C
93
4A
E8
FB
37
08
75
BD
FF
E7
62
F8
4D
89
88
97
62
86
EE
A7
67
B7
D7
11
29
3B
0B
B5
48
3B
F8
22
3B
66
06
6D
B7
2C
3C
31
AE
62
51
F6
97
6A
A9
AB
28
33
7A
6C
03
30
1C
1C
4B
C6
4D
3D
B2
29
73
8A
D7
73
89
1D
00
F6
40
D7
0D
B3
47
35
DE
4F
90
F2
89
95
7C
92
60
9F
A0
6D
A3
54
BE
3E
29
D7
8E
88
E2
E3
7C
A7
79
05
DF
D4
2F
D8
D6
61
11
C6
8C
EF
58
1A
0A
E3
4B
F5
CD
63
3B
6B
F8
8E
9B
2C
62
5A
B4
FA
62
9F
F2
8D
6A
73
08
B4
7A
8E
97
58
F9
40
93
A2
B4
E2
D9
F5
12
DC
C4
43
3C
10
1A
68
75
51
DB
C3
3D
11
64
A2
0F
73
A7
3F
A5
B3
C6
1C
E9
51
52
48
99
C4
35
9C
71
1E
55
B7
FF
6E
51
3E
4D
9B
8E
AC
30
5A
FC
A4
6D
96
60
68
27
47
66
93
7E
4B
B2
4D
01
3C
C4
B5
09
08
27
1E
76
E9
E4
A0
CE
EF
FA
43
8E
4B
C4
24
05
5B
E4
7D
E8
A5
AA
D4
EB
89
3F
0B
7F
C9
86
B7
CC
24
01
9A
9F
05
1D
8D
4C
40
F0
F9
AB
08
CA
B9
6C
6F
33
7E
48
55
64
3F
EF
8F
66
16
2E
B2
20
AC
A0
DA
08
B3
C3
42
0A
86
58
4A
7B
35
61
00
4B
06
2D
DF
89
0F
C4
49
F3
93
5C
75
35
D0
12
17
4A
E9
C3
6E
60
78
2B
38
F8
71
7B
65
93
F0
4B
55
04
92
DC
E2
EE
5D
C8
20
17
A9
42
40
9F
51
D4
B4
F5
37
7C
DB
1E
FD
83
41
69
7C
CF
16
2B
82
3D
A9
CD
60
90
F4
92
37
5A
99
E9
A3
C5
80
17
4F
E6
E5
75
40
B8
FF
DF
C9
82
16
0B
8F
A1
9B
B1
8E
F0
36
54
2B
1B
1E
72
55
7C
DD
E3
98
96
0F
18
35
77
D2
B2
E5
83
31
74
D4
2D
31
8D
6A
D0
6B
47
96
94
1B
1C
D2
47
BF
18
A4
32
DB
56
D8
2E
00
BA
74
9A
2D
63
7A
E1
41
B8
0B
01
DF
EF
FB
6A
96
FE
9C
0B
F6
8B
15
42
4C
B1
C8
86
38
8B
A8
60
5B
51
A4
23
D7
63
D7
FE
4C
AF
31
80
6C
B1
CB
03
F4
12
62
ED
C9
6F
71
DA
10
FE
12
4B
68
34
A8
52
E8
22
72
05
12
70
CD
BF
52
9A
32
73
B6
42
AE
1D
3F
CC
87
93
26
E5
E2
1D
E2
32
84
51
ED
68
5D
7E
49
92
6B
F1
6A
2A
B8
CB
FC
22
F6
FD
14
0E
7A
4F
8C
8F
AA
7D
3A
62
83
F3
79
44
F4
CD
DC
C6
0E
FB
F9
54
A8
32
52
A8
64
0D
3A
B5
4F
38
DB
C0
36
B2
E8
D8
FB
1A
2C
1D
28
6E
97
92
24
DD
77
57
90
45
C1
2D
9D
D5
E0
3B
33
00
95
4E
42
64
0C
E2
BE
5F
9E
17
1C
E5
4D
A3
ED
A8
27
B0
08
EC
E8
BA
5C
D3
26
0D
F3
B5
98
D5
14
AC
65
26
FD
5A
B7
07
F7
AC
58
AF
BA
95
D7
F5
97
49
B6
4F
6A
0A
86
ED
D2
06
B9
50
E6
69
D8
C4
AC
54
90
28
13
86
A3
22
13
EA
66
BF
C9
86
AF
B4
64
43
AD
35
78
21
27
A4
E0
F5
AF
B3
89
63
F0
11
4E
21
CF
14
2F
CC
CB
FF
8C
CD
CF
29
FD
12
41
40
27
CF
11
D0
87
7A
94
87
D4
C1
5F
DC
11
60
60
D3
7A
80
6B
F0
1A
10
A9
71
14
D0
D8
64
31
66
FE
A6
79
76
80
3C
09
B6
0B
BB
5F
22
7D
C4
96
D8
F3
BA
04
C4
8D
09
3D
88
12
BE
1A
91
20
C5
AB
F4
75
06
47
B7
90
22
82
6B
7B
5A
33
32
8D
29
20
CB
44
D4
06
22
C1
57
34
13
91
1C
DD
57
A2
9A
AC
7E
D5
25
D9
7C
F4
01
1B
41
4B
18
86
81
14
C1
0E
06
12
25
F5
8A
C5
3A
58
DD
A1
D1
75
62
C0
69
5E
72
C0
06
CA
F3
44
B0
9E
5B
F4
C3
30
D4
B2
6B
9B
D6
28
E7
46
C9
A8
28
85
BF
E6
C9
FC
77
4C
B2
71
6C
7B
68
CF
49
B9
DB
A6
5A
3C
5D
3B
3F
EE
17
AF
76
F6
23
D5
22
4E
4F
B3
09
3D
E0
B1
E6
FA
89
FF
C2
BB
EF
DB
6A
39
14
57
EE
C8
1A
E1
77
22
36
7F
36
6E
54
92
B9
13
DA
D8
A2
B0
DF
F3
B3
36
E2
03
40
1B
B9
89
A8
70
65
0A
C3
3B
03
BC
73
D6
72
D5
BA
9C
BD
76
13
DC
F0
3B
6A
F8
BB
0D
A6
1F
DE
4F
D5
9A
CA
56
68
E8
ED
F0
BC
53
3A
F8
DB
46
4A
65
41
D1
9C
7B
CB
AA
92
93
AB
22
90
5E
95
B5
03
D6
B9
E1
AB
F7
9B
47
03
6B
84
F9
BA
7B
DE
4D
8B
15
B8
F7
F0
1E
D0
B4
2E
71
CF
25
86
C7
D1
2C
D4
13
B3
8C
E0
F9
C0
DB
E4
40
BD
95
8B
AC
0F
39
46
2F
E6
31
35
70
E6
59
B9
99
F9
8B
3E
BA
43
44
8E
7C
83
A5
A4
D7
CB
3E
37
D6
36
54
48
FA
96
FA
60
74
D0
50
65
DF
D9
40
4F
CA
6B
0F
1E
5F
0D
94
0E
85
F2
F4
81
50
D1
BE
0C
C6
B9
CD
F7
D6
BE
0A
04
42
6B
C2
AF
B3
AE
E1
A0
4D
93
05
1F
BE
23
27
B4
B8
D2
9F
69
7A
8B
96
EF
AB
3D
2E
EC
F8
20
A4
FF
51
66
A9
14
3A
2B
A1
C1
0B
04
9F
E3
1F
C3
BB
BC
C7
17
DA
B5
95
65
EE
E0
20
64
41
CA
88
48
ED
28
BC
07
07
56
EB
FC
93
A5
2B
03
EA
A0
FE
B2
5E
E7
5E
9C
E8
87
20
4E
52
E3
35
B3
74
23
EF
FD
E2
20
94
FD
13
1C
A4
66
DA
5E
E5
7A
7F
38
FC
BA
4B
DD
CB
25
86
47
65
00
27
BC
99
5C
D2
59
CF
73
DC
D6
F5
93
B7
71
C5
BC
9B
B6
3F
20
12
B3
DE
29
50
72
01
91
B4
AA
7B
53
9C
7D
D2
BF
22
7B
46
F2
10
99
A3
E7
16
73
CD
AC
30
E9
1D
0B
66
FC
C4
B8
8B
E5
19
CE
13
66
EF
06
8A
01
F9
4A
D4
B6
A9
25
3F
59
A2
8F
76
11
28
6A
FB
DA
E0
45
96
FF
71
95
69
B1
64
AD
93
D0
C0
62
B5
2C
67
65
FA
0E
3A
2A
42
EA
B8
70
EA
86
8C
AA
6C
D0
74
60
D9
D2
00
CB
D4
9A
EE
1D
62
27
AE
3D
D9
10
41
25
25
9F
5C
A0
22
8F
98
84
97
BE
A6
CB
5A
FB
8D
B8
70
DD
AA
01
34
4D
1D
BC
39
F5
A1
E8
E3
BB
59
02
19
F1
0E
FD
C0
68
CF
A3
6F
51
27
35
90
55
44
9F
A6
B3
E8
6B
A6
F8
8B
19
A0
4F
0C
06
EA
30
B7
1F
C6
30
76
A3
4D
CF
1F
70
77
99
34
80
03
B2
F8
56
52
2A
39
BF
06
45
45
E8
89
F2
B2
F3
0B
46
FF
99
F9
08
20
E4
20
AB
0D
8B
0B
BF
D0
24
92
59
A4
56
87
01
7C
28
FB
A3
AD
4A
54
02
B4
7F
6B
B5
3B
F8
1A
94
ED
60
B6
EB
91
46
6F
C2
1E
CC
CA
08
55
23
A4
0B
5B
28
CD
C7
DB
35
87
F2
DC
7B
71
F9
1B
78
07
A4
42
C9
8C
D4
0A
41
94
A4
37
29
54
67
85
64
3B
C2
A8
17
B0
F2
01
6B
57
37
9A
03
62
68
A6
EC
4F
D4
DC
A1
4F
3E
87
C7
DB
99
F0
96
A0
D7
BE
2D
0C
2D
84
5C
57
B4
50
16
59
3B
A6
72
68
F3
AE
12
65
E1
D0
FB
B5
1F
EC
6B
9E
5A
21
74
DA
BD
99
F9
C9
AE
28
4F
6F
3C
43
48
BA
5D
E6
AE
85
83
D7
AB
C0
81
EC
12
BF
96
46
40
31
36
37
96
39
28
9D
67
E9
FB
D0
3D
6A
C3
A5
05
6A
A4
A5
BB
CF
8A
0A
D8
02
A3
D7
FC
E4
E3
59
08
AB
0E
77
18
A5
64
ED
9F
9A
42
8F
B5
64
6F
C2
3E
20
9D
C0
1D
9B
38
E2
B9
F5
BD
96
C8
2D
D6
AF
C2
8F
20
EE
7F
07
40
AF
21
78
00
FC
19
13
82
56
EB
65
08
30
B1
1B
FC
D1
B8
35
1F
D2
C4
39
4C
8A
EB
F3
F7
A7
33
76
2C
AB
C0
B3
5E
90
78
3B
B8
7A
4E
91
14
A5
C4
95
16
56
96
A1
CC
93
90
FF
99
CB
25
D7
D8
CB
88
7F
74
90
BE
A2
C7
45
C1
C1
67
D1
55
1D
1D
D4
DA
4A
72
EF
81
B2
44
49
7F
F6
97
47
9B
90
49
60
C5
3F
D2
53
62
F7
3F
CF
BC
98
A2
05
D5
BB
95
8F
BB
FB
26
93
10
58
36
2F
E9
CE
E5
6E
A9
22
06
E5
F5
FD
BD
BD
76
7B
26
82
36
61
93
29
EA
AD
67
A8
DF
13
B7
ED
61
2D
5F
67
55
3E
C1
FA
41
A6
8E
28
26
F5
C9
4A
5B
D3
94
33
DE
5E
CE
70
34
28
21
2A
F1
1F
22
5F
AE
B4
72
B7
D5
97
04
55
79
11
37
C3
1B
80
52
04
09
02
06
F9
FD
0F
34
BF
5A
08
ED
3E
F4
73
AB
48
AA
A1
B9
AE
03
A2
69
41
2E
F9
29
70
91
3B
E3
A6
78
C5
11
59
DB
1F
05
F7
20
41
F3
51
63
DD
83
30
5A
12
C4
5D
1D
A0
8D
0B
DD
9D
A8
E9
BE
27
AE
9B
D3
00
60
3A
0D
A1
34
E4
E6
CA
14
BB
39
BC
8C
25
3D
3E
C1
98
F7
98
8E
7D
99
4C
EE
73
BC
1D
CF
01
0F
58
62
45
EF
1F
AC
34
78
C3
53
9D
8E
0B
C0
A8
07
44
F9
AF
E7
3B
AD
15
D3
48
82
29
45
0F
90
72
7E
8A
90
5E
28
CE
E8
33
87
76
D3
9D
F1
03
13
37
A0
F4
03
87
BD
94
4A
F5
6D
43
0E
3E
51
CF
38
2F
86
17
AC
BD
15
E5
1A
C3
7D
8A
FB
0B
D2
68
D7
AC
3C
2F
13
E5
F4
9E
6B
70
E3
69
FF
B0
7F
F3
4E
34
EC
2F
85
A9
EE
AB
25
7A
82
A8
8C
10
E8
9A
D9
B7
72
CB
2B
75
56
2E
95
B1
D4
9A
C6
2E
30
C5
F3
71
8E
33
22
00
9D
A6
82
9E
95
54
E2
B6
00
EF
6E
5D
20
CE
8F
92
AA
45
AC
B5
95
6E
8F
52
54
F8
C1
0E
57
41
65
79
44
8D
50
DF
C4
EE
A5
8E
C8
F6
17
B0
29
A3
D5
CB
B6
C8
B1
51
43
CE
D6
88
AF
DD
6B
C1
45
06
D2
49
E7
52
38
C3
DE
56
EB
D8
2C
38
7A
44
7A
75
37
F2
C3
9F
55
42
61
96
D0
29
D4
5F
41
FF
A1
30
4D
9C
63
FC
5B
E2
79
7F
4C
E5
D8
7E
F7
24
85
AF
65
0E
48
1C
50
55
8B
58
48
88
B1
7F
3D
5B
02
B1
E7
32
FB
88
0D
5E
C0
63
C1
E6
35
01
E9
C0
2E
78
BB
64
D8
3E
14
05
61
22
A2
C9
57
00
1D
EE
B9
A6
D0
C7
9D
8F
A6
21
6A
39
18
48
C9
4A
AB
85
2F
D4
BA
54
57
2C
E6
76
AE
8D
62
69
AD
D6
85
FC
6C
8F
82
3C
AF
07
A3
0F
98
E9
6F
D8
13
B1
6E
E7
DA
2A
80
12
B0
92
A1
75
BD
87
40
72
84
C5
19
30
D8
61
11
02
DC
21
A3
03
61
F7
85
DE
1F
DF
CA
4E
EF
CA
FD
66
56
52
AB
93
EB
C1
27
26
30
02
1D
4C
41
34
4D
FA
1B
A8
49
37
C1
3C
F8
7A
FE
DB
1E
65
78
07
B9
85
8B
5A
B6
0D
77
A3
A3
18
0F
87
4E
11
EF
5E
9D
A9
8E
69
2F
E6
E1
4F
4D
02
DF
0A
6E
7A
14
A3
56
15
CD
C0
10
DF
24
D4
1A
49
04
F1
6B
39
0E
22
FD
38
8A
6B
BE
65
2D
EB
7D
BE
F9
24
CC
FF
C5
08
8D
8D
4C
81
99
E3
58
18
AA
00
9E
E7
CA
90
8F
D6
E5
F9
16
9B
80
D6
21
7E
17
11
5D
36
93
01
73
F0
C7
0D
9F
8D
07
E4
2E
76
1D
73
AD
53
7D
65
16
ED
11
08
08
06
F5
5D
58
3D
4C
77
E4
E9
79
A4
CF
9D
ED
6D
61
CB
7D
74
95
FE
6E
47
90
EC
E3
A6
45
60
52
D2
CB
AE
8C
55
5F
00
E8
11
22
73
AF
B9
65
10
BB
98
41
7E
99
54
EB
DB
7B
00
62
34
88
37
EC
7D
61
7F
E4
62
34
5D
66
89
5E
22
F2
29
79
30
A7
CC
69
CB
34
79
46
A4
C3
CF
88
F3
5A
A5
67
48
38
7A
99
4A
B0
41
F3
DE
A9
DB
72
BD
9A
F1
A0
B2
EA
77
A0
B4
97
A5
78
33
CE
AC
B3
86
4C
38
A7
66
8A
08
83
8D
C0
2A
9B
ED
53
23
35
34
83
2B
C3
A9
F6
D9
EE
9A
4E
F9
61
87
28
50
30
52
93
3C
67
C7
B1
55
6F
8B
1A
2B
85
CA
B9
A9
20
3B
FB
29
84
94
B0
97
D2
B3
23
58
91
50
0A
15
82
54
85
9D
61
2D
09
C4
79
6E
3E
14
01
4A
02
9E
40
B4
D0
28
22
07
F7
DA
B2
CD
F8
F9
43
53
16
89
22
9C
27
9E
47
31
11
6A
AB
49
C2
23
1C
2B
10
5F
A3
2F
D3
8C
4D
99
21
01
29
15
AE
3D
70
4C
2F
0A
5D
EC
3E
F9
71
12
97
21
06
2E
89
63
8C
29
F6
ED
15
B2
72
24
38
50
72
E1
AC
4C
EB
9C
B5
42
48
7F
01
8C
26
23
C7
59
21
2E
38
3B
A0
84
D4
8D
67
25
75
F0
2B
DA
53
C6
91
41
4A
CF
81
58
21
0F
A2
E8
2B
3A
3C
7A
44
EE
7E
85
34
42
BB
1B
BD
AF
D5
CD
EF
A1
76
A5
5D
A7
BA
81
20
E3
B3
1C
4B
BD
04
9C
FF
F5
B3
53
44
AF
2F
9C
80
C2
57
D7
A2
C0
05
08
FA
10
61
26
18
1E
FD
71
83
62
15
D7
48
51
32
DD
75
28
6D
A1
70
91
35
7D
EB
6A
1B
24
72
24
72
6F
7C
4E
22
2B
C2
B0
CB
86
5D
5A
C8
A9
D3
F2
79
61
7E
F6
AA
BA
89
40
F1
83
93
26
DE
A7
27
F5
A5
22
C2
1B
CC
B6
4A
5C
CB
F7
0E
BC
90
5C
73
BD
BC
08
9B
10
5E
00
6B
7B
B3
7B
22
04
66
87
06
12
C2
35
B5
50
32
98
E0
67
F0
0E
A9
20
0A
B0
F0
29
D6
A6
25
55
37
3B
D2
D6
34
FC
3F
4F
94
2B
38
1C
E6
BF
6B
E5
8E
D4
9C
7F
07
41
7B
3E
5F
D7
C1
BE
4E
7E
EB
0B
D4
FC
FC
7B
BE
0C
52
8E
FA
56
C8
8A
1B
88
FB
CE
1B
0F
85
6B
76
19
50
85
D3
79
01
68
6B
CB
A6
A1
D0
7A
85
4F
84
0E
0D
0B
5A
09
F0
7A
65
02
D9
39
37
93
91
00
8F
DC
45
09
C5
42
4B
72
4A
F1
E5
00
7F
1E
95
67
28
16
4D
27
DA
9A
0C
15
67
47
48
D2
47
48
71
DF
DF
BD
69
4A
C3
8F
DF
BA
26
8A
09
CE
E4
03
1A
2F
01
F3
0D
8B
C0
5D
08
4D
A1
63
88
5E
8C
DD
D9
C4
D9
00
B8
13
6E
A6
DF
0C
0E
05
68
25
15
DE
22
4D
9A
90
99
BC
8F
BD
A8
FA
89
C0
6C
45
3F
B8
69
E0
65
CA
78
D6
B9
DE
42
2E
59
E9
1D
C7
00
05
1C
A1
A4
3A
53
02
85
6B
43
2B
08
BD
0D
B2
DD
F5
6C
B3
BC
D3
B3
78
5A
2D
26
24
16
D6
14
AD
5A
A7
46
EB
5A
69
FF
19
4A
CA
05
6C
40
A0
B6
B4
00
EF
27
62
33
8D
C5
1E
2E
DF
98
D6
F4
98
83
6D
34
AD
FB
32
33
48
E4
9A
0E
B6
90
0F
64
BE
12
DC
DD
97
AD
D7
91
C8
74
5D
28
C8
37
F7
86
50
99
94
BF
39
C1
60
DC
36
8D
39
B5
E2
B3
E9
AD
46
5B
CA
84
97
83
49
AF
C3
82
BA
87
CE
4E
A9
29
D7
95
D5
E8
58
6F
C1
12
B3
E9
7D
54
64
31
4A
F4
70
BF
1D
F2
EF
D2
5B
37
43
E1
72
38
9F
09
1F
DD
6C
FC
39
57
51
B7
6A
1E
EA
61
47
08
15
0F
62
FA
DC
24
BF
31
6F
63
C8
C8
52
F0
7D
5D
D9
EC
ED
F3
53
B6
D5
5D
40
15
61
AC
C7
79
C5
3B
DC
1F
F5
33
6D
AB
B1
61
29
50
F6
9D
92
48
41
43
21
FF
03
1D
6C
FB
A2
0E
9B
B3
EA
09
3E
20
C0
FC
CD
77
B8
58
30
60
8C
B1
C7
81
01
B9
23
0D
F0
29
8B
64
9A
EC
02
3C
4D
81
A3
E0
7A
D6
47
40
59
19
42
EE
6E
E1
2B
55
D0
1C
8D
1D
0A
09
42
1A
ED
2B
35
3F
E4
67
13
20
E7
A8
ED
34
6F
70
57
4F
20
95
AD
89
01
1C
85
9A
82
8C
90
A4
6E
CF
F1
81
B7
44
3F
5D
B5
D9
58
6D
CB
B2
68
2A
1F
F1
07
D2
48
BC
C7
92
E9
C3
5C
72
DD
49
3D
62
9C
35
D1
0A
C9
FC
20
33
E4
13
57
7D
BA
AE
4E
79
DC
AE
4A
1F
80
62
CB
FC
43
43
EB
4F
E5
13
E2
D0
37
17
4C
1C
B7
13
6A
D3
11
63
F8
23
81
00
C8
AE
9D
27
D5
57
A2
0C
55
AA
00
2B
AF
6F
19
40
82
33
E9
2B
99
34
CF
2A
05
43
38
8B
39
84
5C
45
B6
52
64
FB
BA
AF
70
FD
B7
72
0B
DE
58
97
F3
A6
19
7B
0B
53
7C
7D
A7
DA
5B
6F
40
A4
1A
00
B7
C9
7B
62
C1
D0
4B
01
D7
2B
C6
89
5F
74
87
BE
E0
D7
D2
3A
8E
D1
77
05
C9
1A
B8
67
7A
F0
57
E5
BE
41
37
D3
66
D0
78
52
25
39
5B
AF
7A
B3
BE
A3
3D
4F
3F
2F
5C
96
75
9C
93
1E
A3
77
78
93
81
A8
B3
B8
A5
57
4F
7E
B3
7F
A9
23
04
48
11
74
D7
1F
6E
51
BB
67
8B
E0
86
FC
32
C1
3A
04
A3
BB
F2
54
F8
26
CD
10
88
7B
5A
17
56
33
D5
7F
71
A7
40
5A
9F
06
CC
6F
56
6E
B1
51
18
7A
68
55
EF
FD
2C
05
56
2A
59
1B
4B
64
E6
69
18
64
6F
93
86
F6
62
78
FB
F8
86
CF
DE
B9
B2
92
C0
FA
3F
07
8C
F7
91
11
B9
7F
EE
24
8F
EC
0D
BC
66
0A
81
AC
2E
86
B5
FE
09
BD
12
EE
BF
3D
CA
DE
A2
48
FF
25
50
83
FB
01
3E
EE
7B
B6
57
87
6A
DF
DC
6D
F2
8E
1F
C0
80
3A
A2
E9
63
4A
4E
F7
DF
84
EC
89
39
69
1D
EA
44
DC
2C
A4
BC
D3
A6
6B
30
93
F2
B7
6E
51
68
06
22
8B
45
A7
E1
B8
BC
6E
FA
70
E3
E8
76
50
43
36
45
43
7E
9D
56
12
9B
E4
C1
F8
34
78
F7
FC
62
1D
73
56
6E
93
D4
1A
59
96
3D
F1
27
A2
34
73
3E
D0
E9
B4
9D
25
7D
A9
16
BC
76
FB
50
02
1D
ED
73
E2
90
73
25
95
1B
2C
55
F5
38
4D
6D
78
DA
43
A5
FB
52
C3
22
8C
EE
97
73
68
BF
56
23
24
BD
23
C8
D1
57
CA
9D
3E
FD
E0
7F
86
81
E5
64
97
0B
84
66
46
1D
1A
CD
DD
54
A4
F4
9D
D9
1A
E6
D2
21
5E
26
D2
BC
4B
5D
32
C8
AE
2C
C0
C2
BF
1B
F2
E3
85
8B
9D
2D
4B
5C
76
72
B7
8D
C2
7E
7F
C4
46
D4
FF
F1
0C
07
F5
BA
FD
D8
8D
AD
A9
50
15
C1
C2
23
B6
CE
17
59
4A
21
82
60
67
99
E7
E9
33
9E
22
30
66
03
27
FE
B7
75
88
AB
65
98
24
9E
78
21
28
63
FF
F4
4A
84
4C
4A
F3
AA
05
AB
A9
70
93
6D
39
E0
FD
0F
AF
04
35
23
AA
69
01
70
D4
CC
CA
FE
CF
F8
47
C7
FC
AB
9D
EE
9A
68
5A
97
37
A6
7F
50
B7
36
B5
77
1D
CF
83
6C
7E
87
C6
F5
94
ED
AE
63
27
66
57
3D
B8
63
5F
19
00
20
92
BD
28
6D
29
E8
EF
05
62
B5
A2
F9
A9
0E
77
BE
32
BF
17
AA
02
E1
CF
EE
D1
24
F2
D9
24
F0
C2
70
15
C8
B8
38
A0
84
BE
10
E5
D6
2B
51
66
C9
9A
BD
61
3D
40
64
B0
6D
F8
DD
56
87
22
51
B5
ED
DA
52
3D
03
5E
E2
22
FE
D5
38
1C
55
F2
82
41
57
49
56
7C
37
22
F4
31
59
87
E8
0D
30
42
52
2F
80
FF
6A
2B
DD
88
09
F1
E4
76
A7
47
FE
57
23
80
EF
08
13
9B
ED
91
37
02
EF
12
48
F7
0D
D5
A3
75
E7
5F
3A
C6
C6
5B
2E
61
24
08
10
2F
E3
A9
61
7D
74
E0
1E
9F
78
9E
CB
08
95
A6
6A
F6
34
F0
1F
E2
67
D9
8E
B8
58
9A
14
D2
E9
D9
4F
2D
7D
3B
8A
39
76
64
6B
B7
A6
B4
B2
0E
1B
6E
C2
76
3A
34
E9
DE
A2
47
3F
BC
4D
77
A9
8F
3E
BC
08
72
C7
38
F2
EE
04
CA
41
2D
42
99
3E
E4
F4
E0
EB
46
99
81
57
22
4D
9D
04
DC
FF
DC
D6
41
30
02
21
38
39
A1
CF
6F
1F
A9
10
21
41
36
AA
E2
48
7E
60
1E
CF
8A
81
0B
CE
D2
A5
C0
BB
88
04
AE
50
0C
E9
1A
64
F1
95
0F
8F
00
25
B3
8D
B0
56
E8
54
C7
F4
FD
D0
2D
23
6C
D5
AA
30
83
D5
38
38
A9
FB
9F
7E
74
B9
B4
0E
5A
21
2B
62
B5
2D
C5
C3
88
14
20
59
98
0C
66
88
57
31
9B
C8
39
48
1F
C9
DB
40
7C
4A
11
54
4A
4A
AB
39
A5
89
59
FE
FE
CD
49
73
2C
56
B0
04
28
4F
2B
D6
BA
E4
E1
BD
0F
1F
ED
D5
B5
27
E5
D1
A7
88
CA
16
ED
2C
CD
E3
FE
F1
F6
39
79
1C
6D
BA
15
6A
A5
17
FF
C1
C0
82
F0
83
50
93
57
29
F0
B3
87
73
D0
8F
79
88
7F
72
1A
75
09
BC
4B
C4
3E
FD
DF
36
5D
EA
92
1D
E9
CD
27
6C
2D
73
33
EE
E0
E6
34
7F
01
59
B6
48
71
0B
AF
BE
93
89
D4
CA
DF
04
CC
23
02
C3
26
CB
23
4A
55
92
04
11
2D
59
13
7D
85
A9
02
D7
F2
8C
02
B3
FE
61
63
8D
7E
A1
45
09
96
8C
E6
AB
61
6A
E3
30
F3
B5
57
2A
9E
5B
7F
DF
10
77
2E
4D
25
DA
65
7C
56
55
24
AD
B1
33
07
C0
1F
D3
65
D2
80
CB
70
1A
23
FD
CF
58
27
34
6A
6D
75
37
80
FB
3A
B3
CD
5F
AF
E3
2C
44
A2
49
C9
39
A1
8B
09
A2
68
ED
55
19
AB
72
E7
28
FA
9A
E8
56
A6
E4
DE
95
94
88
C3
F7
0B
E9
AA
E7
91
4B
56
D5
CC
45
A8
D8
37
82
0B
49
BE
5B
EC
A2
DC
10
07
B5
17
DA
7B
63
B2
24
2C
AD
A6
7D
57
62
87
4B
80
3F
BC
49
99
AA
02
F3
55
29
51
F6
6A
B0
C6
77
D8
CE
8F
37
9E
F0
81
66
37
0F
3F
9C
61
4D
C6
C5
24
EE
8B
6D
CA
A9
95
B1
83
7F
88
73
47
D8
F8
A9
78
0A
22
1B
AB
DC
0E
9B
E2
D0
D3
41
D8
6A
45
21
5E
52
C0
2A
B0
CC
FC
63
56
6A
E7
BF
A7
77
B3
E6
65
60
9F
B2
43
ED
AC
F5
63
65
4A
CB
C6
0F
C4
6E
7E
E4
02
B3
89
25
45
00
45
2A
F3
20
DE
BA
D3
7F
03
01
85
FA
14
41
28
3A
29
A3
42
30
53
52
25
30
D0
11
B7
59
73
9D
A6
48
85
E8
F5
B4
FE
8C
64
1F
0A
76
F4
23
D1
B6
BD
0B
76
4B
A6
2B
48
E8
D7
71
8B
3A
67
E0
1E
8D
36
43
9E
EE
FE
54
AA
F0
95
41
B9
BA
63
AA
31
DE
B7
38
F6
F0
D6
DB
61
E1
23
7F
CF
AE
23
F9
28
B8
B4
BB
6F
48
D5
35
CB
0A
2B
A8
70
37
78
1F
CC
F1
D6
F9
A3
EF
A0
BD
CC
0C
FC
E9
AB
FE
2D
30
7E
BA
D6
6A
41
58
87
94
70
75
1F
D0
0E
6F
5B
88
CC
81
39
2F
21
22
57
8F
D9
D5
59
36
C5
D2
58
A6
D4
B7
6F
B3
2B
10
D4
D9
FC
36
7A
37
A0
DE
95
45
4E
45
81
73
62
6D
24
8E
5B
95
71
52
69
FD
30
56
85
2D
8E
3B
E4
8D
98
51
75
FE
89
27
27
37
3A
05
05
25
A2
9C
4A
70
72
99
0D
66
62
0E
D4
1F
F6
F8
7A
77
DA
B3
D3
B1
E1
C2
04
E0
0C
E5
2C
B9
27
3E
BA
C4
ED
57
C8
F4
53
B7
DD
AD
C8
69
E9
35
1C
4C
2A
6D
30
97
E5
29
EF
C0
B4
A3
8E
AA
FA
D8
DC
DA
9A
B2
78
8B
77
9D
96
55
C4
BC
BA
B0
44
50
8F
00
2F
BA
FD
CE
F7
9F
15
4E
F8
94
73
FD
E7
00
B3
34
CE
8D
8A
64
6E
86
5D
9E
48
A9
AD
95
6E
37
42
4A
18
C3
4D
60
87
54
3A
09
4D
E6
E8
3C
E6
8A
05
88
FE
52
61
FF
9F
66
EB
DF
DE
D9
8D
03
3C
F4
8A
73
56
20
90
10
EB
07
55
60
00
5E
42
95
6E
3E
B3
2D
9E
74
B8
B5
C6
7B
2B
63
8E
09
95
BA
E9
1A
B7
54
45
56
0C
B4
8F
45
B3
FE
CD
B9
E1
C9
6B
D9
CC
07
50
C0
A1
BE
C9
2A
25
3D
5C
28
C5
8B
69
AB
91
11
47
60
59
78
38
C4
7F
DB
0A
B6
63
B8
FA
C9
D4
6A
91
E6
79
BB
AC
55
D8
CB
93
FE
21
55
CF
02
31
B1
5A
A6
C1
00
56
7A
93
ED
8D
79
76
50
CB
69
15
06
6C
9A
E4
88
1A
8D
14
35
CC
28
AF
86
CF
6B
B8
B3
60
F0
3E
61
D7
39
D1
95
CB
55
AD
EE
08
41
D5
B1
0C
61
F2
79
AC
A3
52
93
07
C1
98
23
71
CE
BD
94
37
DB
8C
31
F7
2B
BD
EE
D1
BD
36
18
DA
CE
D9
EB
E8
EE
AD
44
60
26
BA
09
06
90
02
4E
4C
2E
E6
69
7F
BC
8B
55
8E
C1
B4
82
E1
7F
0F
D6
B7
A0
9F
5B
67
6A
F6
C3
53
DC
AF
0C
B7
19
01
7F
24
8B
E8
78
3F
CE
C0
71
E8
3C
C7
F9
10
F6
CA
60
5C
70
7C
12
14
FB
78
03
4D
D6
11
D1
DC
39
73
EB
68
49
16
32
6E
60
9F
4A
55
D5
A8
93
33
91
86
D7
A0
71
14
63
4C
50
A7
BD
E9
9A
58
59
5E
02
4A
1D
0B
6D
D3
DE
5F
ED
2F
50
2D
A4
35
F9
45
45
12
7C
CA
9D
FC
62
7D
ED
1C
43
D6
18
F4
A3
46
AB
F0
66
B8
21
71
8E
13
53
4D
48
43
22
B1
13
54
7D
BE
A2
2B
85
89
0A
1D
45
54
5C
98
DD
FD
C5
1E
E7
A6
58
7E
32
00
65
81
BD
85
45
D3
2D
BD
4E
ED
C9
30
CD
5F
80
44
5E
7F
32
7F
EF
11
61
02
7E
36
FB
B9
76
03
5F
CA
69
95
4F
B6
C3
77
E5
AD
74
4D
F5
3A
18
4D
7A
7D
5E
E4
27
04
98
5C
B9
7A
F8
F2
ED
74
03
21
73
A1
CD
AF
68
92
42
7E
BE
95
BC
C5
1E
62
AA
6A
B9
23
69
CB
7E
EB
2B
97
87
AB
E1
2C
88
3C
33
7A
15
E5
17
5C
C7
CC
0F
89
13
B7
24
AD
D1
54
BF
A3
22
3D
F4
61
86
AC
72
32
25
26
91
9F
AB
50
E3
9F
39
D2
28
F2
04
BD
5C
8E
36
FB
F2
88
00
6D
6F
39
54
8F
F9
A3
23
B3
7E
95
87
A9
E1
0C
9B
64
DC
A8
20
12
3D
6B
BA
CC
4A
CD
61
4B
47
99
51
34
0D
77
5F
2F
68
7F
9D
8F
A0
BC
6D
4E
94
2B
22
61
D3
D8
99
FF
FD
55
E2
66
8E
1D
2B
C5
F4
4C
DA
0A
52
F1
C4
CF
EB
DF
70
66
A1
A4
CF
DA
16
39
63
B2
FD
52
A7
D5
C1
A2
66
F4
92
79
F8
78
E0
FB
05
B2
50
B0
CE
51
55
BA
96
5D
3E
F3
00
36
38
DC
C8
8B
FF
86
DC
99
BF
22
40
B5
D9
A6
24
41
17
05
5D
8C
47
4D
15
DC
F0
DB
AA
2F
43
40
B4
F4
27
6D
54
BD
CD
54
33
21
75
9A
69
06
FE
D5
A3
98
FB
8A
C5
31
77
08
00
FC
FC
89
13
2E
3A
B5
4C
A7
C6
2A
CC
F7
3A
77
0E
D5
D6
31
3D
1F
CC
70
80
98
F7
AD
63
E2
9A
3E
05
6C
ED
B0
85
3D
A2
FD
82
42
9F
E6
50
BF
31
DE
DB
0F
BC
DF
B5
66
21
9E
BD
01
98
BE
5B
B9
02
87
AC
A9
81
FF
B1
4A
EA
A7
02
7E
E1
BB
9B
E0
5A
B2
36
EF
BC
84
B7
0A
C2
9E
E9
1C
DC
86
D7
6B
E2
FD
9E
8D
18
AC
93
3B
99
2E
88
94
93
8D
1C
9C
6C
18
37
5B
54
54
24
E6
09
AE
C9
6D
83
5C
08
4E
56
AD
4D
EB
9C
AC
2D
56
52
9E
A0
83
D8
33
16
FC
90
7E
23
29
08
03
E7
99
C3
75
D0
FA
29
E8
B7
0A
B6
2D
DE
E3
EB
9C
10
B3
DE
B0
0D
9F
F7
C0
1C
FE
0B
5F
2E
30
0E
00
81
E1
9A
43
07
F0
54
FE
C7
62
30
D3
A9
7D
02
BA
4A
F8
F8
E7
1C
E8
C1
FD
8A
BB
68
A4
A1
93
AE
4D
FC
B4
9F
79
11
97
90
B3
4E
01
5A
F7
B4
10
B1
76
79
5D
38
4D
AF
AC
89
F5
9E
18
B0
FF
B1
24
3D
81
4A
73
F0
14
04
1C
C1
1C
13
3A
0F
4B
E4
84
C8
51
F5
42
D3
A5
F9
AC
DA
E8
9F
72
57
9F
5E
3E
F4
A8
D6
F4
1E
15
E3
5E
BF
E3
21
99
B6
A9
F9
F6
0D
8B
B8
1C
15
38
AD
55
05
D4
F1
4C
BA
07
2A
68
BD
9B
6C
90
6F
38
5B
59
0E
B4
44
2C
2A
D5
BE
E1
50
F3
BF
3D
28
CF
5F
DB
22
CB
30
8A
BF
F0
D2
09
F8
10
DE
09
D4
14
35
FF
50
32
22
85
AF
86
1B
1E
0E
BC
4F
89
B8
D3
7A
19
F3
E3
0B
20
D9
F3
AB
D6
9B
35
AE
B5
6D
A8
71
3E
09
3B
47
ED
2A
2B
26
57
D5
4C
C5
94
60
E8
1E
0C
27
1C
7C
B2
FA
AA
76
6C
CD
A4
2B
D0
72
3C
F0
4D
9A
BA
0F
84
EC
3C
6C
57
2D
47
63
E6
B3
13
44
AA
C0
AB
D3
DC
BC
37
70
5A
74
AF
C2
B1
30
49
95
5A
A3
8E
23
65
5E
F8
7A
98
DE
CB
A0
7D
BB
B7
E5
A2
42
B7
14
D3
A7
2D
4C
B0
5D
B8
D1
D3
DC
2C
34
4D
FF
CF
FD
C1
35
29
CA
13
82
BD
2D
91
BF
07
08
FA
8E
53
EF
18
0A
0D
80
12
49
E4
B8
BF
4C
19
C3
80
6A
65
08
68
A1
F4
B1
65
80
28
35
E4
FA
EC
6E
29
42
1C
94
47
FD
BE
1A
F7
3C
0C
07
6C
70
61
31
B8
99
D5
D3
C1
C3
EC
C7
03
2F
D9
35
BA
99
E1
67
AF
8D
BA
51
87
B5
2E
71
CA
B4
D7
EC
60
BB
F7
02
C1
32
14
0F
1D
8C
5E
DD
F1
BE
0B
3A
5E
D0
69
46
14
5C
17
5C
A1
95
14
C7
14
FE
03
F2
C1
19
18
C7
A4
FA
07
78
3C
FD
A3
B2
70
CC
21
47
C9
4D
71
8C
BC
57
31
02
D5
F6
ED
00
ED
EF
5A
17
E9
4A
1B
FB
AF
FF
3D
2C
68
DA
5C
E3
57
76
7E
B4
88
B0
DC
BA
55
9D
C9
D6
5B
5B
2B
5D
88
01
9F
08
21
F0
07
FE
24
0B
B5
15
49
95
90
2D
27
80
8B
53
6B
D4
7C
FE
FB
9B
59
4A
04
CC
F3
FC
F8
4F
C2
D4
DF
0B
69
92
60
19
CA
15
D4
44
CD
FC
42
C8
46
20
E3
78
99
DB
33
6B
64
6B
DA
EE
A0
ED
1A
A6
AB
75
FD
0F
EF
95
73
A6
1F
58
86
2F
A5
9E
FD
8B
D3
C4
E0
9F
09
7E
B1
2D
4E
53
17
A7
CE
81
B7
9D
C5
B2
FA
29
F6
18
74
52
D8
CE
C3
F2
80
30
B2
D1
C5
16
45
2D
4C
59
75
31
4A
14
AE
2E
D7
B3
88
4A
D3
3F
B3
A2
59
E4
B7
70
18
0B
E5
6B
33
80
71
BD
33
B3
A8
06
0B
1C
83
B8
2D
78
A6
EB
88
D6
4C
56
2C
7F
3C
13
23
A5
C0
82
88
68
04
28
60
CC
F6
3B
A7
9B
A8
E5
A1
A8
36
C5
57
D4
7A
46
34
94
5B
32
6C
68
53
D1
2C
B8
C0
D1
7D
EF
B3
2B
C6
E1
A1
76
A8
1F
0F
8A
5E
54
D1
9F
EB
0C
5D
41
64
FA
5E
EB
06
50
6C
F5
84
19
4A
6B
B3
A7
3E
7B
7C
5C
22
AA
D0
7C
59
21
CA
FE
D1
70
A4
B2
DA
69
3B
37
4E
F6
23
D5
2B
B5
DA
23
F9
80
00
C2
B5
7C
F9
25
BA
E2
80
BE
CB
54
CD
C2
D7
81
F4
79
36
1B
BB
59
1B
AB
DB
71
A5
75
28
2B
DA
62
C0
4D
EE
18
87
E3
E4
EA
EC
23
F2
5E
28
00
9E
A5
AE
DF
C0
1D
7A
F9
18
05
6A
D7
18
AD
59
0F
01
04
A3
57
C9
C5
5C
F8
19
AD
67
0C
55
3E
6C
B9
40
1D
F0
94
20
13
03
8D
56
B7
A9
FC
D6
58
01
B1
6F
52
F9
BC
7E
8F
DD
A3
F6
89
2E
97
97
C4
93
73
A5
2C
1D
50
24
67
51
64
08
3F
1D
99
AE
5D
6D
D7
D9
6F
62
C1
88
E8
00
BD
5C
AA
39
A5
1E
73
42
07
DE
27
16
E2
7C
72
FA
2B
02
48
AC
B3
F5
68
E7
7C
FB
34
95
F5
FB
5C
30
39
D8
DC
76
D9
7D
BA
FC
C0
E3
A5
AF
E7
22
48
3E
56
EF
77
2F
73
F7
60
2B
DC
6A
F2
32
2E
44
48
BD
1C
5F
BC
EF
6A
00
92
CE
5E
A6
EE
7C
33
DC
F5
28
DA
FB
98
CF
5D
EA
63
9A
B2
57
23
DF
31
DC
F7
61
CA
E8
AC
38
F8
1C
A8
A9
EC
94
33
0B
53
A2
CB
D1
65
91
58
51
B3
3F
55
3B
52
76
82
3F
BA
73
39
03
23
49
28
E1
D5
A9
93
A6
ED
51
05
92
DD
A1
FD
6A
E7
BB
53
BD
FE
CE
B5
AC
5B
06
D3
3C
F4
7E
AE
F3
F0
EF
03
9E
E9
39
73
B0
DC
03
1C
9E
EA
25
E1
29
0A
8E
CE
AF
7B
6C
B2
13
4C
4C
4E
6F
24
C5
AC
D3
C2
2E
F0
5F
6A
E3
4A
13
AE
57
61
0F
04
2E
F5
FA
C9
F4
CB
38
6C
19
40
12
0D
40
42
DE
5A
10
86
0C
2C
D4
0F
F6
1E
ED
56
13
8E
AD
E1
6A
49
47
2E
4B
4D
63
ED
B0
4D
E3
24
EE
04
46
B5
99
D5
FA
4A
22
2A
23
C5
A8
F4
60
B0
89
1D
D3
01
4B
51
8B
F9
F5
93
FA
C0
17
B5
6F
DA
C8
DC
E1
78
F7
A3
D0
37
44
13
EA
73
9E
DC
12
14
B5
05
42
8A
39
4D
CA
AF
61
08
6E
45
3B
57
B0
07
6C
F7
3F
B2
0A
78
EF
DB
48
B6
AB
4B
D5
18
57
D3
27
D8
00
8F
B6
F1
2F
CB
AE
A9
0D
23
DB
6B
6B
8D
BC
C1
D1
AC
CF
86
39
F9
49
76
8A
30
21
80
57
75
3D
40
A0
2B
4E
64
8D
FC
D1
6B
37
06
AC
54
C2
E1
5E
5A
2D
1F
04
0E
65
20
32
B9
89
3B
60
01
18
E5
39
44
E9
38
7A
C8
0B
4E
5C
46
E2
53
02
10
AC
C4
16
3C
EE
0D
09
B5
0D
00
2E
23
69
EF
1F
EF
9D
46
78
4F
82
1E
2F
AC
29
C2
9A
E7
B3
B3
FC
C0
EB
F8
23
8E
FA
88
57
34
C4
2B
35
91
83
8D
13
02
9C
75
82
26
03
1B
C4
C0
50
96
82
55
43
3E
A7
23
DB
F3
FA
4C
A6
C7
3B
6F
09
74
C5
27
B4
76
CE
21
FC
EE
7A
65
02
75
C5
86
6A
FA
16
E0
C0
8B
BB
CA
0E
F1
1D
E7
0D
6F
A6
CC
AC
BF
A7
EC
5E
CE
2F
A6
50
20
D4
24
AB
BF
2C
C3
37
9A
24
30
27
51
95
21
E7
C0
33
8C
E4
CF
01
B7
74
F4
0D
64
C3
84
11
62
28
C7
71
5C
B3
A0
B1
A4
F7
89
0E
B3
BD
DD
24
9B
85
34
81
B1
DA
79
76
A0
01
75
6A
47
9A
C1
53
AF
67
A3
49
55
CA
A0
44
EE
18
53
1F
28
3F
6D
C1
EF
D9
74
EB
12
FF
C9
F0
BA
71
04
38
B5
EB
1A
F5
C8
07
E1
3C
D9
CA
94
04
6B
E6
08
54
93
E1
0B
91
3E
C7
68
2F
B3
FA
27
27
31
CF
82
43
C8
4F
99
5F
63
F0
F8
E3
4F
BF
4E
37
E0
66
EF
83
8F
31
43
90
DA
77
A5
33
D8
B1
F4
7C
8A
84
95
BE
FD
AB
5D
A9
9B
D6
5D
A0
E5
92
90
D5
B3
84
0A
11
87
C4
88
9A
75
88
44
7F
70
E0
0F
CE
5B
04
D9
BC
55
9D
AC
18
F8
F4
A5
3C
80
4D
83
89
3B
7E
D0
4F
8D
A4
61
83
E1
43
D6
7F
7A
E6
10
9E
D2
EC
0F
FA
F6
02
4B
FC
FF
4E
56
1F
13
54
E2
97
82
0D
AD
3A
59
78
2C
91
FF
63
DA
DF
3F
26
38
74
B7
2A
CD
5B
26
8E
34
CA
C4
11
6C
C7
C8
0B
E4
C0
4A
9E
EE
75
E7
32
B3
81
CB
FB
4C
94
77
C0
E1
F0
DF
32
60
7B
4A
EB
E9
73
98
71
2E
D2
47
8F
ED
A9
76
17
3A
DD
DB
57
7C
F4
05
3B
02
7E
CE
E9
79
67
3F
F9
4E
98
49
34
D4
34
62
7B
4E
88
25
F9
54
A9
F0
38
11
F3
A0
AF
05
1B
8F
29
57
A4
4F
E0
54
3C
74
27
4D
3A
BC
62
B7
9F
D7
8E
CC
A8
2B
A5
1F
4A
C8
FF
27
F8
65
E7
C8
71
01
9F
B9
D4
EC
C2
D0
7D
C8
46
21
97
64
D5
19
40
2E
09
7F
CF
FE
0B
19
73
A8
83
BC
57
5A
E5
32
09
AE
40
9B
DF
55
3C
5B
5B
33
58
A5
31
3A
61
88
60
B6
D4
34
FB
7A
4C
7C
3E
AA
D0
D3
E5
3F
69
DA
55
C6
BD
F3
C0
50
69
24
62
C1
84
27
F8
01
A3
BF
19
9D
52
CB
96
1F
47
97
88
4D
52
EE
C4
BD
A6
B9
36
18
C2
3E
87
92
31
2E
EB
5B
37
B0
73
E2
E3
6F
37
5C
D4
C7
B6
63
9E
6E
F2
CA
CC
06
ED
26
21
FB
2A
E3
9E
97
4A
67
E4
04
37
20
17
A2
A3
30
E8
D0
91
5F
F4
A2
1E
4F
DC
18
E8
09
88
15
07
A8
93
14
63
5A
8D
05
F2
5F
03
54
92
80
2F
4B
95
75
65
B3
41
E8
9A
5B
8A
A8
AE
AD
C2
10
06
25
20
C9
BC
A0
C9
41
74
82
34
FB
48
C6
AC
71
40
3A
C2
20
7D
3B
7A
76
68
56
26
A1
43
A2
F8
7E
F6
4A
A4
6D
56
A3
61
DA
A3
C5
31
88
82
A7
1B
FF
87
E0
0D
1D
2E
98
33
B3
68
4C
79
B9
B5
38
5B
16
6C
60
1D
7E
0F
EA
9D
C0
B5
D0
78
70
DB
F9
9A
5A
54
C2
41
8A
6E
B0
64
80
73
B5
4C
35
AF
71
26
25
36
B5
A9
55
85
89
1B
EB
13
4C
53
3C
BE
1B
3E
5B
C0
EF
66
83
07
5D
36
58
27
CF
F1
F0
E3
F9
91
28
41
36
A1
86
37
8C
B8
C2
82
A9
6F
49
85
8F
AC
14
A7
27
50
06
38
F4
A5
E7
DF
93
96
1B
E8
E2
1E
4C
02
4A
88
65
97
91
22
6B
F1
1A
98
95
DC
44
A6
BA
69
9A
9D
37
EF
1D
04
51
61
E2
9B
42
18
DD
74
9E
05
24
06
1E
8B
EB
69
17
29
E6
F5
74
89
7E
77
63
B8
20
A9
55
34
18
29
B3
EB
BD
38
8B
31
9B
E5
4E
56
FD
52
F3
11
5E
BF
69
FB
17
7B
8E
69
28
D8
A0
71
36
3E
FB
4C
EB
11
92
AB
76
74
88
4C
3D
EE
28
D3
BC
59
AE
0E
B6
AC
4B
DD
E5
13
B5
EB
6D
01
EC
A6
BA
3F
9F
F2
D3
1D
BB
6E
C5
95
EA
69
B3
FB
32
BF
73
69
6A
87
1F
76
B9
16
5B
21
C1
19
73
7C
D4
FC
81
A2
80
81
42
7D
53
47
A6
C4
78
AD
B6
38
7F
99
80
0E
BA
70
8B
26
FD
52
CA
CE
1D
16
57
1B
06
36
28
0B
80
57
54
C2
90
6C
65
09
05
4F
1D
63
C3
06
11
06
07
BD
36
AA
56
E3
AB
50
B9
A5
B6
13
D9
CC
C1
2E
B3
22
9C
F0
C2
D9
AA
ED
55
08
5B
F4
0C
85
F4
1B
AC
0B
D6
CB
EC
A0
EE
11
7B
02
7C
38
F9
39
45
6C
09
60
CB
B2
93
40
3E
24
6C
FB
C7
CB
93
7B
06
87
75
16
D9
FD
4E
A8
80
67
A3
8A
D9
68
5A
72
DC
FB
0B
D7
AD
F2
5C
52
28
D2
37
DA
BF
63
C8
E7
97
C5
63
E3
C6
F6
E6
69
B8
DB
07
4E
2B
2B
B8
20
5E
40
D8
DC
4C
B1
2C
F4
B3
92
74
AF
1A
30
62
5A
D6
42
A4
7A
30
E3
C3
B0
02
5A
D5
3D
C7
2D
E8
37
BC
45
D4
75
F2
9D
0D
8F
99
A4
5F
73
AC
5A
2F
47
D8
C5
05
D4
E2
6C
AA
7B
23
68
EB
66
51
D0
20
9E
CE
2E
0F
86
D8
DD
63
24
24
CE
AC
BA
56
7C
D1
BA
95
52
1C
E8
E4
1D
B1
58
45
67
BB
4C
CC
C8
1D
71
3D
7A
06
CD
FB
A1
71
AD
7F
ED
24
C8
D3
59
61
E0
C1
6D
11
F1
65
64
51
2D
A5
3C
30
2E
1C
7F
69
12
FD
A2
5C
D0
DF
E9
C6
7A
1E
41
92
39
92
0C
38
C5
B8
3B
2A
AF
DB
6A
4C
33
0E
6A
E1
1A
63
08
05
82
5B
94
37
69
07
A8
B7
EF
57
6B
2C
6B
0D
40
33
97
41
D3
C9
A5
AB
B0
8A
4B
88
44
6B
4D
1D
0B
C1
5E
3E
EA
98
D6
BE
94
33
19
5E
3C
97
60
6B
6F
E6
07
DC
26
D7
27
90
D6
18
DF
52
C7
51
1C
CD
15
D5
67
FC
59
4A
C9
40
52
C9
AA
46
38
FB
B3
69
CE
42
2B
E7
A4
44
C4
BA
28
14
68
6E
D4
14
1E
EB
72
C8
53
E8
CC
15
51
4A
86
4C
42
6D
58
C5
6A
9F
20
58
36
C5
02
C2
82
F3
26
3E
66
66
5F
2D
1B
A6
E8
8A
F3
9E
A3
D3
8D
E4
F4
53
2E
0D
A7
22
92
F0
F3
11
58
99
F1
65
E9
ED
16
15
E2
50
C1
8D
2B
C2
DF
AE
0C
FF
2D
21
56
8D
05
EE
84
CF
46
CB
C4
18
37
F3
5E
14
14
45
03
39
60
CA
C1
32
4F
F4
79
41
C2
05
B7
9D
19
B3
83
08
FE
D8
E8
4C
98
A6
17
1A
4E
D7
80
36
D5
2C
75
4B
6A
C8
0E
5B
64
CC
3A
17
70
52
30
1B
6F
A5
66
2B
BF
E6
F1
8D
D3
4F
EE
0D
B4
2A
73
48
31
E2
A1
6A
1C
5C
F4
DD
64
81
42
D2
92
79
62
08
67
36
EF
CF
5E
54
D7
59
39
E6
A6
E7
8D
9C
B2
8C
EA
9B
DF
BE
7C
B0
33
3C
8E
BF
93
3E
3E
A4
AE
0E
00
D3
CF
B3
73
75
8C
12
CB
78
FA
C0
3F
69
C9
28
8A
18
09
8B
AE
A4
9A
45
08
3F
98
CE
EB
05
AB
B4
60
7A
3E
12
B5
54
82
79
75
8A
43
98
9A
BF
6D
08
E1
4A
DA
7A
F0
41
B0
27
80
5C
22
CE
09
56
30
5E
8C
06
C2
20
9C
42
76
6B
6E
86
6E
36
04
55
2A
10
CA
6F
06
8F
34
BC
FD
1E
5A
0C
7C
F2
F9
FC
1E
43
A6
96
4C
15
F8
FE
2E
D6
E3
F4
4D
BE
B3
11
8E
35
DA
0A
95
34
EA
36
0F
3A
66
B2
FE
1A
2D
2E
99
7E
C9
F7
A1
3C
65
9B
29
B3
30
0E
1F
5E
90
2D
36
87
1A
FA
69
95
BD
8E
EE
56
0A
D5
E4
A0
D2
B7
86
5C
7B
36
2A
AB
EC
55
4F
26
AB
F0
47
B3
6B
97
CC
4F
DA
86
7C
51
FC
57
46
C2
23
E3
7F
E4
78
B5
C7
7F
8F
BA
A9
07
3B
B1
08
E4
D6
F1
3C
30
60
26
02
2B
B3
BF
F4
11
15
9C
42
71
CD
D8
E9
AB
4C
94
9C
B3
D5
EC
0E
46
C6
A5
B4
45
78
B9
FB
32
25
06
50
44
40
06
0D
7B
B2
BA
08
1B
E0
E5
79
9E
55
23
97
E4
7E
E9
86
9E
96
D8
2A
2C
7E
35
B5
8E
0E
3F
5A
F8
6B
D1
F2
FD
4E
09
E7
72
1E
09
37
DC
9B
4B
56
FB
42
F1
25
3D
A9
99
54
0A
98
3A
3B
C2
20
03
2D
91
60
76
BD
91
96
D1
DA
B0
5B
89
0D
12
34
73
2F
84
8F
58
B1
0C
A4
41
F2
91
84
D5
B3
CC
EA
98
D4
89
8A
82
84
8B
0B
D3
42
26
14
59
42
92
91
19
2B
88
8D
BA
15
56
20
CD
AE
8A
94
4A
2B
EE
99
65
07
5B
D8
F5
9D
B6
E7
09
84
9B
98
7F
82
ED
22
8C
72
69
3E
94
69
19
71
D4
51
C1
74
49
6F
95
76
23
C8
09
7C
FC
34
A3
93
24
8C
02
3E
19
41
20
C1
AE
1F
86
68
D2
A4
58
75
B8
3D
FD
FE
6A
FD
36
FE
BD
09
72
F2
80
05
FC
8B
83
0A
03
1F
42
1D
8B
6A
DA
2D
51
60
F0
B4
50
2F
C1
9D
77
DE
73
1C
AA
E0
67
B0
E6
FD
1C
D8
A8
77
5D
0C
1F
BA
A4
EA
58
13
D5
A4
EC
68
BA
71
FE
64
E3
AD
F0
24
1B
18
CF
27
C6
15
A4
76
40
7B
66
BC
93
A5
39
37
A6
F9
A8
0D
B7
65
89
A3
EC
E5
B5
CB
00
10
D1
59
3D
7F
2C
21
F8
A8
5B
05
0A
CF
E0
2D
82
C2
E7
CC
36
77
D3
76
8E
40
16
95
E9
73
C1
62
A1
A3
4E
52
4C
01
39
E4
37
42
FE
96
44
E1
22
71
C8
78
95
3F
66
38
2E
5F
A2
20
97
AB
14
D0
17
0A
20
68
3D
43
E6
B6
F0
3C
E1
88
DB
4B
8A
FB
D9
37
4E
D8
6D
B2
52
3D
17
3E
50
25
CB
E6
7C
8F
AD
1D
FF
88
CF
09
D0
DE
3E
F2
71
C3
2C
D7
0B
6C
04
96
2B
75
80
00
36
DA
4A
2F
36
4D
62
83
CF
A5
70
76
F7
A3
27
9B
38
21
05
AB
E8
96
1F
EC
50
DF
52
74
84
B9
0B
42
4F
4A
B3
EF
E0
B3
B3
81
49
7A
3A
68
06
3B
C8
39
F2
21
7C
05
EF
AC
78
A9
80
38
E3
10
07
5D
90
A4
A1
44
07
AB
27
12
43
16
84
1F
C9
27
29
FD
B6
D4
CC
46
62
AB
2E
7E
95
9E
CC
88
8A
4B
76
DF
E1
DC
68
1A
3B
E9
88
03
BF
7B
F7
35
94
8C
F3
D8
04
D9
21
0F
BB
E0
51
52
CF
7B
FD
97
33
61
F4
F1
06
13
77
E0
57
AE
2E
58
D0
FD
BF
3F
91
09
93
BD
FC
C0
28
B2
6A
33
DB
1A
7B
3E
11
0C
4B
9C
F6
15
3A
B5
C9
A1
73
7D
42
73
02
55
B0
73
4A
31
9A
79
26
40
96
47
4D
2B
DC
F7
80
07
7D
52
9C
F8
68
7C
CE
08
F3
20
7A
16
30
19
DF
FB
9A
54
AD
D3
D8
FD
AE
A1
CB
62
D6
0F
E6
39
16
F6
2C
66
F1
D5
B7
C8
FD
FC
F5
BE
26
ED
34
42
BF
BD
02
4E
A0
FF
4B
2C
6D
D6
22
18
95
40
0A
4D
D0
CD
1F
F0
DD
B3
B6
AC
96
70
0A
59
E5
96
F6
4F
9A
25
4C
B0
C2
79
43
A7
F8
A7
2F
70
98
71
B9
16
CD
07
E3
02
33
1F
4F
1C
43
27
C6
D1
46
C1
26
D7
2C
AF
F1
4E
9A
0C
6D
1C
2C
7A
08
AC
23
1A
5C
5A
74
AD
46
18
2F
46
EA
78
63
02
A0
53
E9
54
33
E8
73
3C
DD
D0
F4
47
F4
0C
10
C0
0F
57
01
90
50
BB
33
99
9D
CB
DC
1C
05
29
CC
47
A8
21
F0
A5
27
F2
C1
B2
DC
96
86
2A
14
B0
64
C7
24
EB
72
07
6B
F5
63
98
71
36
EB
E9
3C
42
E2
69
B1
ED
01
F5
75
8F
2E
7B
14
2A
D7
36
69
72
5B
AC
68
EC
4B
DA
29
73
C3
D5
34
23
A4
42
1B
18
93
38
1B
BD
52
30
7E
6D
0F
F4
B4
DF
85
35
E4
06
03
AE
DF
ED
CE
BF
FE
E5
04
65
A4
67
2E
F0
75
EE
A7
17
92
F6
A9
3D
7A
5B
9F
20
67
F9
E5
62
1A
65
0B
27
53
AB
E6
9C
50
C8
21
07
1C
E5
E4
CA
99
F9
B8
0F
05
BA
84
7A
47
41
4F
A0
11
88
C4
3F
19
DF
FD
FE
44
65
72
8A
FE
FE
4F
9C
44
CD
75
30
95
EF
55
6C
AC
AA
48
57
78
62
6B
C1
AA
04
49
04
48
E1
D3
D7
DA
AE
09
B4
A5
AA
8E
2B
86
0E
88
EE
74
74
DB
86
F4
0A
4F
DE
73
5D
6D
DD
37
0C
30
FF
49
B8
9B
45
92
28
1F
44
BB
2E
01
4E
EA
D4
58
9A
19
57
93
62
8E
25
E6
35
22
9D
14
C8
E4
32
84
7D
59
69
31
16
5B
93
8E
B9
AC
5E
FF
90
6E
E8
0D
74
36
1E
A3
56
A6
14
85
2D
85
87
DE
66
9A
E8
AA
2E
DD
AC
0E
DC
45
95
26
3A
99
72
62
66
2E
CA
FB
AC
ED
C8
DC
6D
F1
44
EA
3D
2C
29
69
E7
0B
A0
6F
29
32
24
7A
8B
9A
63
D2
01
A8
7B
5A
27
B0
84
03
65
1C
38
FC
3E
21
3F
99
A0
B2
22
8A
6C
0B
80
E4
AD
3B
F2
F0
09
E3
CA
25
E8
51
77
60
8A
3B
96
1D
0F
CC
A7
45
07
01
F2
FF
2E
EC
D5
49
74
0B
72
D3
AD
22
F8
A2
03
05
8A
B2
AB
A9
A0
9A
5B
A2
23
66
10
CE
B8
8D
51
51
9D
DA
F4
E8
66
30
04
DA
3A
EC
47
30
71
43
7D
20
7F
BB
B4
8C
03
4A
04
8A
E9
65
22
8C
C1
DD
16
B0
62
95
95
C2
3C
D1
6F
6D
38
19
74
A0
7C
34
BA
07
74
28
41
2B
7C
25
A3
22
75
C8
42
DA
25
1A
1B
38
81
07
EB
B8
50
11
D6
1B
98
0C
C8
11
10
FC
D2
D3
0D
82
96
F1
B0
CF
8C
CE
A7
2B
ED
65
55
04
C8
30
30
4B
44
36
B2
01
E7
D0
19
66
1D
93
9E
B0
B7
87
B2
85
3B
96
AF
4F
56
BB
95
48
60
EE
54
19
94
B3
C9
7B
6F
C3
C9
76
4C
2F
E5
5E
29
90
D2
04
68
74
BE
14
2F
F7
C4
6C
68
0F
FC
DD
CB
E6
D1
3C
95
98
07
48
FE
F5
CE
43
F7
E2
FF
9B
C3
6F
46
49
48
6D
DE
91
5E
A4
C5
4E
31
98
FC
32
BE
7E
21
05
AF
56
AB
07
41
F7
F8
91
6D
DB
5F
DB
B6
85
42
8C
23
9A
68
7F
CA
4B
9B
A6
1C
8B
1A
6A
E3
3D
F0
28
61
1A
4E
C3
AE
5C
AC
FE
78
1A
7D
08
31
58
C5
22
08
26
E5
C3
4B
1E
C2
CF
54
9E
AE
68
BD
89
69
38
04
36
37
8D
06
B4
64
70
AB
DB
9F
C0
24
EC
FE
52
7C
C7
FB
8B
F5
0C
C6
4E
F2
4D
D0
0F
02
12
8C
7C
8E
96
85
BA
52
42
58
3D
70
AF
4D
C9
02
C3
FE
8B
53
A1
3E
76
4E
B5
2C
40
65
32
66
70
CA
1C
11
F9
8D
31
7E
40
03
00
4A
3D
A2
D9
E7
A4
87
47
BE
C3
D4
FF
C9
E1
A2
62
3F
78
43
91
ED
A7
23
0E
B5
09
4D
8C
75
C5
AB
92
17
27
3F
7E
63
D6
C2
2E
B6
ED
F8
95
E4
39
13
34
FE
D1
47
4F
F0
66
FD
EC
E6
24
B8
0C
9B
6F
FF
AE
11
0D
36
18
14
8F
F2
F7
17
27
0D
33
97
0C
80
5E
7C
95
38
DA
A1
96
53
81
31
A2
0D
58
A9
16
32
84
00
61
5B
5D
7B
CE
66
47
E8
47
EC
9B
88
F6
39
10
F8
34
78
A5
2D
4A
76
EC
59
70
7A
87
B1
81
08
8F
C6
05
56
6B
BC
D2
CF
91
3A
02
2F
2A
8D
50
9A
79
3A
CC
67
1E
64
28
C7
92
C5
87
9B
33
33
BD
B7
7D
FD
C7
D1
D3
C7
B2
A1
4A
2A
1D
01
F2
E7
91
F6
9B
B9
D0
17
9C
C6
F1
49
90
38
EC
30
E5
82
F4
27
2B
8B
88
FA
80
8E
DC
07
EC
FD
1A
44
5D
03
4B
42
48
8D
1F
E0
94
B1
39
9D
F1
B5
31
33
1A
F3
D5
26
2B
6D
2F
46
96
BF
A6
EC
01
E3
F1
FE
83
68
65
54
1C
E0
CC
E5
CC
E5
68
0C
BE
71
51
58
FA
73
DA
76
2D
0B
D1
81
92
CA
29
FD
A5
AA
C5
C1
3D
A8
F1
C1
A3
F2
5A
CE
65
1A
A2
0E
19
AD
07
BA
6B
96
CA
11
1D
3D
02
44
1C
F1
5E
59
0D
5C
53
1D
D7
3E
96
4D
08
9F
0B
84
60
FF
BF
A7
15
00
1F
94
AD
64
6F
BF
F2
22
41
6A
65
E9
7C
07
5B
D4
2D
05
2F
03
95
59
CE
0F
25
C3
70
3B
10
39
CF
1B
43
B3
CA
F9
DC
9D
F7
A4
BC
E2
9A
DE
DD
B8
8B
C6
71
1A
FD
0A
48
5A
87
C7
A9
AB
0C
3C
E1
6A
4A
C3
ED
44
16
C5
BE
67
C5
58
00
8A
6E
B2
7B
FD
1A
85
F3
2A
10
07
59
F3
B3
75
47
7D
B2
3D
66
22
1D
9A
49
8A
AD
CF
88
E5
F3
20
A1
E5
F4
9A
69
35
F9
60
5C
31
BD
94
6B
F5
E5
98
14
BC
E4
FF
33
84
6D
21
B6
E4
2A
33
B5
72
6C
E5
2E
64
31
0E
9C
99
50
EB
ED
60
41
ED
FD
A0
A2
E4
FC
96
94
28
24
B9
AB
64
2E
C6
F4
1D
1D
DF
93
F1
C0
88
23
14
84
0F
25
E8
FD
C8
DD
E8
26
AB
07
8F
F4
EA
AA
51
9C
1B
42
9E
90
96
99
34
32
8B
06
E1
4F
29
CA
A5
7B
08
64
FC
02
39
E8
7E
9C
6C
C5
F2
E5
4B
29
42
75
C8
BC
1C
09
92
8E
EA
51
A3
66
90
93
E0
DD
45
C8
4C
7D
A7
2F
41
DE
CA
DA
67
9B
F2
3D
38
46
2E
47
38
5F
FA
05
6B
92
3A
D0
18
B1
72
09
8C
20
42
64
BA
14
A7
59
0C
E7
D4
7C
E0
C5
A7
E0
9A
F2
53
3B
A7
73
DA
90
E4
6E
2F
A0
52
74
CE
89
55
55
D6
19
B3
20
CC
9E
90
8E
75
97
B2
A0
0B
89
01
2A
5E
FD
8B
F8
E2
4D
E0
2A
E3
C0
9B
BC
45
E1
D9
4B
21
E5
98
23
C1
79
DB
84
D5
76
DE
C8
AD
C0
EB
03
61
24
9E
D4
7B
E9
9A
A3
D8
49
F2
45
F4
00
6B
35
8D
0C
BA
39
67
7A
00
AF
76
80
22
18
C8
9A
60
91
50
A6
00
D4
9C
80
08
F0
AA
6C
A0
B7
04
E7
2B
32
2E
90
34
FE
A6
F0
E4
8A
19
52
AE
CC
60
22
CE
CB
FA
15
CE
22
6E
4D
70
7C
97
6E
DC
9E
8D
43
