E0
5B
53
31
D8
2B
00
72
D6
45
79
C5
30
64
55
C9
10
30
B8
E3
94
F0
B2
E8
2A
06
98
CF
D3
C4
4E
BC
CB
66
30
90
F7
A3
6D
E3
CC
32
6F
FE
51
5B
CC
08
95
6B
A0
11
3E
7C
91
19
17
46
00
DE
20
A6
DB
BC
C2
A7
7E
6D
D0
1E
DA
C0
E6
E5
82
74
DF
11
F3
9A
10
0F
AA
20
AF
66
F3
BA
2B
10
8F
08
98
5E
A9
DB
C7
8D
0E
51
FE
BD
A4
8B
6A
33
C3
2C
62
D9
83
F2
BB
16
BC
7B
1C
8F
B9
B1
0B
74
B7
25
63
D1
D3
78
7E
3B
4F
23
88
9C
E8
6B
D9
B1
81
E0
55
EE
0A
C0
34
F8
D9
EB
3C
6E
66
A1
9E
DF
D6
F6
F4
F7
43
D1
70
68
35
AE
2F
B7
EE
C7
6B
56
61
C5
DD
25
32
86
4E
FD
F5
D5
2E
83
19
F2
A0
1D
AF
A8
42
34
4A
B4
E1
CF
8A
54
3F
39
6A
33
79
FA
08
28
FD
2C
55
9E
90
F1
BD
3C
2B
05
AA
33
04
60
25
D7
5D
BF
10
8F
BD
6D
33
B2
EA
24
39
CA
F2
07
AF
74
BE
59
00
D0
4E
17
87
07
FD
77
9C
A6
26
F8
25
44
C7
C0
86
C8
A9
06
99
BA
65
6F
E4
78
5B
CF
2B
83
14
C8
F7
8C
AE
0E
7F
6F
49
EC
2D
E1
1B
4B
4D
50
94
88
3A
7E
70
E2
5F
9B
1B
7D
D6
59
55
08
65
F7
65
B4
07
CC
12
0A
B0
E6
3E
D8
EB
0C
73
B6
CE
07
B3
E2
56
F5
25
CA
1F
7B
2D
83
0E
57
97
19
58
54
5B
86
2E
A1
AC
FC
B6
82
CC
FE
79
AF
08
D2
30
9B
08
8E
17
23
14
0A
35
33
17
F8
A6
D2
5E
D8
14
C8
BF
FE
75
92
5C
0F
9E
79
27
21
F3
53
C9
1B
F4
FD
B3
8C
C6
D9
83
BF
6E
06
82
44
05
A0
8C
6F
91
30
14
C2
28
C9
07
94
8B
B0
77
03
08
FE
C8
4C
F7
B1
6D
CB
59
21
80
49
0A
95
0D
8E
E5
BF
4B
5F
D2
F8
23
BA
F6
C1
95
15
52
6A
74
A9
EB
DF
A3
EC
C2
6A
2C
FA
76
68
8F
FA
14
E9
FE
77
A1
DE
0A
52
D7
89
42
63
CF
A3
61
E5
8D
5A
98
0D
9B
11
FE
51
0C
B8
59
7B
11
08
C2
BB
A2
9E
D3
A0
42
7B
9E
E3
70
4E
70
4A
2C
C9
C0
0F
45
4C
59
FF
5C
62
58
E1
46
65
0A
AC
11
DA
4F
B1
55
12
53
B5
FB
7D
69
57
4F
F1
73
D7
BA
06
A5
66
DA
2E
01
1D
42
F9
35
78
9E
31
5C
32
57
7D
06
4F
A4
A5
B0
4F
6F
A6
27
41
68
B9
2C
9E
04
33
B5
3F
A1
BC
D8
DC
1D
4C
BC
EA
04
60
83
11
FA
7B
6A
7C
92
DF
21
37
2F
DB
D8
85
43
8B
07
AC
19
1A
1F
46
47
70
91
57
C4
C7
A7
7C
75
CF
4A
55
50
94
B7
07
5A
3E
24
10
EA
7F
E6
1C
35
DC
B6
10
68
E0
23
B9
F0
89
F5
1E
3D
1E
09
36
6A
E6
45
10
A2
FD
EC
E0
9C
33
CF
41
C9
DA
75
D4
A1
EF
D8
7E
63
53
BE
B0
18
B0
A1
83
9A
73
5E
C7
4A
9E
F9
9D
66
06
F7
9D
0C
6C
EE
1E
11
87
47
0F
D1
F4
90
59
37
8C
7A
B7
A4
71
3C
11
34
ED
CD
82
A0
7F
DD
18
4F
63
91
42
10
C8
BC
04
14
92
ED
6E
EB
48
23
19
99
BD
D4
6F
9F
4A
B4
BB
C7
9B
DE
E8
79
C6
F5
02
FB
27
F6
9A
EA
20
A0
15
FC
2B
96
CD
AD
D2
BF
37
6A
23
25
78
0B
A0
C4
15
BD
37
CE
64
01
8A
9D
6B
0D
54
8F
E9
A6
3A
B5
D7
5A
BD
BA
6C
4F
C9
67
D5
98
0F
DC
67
11
CE
5B
AE
08
D2
05
14
A2
7B
84
BC
30
43
E5
93
A0
63
D8
55
09
9D
5B
76
04
3F
00
3A
82
8D
0D
7B
15
C1
52
00
6E
27
1E
1F
B3
A3
B2
4E
8C
49
78
C5
E5
34
4E
79
C1
4B
92
42
62
CB
65
58
B3
9F
1F
35
D8
E1
38
2B
DB
C9
1E
D4
2A
0F
39
C5
0C
FF
E4
5B
BD
C5
99
B8
8C
18
2F
3A
51
DA
7A
77
4C
F0
28
76
D3
FD
98
2C
C0
8F
AE
73
D3
3C
B5
22
55
5B
E7
10
FA
5E
78
E4
D9
48
B8
4C
58
F7
C7
AD
83
35
3C
67
11
18
83
71
9C
8E
9E
B7
11
86
77
2A
2E
F2
5F
03
BA
81
E1
C4
A1
2E
6F
B6
46
9B
C2
A4
A8
6F
28
D3
AE
54
19
64
2F
34
C3
F7
08
ED
C1
1C
F6
2C
12
BC
22
45
56
CB
E2
DD
18
72
52
A6
2E
FA
0F
43
C6
12
F5
7E
07
15
7B
3F
02
B6
44
44
D6
25
E8
E8
EE
B8
58
30
20
89
D3
62
6F
41
E1
F4
9B
41
3B
02
15
CC
B0
8F
62
9F
9F
B8
61
41
AC
9A
1D
E6
5A
84
2E
D6
6B
C8
A3
79
2D
C6
3A
45
CB
14
0D
D3
FE
91
48
41
B9
B6
D5
A5
EC
59
DB
9F
46
2A
68
5B
0A
11
0D
2B
90
BD
CE
05
AE
DD
B7
1D
2E
24
E4
7F
03
35
97
4E
1E
D5
E1
42
AA
F8
F7
14
57
AE
30
0F
EF
3E
AA
B4
C9
62
EC
9A
B8
D3
EB
92
DC
5B
02
67
EB
C9
16
65
21
26
93
98
76
76
6C
0A
70
E7
8E
10
D6
66
2A
EF
57
1E
CF
D3
08
B4
46
10
DA
78
A0
37
4F
87
36
79
8C
3C
7D
02
C8
A1
D2
51
0F
FF
51
0A
60
78
50
2B
6B
8C
07
2F
8C
03
4C
10
7B
EC
D6
9E
E5
9F
5C
0A
23
D1
6E
2F
41
A8
8A
3E
0F
31
4F
72
4A
B2
31
F8
E0
21
EB
FA
43
8E
56
E5
7A
DC
4B
21
CF
73
25
DD
3D
89
97
34
05
DB
5E
DC
0D
05
A5
EA
6F
C4
E3
7B
29
EF
7C
85
C3
9C
BD
63
18
79
B7
8D
C7
0B
40
29
0A
4D
59
54
A5
B1
10
C2
3F
84
63
A3
E3
8E
90
C7
AA
D2
E4
82
88
B1
1A
25
3C
1C
58
8D
B8
4F
DD
06
E3
5B
E8
84
E8
C6
18
3F
A1
51
65
EF
FD
6A
5F
45
F3
D6
CB
E2
FB
E4
B0
A1
49
C7
39
6D
A0
1A
D4
37
6D
66
E9
6B
0B
7C
E1
E7
1B
AA
7B
39
AB
34
00
61
FA
64
8C
99
16
74
B4
9F
41
92
14
4B
90
5A
00
49
C0
FD
CC
DB
AD
CD
9E
68
1B
89
3C
9B
CB
2A
D6
3B
13
FD
02
8F
45
99
CA
70
48
BF
9C
5D
0F
68
F5
A7
E7
1E
AF
92
A0
84
51
70
C4
CB
BD
25
E3
B6
18
04
4A
29
A1
FB
6A
5B
11
B0
46
88
F0
2D
F7
5D
C0
A3
FD
9C
1B
57
A9
13
03
37
69
E4
76
7B
4C
8D
73
5C
DE
35
94
3C
BA
6A
45
BD
3D
E0
14
30
F2
CF
E4
FB
3A
EF
5D
9E
73
70
93
A4
E8
16
7D
2A
86
F8
A8
0B
A2
E2
DF
22
FA
2B
B4
9F
59
42
78
22
5E
44
7F
7A
BC
14
BD
71
54
64
1E
21
65
F5
63
B3
A0
2B
98
72
67
64
44
C5
E9
F8
C7
D8
7B
9F
10
FB
15
A4
CE
17
89
8D
93
F0
DD
02
2C
17
93
36
6E
39
19
94
DC
A8
68
AB
E3
F0
FF
C7
31
31
CE
0B
B2
00
22
0D
77
07
FE
33
DB
C5
F2
93
C7
7B
D5
F1
CD
E7
D2
5F
A0
11
19
F4
61
AA
DB
94
73
4A
8F
7B
7A
C8
AA
40
1C
49
48
2B
95
0F
80
AA
C2
4A
EF
6B
EF
76
DC
AB
D6
B6
87
E0
02
08
1D
8A
F7
7A
FD
11
05
21
7B
EC
A7
FE
BB
20
D6
A5
D3
E8
4B
81
49
E5
C4
3B
2B
0C
04
91
56
6A
02
7C
36
4A
03
8B
5D
15
BE
11
40
5D
D7
34
A3
23
04
13
26
0E
BC
1F
E8
E1
DE
19
0D
86
38
6A
77
7D
62
FB
4A
06
A9
FE
B9
29
52
EA
95
AD
B7
19
E1
E4
C7
30
B0
00
9B
32
64
D8
36
FF
2C
08
A5
DB
E4
05
16
D9
70
D5
86
C4
BB
94
25
01
AB
40
CC
D8
8C
3E
6C
6B
CB
14
B8
96
7B
88
54
70
43
66
24
21
7E
47
85
F9
0A
0D
89
44
DD
50
9A
E1
1A
C0
FC
01
13
9A
73
6F
80
7E
D9
AC
F2
89
69
72
4B
8D
38
54
2B
65
5B
68
C5
C0
0F
93
89
1B
71
45
D2
C8
3A
2A
2C
F8
9B
D5
E1
22
02
F3
B2
2C
B8
67
C0
47
C0
F8
13
A2
74
74
F8
2C
C2
C2
2E
15
9D
7A
D5
0D
12
45
35
B0
60
BD
9A
89
87
6B
47
18
BD
DD
F2
3F
12
0F
C1
3A
23
4C
6B
27
6F
D2
A0
A5
E4
02
99
82
C4
70
6E
48
3B
CF
4E
A2
21
E9
68
88
B6
7E
A8
C5
E5
95
DF
1F
FD
72
7A
04
9A
85
D0
33
A6
95
BA
86
EE
BC
D8
BB
29
C5
5E
44
29
DC
FE
08
F2
E3
D8
FD
57
F0
9E
1C
AF
00
2D
28
9E
5B
07
37
15
A9
16
70
56
35
2B
05
28
A5
53
F8
17
BD
6A
18
A7
89
8D
36
9F
45
09
48
32
D7
90
CE
20
70
C9
17
1B
D4
37
3E
D0
00
BA
DD
59
7A
44
13
51
36
EA
10
F7
00
F2
0A
79
6D
69
DC
4E
8B
E0
F2
65
F5
A6
D2
BE
2E
80
36
15
83
CB
19
F0
8F
BD
4A
11
F0
72
06
D4
68
87
F7
D2
46
CC
0C
01
CA
4A
A8
5D
04
23
97
58
E3
F5
7C
99
4B
9C
AB
26
CB
77
6F
10
24
E3
9E
EE
B4
6E
0C
0F
3A
9E
8A
9A
16
C5
D6
B0
18
B8
2C
82
CC
14
C3
29
C1
48
D7
3E
F4
37
17
E5
A3
DA
53
1C
2B
7C
5A
81
2C
76
FC
6A
39
AA
E2
67
0A
86
62
0D
6D
87
3C
0B
49
54
43
F3
D1
79
9C
17
9F
ED
E4
1B
5E
E9
7C
E6
0D
42
91
91
A3
8A
D1
D8
30
CB
B8
64
CD
3A
09
85
D2
8C
68
EC
03
EF
D0
1D
E5
0C
E3
DE
7D
BE
22
21
0A
F0
EA
D2
CA
DB
03
B9
16
D0
6F
9B
BD
72
98
C7
13
A0
3D
4A
4D
36
42
B4
CA
CD
A5
0F
33
93
B5
99
A3
5F
F4
C0
B5
43
78
B8
A6
58
9F
9E
9F
03
9B
FC
EB
47
F4
1A
98
90
B0
6F
CC
03
58
EB
25
4B
ED
30
9F
42
EA
88
5C
B7
D2
19
2E
D1
1C
05
A9
BF
7E
86
92
DC
5B
0C
CF
21
70
B0
AA
95
7E
09
DA
98
A7
2A
3D
32
A7
6D
E4
C8
BB
B0
B5
4C
4B
DE
05
33
2C
6F
F2
9A
EC
64
86
53
08
11
87
4B
E7
0A
21
64
74
09
53
A1
CC
9B
C2
75
19
D4
DC
46
1D
34
DD
D1
45
35
E0
0A
14
98
7E
B1
95
05
8B
85
7F
69
8F
C5
26
8A
91
ED
C3
FF
51
4B
07
20
63
8C
1F
44
51
FA
8D
E1
3E
35
A4
5F
B0
5A
77
EA
87
21
87
AD
E0
69
4E
57
71
DA
B9
CC
58
02
78
36
C0
74
6F
EA
56
FB
AE
C5
E2
7B
B1
E1
78
E7
1B
32
1D
DC
28
18
DD
74
41
58
23
F4
AA
2D
D1
21
D7
BA
E7
68
C4
3A
7B
00
4C
A1
FB
F0
94
62
EC
BD
6C
94
D1
58
10
D1
5A
DE
1A
C7
FA
BA
09
E1
63
A9
69
33
3F
98
37
2F
7D
E3
36
4D
03
56
49
92
98
E8
61
D3
46
A2
67
83
55
2F
44
65
93
76
13
1F
E6
08
CF
59
01
A4
B9
9B
40
0A
01
4B
BE
24
B6
B9
95
B5
56
C9
DC
BF
58
A8
D3
1F
F8
E2
EE
20
90
20
77
D2
AD
8D
A0
D5
19
67
C0
AC
C5
D6
C4
4B
6A
D1
AF
20
DC
34
5D
89
DB
6B
D0
A1
5C
CB
8D
1E
A9
29
BF
E1
10
23
0F
9C
1A
18
FA
22
69
B3
DF
FA
D8
E4
C4
17
A7
A7
1B
42
AE
72
32
EC
5E
55
7F
FB
73
C5
9B
C4
72
CF
E0
2C
B1
BD
3A
54
D3
D6
F2
3D
2C
08
D6
46
09
6A
AE
EC
8C
E2
46
B0
55
DC
76
30
9E
CD
A2
08
7D
44
AF
80
ED
94
85
97
4C
B4
D0
1F
11
45
DF
21
72
80
C2
F1
5F
1E
07
DA
66
AC
16
D3
EF
E8
4B
85
EC
9B
CC
9B
37
7F
47
3D
7E
82
E5
2D
D0
65
3C
F0
79
73
38
69
00
D6
21
26
41
A7
56
A0
06
03
D0
DB
0B
F9
17
DF
53
C5
98
AA
4C
CB
A8
BC
C4
8B
1D
F7
06
79
25
A9
1A
3D
7A
A7
D3
46
B2
02
62
5B
32
4C
34
D9
E5
A7
21
AF
FA
43
E9
86
6D
3D
39
B8
26
C6
E2
37
3A
C4
80
42
82
29
AA
8C
13
B3
51
B3
A9
CF
DC
3E
E8
3F
36
28
0A
BF
E0
CA
37
BC
64
E6
A2
BE
C6
96
56
78
B3
AE
90
07
82
40
2F
92
1E
E1
3E
36
F3
9E
B3
C6
7A
60
7A
57
D1
EE
07
54
46
E3
16
82
20
23
4C
ED
60
0D
1C
7F
6B
A4
70
51
D2
9F
33
29
8A
B4
C8
02
EE
9B
B5
87
87
C0
CC
33
3E
2E
31
29
61
C6
C6
45
A1
4F
93
19
88
F5
B8
3A
AD
9F
53
CE
17
97
29
AD
D7
0D
50
BD
A7
AE
A5
27
E6
4E
08
6C
7F
73
4F
CE
77
00
A0
A3
C9
DB
13
8A
FB
12
DB
81
B1
78
3F
88
F8
39
7B
DE
1C
86
E2
A7
81
D1
19
C8
59
FE
9D
C2
8A
EE
A9
7A
BC
4C
A7
F1
AA
72
2C
3E
56
3F
6A
B2
5F
11
6D
20
91
BE
B5
7B
A9
C3
C2
15
F6
31
35
A8
83
43
AD
75
14
5A
62
12
09
0F
CB
B6
30
8D
71
4C
DA
BD
37
09
7B
4D
0E
C1
F0
86
F9
09
BD
EC
F2
B6
06
37
2D
82
54
0D
10
0D
CA
A9
F4
11
1E
6C
A8
C4
62
45
AF
D6
50
3D
F7
EB
95
2A
88
F9
A4
38
AB
FF
7F
65
69
E4
CA
DA
B1
22
8D
4A
84
1D
FA
9E
87
C4
7E
32
8D
E7
C2
F0
CE
76
DA
F8
A9
04
7E
42
4B
FA
AE
80
F3
E8
4A
4F
98
A2
69
AB
B6
71
ED
DA
07
46
B0
ED
01
C2
88
B1
5F
0D
F7
3B
C7
54
B0
02
15
8F
14
F7
D9
F1
78
47
DD
59
63
71
BA
FA
3D
4F
13
D6
DE
6E
28
04
8C
35
B7
32
BD
01
F6
03
D7
FF
7F
57
EF
1C
52
21
62
0F
FB
30
0A
F6
A8
31
AB
DC
DC
DE
DC
5E
DA
D7
0A
E9
52
B3
CA
3A
ED
C0
EF
8A
65
A6
D0
F2
6E
4D
F8
DF
35
E6
98
17
34
E4
62
52
6F
4A
0D
9F
16
96
7F
49
6B
04
8A
B5
F2
1B
29
F0
60
62
68
B7
F2
39
32
5F
35
EC
86
56
2B
21
9A
60
09
84
BD
5D
5D
83
A0
5D
E0
90
98
46
8D
73
57
CF
66
E5
4A
AA
4F
C0
5F
34
50
79
99
71
31
98
81
80
8F
48
15
5D
3C
96
F0
61
AA
5F
01
BC
E5
4F
26
75
8A
CA
66
21
ED
30
8D
3C
F7
D6
C1
65
49
E5
0E
3C
28
98
D2
DE
5D
56
75
FB
44
C2
8C
F7
B2
AF
65
07
B3
35
DE
35
F2
08
2A
B4
F4
3B
20
93
9C
FB
29
2D
A4
CF
F6
75
84
39
73
5C
7C
F8
EB
1E
86
68
20
D4
9C
67
99
99
98
76
4B
DE
69
08
0F
BE
5D
3B
12
93
A3
46
74
15
71
1B
4C
38
D5
E4
2D
B8
11
A0
88
67
7A
E0
A0
99
54
6E
BE
10
8F
A1
30
58
8B
95
D4
64
17
57
7B
9A
D8
7C
56
42
F7
A3
34
37
FE
54
F0
17
67
8D
2E
18
96
99
3D
71
EB
77
3F
09
A7
A0
14
23
6B
79
07
E9
6E
CD
EC
D1
4E
53
B7
7C
06
31
8A
AC
9E
85
4E
75
FE
F3
59
90
35
B7
B2
CD
97
EA
E5
39
59
4A
A7
52
46
97
C6
51
C2
EC
10
16
08
1B
D5
87
82
E1
4F
31
05
D7
4A
8F
C5
1D
91
58
BA
9C
DF
2A
57
1C
EB
5F
7D
57
A6
70
E3
BC
66
71
9B
EE
BC
D2
04
3A
81
51
E6
FA
4F
5F
68
0A
C0
2D
56
B9
3E
B0
C5
A4
CD
67
95
7E
68
0E
0B
60
EC
30
24
41
93
94
CE
47
7F
4A
1E
7E
AA
DC
5C
9F
31
DF
9A
7A
7F
05
1C
B1
C3
36
C4
E8
B2
52
B3
25
20
CF
37
55
B5
4B
7B
18
6B
0E
DC
83
AA
0A
92
D2
A0
7E
55
47
40
A6
7C
1D
B1
77
95
42
72
49
B4
A7
BB
32
13
08
C4
A4
56
8B
31
B0
E7
0F
E3
B8
5C
4D
FB
57
C0
4C
80
F2
D6
AC
2D
63
51
9E
FC
40
44
98
18
ED
F7
B9
2C
10
35
FF
A9
BE
E8
70
39
23
9F
78
44
4C
55
55
E1
39
B0
2F
0C
F3
91
16
FB
DA
A2
EA
11
E7
7E
4D
65
01
F5
15
28
1B
2B
C5
C6
E1
51
8D
28
D4
15
4B
2B
45
C1
79
3F
3E
5C
3D
62
B3
5C
FB
EF
3B
D7
86
B4
E6
F0
68
93
59
2F
05
35
A3
4C
29
6C
67
25
DE
51
D1
2C
55
90
BD
FD
56
90
E9
4F
76
01
73
3F
F3
B0
2A
22
0E
E5
A6
69
5C
5B
84
AC
45
88
D9
3A
76
60
CA
60
9F
73
B1
52
20
1C
0F
D3
0C
F1
D2
7D
EB
FB
33
06
FC
BA
C4
81
BB
9C
46
36
61
56
02
8C
C3
87
58
04
A8
EF
89
3F
1B
36
32
84
1C
DA
C4
8D
EF
7C
9F
52
5C
F4
FC
FB
82
72
DF
21
A2
18
84
EC
30
42
F6
8C
8D
F4
75
0B
3F
72
AA
5E
FA
8A
D2
8E
1A
34
8B
49
16
AC
9E
50
D1
B5
D0
49
55
36
95
24
A6
E8
3A
5A
F1
23
F5
AB
A9
00
33
BD
52
14
2E
D2
66
8E
F1
B5
1C
6C
68
47
79
BB
D5
5B
AA
38
FC
FB
3D
E8
30
3D
E5
14
37
75
C1
5B
D9
37
7F
F4
1E
1A
3B
E8
F6
88
BF
BB
BA
6A
57
D3
EA
1C
92
84
45
77
74
86
4B
05
4C
BE
AA
04
C7
41
DA
85
88
9C
50
FA
1E
A7
49
8B
93
2D
6C
F5
B3
42
04
E4
28
A2
03
02
4E
59
E6
D1
56
AE
8E
9A
8C
77
81
E3
CA
3C
B0
55
7B
7F
F6
FF
F4
51
37
F1
6B
30
F4
FD
1F
62
87
06
9D
B1
0F
7F
40
9A
BF
37
EE
FD
FE
7C
76
20
D3
4A
6E
3E
17
95
54
BE
FA
52
F6
8D
E2
0B
95
58
36
3D
68
74
B5
02
18
B1
D0
98
CA
4E
44
B5
D1
EE
CD
B7
76
6B
CD
1A
B0
DE
ED
B2
93
BB
EA
1D
D2
BC
3B
5F
2C
6A
9E
E0
7D
31
13
2E
BB
81
CC
39
69
BB
FF
5B
2C
7A
35
18
C3
A2
88
91
23
8E
F3
A0
C5
C5
A1
8E
8B
4A
CB
96
6A
DE
E7
D2
7B
82
4F
D5
BC
4F
C0
F4
84
22
8F
1C
F1
A4
45
5B
CB
BD
D3
74
6F
46
85
8B
65
1C
22
21
A6
58
68
16
F3
C8
F2
F5
48
85
82
A0
56
D3
14
55
25
6F
86
45
E1
04
4D
ED
C2
99
9D
DF
B1
D4
15
31
3E
C2
8D
68
EE
A5
B6
97
E2
9A
58
0F
CF
18
42
D8
44
F8
84
B5
77
FF
C4
6E
F5
BC
72
3B
8F
9D
3A
BC
29
FC
E9
96
9E
66
88
21
52
BE
FC
69
9D
E2
AF
F8
06
82
E8
CF
A7
0A
65
AC
37
69
24
C8
A3
B7
43
3D
54
BC
93
3B
CB
24
54
62
E7
AF
B1
A9
70
8D
EF
29
34
AB
17
A6
8F
18
7B
D3
C6
B8
C6
7E
DC
AD
ED
AB
46
DF
7D
8C
05
77
F6
7F
4E
3A
30
29
B7
01
FF
F0
9C
90
87
25
47
12
4A
F2
71
9A
F0
5D
FA
B3
6D
AA
F8
4A
C8
DD
42
66
05
44
EA
FC
27
36
12
AC
50
03
19
C9
B5
CB
CC
63
CC
7E
3E
52
6C
95
97
5C
90
5A
C2
5B
32
A5
DB
DA
01
C4
DF
B7
9D
AC
D4
DA
9F
3B
F1
02
31
E3
76
EB
E3
58
CB
76
C6
84
B1
D2
FB
1E
D6
57
8F
65
9F
20
52
F0
9F
DA
CE
AB
05
11
B6
4D
92
CA
B8
79
F4
0E
CD
4D
04
55
2C
CC
EE
FA
B3
55
63
DD
C6
7A
4B
80
AE
B0
E1
E9
20
C6
7B
1D
7F
F1
6D
8D
61
EF
56
8B
97
C1
C3
28
22
FE
D5
B5
BF
38
34
C5
54
84
30
18
57
8B
C0
51
64
EE
AD
58
CF
E9
FB
86
3B
3D
15
30
D0
B2
AB
0B
1C
D8
B5
F9
11
ED
05
80
B9
6C
77
51
2F
04
59
61
0A
F1
C4
B0
82
F9
A1
AF
A9
7A
1E
EB
91
CC
70
0A
0F
E4
F9
DC
28
6D
FC
9F
F4
7B
DB
64
C0
E9
9E
C5
2A
EE
97
4F
AA
6D
45
03
5A
E1
2A
CF
1E
99
FD
BF
EC
3D
85
34
1B
0D
55
21
E7
5B
A2
B7
32
CE
B3
B2
1A
56
D5
D5
08
FE
8C
74
78
81
66
D9
7B
4D
4F
8D
A5
69
48
02
A3
63
5C
56
3B
87
F7
7F
FB
E2
D6
3E
E8
12
8B
5B
DA
28
30
12
38
90
96
FA
AE
52
5C
DD
71
90
48
8B
D9
16
45
9C
F5
EC
6C
6D
DA
B9
98
FB
43
9C
8E
3E
32
37
B7
D9
39
38
7B
D8
2F
49
A0
DE
E5
4B
C2
51
3A
AD
0C
99
4B
24
A6
D3
2E
A9
B8
14
8E
6B
40
E4
6E
56
D4
E9
6F
86
E4
0E
DD
CA
2D
1E
CD
7A
8E
82
47
AE
63
84
78
9F
9D
6B
DB
E5
5A
DB
F8
B7
A2
64
5E
BB
EF
78
01
80
18
5F
4E
5F
69
2A
BC
3E
30
88
27
D4
89
5F
AA
DE
54
21
2F
F4
06
FD
C7
BA
0C
DF
C4
37
F0
FF
F3
F7
D7
8E
38
48
F9
B5
FF
3D
DC
58
C3
76
53
E3
0B
18
37
3E
C9
21
51
0B
43
1D
D7
9D
B2
12
A6
46
49
3E
67
C9
1C
22
74
5E
5B
2C
DC
70
1C
47
12
03
52
C9
09
FC
72
8D
80
60
6A
FE
1A
89
F6
EA
D0
17
FF
F0
99
FA
8C
EF
74
84
F4
FD
6C
F6
B8
9F
21
01
61
DC
88
99
2D
34
3C
45
13
74
D2
94
D1
BF
C4
DD
3A
64
0D
1B
EF
F8
8A
36
77
41
E5
ED
23
94
99
10
00
26
9F
CD
59
5B
EE
3F
82
61
1E
80
2B
E3
DA
D3
B6
C0
70
4E
15
79
69
16
D7
29
D8
2A
8C
80
56
BB
7A
9E
11
37
BF
46
7D
3C
37
2E
B4
4D
C7
07
AE
12
29
A3
BB
87
F6
E4
FC
6B
41
8B
59
58
BE
42
6D
B5
A9
E0
BA
4C
DA
68
F7
4D
21
08
C5
2E
1C
A9
8E
7B
99
65
C1
28
96
25
53
31
23
94
12
79
75
AD
DC
6D
08
81
26
72
54
A3
E3
5B
29
5D
FE
C8
E3
46
15
6F
42
5E
E6
D2
06
E0
38
77
16
70
5B
B3
9F
E5
A0
17
16
BA
C9
D4
0F
FD
E6
17
44
B8
DD
1B
0C
60
B7
42
09
BD
2F
75
F7
56
A2
1D
3A
FE
54
49
01
79
B6
40
CF
CA
75
40
B3
83
48
06
80
2E
73
B6
C5
0E
CA
59
35
67
CB
D4
12
0D
A2
36
60
6C
5F
1D
1B
B4
63
E4
84
FA
C4
1F
4B
37
B0
DB
9D
F1
AF
A3
D0
3F
E8
4C
12
C7
F0
24
67
64
B9
79
29
DC
B4
C4
98
CA
AE
F4
22
5D
25
D4
08
2E
2B
86
DF
1A
D9
85
26
EC
32
D9
B7
11
8D
E8
25
4C
8D
D3
0E
B7
35
05
6C
50
F8
F0
AD
09
F6
39
A4
65
42
4E
59
59
DF
C5
7C
41
1F
0B
F7
A5
11
F5
3B
B6
9C
1A
3D
8A
E8
F5
FD
8D
40
92
1E
16
1A
00
1D
4C
C0
87
41
CE
C1
A1
06
6B
67
4C
9D
08
FF
06
A0
AC
AB
3F
6F
8D
48
B3
66
05
9A
B5
6E
62
9E
C4
25
32
2B
57
D3
CA
8F
DB
92
95
9C
9A
88
9A
89
87
55
DF
58
B6
9F
F7
A0
D9
9D
FA
32
6E
85
00
81
EC
BC
12
83
31
D0
AF
81
88
A4
16
5C
DC
4E
6A
2C
86
FB
A4
F1
17
C6
D7
7F
81
CD
30
58
D4
93
D8
2F
81
FB
A1
30
D6
1D
DF
47
C6
11
02
2D
92
BE
88
3C
11
BC
57
25
A1
B8
6C
D6
73
95
01
A7
5B
D8
FC
23
86
57
10
72
D7
5E
92
E6
36
B0
15
82
43
11
11
91
8A
E1
7B
4D
8F
3C
20
A6
74
51
A0
75
00
4D
34
D2
BC
C3
8E
99
F0
86
7F
71
5A
86
8F
C3
F2
40
55
24
F3
27
DE
DD
B5
73
3B
EA
69
17
72
59
6C
9F
2A
82
A1
09
75
B9
2D
88
FE
BF
38
26
0C
12
7E
82
D3
4B
B0
6B
E0
99
CA
E2
DE
8B
83
44
36
F3
9A
06
CD
9C
57
FD
03
0A
87
8B
A9
10
59
16
2D
75
D9
58
C7
1D
60
BE
8B
29
50
10
F2
FC
6F
4D
99
26
DC
E2
E8
65
3F
BF
04
80
70
40
C1
03
47
55
31
9E
00
1B
44
57
F5
39
8D
60
BB
D6
7C
1F
4D
11
58
BA
E0
6D
0C
7D
A0
78
12
FF
7B
EC
39
68
58
2B
5B
6A
74
3F
2E
93
CF
24
DE
31
CE
02
86
29
B2
0D
99
80
E2
E6
B3
06
54
86
98
73
F9
FF
A9
74
B7
90
89
7C
58
C5
FF
B9
C1
EE
85
3D
98
52
14
67
23
CE
C6
AA
D2
A6
66
01
94
84
72
27
88
4E
50
C9
CE
33
05
3C
76
6C
AA
E3
0C
19
24
6A
92
A6
88
03
82
AC
A2
5B
5B
4C
6B
FF
D6
1E
E6
2B
31
CC
41
E8
F3
96
BC
0E
11
27
A4
EE
A7
1F
B3
27
9C
64
0F
EB
53
03
F3
0E
61
50
0E
D7
9A
53
35
09
E2
AD
48
01
07
4A
DA
13
39
29
5A
B3
74
60
CC
8A
4F
A6
20
32
BA
C5
18
73
F8
66
DE
44
09
B7
19
69
8E
2E
82
6D
9A
A5
CE
C4
58
11
46
9C
96
01
92
63
DC
68
5E
8E
30
65
D4
4D
BE
B5
94
B8
91
D0
7E
B9
92
57
BB
D1
68
9D
09
9C
E3
EA
89
94
7A
D7
DC
0D
18
03
D7
4D
53
06
8E
FD
64
CE
BE
72
CF
38
36
80
CF
1D
6A
9B
5D
FA
28
CD
62
DC
86
72
CA
F0
9A
3E
ED
AB
4A
9A
13
EC
9F
0B
27
F4
F0
50
47
CC
DC
2D
56
E7
61
15
67
E6
76
FD
6C
9C
87
92
67
59
BF
DC
AF
23
B0
F8
70
62
6C
02
32
70
01
03
A7
AF
6F
86
02
92
3F
F5
92
BE
83
FC
F9
01
61
63
85
F4
F1
14
E6
8D
B2
71
D6
CF
5A
DB
4C
70
FE
37
32
63
66
C5
7B
67
9C
38
DC
E8
DF
29
7D
DE
E1
B9
CF
EF
90
85
DE
6F
09
19
32
F0
EE
D8
98
22
9D
C2
9F
D5
FB
90
D3
94
B8
28
39
DB
72
78
E9
90
B1
5C
F1
F1
4D
E2
90
51
F2
31
7E
1F
61
15
49
96
26
27
34
85
50
AB
7F
1C
17
D8
A2
3E
97
D2
D9
C5
A5
0B
B5
E0
10
68
95
7C
4A
DF
9A
EF
07
4E
E5
5F
32
DF
3D
50
4B
3B
E5
83
03
37
BC
EF
7E
94
5F
39
D3
F7
ED
9E
97
B7
72
95
1B
BF
F3
9A
C1
8B
AD
75
61
F2
AD
54
B8
6E
1C
53
50
1A
D7
E1
C1
2E
77
56
9D
87
FA
EB
1F
3E
26
0F
01
1B
0B
05
A8
13
D9
CF
0D
1C
7A
06
52
5A
F1
0D
B8
99
4A
02
8C
3C
24
E0
A6
8B
79
30
E3
D6
AA
F3
1F
BB
EA
23
7F
F4
A2
E6
31
BF
FB
1C
43
94
C2
E6
1F
A9
E7
83
9D
1E
B2
E6
49
76
32
A7
C4
95
37
A8
83
88
CD
95
E9
8C
4A
CE
F1
51
D1
83
A8
4C
2A
F9
31
52
94
D1
17
D0
EB
78
2A
03
B7
EB
38
96
85
16
80
C5
E7
65
B2
E5
F9
83
8C
81
FE
C3
C1
06
73
11
01
42
0A
00
44
7F
8D
1F
6E
D5
41
A6
57
74
A6
A0
DE
E3
33
71
EE
20
1E
F4
F2
B2
6F
4F
FF
8D
02
CA
1A
BC
E6
9C
99
D6
B1
D8
E8
82
FD
90
5C
32
B7
A4
EB
56
C0
85
BE
44
9F
AD
DC
D4
BF
0D
4D
45
42
D2
6F
4F
6A
A4
92
6E
ED
71
CB
29
92
6A
46
2C
E0
F7
E6
99
3B
4B
77
FA
83
52
87
F7
BC
54
43
38
FD
1C
0C
4E
0F
DB
54
72
4C
D0
A6
D0
6A
F4
F9
BA
7D
30
1C
D4
D4
F8
47
8C
ED
01
14
D8
FA
C5
A2
4D
76
58
AA
51
B2
D2
FE
93
78
45
00
80
32
C0
12
53
14
2D
E0
31
92
3E
CC
1A
36
76
C6
7D
8F
E1
DA
69
28
54
5F
3C
F7
94
43
B5
90
EB
79
16
D7
F0
A9
88
51
1A
04
8C
0C
BE
44
B8
13
16
07
58
38
E3
8C
8D
82
63
53
88
D7
DF
D0
51
AB
26
ED
F3
F8
39
04
8D
BC
2C
A3
6F
4B
D0
92
67
D6
8D
9A
D3
B0
95
7E
61
7B
10
1A
CC
4E
9C
23
FF
63
EF
51
85
0A
EF
9A
22
AF
25
D4
58
D4
59
DF
6B
03
1E
3F
25
BD
61
CC
2E
A2
39
48
A5
0D
5A
C5
DA
67
10
02
3D
25
77
A2
EF
73
16
62
E1
FF
E1
51
D8
4B
D1
4A
98
A6
D4
20
95
20
93
08
E9
CC
5F
C4
C3
66
CB
F1
7C
63
03
59
E6
4E
48
D0
AB
84
4A
51
CA
F5
30
90
B0
9E
DD
CC
8B
F1
6C
5D
57
CE
19
C3
D7
A4
F8
91
C2
56
1F
F8
58
E7
1B
6A
19
AC
32
8B
53
C0
A7
82
91
C6
24
58
8C
58
E9
2A
1D
CE
EE
3B
99
9A
B2
44
CE
7F
38
20
67
38
E8
5E
2E
79
4F
E1
EC
AF
EF
A9
C2
1A
47
82
78
0B
C2
E8
6A
7F
02
D0
D2
D4
C9
E8
B1
B3
BE
8C
4E
95
8B
A7
AB
EB
CE
D0
F5
0E
6E
14
0D
20
5A
BD
2B
DF
F9
DD
08
F8
32
0A
B1
E0
ED
2A
EC
3B
8A
23
52
DA
85
8C
05
2D
8B
A7
38
C6
D1
07
51
1D
18
85
8C
AD
E1
94
79
FD
19
D6
9B
65
D7
E8
9E
8F
B9
1F
E7
22
4F
0A
46
45
23
2D
ED
49
A3
EB
49
51
14
0C
DA
58
DD
F8
44
F3
30
E6
AA
5B
53
55
64
E6
75
ED
C3
90
3B
86
98
59
69
93
58
35
F1
22
47
10
BD
A1
8D
30
7A
B9
61
D5
12
DE
8A
B7
8A
91
17
EA
4D
8E
EB
01
63
95
68
D6
CF
E7
46
26
82
02
B9
E9
B8
69
59
6F
D5
50
6E
93
7F
50
2A
26
FF
E1
F3
D6
6A
46
B6
F5
C4
35
A4
F1
B4
EE
8B
AB
C1
B2
D0
E3
8B
FB
C9
6E
3D
2D
51
96
2C
C4
BC
1C
38
A8
1C
BF
81
91
9B
62
64
4F
A7
B8
B6
D4
8D
A6
12
17
8F
CD
3C
35
04
F8
97
E5
95
3A
04
0A
02
79
99
BE
8E
00
DB
ED
41
B1
A2
C7
88
82
12
0C
03
32
1E
24
FB
C3
D2
6F
A6
9F
EA
05
08
20
AB
B3
32
3D
92
BE
64
88
D3
E9
B8
32
69
1B
7D
50
50
47
5C
82
8B
E9
96
D6
A2
A1
2F
36
59
3F
AA
19
B9
EB
A8
B8
74
95
0F
D9
7C
4A
F5
EF
47
3D
5B
9C
67
1B
C3
64
18
BA
60
EB
98
D4
8C
52
EC
3A
85
EF
D5
CA
06
2D
8C
96
12
CF
29
05
F1
63
8E
4C
B5
87
16
2E
44
8F
1B
BF
7E
24
6F
EC
7A
5F
0C
61
B5
39
5F
EC
81
9F
4A
C9
F1
6A
AB
94
94
A9
CD
25
A1
BA
B3
5B
0B
19
22
91
7B
8B
2E
E3
A1
B2
EA
90
34
70
A2
35
7B
E6
31
B1
3F
7A
E7
75
B8
06
56
10
D2
BD
27
6B
25
8D
4C
95
CB
08
C5
82
97
9A
DC
42
50
71
29
75
B6
B5
8E
AC
9C
92
3B
BC
C1
62
39
EB
B5
96
C4
FF
96
D1
20
47
62
9E
A7
A7
36
8A
01
DC
AE
0D
A0
11
B0
68
98
AC
D5
8E
FD
34
21
B8
3A
CE
F0
8C
9A
7B
68
ED
B7
B3
D7
DA
FA
56
DF
CF
6F
69
94
C2
18
0C
40
EE
84
78
FE
07
F2
4C
14
44
3D
78
50
8E
AA
DD
56
1E
67
B6
E1
B0
C3
21
CB
88
4D
44
84
94
D0
CA
5F
0B
68
88
26
AD
5A
EA
B1
AC
A3
2A
DD
1D
7B
BD
70
3D
61
6F
53
2B
89
49
50
74
72
44
2E
95
95
E6
D2
A7
E8
BA
F9
CC
55
22
AC
7B
1B
36
A7
06
2F
90
6E
3C
BB
70
AD
6F
53
F6
5F
E1
F0
3B
F7
FD
3E
96
B8
C3
01
EA
07
C4
16
E3
DF
99
32
6C
3F
73
E1
88
D3
B2
6F
2D
19
19
4F
CC
52
6A
9B
63
F3
5B
F5
76
3A
60
CD
A4
88
27
73
12
FD
28
00
2B
B8
EB
FE
2B
B8
CD
E8
63
86
AF
8E
1D
8C
61
0E
FE
0E
DB
D8
24
3C
B1
2A
3C
C0
E5
84
FF
C8
4C
C7
21
5D
9B
D5
F3
C5
CB
66
6E
B0
01
7C
3B
F1
1A
25
BD
5A
8E
3E
EE
00
A0
FE
4F
70
CD
E6
86
BE
CE
F2
65
82
50
ED
28
06
A9
AA
1F
81
ED
32
A5
34
B2
F9
8A
2F
FF
4D
36
A7
86
52
7E
9C
8C
99
B8
1C
8F
E5
6A
FF
87
60
64
DE
10
AD
7C
BA
A7
8B
A2
34
40
5C
94
FB
90
8B
52
D0
B8
1C
A4
13
29
68
23
07
F2
3C
64
67
45
28
28
B2
8A
ED
6D
A8
33
93
5A
C0
B9
E1
CF
76
12
2D
17
FF
AE
F6
8A
F0
23
60
F8
F3
5D
BC
C2
2E
C8
88
BC
1B
05
D8
FC
66
67
53
59
08
BB
2F
9F
FD
D2
D0
E0
62
9C
33
F8
EE
37
C5
0C
C8
44
BF
9D
D9
95
23
36
49
A1
68
CC
F4
BE
93
E3
08
4F
D9
37
AA
17
67
3D
4E
3E
B1
5B
C7
DF
0B
32
BC
BD
86
93
31
BA
A7
CE
21
CF
DD
F5
84
88
D5
70
2E
A0
29
FE
F9
0F
5C
D5
BD
C8
55
FB
CB
B1
D7
85
9E
5D
42
04
7F
72
B1
BB
61
12
A8
E0
96
BC
97
C8
D9
9A
D9
91
4F
09
C4
A8
87
41
0C
70
23
93
E4
E2
08
C7
75
EB
6F
72
D5
EF
AC
5B
A1
60
08
6E
66
3A
B1
AB
82
9A
7F
84
5F
A2
88
8D
D7
C2
A8
1F
C8
AE
46
D1
82
C2
79
EF
D5
F7
11
D5
97
5B
67
B4
E5
F5
7B
11
C9
AE
B8
15
22
B3
8C
4B
13
77
57
14
68
EF
F1
DE
AB
EF
ED
35
4B
DD
6B
67
2F
74
5E
3D
2A
7A
CE
83
CB
8F
FD
7D
50
9E
EF
2E
43
24
55
89
E9
D8
7C
8D
F0
A8
53
25
C7
CD
BD
43
FE
63
39
F9
C6
A6
48
D4
B6
0E
24
D3
D1
3C
43
33
99
40
2C
A2
9E
78
1F
5C
B5
D0
24
47
B7
C4
56
18
37
0A
0C
E9
7E
FE
85
96
34
D2
B3
50
C7
14
25
F1
BC
87
B9
51
21
F2
53
2C
2D
5C
59
5A
CF
7E
0D
05
53
79
45
0C
49
8B
26
6C
31
AA
D5
0F
C4
22
98
BF
EF
3D
CE
79
0A
32
A0
F9
72
97
BA
E1
E5
9F
20
0D
E6
78
3F
F1
55
CC
34
C9
4A
77
95
C6
91
6C
61
5E
D1
2F
88
67
9E
F2
5A
27
D3
5F
7C
4F
3D
E9
3A
31
16
6A
38
37
67
A5
83
EC
B4
DC
D7
89
3D
0E
32
CF
49
88
82
7B
10
7A
CD
4F
7D
8B
86
77
28
4F
B0
F0
FE
FC
F3
50
6C
E1
F1
1A
07
29
F9
94
9E
BF
91
52
30
6B
A1
9B
6F
D7
25
A7
B8
C0
0C
E0
AF
ED
D9
FF
B4
52
EB
C2
BD
4B
34
77
E7
9D
73
54
D9
02
8B
CF
69
54
29
61
EB
2F
76
EA
B1
DD
4F
3D
36
02
77
02
88
F8
BC
2B
1F
05
F8
49
56
51
E0
1B
5F
2D
B1
19
38
1E
BC
08
63
E2
AB
C6
04
30
ED
6A
76
37
2A
91
6F
02
89
F5
C0
9D
76
18
F1
21
BB
89
B1
97
B4
6B
5E
FE
FD
BD
3E
7F
93
83
DE
20
D1
65
B9
D6
9F
B2
B8
63
68
62
72
47
8C
C7
88
44
0D
20
E0
CA
7E
16
FA
0E
C3
4C
62
57
D6
7C
19
72
BD
ED
BE
62
3F
29
C1
D8
7D
7D
21
5B
D5
C0
50
CD
4F
34
05
FC
5C
A8
E4
C3
EB
A9
3D
97
16
B9
5E
6F
CB
67
DB
D2
32
13
D4
28
CC
D3
4A
A2
A4
82
A8
8B
C3
17
35
4B
30
D7
F8
2D
95
85
A3
8A
9D
B6
E6
3C
1C
CD
EC
83
9B
DC
EF
86
91
DA
5A
44
C3
34
53
EB
76
65
70
52
72
49
53
DD
B4
BD
81
AA
F7
70
64
C2
38
F7
1A
2E
F4
85
11
AA
36
9F
CC
BE
8D
40
D1
5C
C4
CF
7B
C5
98
61
0A
40
E1
92
CD
07
E2
AF
AB
5F
4B
CA
03
B6
37
A5
66
9E
D1
F0
CC
F6
47
1C
52
5E
22
B6
2A
02
57
FC
FB
A2
88
27
26
12
10
90
3A
B7
F8
14
98
BE
CA
7B
4E
E7
E4
CF
F2
82
9D
F7
53
4C
24
42
50
A1
EC
23
36
60
11
E0
40
2D
2E
8B
5C
44
37
32
6B
90
19
CE
52
5B
3A
E9
5D
8D
1E
66
98
99
22
CE
DB
76
7E
BC
24
72
9A
E1
E9
8A
2F
E6
79
B6
92
3B
4A
B2
FB
42
CF
94
E7
E0
51
53
D0
3D
E8
51
6A
96
35
E3
55
5C
48
90
81
15
9B
FB
1E
6B
5A
AC
58
EE
6D
67
6D
1C
33
0B
D4
31
BF
C1
35
3B
25
DB
A7
36
2B
DF
8B
DF
56
5F
3B
B4
EA
1C
0C
91
3D
B3
43
95
D5
DE
8F
44
43
72
2A
E7
DF
6C
8F
F1
D7
8C
94
4E
A5
40
39
C6
B1
41
AE
0A
3C
3C
C8
5C
1B
47
B8
FE
45
10
F4
C3
60
FB
0F
50
1E
E2
96
98
B8
08
74
29
7E
B8
0E
AF
89
66
00
FC
8B
80
4A
52
06
CD
19
90
57
7E
A1
35
9B
90
1B
26
4A
A9
EA
40
DF
65
F8
D5
13
9F
6F
15
77
FA
06
F2
DB
EB
95
78
40
91
9B
E1
9A
E7
FE
67
8F
B7
D8
32
A3
70
A6
00
45
F5
7C
0D
89
D8
3A
DB
E6
7E
0D
5F
2B
FB
8E
AE
92
1F
D7
5A
C9
A0
5D
72
59
50
EA
67
E1
B3
8E
F7
E8
FE
89
CC
C0
55
C7
F0
49
32
78
02
BD
45
58
18
20
93
C0
AC
D9
C3
79
9D
E1
0D
33
FC
A4
62
28
D1
70
E7
2E
66
8C
92
46
2C
65
B9
2C
7C
5D
1F
C2
20
57
FA
C2
A0
E9
CB
80
42
61
07
1C
49
24
87
98
47
12
BC
F0
B7
41
3B
09
F7
1D
9C
F7
33
D5
5C
CD
C7
9F
35
96
10
A0
FB
4A
0F
FB
E2
23
CD
A7
D8
56
C9
8E
52
30
2D
C5
7E
6D
2B
63
29
43
BB
6B
35
74
5B
4F
05
0E
DF
54
80
8A
51
61
E3
B7
0B
67
CC
BA
45
75
04
EA
B4
25
C4
0A
4F
E2
B1
6F
A5
E0
59
13
C1
87
90
B6
9F
4B
E0
3C
44
26
99
9C
4B
3B
41
FC
CC
F0
61
AE
0B
BB
E3
4C
17
6C
62
36
19
86
23
9E
87
30
93
1A
EB
96
E1
13
EC
DC
23
3A
4E
28
EA
3D
F8
83
AB
F9
8A
5E
08
78
42
51
7A
B8
0D
6C
74
12
95
9E
60
26
AE
2E
A8
E5
76
63
19
A4
CB
11
D6
F6
8B
C9
90
AE
F8
06
55
1F
88
25
2A
2C
D6
AC
0E
04
EA
1B
4C
01
50
BA
7F
68
E5
11
84
7D
8E
DE
AB
6B
1F
F5
0B
85
97
08
24
59
58
6A
83
89
0E
0F
DE
B5
C0
3D
A5
99
12
7F
C7
19
AF
27
10
68
53
D8
D5
95
A1
64
92
92
BE
5D
5C
6A
FE
EE
BB
18
49
39
60
41
56
C1
AB
C6
DF
C4
56
E7
83
69
1A
1E
A5
5D
99
A9
FA
12
E5
D7
77
CD
B6
0F
B2
1A
0E
62
8A
1D
E9
0F
A6
2C
88
D8
54
CD
83
9D
27
9E
89
52
F9
23
E8
24
3F
A6
73
0B
2D
31
15
A2
60
5D
F7
42
DC
25
38
00
77
EE
48
9B
AD
8A
2B
49
7F
50
E7
28
B6
49
76
F2
E6
0F
B3
F7
D5
B2
3E
72
1B
CA
85
DF
22
A6
08
94
3F
FA
0E
F6
B1
5B
2F
C5
24
D4
A4
B9
C6
DB
52
3D
BC
F7
A3
0F
FC
F6
EA
77
F8
96
06
60
BF
6D
9D
DA
E4
40
19
A6
F3
30
3D
2A
B9
BC
23
88
D9
B5
84
82
05
8C
A6
2C
E0
C7
03
D7
58
52
54
BB
EA
97
12
16
DD
67
08
FA
87
B0
9C
2F
A7
7A
66
05
B6
A4
6E
A8
35
D8
C6
BB
1F
6A
B3
6B
77
19
31
40
5B
6D
CD
81
16
A9
A7
20
E1
DA
3F
53
85
DF
59
49
FA
EB
CC
A9
E6
02
5F
96
1C
68
7A
E9
09
BC
89
0C
96
AA
FE
27
9D
48
9D
0E
BC
40
9E
AC
3B
91
CB
1D
84
42
E0
89
FD
8D
66
A3
3B
BF
81
AA
10
1F
19
AE
0A
C3
CE
06
9E
BB
54
95
F3
64
82
A1
41
94
D9
A0
3C
69
19
E9
E1
9A
2C
92
4C
84
CA
36
1F
42
92
8D
A4
D5
7F
E3
6D
D3
A2
BA
6D
A8
DA
73
2F
6B
6C
68
6C
01
58
A8
CC
2A
7C
25
15
80
34
F8
59
96
A7
EB
FD
BE
6F
CC
2F
AF
A8
CE
48
18
A7
D4
B9
59
30
2A
1C
78
27
35
D1
42
67
7B
AE
FB
8C
5F
76
5E
94
90
C0
5A
46
FC
60
CC
AA
7D
06
AE
33
D4
A1
E0
6D
ED
44
58
ED
C1
A6
76
F5
C1
31
37
9C
26
A9
3A
D4
EB
C9
8F
0D
98
46
AE
77
0A
2F
E5
32
F9
F0
59
1C
38
3C
35
48
A4
36
FA
1A
A1
FC
2E
D6
C8
5F
B3
8B
BD
B3
91
2A
A0
48
D0
A8
3D
63
2D
1C
5E
EE
75
E8
FC
C0
D8
10
10
D4
79
DA
6A
77
99
84
AF
CF
FF
5D
71
36
11
AE
34
01
30
C5
EB
7C
C0
2C
97
AF
6D
63
A3
C5
86
37
F3
3A
9D
84
A7
2D
60
16
BE
F7
98
D8
4B
7C
18
53
DF
87
9A
D3
8B
1E
22
60
90
90
6A
F8
B9
D7
51
75
42
5B
78
3B
9D
D1
9D
2D
67
89
0D
99
67
AC
A2
C6
EE
BF
21
96
86
EB
D3
FF
D9
8F
8E
1B
63
66
06
CE
29
A4
8C
3B
C9
21
E3
AA
F3
78
A7
09
C3
F9
BB
F8
65
B7
F4
E9
58
83
FD
7F
49
E6
21
5B
BB
79
0C
B1
11
0D
F9
2F
50
10
03
C9
77
1B
8C
37
04
92
2F
14
84
AF
6B
C0
0D
A5
8C
3C
B1
60
D6
DA
22
79
5C
25
18
48
20
8E
10
E9
16
4A
B8
2D
42
72
0C
BE
9F
4A
98
92
B6
0D
E3
09
02
E2
F7
58
8B
D3
E5
8A
7B
B8
09
82
37
5D
61
FE
C3
44
64
F5
20
AA
22
33
1F
D4
1D
C2
90
2A
FF
9D
B3
6F
C3
CB
48
C6
03
46
04
6F
CB
1F
FC
89
19
5F
14
E9
31
53
02
45
9C
08
74
3F
32
1B
E6
54
1B
B0
C2
FC
F0
F7
24
91
06
C4
EB
D8
A3
AE
22
DF
DD
C5
20
82
EC
04
B5
7C
75
F8
02
AF
BA
79
AF
26
7F
D6
91
6A
76
43
82
AA
25
35
5C
BE
3A
8A
64
BF
05
3B
84
82
BC
2D
08
FC
9A
C4
CB
14
8E
0E
0F
56
E3
C6
5A
C3
BB
52
48
B2
7F
1F
B1
5A
A6
4B
FA
A7
B2
01
F5
EC
8A
B7
FC
DD
C0
66
B8
08
7C
79
38
26
D6
B1
6A
75
94
4A
55
B8
DD
DD
10
BC
07
92
40
13
53
2A
38
DB
41
12
BE
EA
B6
D0
C2
F0
8F
A9
04
68
38
AF
95
C1
B4
25
80
0B
7C
2A
AE
60
9A
47
B0
77
8F
DF
83
34
39
48
95
57
D8
EE
57
12
42
77
B6
EA
0B
44
1F
1F
02
F4
6D
A0
10
26
41
DE
1C
53
63
5A
B6
F7
C4
B5
04
48
F7
BF
DB
05
46
9B
36
2B
E3
50
CA
F2
E7
12
58
64
EA
82
5A
37
07
3F
9A
2E
23
4E
29
70
EA
D9
44
23
0B
25
F0
4E
9B
DA
7B
DB
01
6A
59
27
6E
BB
79
0D
4D
EE
3B
5A
92
A2
F8
B5
54
25
0C
8A
DD
AF
DB
33
30
09
05
18
6F
C1
FF
02
24
3F
26
CF
B3
9E
8E
CB
D4
CD
E5
CC
DB
FB
C8
B3
3B
C2
27
CC
E0
9C
94
55
29
1B
BB
AF
06
23
4F
14
29
13
8C
74
B8
F8
54
5C
0F
F3
6E
D5
E4
7B
6B
2E
72
C6
12
DA
98
8D
B8
EE
A5
B5
13
49
2B
61
95
87
25
8E
1F
7B
FF
74
BE
F6
E9
5F
F5
33
E9
B8
EF
59
2C
7B
7B
41
F2
58
74
8E
9D
12
2C
3D
9A
CB
3D
52
B4
9E
34
0B
03
F4
4E
BF
09
88
BB
6B
30
42
16
F9
92
E3
7B
45
49
34
F7
FD
B1
FF
73
B8
2F
28
47
CF
7B
EC
C7
10
96
A4
E1
D8
63
E6
6C
F7
E8
D9
2A
F8
88
9D
E9
9E
C1
31
52
0A
12
F3
52
80
C7
FA
8E
2B
D9
DA
9C
69
7D
4A
7C
0D
B2
CE
BE
BF
E3
18
4C
80
0A
09
38
5B
02
8D
5F
F5
FB
0E
E6
C6
BC
89
1A
95
DD
F1
EF
B5
D1
F6
2E
8E
90
34
25
8D
72
B7
A1
D3
48
0A
80
E3
1D
98
CF
ED
4F
86
92
58
07
84
D4
B2
A8
44
CF
0E
99
73
37
E5
04
B8
4E
60
44
F9
DA
2C
ED
F2
15
E0
97
48
DF
80
4D
F5
CA
13
7C
C1
56
5D
44
FE
5D
C3
A3
1D
20
55
D8
2B
44
D3
90
1B
D9
36
FF
4E
8E
6D
C5
F5
DC
E4
46
05
CC
31
AD
65
4B
73
4E
12
03
5B
45
BA
BE
87
1F
3D
02
66
3B
4C
BC
46
7F
84
A8
EE
7E
65
7D
F6
A9
04
DD
48
27
42
78
9C
1A
24
FD
F8
67
7E
2D
00
04
A8
DB
1B
BC
99
94
44
FB
FD
59
F9
7E
3E
D5
FF
BC
73
2B
39
CF
D7
8A
F9
33
4D
F2
2A
4A
FC
6B
8B
E6
E6
BE
1E
58
FD
69
90
7F
55
F6
50
FC
80
CE
E6
41
FB
D6
9D
DB
93
64
B5
86
9A
94
AA
A5
BB
A5
EE
B2
60
B5
5E
7E
75
A8
7A
71
F6
12
3B
00
A1
D4
F9
D1
35
BA
FE
4B
EF
1F
8A
F4
32
45
45
B0
2A
14
A5
C7
A5
D7
60
13
1A
23
15
62
79
21
7B
29
CA
93
9C
8F
A4
55
BD
F1
F6
8C
C4
20
AE
EF
26
E7
3F
76
70
58
5E
21
44
52
CA
9F
80
E2
35
35
FF
0F
1B
B1
64
8F
9F
3D
D3
AF
1A
13
F8
58
AE
A1
71
DF
0B
04
7A
36
0D
D3
1B
EB
62
4F
20
9B
9E
E0
DD
C8
2A
64
07
D1
F6
72
C8
96
8A
C0
C5
1D
F3
A7
94
BC
49
34
8C
5F
80
8A
67
57
91
B5
00
CA
72
84
EF
F3
00
ED
61
7C
6E
B0
4B
19
22
FF
E9
8A
6D
27
52
13
11
A0
F2
2B
07
23
E0
11
0F
B6
0D
A1
FA
57
A0
63
9C
98
1F
03
36
6E
F3
D4
2E
3F
01
59
74
1F
A5
8D
66
61
DE
59
17
72
08
8C
99
25
12
59
82
42
2D
28
58
9F
1B
CE
9B
24
48
5A
7A
45
3A
B8
CD
04
DE
D6
DD
D0
EA
15
F2
B2
D4
89
1A
30
B0
C4
DF
52
CA
C3
EF
EB
9D
31
A4
B4
8D
63
46
DF
C8
0F
E1
92
23
DF
17
7B
B1
8A
5F
96
21
66
0F
F5
BE
E0
8F
47
20
E2
25
DB
12
EF
D9
C7
DA
C3
DB
FA
96
D6
15
3D
24
42
31
D2
C0
13
A7
FB
CE
C0
00
CF
90
FB
81
41
D8
20
FD
04
03
89
84
E3
1A
EB
F3
0B
36
C2
AD
E9
E6
36
9D
80
F6
9F
0F
C5
E5
2C
DE
66
B4
BA
D8
61
A3
65
DB
41
B0
1E
99
54
83
D4
4D
06
A9
D7
D1
B5
A5
7A
06
B8
20
57
08
A2
67
B3
91
0B
01
89
70
B2
96
05
97
CE
70
DB
CE
32
F8
80
3E
BF
71
F9
8E
00
1D
6E
7B
D2
CF
AD
B7
D9
3B
6B
35
7B
2E
49
C7
2A
86
68
AF
6D
46
9D
2B
34
42
74
B0
07
14
4E
23
26
FE
CD
35
5E
66
BE
A3
63
B8
57
8B
88
41
3E
14
19
6F
49
24
4D
43
D9
15
1A
E7
80
9F
09
41
7D
79
FA
24
13
CC
44
3B
1C
24
B4
49
A1
F4
DD
51
C1
0A
B8
F4
C1
86
64
89
81
B6
95
8E
C7
C7
0D
70
35
93
B0
EB
58
0F
3E
10
11
05
F5
FB
EC
26
05
6D
D0
C6
37
5C
1D
B1
A5
D8
07
85
94
93
A9
BE
C7
19
ED
FA
C0
D8
9C
AE
C1
F1
32
5C
D2
45
52
C7
FF
4E
77
7C
5E
72
64
9B
B8
03
97
F5
3F
27
D1
CD
CE
40
89
AA
0C
A7
8F
36
D5
11
78
E2
12
01
31
5E
FE
90
28
DE
05
73
E9
AE
FA
50
35
72
DC
ED
2B
77
8F
CE
3B
9D
B5
E5
44
51
8D
BB
4E
DB
C3
CD
16
F0
F5
77
DE
00
23
24
5D
96
83
8F
46
C3
2F
85
13
53
D8
9B
26
80
19
B8
02
E7
4C
45
02
83
E6
19
9E
2B
AE
23
06
0D
A2
25
80
89
63
60
B7
BE
41
0A
9A
95
48
18
F1
F3
B4
52
C0
E2
9A
50
45
32
98
E0
D3
55
77
8D
A6
EE
E9
81
6B
D0
44
8A
02
F3
6F
DA
BA
84
E0
1E
01
19
6A
15
FB
82
22
02
AE
BF
5C
0E
5F
01
C5
16
FA
75
CC
CD
13
21
41
09
E3
8D
6C
7F
1A
21
85
66
53
CE
8E
78
12
AB
C6
63
B6
26
C4
79
3E
81
DA
3D
D4
E2
8D
61
2A
5E
27
37
D3
71
EB
E2
84
C6
7B
65
76
11
60
85
93
AF
29
16
CB
AE
50
F9
6F
F6
DC
36
BC
EC
B5
D8
BD
6C
DB
67
49
74
D1
BC
F4
C5
46
18
BE
86
DE
A2
95
90
3F
D7
25
B7
CD
D5
5B
8C
0F
AD
8B
1A
B9
E1
66
1A
14
62
C9
12
1C
22
EF
80
80
26
3C
FC
17
5C
62
42
B6
31
2F
E7
31
CE
EB
30
BE
1E
E7
7C
A7
38
E4
40
FB
28
90
13
11
96
F3
E2
29
6C
DA
9A
CB
C7
33
E1
E3
3E
2D
FE
53
39
37
BC
73
E2
1C
65
EA
66
D9
6C
FF
F5
48
05
45
EA
55
AF
1F
86
30
C3
1A
11
BF
C7
88
C0
13
22
A1
4E
DC
EF
38
C4
54
4F
D1
6E
AC
A2
E4
36
90
8A
90
F3
41
62
BC
FE
E1
B4
1D
6E
95
8F
9B
91
B1
09
91
17
C5
69
FE
54
18
7F
9A
25
7E
0C
8F
64
81
B2
4C
5A
F6
17
DB
1F
FD
EE
26
2F
AA
91
4C
7E
90
55
81
0F
48
F8
D7
C0
93
D4
DD
2C
A4
19
CF
68
B3
71
01
1B
4E
0E
EA
DD
19
09
E4
33
98
71
0C
7A
3F
A1
17
FF
9E
5D
8E
E6
9D
4B
06
72
70
29
05
B4
89
F9
99
A8
A5
1D
15
0E
6C
EA
4F
2A
7B
0E
28
11
54
2E
6B
D9
EF
C5
D3
CC
D7
F5
53
44
61
CC
58
5B
9B
7F
84
FB
73
5D
72
30
E4
7B
32
D6
97
A4
85
DD
9C
4F
6C
F3
50
FC
B9
FB
66
D7
15
AB
D7
1F
0A
CF
10
B4
78
A8
64
16
A2
B9
45
24
52
D7
FF
D1
3E
00
3F
FB
21
B7
69
1B
21
1B
64
2F
2F
9B
ED
F8
C2
AB
9E
81
B7
5B
38
38
D9
68
93
CD
0D
39
AD
55
FC
04
81
2C
41
C8
68
A2
A9
BD
51
2A
D4
62
31
30
34
6B
BB
1F
AB
0F
D5
C1
A8
A8
28
83
C8
7A
E4
D9
E4
77
59
AF
52
A8
F1
8D
C8
06
4B
D9
E5
05
C5
F3
CB
A2
90
D0
82
B4
CD
00
C0
C9
89
D3
84
39
59
18
EE
27
72
67
EC
38
C2
F5
1D
E4
A9
00
19
90
ED
D4
7A
2E
CE
E9
58
56
8F
05
3F
6C
A5
74
59
73
8D
BA
F5
86
A3
C1
56
83
8C
81
59
50
BA
2C
C8
EB
9A
F6
1D
80
07
5D
74
34
56
34
E6
B7
E8
D4
DC
76
34
89
E6
B6
CA
72
36
C9
84
B8
1A
EC
84
D6
85
34
D8
FD
B1
DC
51
F7
16
15
2F
E1
2F
FC
F6
36
8C
04
F9
CE
6A
98
F2
3E
8E
1A
17
21
88
66
C8
90
4B
46
EA
11
77
3D
CA
07
C5
68
CD
C6
74
3E
29
91
01
98
88
F4
A2
26
BF
21
39
33
C4
D8
06
BA
79
C7
0A
45
5A
6C
7C
A7
8A
EF
F6
B2
DB
CA
D3
4A
88
BE
B4
E8
4C
1F
63
E4
3C
18
B1
22
52
A3
62
8D
47
C0
F6
78
36
3B
AB
11
C3
81
A0
4B
6B
3F
BB
0F
18
0F
29
87
7E
E6
A7
24
C6
60
7F
1E
37
5B
15
36
1A
D1
62
45
E7
17
2F
E3
F2
F6
77
B5
96
64
48
C7
27
4C
BE
D1
72
31
A4
33
F8
27
24
9F
DC
31
9D
3F
39
10
C8
F1
23
8A
04
A3
FC
7C
24
A7
C9
22
1C
DF
9F
B9
20
BF
EE
28
15
51
7F
59
80
5B
96
F1
86
86
A7
7C
7C
2B
6E
C8
EF
E3
AF
A5
6A
A8
97
1F
48
C5
D4
46
49
EB
A6
F6
39
E4
27
DD
5D
FB
1C
D9
2F
47
2C
49
36
73
6C
0F
E1
B0
5A
3A
2A
8A
FC
ED
2F
1D
21
CA
AB
4F
59
CC
BF
9D
F3
ED
29
AC
0E
9E
D4
4D
45
82
E5
C3
D8
36
94
B3
51
DB
8B
0A
46
E4
51
24
81
AA
BC
D8
F9
77
63
AA
61
49
88
83
80
82
61
B5
78
32
68
94
B5
98
6E
DB
7C
3C
CB
34
6D
40
E4
AF
81
0D
A3
02
E9
6E
DA
85
A3
98
C3
F3
C3
AF
BE
C8
1B
A6
AB
ED
D6
9C
D0
48
66
28
3B
C6
93
71
6E
AD
A4
AC
3D
79
3A
A6
7A
B9
2B
9C
4F
51
8B
94
7D
64
1F
BC
F4
27
F8
E8
2C
FD
25
33
B7
14
1E
B2
28
5B
11
F2
11
75
9C
36
A1
15
E1
B6
D0
CA
32
7F
B0
4D
9C
09
D6
B9
5A
B6
74
19
DE
E3
84
C1
3E
A3
DC
56
6F
DB
5F
1E
F6
46
BC
20
E1
1F
DD
DC
50
5B
85
70
13
22
D1
CD
9E
66
29
C7
1E
34
16
18
B9
F2
43
11
E6
BB
45
5B
54
D7
27
90
86
B1
0E
60
DF
48
38
0B
F6
45
30
BC
0B
BF
75
E2
D6
A3
48
DC
BC
BB
DF
EB
2A
8E
2F
60
FC
29
0B
7E
30
A8
7E
21
6A
55
EC
C4
27
C3
22
15
C5
02
C9
97
9F
27
8B
A3
BE
AE
35
57
E5
7E
7B
7F
0E
8C
C1
3E
59
A1
EC
E6
D3
55
33
C2
0B
6B
1A
F4
E8
2E
13
6E
EC
19
E7
E5
6E
BF
94
EB
EE
B8
5C
13
99
F2
C6
F9
9D
83
C5
48
5C
4B
DC
35
9D
7B
22
3D
4C
D8
A1
8F
E8
E8
93
11
BD
85
74
89
AA
E8
13
EB
15
BA
3B
DE
EA
B2
10
E5
E8
63
E4
B0
10
51
09
64
96
17
7D
9B
18
04
6E
F5
F4
92
D4
AD
45
6B
37
90
F5
7C
B3
63
24
B2
1C
6F
D9
A9
D5
F5
38
DD
B5
8C
D4
8D
C0
0E
62
D5
0B
6C
45
FF
74
07
15
1F
B9
4A
D0
16
64
6A
CA
B5
5C
2E
03
4A
92
27
39
88
EB
75
AB
08
78
8B
49
FD
E0
87
10
79
4E
02
E5
CC
55
D2
91
C8
AD
75
B4
55
2F
79
12
2D
80
4B
55
53
54
D4
3C
E3
CD
33
38
16
64
F4
4E
8D
D4
71
2B
69
B3
B8
92
B8
C3
DA
98
9B
A5
1E
24
F2
C7
A7
FC
7B
15
76
91
EF
F1
28
39
54
51
DB
0B
25
B6
7F
1F
40
DC
7D
99
FF
81
EE
99
D9
8B
CF
AE
09
71
70
A9
07
A1
C6
DB
B7
75
78
58
96
EB
28
DD
D0
FC
F0
32
58
59
54
28
53
C4
22
E5
AB
8F
C3
CD
AD
2B
BC
C0
E2
BF
28
60
D7
95
4C
3C
F2
3B
6C
CD
C9
5F
C6
BC
D1
6D
89
D2
83
86
5B
07
4B
87
4B
28
72
F8
7A
8E
F4
18
FC
2B
DA
C8
2F
51
5F
E7
50
FE
BC
2A
B7
80
62
45
B2
6E
70
F6
2D
FE
DB
C5
5D
E0
70
46
D9
C0
3C
9C
88
74
A4
1C
8A
A1
E9
06
3A
83
01
54
8C
50
0B
3C
2C
81
9D
FA
EE
A6
A9
EE
F8
FE
4C
E3
C5
F8
FE
7A
8A
B5
63
3E
BE
89
BE
F7
75
29
85
A8
DB
2C
26
3E
A4
64
56
81
17
99
31
34
39
1A
0B
DE
B9
A6
CE
6C
D2
98
83
B3
3B
1C
63
8C
3F
6D
19
EC
47
D1
39
E3
8A
15
9E
E0
03
72
E5
8E
20
59
E7
CA
E4
BB
C1
16
93
59
81
36
BD
B3
06
A3
7B
54
52
A8
23
94
75
D8
47
69
C6
F2
53
87
04
BA
4E
74
E1
DC
7A
41
01
83
02
ED
EF
70
7E
E1
38
FE
06
CB
C6
7C
98
70
CC
D1
99
11
08
E1
78
50
7B
E7
B7
8E
9E
0D
A6
02
C3
01
8C
54
5B
45
E2
52
22
F8
14
3A
15
E8
65
B6
DE
DC
F0
79
20
70
E0
9F
7D
A3
B6
0A
60
38
38
D1
97
C4
3C
B4
D8
12
1F
9C
99
E6
AB
42
67
49
3D
F1
7D
88
1C
83
41
E3
34
DB
00
86
C7
88
24
2E
FC
38
D9
1D
7B
A5
BC
8C
61
06
5F
CC
68
C0
F3
C6
A6
A2
69
57
02
AE
81
30
B2
21
A8
08
A7
3E
31
F9
71
08
6D
39
D4
59
FF
3B
39
C7
D6
CD
49
12
31
27
70
99
45
03
03
AD
64
48
79
37
25
7B
C6
09
D9
39
F4
77
EA
BA
A2
AA
52
91
91
9D
2D
E2
C6
27
92
49
F8
E3
1D
CF
89
B6
70
A3
93
B9
81
00
76
1E
97
1E
25
C7
ED
27
38
E9
81
66
62
2E
BC
2E
14
CC
0B
D5
CA
24
A9
B0
78
DD
6F
EF
6B
B8
4E
4F
DE
4E
28
88
19
B8
54
31
0F
62
72
98
18
82
53
35
FD
9C
46
B0
3C
D7
0D
6E
F2
2C
E2
94
90
56
6A
07
A4
48
09
85
D4
FC
B7
09
EA
01
66
A1
88
8E
01
B4
8D
DF
1F
FF
BE
91
D2
92
67
F6
96
45
A5
9C
4E
5A
92
27
5D
2B
86
02
F8
65
E0
E0
A6
FD
36
39
15
20
F5
46
55
17
E2
5D
E5
8C
D6
DA
48
95
46
A5
9E
FF
2D
9C
CE
B8
40
9E
1A
7C
97
7D
06
FF
41
C0
7E
DB
71
68
D7
7E
18
2A
29
34
7B
9A
CA
A7
7F
9A
08
A1
6D
75
06
D9
53
DC
6B
4B
11
44
FD
9D
85
02
04
8D
D8
9C
5E
FF
73
E8
3F
76
FA
66
13
11
85
F3
07
B1
35
8C
02
33
4C
60
7B
38
9F
3B
E4
AC
D0
53
A2
5C
89
42
DF
C0
88
C5
B4
80
E5
6A
F9
5B
35
50
03
40
B4
7A
9B
DC
E6
2E
D7
E9
BF
C3
3F
05
1C
60
FE
AF
F3
A0
5C
C2
BB
05
9A
D9
A9
75
CB
AE
AD
BF
59
1C
74
E8
E1
A6
12
4D
B7
49
0D
ED
33
C9
E6
FA
7B
07
E8
C6
D9
F9
50
45
5F
F8
96
B2
4B
AB
BD
42
49
AC
AE
64
93
E9
46
95
25
5B
81
E5
BB
93
86
C7
7D
C4
64
17
DB
EA
F8
CC
C4
FE
80
CC
D7
5B
9C
40
C1
6A
0C
F2
CE
DB
4B
B4
FC
43
CC
7F
34
58
75
A8
C3
70
28
63
08
11
AD
1F
5B
29
55
44
E6
F7
71
F0
47
45
16
46
D1
26
E9
F1
00
E8
D1
2C
E8
11
DE
1F
94
18
2B
1B
5A
95
25
60
95
1F
66
ED
E2
F1
C8
0D
BB
5C
6A
8C
1A
42
F1
DC
4F
01
51
B1
E5
20
51
A7
2C
31
DC
80
F7
FB
3C
AE
7D
93
C5
70
68
74
02
70
AA
61
BE
DA
B9
9B
1D
1D
45
A1
39
21
66
FE
F5
2D
5E
84
30
00
8C
20
64
A1
C9
20
3F
BA
D0
28
63
86
87
DB
62
C0
11
45
44
A9
CA
8F
7A
D1
C3
FF
29
E2
5F
0B
40
F1
12
40
82
12
E5
2F
75
8C
D3
22
B9
16
A0
33
2F
41
EC
00
8D
82
FD
D9
44
55
44
13
09
A3
0B
C0
42
B0
2F
B0
CD
C7
7A
24
BA
56
F4
7C
EE
47
F1
5F
75
B8
87
BC
70
58
DB
7E
9D
E2
9E
D0
5D
BF
AB
57
AB
6E
B6
D7
3A
8A
24
8A
11
28
5F
47
4D
EA
88
7A
CB
05
83
FA
A4
69
63
B2
48
E9
4B
28
C5
F1
23
7F
82
2C
17
0C
55
D0
86
A0
56
E3
C8
F4
56
B8
E6
09
C6
51
60
7B
73
A0
02
6F
3A
BC
68
92
2B
11
50
B9
F6
06
84
5D
ED
1C
75
6E
66
C4
C4
98
B4
8F
B1
2D
B6
DE
52
FF
6E
C4
EB
35
A4
49
40
4D
1F
FE
2F
1A
BE
9C
A1
4C
D9
9C
E1
12
8D
0F
B4
D4
7B
03
61
40
62
40
84
00
CC
47
D4
F9
2D
DB
83
8C
08
80
32
FA
84
F9
31
0E
46
DB
56
94
0F
82
A4
41
9F
3F
1E
0F
0F
F1
8A
E8
7C
41
40
07
9D
58
D6
89
4B
38
5B
01
7B
64
45
7D
33
CA
15
90
81
6D
A3
43
4D
11
ED
95
51
69
F4
09
BE
26
84
62
CA
E7
71
07
2F
7B
DA
80
33
78
24
04
98
53
92
0C
96
D0
58
76
6C
06
4B
48
DC
B6
73
56
C3
6F
B0
85
D5
90
45
9D
33
43
2A
54
07
23
97
24
45
7B
A3
6B
47
DD
62
10
66
00
C0
F8
B6
F6
B2
A4
2A
22
75
A1
BD
4B
DC
10
76
90
31
95
7B
6A
07
77
7B
5D
51
39
08
22
E9
DE
91
FE
51
E8
F9
89
7F
AB
C2
5E
49
1C
FA
0B
46
6C
1D
67
EE
C1
F1
22
3A
E3
BB
E1
50
2B
F7
A6
A2
39
4C
7F
6E
D7
4D
5F
8D
5E
63
CB
4A
7D
09
AC
49
FD
44
1B
E3
CA
48
D2
C2
4E
27
97
77
7D
58
93
BB
88
5C
D5
21
3B
5A
0A
42
3A
18
1B
8D
32
AE
EC
5F
43
D8
E7
02
16
DD
13
80
52
4E
C4
1F
D4
38
F2
76
53
A7
BE
1F
81
72
73
3D
F4
4B
39
1D
E6
60
27
B3
F0
35
06
F7
BC
C3
55
3B
B2
B6
A4
95
61
51
FF
B6
BE
9F
E8
2B
64
0E
9C
B9
D5
37
4B
28
74
55
5C
55
B2
9C
A3
D9
9D
5A
22
CA
47
01
6A
EA
87
D2
95
46
4A
2D
11
CD
42
8C
B8
15
4E
BA
55
14
05
86
52
A2
FF
68
21
DA
4C
99
C8
05
21
34
49
71
BB
8F
52
BC
83
81
65
9E
80
AE
08
76
18
77
32
BB
65
E7
1B
A6
49
A2
DD
A0
58
E0
18
DF
91
12
D1
3C
CD
7E
B3
E5
C0
D1
FF
E3
C6
D8
19
3A
EB
0E
92
70
EF
DC
F6
DB
2F
74
DA
E4
1F
CA
63
8F
E1
B5
43
10
C4
0A
30
89
45
58
19
50
7C
A9
2C
87
FD
E8
42
C1
2E
50
F4
DF
56
C1
74
4A
8F
DF
63
7C
11
6D
86
BE
B1
48
09
3F
0F
2F
EC
11
2B
EB
F9
CF
1E
0B
C3
8E
78
9D
86
DF
39
CD
95
5A
22
A5
FD
F4
BB
31
DD
AB
42
E3
D5
5D
09
45
34
5F
43
FC
1C
28
A8
02
8A
27
1B
4F
7E
84
AA
04
BE
94
BF
16
CF
B3
FC
3A
BC
3E
2D
B9
37
4F
74
DF
78
3C
F7
11
EB
04
E4
C7
38
7B
AB
88
85
67
16
C5
24
7C
62
58
0C
8D
B8
D3
E0
64
D6
63
2E
E8
C5
2F
F2
B5
48
3C
C7
05
A4
FA
4A
E7
07
B3
E0
F9
70
3B
BF
3A
68
92
60
CD
61
26
AB
5B
D3
F3
AF
D5
6D
4B
E7
8D
04
5B
5A
CA
CB
87
ED
71
F0
64
66
AF
DA
1F
91
0E
3E
2A
75
44
16
BD
AC
E8
95
9C
9F
5F
1C
5F
EC
CC
4E
18
E8
BE
83
91
17
C8
D9
F7
55
E4
F6
BB
B1
37
FA
E8
3A
82
E2
E6
FE
D6
1E
B3
02
B9
C0
D1
42
CC
39
51
0D
8C
97
89
5F
B4
2C
5B
C8
81
BD
FD
0F
EF
4D
16
D8
FC
9C
87
C4
2E
3D
3F
BD
78
35
89
CC
9D
5F
5A
BA
AE
92
28
5E
69
AB
72
94
8C
12
26
A7
71
DA
76
3C
FF
2F
2B
32
58
96
E2
C8
9A
81
97
54
5C
27
73
C8
B4
48
6A
09
E4
19
F5
A8
53
C9
62
EB
B1
74
15
0B
A9
A7
20
CA
97
02
36
D3
20
8F
61
F1
15
53
63
BF
F1
C3
60
7F
21
5E
E3
FE
B0
ED
9E
A6
4D
49
1F
60
D1
6E
63
BF
78
E5
5A
C6
FC
33
6B
00
5D
B7
1C
0D
60
C5
45
AC
93
24
C6
94
3D
AA
21
AC
CE
4F
48
70
83
CD
4C
C7
9A
33
6F
50
AB
F2
0A
3D
3E
43
D1
2C
56
26
34
B5
BD
F7
2A
7E
15
30
53
70
4D
79
F2
4E
13
49
25
81
9B
D8
64
8C
73
3B
AA
F3
34
95
54
9C
37
E0
47
9B
74
D5
30
07
37
93
9D
A2
E9
AE
77
FE
AF
D5
A4
17
EF
0E
FB
06
7C
81
72
1B
36
B1
7D
D5
A3
F8
72
59
28
BF
73
D0
C6
DA
94
BE
DC
F3
01
E5
56
30
43
05
DA
A4
49
79
4F
70
05
77
39
58
3A
0A
55
20
A5
25
54
FA
09
C1
51
C8
9B
BE
25
2F
72
1F
1C
F4
79
19
47
B7
22
DE
2C
32
E0
1F
3B
C3
80
A2
3C
35
82
81
8E
63
74
82
D3
B1
4D
A0
C2
03
39
06
10
AA
B6
D4
1C
60
CC
AF
13
60
F6
58
A2
43
ED
4F
18
A4
BC
96
BB
51
22
50
41
AA
E8
60
61
ED
18
D1
D7
DA
1C
66
A1
44
58
D6
F5
F8
1E
08
D3
45
9C
42
3D
94
27
AF
E0
C9
A1
A2
44
EE
B3
3D
8F
FD
9F
97
D7
C3
63
45
EF
61
93
D2
46
4B
7A
F7
9A
C2
62
4D
32
0D
43
02
45
31
C8
05
6E
71
BC
D0
F7
05
F4
A3
B9
68
D8
55
B8
F1
96
34
CB
03
29
83
70
2C
38
09
06
57
31
DF
72
D0
8F
FE
F7
E2
56
EE
1D
6B
C1
70
FF
B8
47
F3
37
66
D4
30
C8
12
88
AA
4B
DF
B7
F9
07
A9
C0
C3
BB
F7
E3
0C
FC
13
CB
52
97
B7
F3
6D
F5
5C
35
76
55
F4
7D
AA
EE
F2
2C
F5
EA
7C
8A
65
11
1B
5D
AF
58
67
56
D9
3C
D1
25
9D
FA
AC
A8
2A
03
80
17
9E
9A
7C
98
32
D3
19
3E
25
2D
C0
2D
CB
7F
D9
64
92
5A
C1
B1
96
CA
7C
96
B1
C5
15
CE
AD
CC
28
B9
28
E7
58
2E
C9
2C
0A
39
4E
EE
09
2A
71
F3
93
D1
90
DD
9A
A3
B3
A5
9E
08
0C
9D
BD
1D
97
FF
AC
71
4F
D1
3F
CF
E6
4D
11
A2
65
9A
99
A4
9D
47
90
4A
6C
AC
4B
08
79
6F
06
AF
2B
8A
39
C5
76
37
F7
DD
0E
BA
88
82
03
B6
E0
16
F7
0E
04
7F
EB
28
37
83
33
3E
D8
4F
C9
24
CE
04
67
A7
91
48
2D
2E
92
47
3A
66
14
80
AD
84
0E
23
1F
52
CE
00
94
7C
D0
9F
1C
65
8C
CB
9D
BB
A9
3F
78
EE
B4
C8
