2C
ED
80
C3
EC
A3
88
22
F5
F4
21
49
4C
06
B3
7E
5D
F0
D7
EB
3A
A9
02
5B
98
68
23
EA
EF
F4
6F
AD
8B
E8
8A
8D
54
66
52
A2
D7
10
C9
A1
19
EB
5F
8F
71
51
39
A7
CB
E3
94
47
24
FD
2A
42
F0
48
D8
28
D4
B3
85
5D
16
66
CA
C8
40
09
CD
22
2C
48
E3
FD
49
5E
C4
EC
A2
BF
49
2B
65
32
4E
B9
AF
1F
67
13
1B
01
DE
0B
80
37
E8
BE
F2
A7
A4
8C
47
EE
06
58
28
AE
D3
57
16
67
87
36
D3
B4
B6
D0
9F
A2
6E
86
56
48
03
58
06
DC
DA
AC
CA
05
E7
A4
B6
58
00
37
47
F5
6D
2A
2A
C9
97
FE
8D
99
0A
8F
0D
80
06
54
63
18
3C
4B
F3
C2
A0
50
A8
20
36
2A
E7
C8
49
6C
6E
C4
87
9E
5A
3D
BA
BE
53
FD
7D
A3
65
CA
8D
DF
D8
12
BD
FB
EF
C0
F0
52
EF
88
4A
AB
DC
3A
66
1E
0D
91
05
84
1B
CA
91
41
1D
85
A1
E9
4E
59
93
15
35
36
0A
D4
BA
41
5E
A1
D4
A2
7A
8C
8B
43
9E
BD
F6
C5
E7
82
71
69
E4
6D
77
E4
24
F1
4A
60
EA
F3
A6
09
FC
9D
45
00
3F
BA
42
3B
BA
B6
E8
52
31
61
0E
99
30
16
E1
AF
2A
1A
83
E0
E2
B7
61
64
63
7E
65
30
C2
43
AB
5D
FB
80
A6
E4
93
1D
68
44
F3
8C
C5
B7
83
D9
55
02
B5
AE
24
E6
F1
B0
B9
95
AE
43
9F
22
56
68
7A
D2
A2
00
9B
53
71
6E
D9
97
16
D0
83
4E
76
32
09
4D
D3
D2
1A
EF
71
02
53
0B
60
E9
A3
99
6F
59
04
C9
12
F8
D0
7B
FE
25
B1
75
BF
28
9F
49
F6
6B
62
55
97
5A
96
8F
75
D5
CC
AD
F2
D9
BC
8A
60
1D
80
95
1A
EF
1E
2A
7D
17
12
35
B8
03
D6
2B
F0
E6
35
6D
35
63
7F
77
C1
BE
A1
DB
06
1D
83
FC
95
0D
AF
66
D8
C9
2F
BB
5E
14
30
F0
43
BF
BB
31
57
AF
74
FB
19
C1
AB
E0
CE
5E
A1
73
E6
63
DD
6B
63
B9
37
D7
FF
67
49
4D
8A
67
05
90
09
43
4B
DE
C0
F7
CB
84
63
5C
70
49
C5
B1
7D
3B
AB
FB
D1
02
EF
0B
23
EE
EB
0B
A2
C3
9B
54
18
29
F2
52
B0
7E
48
90
36
64
38
CA
A8
D4
51
24
38
6D
E1
61
95
2B
A5
00
DD
2D
32
F3
AB
89
4D
14
FF
65
07
55
9C
21
36
86
46
C3
89
D9
2F
78
DB
A1
67
0E
AA
D0
02
84
C8
17
54
6E
5B
02
AC
B2
47
AA
13
4B
2A
67
48
D9
FB
9D
E8
D8
D7
47
A3
16
9D
F0
3B
A0
C7
7A
4D
82
36
D7
11
2A
78
76
60
4C
78
F1
F2
C7
D0
E7
41
D4
52
F7
E4
2F
FF
2E
1E
D4
D8
70
D5
13
A4
2E
ED
B6
E7
7C
08
43
AA
1B
93
60
18
48
93
3E
18
BD
2E
A0
28
82
F3
E4
F8
EA
00
3D
95
26
DD
45
56
5E
52
E6
E2
AB
63
99
D3
0F
8D
FA
61
06
80
06
F1
27
C4
19
52
3C
09
DA
35
1A
C8
2F
44
35
B0
98
A3
97
8D
7F
19
F0
BB
AB
44
48
E6
47
18
25
D1
20
BF
E5
29
DC
09
E4
7B
5C
8B
29
BA
F0
D5
1F
18
B4
1E
EE
A3
24
94
A6
5E
5F
2E
55
ED
0B
E4
51
22
C0
07
DE
FB
87
E5
50
FC
64
F1
F2
DA
B1
8E
FF
F6
52
82
FC
D5
F1
DD
39
8A
4B
B8
CD
09
FA
DA
33
07
21
08
1A
68
A4
DE
96
DB
4C
2D
0E
FE
F2
A1
BD
96
E1
5E
BD
85
6A
85
FB
CD
64
A4
E5
7B
DA
8F
B3
D7
B4
82
2A
3F
C8
D6
8F
C8
CB
E9
F0
2D
DB
BC
68
67
E3
37
9C
25
50
59
98
F7
12
BF
1F
98
52
D0
99
E5
B7
C2
2A
DD
F0
BB
37
55
75
E2
10
01
53
D4
AB
D8
C1
A9
24
17
1E
55
34
64
79
6C
BB
F9
AD
6D
7D
42
12
01
38
F8
CE
86
42
EA
90
C8
8F
59
BA
13
50
5D
C8
98
B8
5C
0B
27
9D
46
EB
30
E5
BC
18
82
10
88
72
05
97
AC
B6
14
03
DD
FF
D8
91
0F
50
70
21
76
C5
AE
E9
6B
61
30
2B
E7
E2
7E
4B
8D
CD
A7
32
99
C9
25
34
AD
58
20
C6
64
8E
6F
DF
B9
48
65
72
C9
EF
13
13
1D
BC
4D
78
D5
01
8F
30
7B
15
F3
A4
37
E1
47
69
5D
DF
A6
BA
1F
EB
7A
5C
4D
EC
E5
00
16
72
C2
B4
10
5A
52
DB
79
A8
80
17
E3
10
0A
FD
DC
03
27
7A
97
C5
2E
1F
AE
74
FD
CE
8A
37
AD
A6
28
9A
EF
AE
0E
30
9E
00
D5
C0
B3
A1
5A
32
8D
0C
33
B0
46
3D
A1
D3
F5
48
3B
1D
C5
64
38
F0
AD
D8
20
E5
43
2E
94
4C
0A
A7
97
E9
48
82
13
52
21
72
70
0D
8C
95
43
FD
47
70
64
16
95
A1
64
49
4F
77
BB
A2
3E
E0
AD
DD
9F
4F
20
14
D4
0F
1E
E6
B1
E0
A1
72
68
63
15
DF
5F
91
69
DB
49
97
1D
25
E4
7B
04
92
F3
91
A8
42
0F
77
AC
66
8E
05
D6
52
92
EF
3C
8F
76
30
74
E8
41
B9
FE
BA
82
D8
0C
91
12
25
FB
B7
F0
83
FB
46
DD
6F
88
FF
DE
69
CD
C2
D2
49
D0
E2
71
E6
A2
6C
A3
FC
11
0F
30
13
7E
5F
57
6A
8B
88
1C
EC
7D
D5
D4
D9
EE
A7
AA
13
C4
BD
09
A9
C0
EB
5C
AC
67
CA
C5
01
B4
34
85
6B
D8
A7
DB
DA
F1
31
B8
E3
7E
66
F7
04
C5
98
B1
E2
56
4D
4F
E3
20
00
58
B8
4D
99
6E
55
E9
88
91
DA
23
BE
DA
B2
11
E2
29
EC
76
13
95
C9
32
D3
CB
93
B8
3B
01
48
E7
DA
CE
F8
AB
71
3F
5B
09
05
95
F4
EC
53
71
82
26
45
21
1C
B7
45
2B
95
30
46
D3
85
39
42
C3
4A
4B
BD
4D
1D
65
9F
0D
FE
96
60
23
AF
86
56
AC
BC
2C
1D
E9
C3
6D
D3
2E
46
58
41
7A
E2
36
5D
F3
A3
7B
06
67
A6
B6
7C
74
6F
CC
DE
38
74
A5
83
3E
DC
92
7C
EB
27
6C
12
36
54
95
D0
06
20
E8
32
17
30
0A
B1
54
7C
E9
95
CF
0B
82
D8
21
D5
92
B0
FB
FB
5A
1A
2F
C0
86
F3
F5
5B
76
39
7C
E1
E4
E5
73
38
F7
0D
9D
CF
F7
89
E4
7D
DA
74
99
34
FA
DF
A8
4A
EE
75
48
33
21
56
9F
3B
0A
5C
40
75
E5
5F
CB
9D
04
95
EF
30
F3
43
29
13
46
50
FE
2F
A3
5C
4D
82
04
29
8D
44
B7
B2
2E
63
84
F6
C6
05
1A
D7
53
88
5C
83
43
92
9A
65
08
52
9F
05
88
65
58
8D
00
92
E9
F8
C5
3C
71
0F
F2
14
61
7F
5C
22
0E
F4
4B
60
68
9A
B2
74
61
B5
CC
3C
E2
F1
19
9A
B5
A5
26
70
13
B4
28
F9
F7
5A
F9
65
D7
99
FA
40
A1
40
95
A1
7E
E2
BD
06
21
44
F6
A0
72
7C
6B
BC
AD
45
D2
69
DA
12
34
3C
F1
DA
7E
2E
14
B4
F8
7B
E0
4A
F8
94
A6
D8
E7
CE
27
8D
6D
F7
AB
50
77
09
A3
2C
79
2F
36
9B
3A
24
D8
DC
AD
11
C6
10
22
19
31
48
BA
43
F1
7D
D5
3B
B9
25
B5
69
49
D1
4B
2C
49
5D
62
4E
25
D1
0C
51
17
89
AF
D5
6B
D1
0D
BF
C9
0F
37
7E
3A
0A
D7
0A
AC
3C
02
3F
99
30
E2
12
DD
3E
40
F3
DA
86
77
90
EB
1D
04
20
52
BE
2F
85
C0
1F
77
1F
E0
FB
5C
79
0A
FD
CA
3E
B1
9B
12
84
7F
56
A7
13
B9
42
F6
BD
75
4F
6C
C0
A1
35
7C
93
E5
5E
14
50
0F
31
FC
74
BA
A9
D6
BA
00
A2
ED
14
28
C3
42
C3
9B
99
8A
F9
0E
04
CE
3C
4F
F8
44
3D
AD
7A
B3
84
1F
22
81
DE
26
FE
03
85
C0
AE
04
61
EF
BC
11
DF
48
76
16
AF
5C
BE
8F
06
58
D8
41
74
CA
D3
19
51
FD
68
AA
5A
E9
D2
EA
E1
8A
18
43
9D
C5
22
9F
3C
21
45
3E
89
31
91
0A
23
AB
B0
80
3B
0D
DA
7D
93
47
F1
13
56
98
F0
4D
4E
C3
EA
CC
08
B1
9C
A0
77
5E
B2
8E
31
54
5B
EC
D1
EC
26
F9
55
9F
65
4C
85
36
F1
DC
F8
4D
5A
11
84
F3
4C
EF
86
DB
FA
36
47
98
61
67
B3
DB
3C
F9
CA
CE
12
71
AC
B3
7D
64
BD
B7
78
1B
FB
72
52
EF
3B
7B
14
40
8E
ED
D0
EB
51
6B
F6
E2
95
95
89
E3
C9
2E
66
D1
4C
C5
64
93
5B
32
42
49
A0
C1
AE
4F
67
45
3A
FA
C1
76
1F
4A
5D
56
D0
6E
1A
D9
BF
60
29
4A
74
E9
7A
C0
FE
44
57
DB
A6
01
6C
15
2B
8D
CD
A8
DF
13
1D
4C
1D
B7
7D
E8
A2
5E
57
AE
BD
4D
75
BB
77
01
89
71
A1
06
28
E3
D6
5D
A6
95
37
75
2D
83
FB
F4
49
2B
C8
FE
0A
28
C5
EE
79
FE
96
92
03
D1
A1
EC
BB
F9
7C
EE
7C
A5
6D
18
6C
90
73
C3
68
D8
81
D6
F0
10
25
7F
46
DC
5B
DC
07
AC
B0
73
FD
EB
40
9E
42
2D
14
E3
65
87
ED
25
22
DC
DE
F1
C9
8E
06
92
8A
E8
50
E6
35
A0
59
68
2D
B0
17
3E
3F
09
41
E9
BD
BD
18
82
91
B6
FC
18
EB
39
FF
07
01
64
09
0B
35
BE
FE
75
04
8A
A0
21
E8
22
72
68
24
F8
B5
BA
A1
E1
75
1E
39
5F
3D
38
32
55
25
21
87
83
3E
8E
BC
74
BB
AC
AF
41
7F
43
17
A0
47
D7
4F
48
A0
30
B1
A2
C0
33
3D
25
9F
7B
DC
DE
C0
A3
D2
CD
D7
4B
F3
B8
C0
AB
29
5E
C0
F5
0D
20
CF
A6
AD
AB
02
DB
0F
34
AD
6B
EE
CF
03
2F
EE
93
2C
72
3B
3E
BD
22
CA
B2
5C
43
16
71
5F
36
C6
8D
7A
D1
FA
22
75
1C
BE
6D
6E
51
45
F0
E9
A2
B7
2C
DD
91
46
A0
2C
FC
9C
3C
80
D8
7B
5C
BB
0F
D0
47
98
26
3B
B4
85
BF
08
E1
E1
2C
FE
72
70
84
BD
EE
CF
FF
0A
CD
14
3A
95
4D
BD
93
73
31
3D
4F
E8
8E
73
60
8C
29
32
B6
EF
71
17
8A
77
13
D6
C7
3D
5B
FE
40
85
43
0E
1A
CA
86
FC
D1
FC
41
DE
FD
F4
48
9F
7C
E0
96
24
43
44
23
2A
F6
4E
8B
B0
E0
D9
96
99
2D
8D
DE
CE
26
96
E9
61
14
00
8A
67
1E
65
80
83
D9
68
CC
10
D8
D2
26
A9
F3
29
5C
EB
CB
DE
45
BA
1B
B6
9E
8A
5B
48
88
53
99
38
B7
EC
61
CB
11
A0
B7
BF
7E
9D
B6
0C
3A
3E
2B
50
42
EF
EB
6A
DF
1A
03
ED
6C
72
DD
11
82
D2
06
72
EC
CF
38
4B
2B
0D
70
A8
EC
B8
6C
C8
98
D4
B9
AE
22
9D
2F
15
A2
39
9C
00
40
7A
68
2E
AA
7D
1D
5D
C3
B5
CC
17
F9
BA
27
E8
BD
7C
59
A2
9E
C8
8A
B0
9B
3F
5A
14
8A
A7
C9
77
1F
38
E2
17
41
49
B0
1A
3B
78
A0
43
FD
9B
0E
3F
B2
1C
2E
45
EB
66
0F
8E
BA
8E
B8
8E
CC
A8
C2
E5
90
5D
3D
08
72
28
87
18
FD
3A
87
9D
43
84
5C
27
DE
B4
65
69
A5
69
AE
A7
3F
5F
C1
2D
82
65
4D
4B
EA
B3
41
A7
35
B5
71
2B
4B
83
65
54
AB
FA
AD
2D
D1
58
D6
D3
7E
E6
1B
7E
9D
72
4B
FD
6D
43
70
95
CA
6F
6E
C7
57
72
83
E7
D4
97
34
BE
70
19
A2
87
35
56
EB
5A
2F
4E
F7
B0
22
EB
DB
88
43
6F
41
2E
19
86
7C
0D
47
55
A5
B6
57
A4
32
BA
6A
C8
10
A6
EC
70
CF
AC
37
B5
57
37
CB
40
F4
44
44
52
5C
AB
4F
2A
BD
88
BF
57
24
36
5F
83
E7
AD
9C
B6
F4
97
7D
4E
2E
5E
E0
BB
39
AB
68
73
C1
B9
CD
6B
7F
B1
3A
5B
F5
CB
18
B2
C5
E8
C7
B3
39
39
1A
78
A5
F2
62
FD
1E
4D
15
22
69
CF
C6
D3
CC
66
E3
A2
F5
E0
2E
67
55
3C
CB
BC
F2
04
79
37
8E
C6
36
D1
D7
5C
08
49
64
92
35
3C
2B
0A
71
6B
4E
61
3F
77
8F
39
75
A1
1C
04
6C
AF
B8
61
62
4A
6C
53
A6
6D
19
DE
52
FE
24
D6
DB
50
02
83
DC
C5
56
BE
07
C2
1B
A6
6A
C1
3F
11
9A
7B
E1
5C
C4
85
2B
CD
6F
B2
58
9A
DC
87
D6
2D
E2
FF
C6
D0
FC
8C
AF
FC
A0
27
1E
4D
DF
16
59
DE
FF
5F
A8
EE
D4
70
CB
E9
89
B6
9B
36
69
B3
FA
C4
8F
54
57
EB
0A
78
F5
B5
12
82
3E
07
BF
71
93
3E
33
D0
F1
8A
CC
34
1E
96
8E
4A
34
FC
29
E6
48
B2
63
75
1A
9C
5F
06
C0
49
52
69
0B
8E
4E
83
F7
65
A5
5E
B6
AE
7F
E3
71
F2
55
B6
0F
4A
30
E7
6F
68
4C
65
CD
0D
53
C6
BC
50
30
BF
45
40
4E
47
72
1B
C6
88
1E
2D
B6
25
62
57
95
08
6F
EC
AA
67
B5
9C
31
D8
2D
DA
53
C5
D1
25
7B
B2
55
51
12
0E
F4
9A
5A
A3
08
D6
47
FE
BE
BD
91
6C
35
36
09
A3
AB
C4
31
A0
17
33
30
6A
1C
FC
A8
33
7D
C4
62
6E
3F
6F
8E
B9
B1
53
77
81
4D
08
16
40
96
10
4B
F4
CC
DA
70
0A
51
B8
1A
31
61
15
05
84
56
FD
17
91
95
DC
55
EA
E3
90
88
41
92
FB
C9
B7
7F
43
BD
8D
25
E8
42
BF
76
5F
45
64
C9
F6
D9
E5
0D
A6
EC
57
F9
05
4D
9D
8D
B3
E3
21
E9
02
29
AB
E6
E2
3B
13
D6
35
52
6F
A9
E8
AF
68
78
CC
B7
BF
7C
DC
E6
E0
E3
16
56
80
03
A6
84
D1
1B
BF
6B
86
29
73
CE
22
37
03
DD
F6
E6
AD
E0
52
29
BB
B5
08
A4
AA
A5
89
04
40
92
BA
CD
37
C4
99
C0
70
C8
08
EF
81
46
42
FC
F9
17
90
4D
35
68
83
3E
8D
F5
F9
2C
E6
4F
89
1A
13
E4
5F
C0
52
89
8E
85
DF
D4
65
30
CE
94
DC
DB
52
EE
F3
91
60
8E
B7
D9
95
3F
36
84
C3
8C
B0
36
B6
F3
B7
8D
38
F1
1A
0B
C7
F6
AC
84
C3
46
04
B8
6E
A7
CF
F5
2D
87
11
E9
C5
EA
37
A6
7D
F7
C8
EC
1D
68
A4
16
1D
A5
3B
92
86
33
54
24
87
01
49
9A
05
E4
55
1A
D2
95
61
01
68
76
86
6B
C1
75
53
61
5D
03
AC
FB
0C
33
E6
66
FA
6E
59
FF
7D
06
68
D9
65
00
70
2B
DA
52
31
37
E8
B9
2E
6D
A6
BD
CE
6F
6F
5D
D1
27
0F
71
1A
8C
88
C1
9E
5C
53
36
88
C8
59
74
7A
7C
8E
0C
0F
D8
A3
1B
E3
32
2C
0D
FD
36
BD
82
EB
91
AE
0F
E9
82
CA
58
4B
85
A2
AD
05
A6
B1
6E
63
D3
33
78
71
77
54
82
E1
E6
8C
61
EE
A1
54
82
C9
CC
CF
A8
7C
10
59
9C
A4
F4
5F
A7
51
AF
09
12
83
3A
3F
93
DA
6B
F1
14
31
83
B3
93
0C
1B
32
5B
3B
20
12
2E
E7
C1
28
5A
1C
2A
D5
2B
1A
67
8D
ED
86
86
F1
71
6C
23
0C
FA
47
FC
F6
58
E6
7C
D6
01
DC
BA
6E
F4
AD
4E
E0
AA
38
8A
9F
B8
DD
D6
65
57
3E
7C
DB
E0
E4
AE
F8
92
50
32
39
59
86
02
53
BF
85
17
07
AD
D5
9E
42
A8
EE
72
62
42
45
5C
FD
5A
24
66
E2
0D
00
14
40
93
64
4C
81
22
87
BA
71
D6
6D
BC
87
98
61
A3
9C
7F
71
04
B1
83
55
91
52
38
90
13
93
01
0A
5C
62
41
2E
F2
0D
58
A9
83
B8
6E
87
94
8F
56
2C
18
B9
94
A1
E0
A5
F4
F0
B9
CD
EC
9E
3F
A4
58
D6
FC
97
5A
C3
74
BA
33
38
C8
3B
CA
7E
19
85
CD
A7
46
55
D0
40
6A
E6
75
B7
94
E6
8E
C8
D9
76
AD
9F
D5
BB
72
DE
A7
84
1E
07
89
16
3D
1E
C2
C7
21
02
ED
C0
23
E3
4E
D5
78
FA
A5
54
67
04
FB
A5
2B
34
F2
05
BE
FE
59
20
4C
D9
D5
7B
FC
CF
FA
54
F6
40
26
E2
F1
F4
A8
34
D7
F5
8A
70
A3
D7
CC
3E
91
91
7B
9F
93
36
D8
3C
07
4D
60
31
0E
0F
3F
6B
4C
06
A6
E6
E3
4F
F5
63
7C
11
8C
8C
4D
A8
DE
8D
2E
FD
6B
58
EE
A7
DC
17
D7
EC
C7
04
76
D2
CC
94
E4
88
FB
7B
97
B4
97
05
2E
8F
00
56
11
56
E3
41
9F
2F
34
F8
E2
1D
8C
80
D3
15
F6
60
A9
0E
DB
AF
5F
24
C7
EB
E4
A9
71
C5
A4
42
A1
AF
EE
8B
1A
09
20
3E
EF
12
80
BD
98
89
EF
C4
C6
EE
5B
5B
BC
5A
9A
6F
1F
2B
10
8D
E5
B1
2D
AC
B1
72
4E
CA
A5
48
CD
FD
49
EC
F4
AB
64
BE
5E
39
19
D4
A1
32
2C
9A
02
29
D2
7C
37
F8
27
CA
8B
BE
F8
34
19
3E
01
FC
97
EE
5E
82
3B
17
99
E8
39
C4
31
8C
BE
DD
E1
97
E1
3C
37
FF
07
99
CD
E4
FA
B6
F3
D2
CB
E4
30
27
C8
45
7F
DC
19
5A
04
0B
6D
C7
76
FC
B9
6B
7B
88
A5
41
F8
85
30
4C
70
F9
2A
67
D1
95
BA
49
B1
B5
D2
74
56
74
14
D0
1D
4E
8C
C1
1D
20
62
99
34
AB
82
39
77
86
58
64
37
0A
9F
8B
24
95
14
87
7A
78
0D
DE
BD
3C
DE
C9
BC
3C
87
2C
67
C8
06
40
98
0C
E3
12
DE
1F
62
20
FA
3F
D2
05
83
80
BA
2A
F3
B8
81
90
A7
A9
44
B5
1A
8D
AB
FA
0F
0E
41
D4
FF
05
11
70
D6
CD
CE
92
E4
68
8F
0C
DD
4D
0B
49
8E
C0
6B
69
BE
B7
3B
F9
60
F4
E3
99
B3
1B
D5
E5
D5
DF
DB
E3
CB
9E
35
99
63
00
27
74
A5
8E
AA
DA
FC
37
F5
91
66
26
95
3E
2E
35
03
48
EF
9F
CB
91
C0
69
14
9F
FA
B0
DA
2B
50
A5
96
D9
9D
7F
A9
88
2F
27
5A
9B
1D
94
28
EB
69
EA
8F
ED
2D
E3
5F
22
F1
C6
23
AA
9C
B2
79
56
59
6B
10
A5
EC
E7
B5
98
80
95
D1
69
66
8D
5A
89
B3
8A
86
2B
C3
2C
75
07
0D
95
A8
E9
0C
3F
65
83
30
DC
3D
3E
29
2D
75
0A
3B
33
53
D9
D2
55
FB
E0
07
AF
38
CF
3F
7A
62
80
66
1B
EE
B9
84
41
20
C5
8B
75
FA
32
C3
79
19
56
C6
A2
57
92
46
5D
17
4F
33
03
1E
3D
2B
8E
1A
3B
AA
1B
30
14
B3
6D
48
42
5D
17
C1
B4
20
6F
C5
DA
EB
5F
9E
59
99
7D
98
FA
3B
9F
0F
64
E5
FC
6C
90
F7
FE
85
F5
79
8E
56
50
0B
41
6E
A9
2C
B9
78
3E
CE
22
C4
D6
AF
6A
90
E2
2D
6A
08
D8
6A
53
59
A5
5E
25
BD
CD
A4
EA
0C
8D
48
06
86
53
0B
BE
EF
9E
5F
90
E7
1D
1A
95
11
AA
2B
E1
64
5C
20
56
2C
AC
60
DC
97
21
03
42
B6
47
CD
19
1F
C5
87
40
06
0C
C1
25
13
81
F4
80
EC
1A
BA
7D
E1
3B
F4
DF
79
AB
22
5E
92
59
8C
E1
6D
B1
FC
B3
BD
5A
B7
BE
0D
74
B4
7E
9F
B3
E0
8A
08
77
26
05
63
0B
23
3C
B0
32
D9
48
59
12
96
7A
D3
2B
C8
E6
5C
56
D9
B1
0F
3E
F2
82
DE
02
53
98
97
5E
46
CC
9D
BD
97
83
87
E0
FC
66
D9
46
9F
6D
4E
7D
4D
AD
F9
C6
A4
C0
71
CB
43
2B
89
B8
9C
D7
A3
71
8D
BC
E6
B5
10
B9
17
60
5D
C9
F0
04
1C
F0
87
6E
13
17
00
CA
A5
C7
F5
73
ED
2E
F4
D6
5A
73
49
E9
7F
76
6E
8E
E3
9D
D6
0D
2F
A3
65
35
1E
81
C9
A1
32
A3
FD
D7
DB
8B
A0
59
0F
AB
1E
96
4C
E5
E5
EA
E3
B6
4C
10
05
4D
3D
EC
79
81
22
2E
5A
03
AB
BA
29
93
AE
E8
15
B2
9F
E7
26
02
BE
E9
56
2E
15
58
A6
2A
86
C6
7B
27
85
E4
A1
7F
A8
EB
12
FE
CF
2F
DF
BE
0B
62
4B
44
C8
B3
15
CF
A7
1F
2A
34
C4
0D
9C
BA
B9
47
E4
30
82
E3
84
7C
63
00
90
69
2A
CE
01
48
49
9B
CF
68
07
EB
D8
71
C8
7C
EB
A1
8C
26
61
02
B7
10
88
1A
F9
DE
13
99
92
84
AC
A2
16
D1
16
13
2A
49
21
74
17
49
38
25
82
D1
28
35
E0
00
40
A0
D6
7E
39
C7
8D
D1
6A
03
D2
2F
5C
79
A0
85
D4
92
56
53
91
B7
9A
E0
6C
A3
8B
72
AA
EB
2D
64
CC
C9
6E
BC
78
5A
C6
72
6A
11
E3
10
DD
E5
2D
21
C0
00
51
94
49
33
8F
CC
50
C4
39
8A
DD
38
8D
F8
40
4A
54
15
E8
A9
AA
E1
1F
E3
DA
11
46
1A
18
1A
5A
2F
65
76
6C
74
8E
B4
E3
95
49
B6
BD
36
9D
45
02
1C
2B
A4
23
92
88
B3
16
67
5B
EB
8B
CE
F0
F8
CE
E1
51
54
DC
0A
8A
A9
BC
9B
65
AF
CE
69
F2
BD
8A
B0
41
5C
0D
BB
15
31
D9
39
56
FA
9D
57
93
67
39
EC
6C
3F
AD
0A
9C
8B
9C
9F
59
B3
64
97
BE
4F
1B
1B
28
1A
C3
1E
7A
3B
FB
03
CB
0E
B3
5E
6F
7F
13
04
5C
95
93
FD
52
37
1C
0D
E1
A2
E4
65
2F
A8
5F
E9
1A
79
C5
D7
5D
B5
BE
5B
E4
42
1C
DC
9E
F7
58
4C
5B
E7
48
43
98
BD
A2
6A
B0
03
73
98
C5
AE
D9
68
BF
A6
8C
F2
37
E5
0D
3D
86
9D
38
9B
25
0B
85
EF
9F
98
7A
8F
16
DC
30
92
A1
3C
BA
7D
56
AD
F3
1B
AD
BB
D7
E7
9F
ED
5A
D2
80
89
AF
E4
06
2C
5A
D1
6A
93
08
3D
6F
AB
6F
1D
17
3A
D6
89
81
78
51
8C
FE
2E
43
FC
FF
A4
B1
7C
F9
F0
F3
54
91
AB
DF
D8
52
FD
DB
12
69
02
4E
46
63
F9
D0
B7
37
89
20
6D
5B
4F
D1
80
E2
95
D3
9A
1F
C8
8B
F0
4C
2E
6A
84
45
4B
40
93
5C
20
7D
F4
09
6E
F1
82
7A
A3
ED
F5
A7
67
33
EA
49
EF
E1
14
21
D0
60
61
53
B3
3F
4C
6E
3E
F2
98
20
CD
ED
01
CA
2B
80
D8
57
E5
F8
6A
60
72
FB
98
FB
F1
81
A9
38
59
3C
4C
95
1E
A6
78
AF
33
EE
8E
CB
D4
32
11
DD
3C
99
6E
1F
30
2A
32
7C
32
16
FC
6B
D2
5C
2C
D2
92
0A
0D
AC
4D
D9
82
E7
93
99
C4
01
70
7C
AD
FA
DD
25
06
F2
B3
FA
50
CD
25
9A
9A
B6
D4
65
21
3A
DC
51
6E
20
E5
70
CC
5F
D8
12
E9
F8
99
BD
DB
F9
36
12
8A
68
EE
C7
46
D2
20
CC
D3
0D
1F
B6
6B
C3
77
11
AC
C1
6F
F9
14
C9
75
72
72
3A
5E
4A
3A
DC
3F
74
56
0E
23
5A
C4
9E
1F
F6
1D
E0
9B
7D
5D
1C
FC
75
03
CA
1C
CD
9A
6F
80
5B
00
6C
25
39
F2
E7
E7
D4
39
7A
54
40
B9
C8
8E
98
8F
2E
71
15
74
B8
02
BA
F9
39
DE
EB
5D
5C
E3
89
B4
FE
60
C6
30
E4
44
18
12
54
65
92
C1
9E
4B
2C
A5
34
E6
C7
1C
55
71
49
7C
3F
7F
B7
0F
F3
EA
DC
A2
51
0D
D6
1A
01
81
89
9F
3B
0C
2F
3E
D5
93
D9
24
E4
28
8B
A0
53
B5
61
EB
AF
21
80
DC
2F
6F
F6
8D
75
80
1C
FE
BC
17
65
B3
83
8B
42
BB
19
98
17
63
53
C1
5E
25
95
7E
4E
1F
AA
A8
17
47
FC
C4
E0
B0
13
E2
C9
21
5C
F1
46
F1
2F
CD
94
1D
78
19
C5
94
5E
ED
56
91
3C
86
DA
32
96
00
1F
E8
EB
76
8D
9F
3C
03
30
AF
E5
78
CE
6D
4F
69
F7
CC
BE
5E
27
66
12
A1
12
82
CA
72
DB
E9
CB
A4
AE
79
E3
64
B1
BC
0C
FD
FE
EF
81
FB
3E
82
B2
AC
D2
B8
4A
5F
E1
6A
00
61
97
75
A8
82
30
3E
89
1F
24
55
02
3E
ED
57
07
34
D7
17
4F
D9
65
8A
A3
EF
2B
D2
6A
26
60
0C
27
CC
58
2B
A6
4B
86
5B
D3
13
D8
83
AE
7D
7C
7E
76
BB
24
A3
BB
36
B9
9B
07
E7
7B
BE
49
D9
3B
BE
F2
00
56
15
A4
78
8A
03
BE
53
BC
02
DF
41
78
4B
1A
F9
BC
B4
5E
14
CE
42
82
FC
52
74
A6
93
72
85
05
E3
5E
2E
D0
A0
4C
77
09
26
66
FB
D4
5F
74
14
9C
2F
96
CA
1C
EE
E7
C2
93
6E
19
94
4E
FF
F0
AF
41
4A
BD
B3
E0
81
36
D2
0B
9E
AF
27
0C
C6
6C
1C
EB
63
54
F6
6B
71
98
81
A6
E9
11
FF
A6
87
8D
9A
65
86
00
A6
AC
4E
87
0C
D4
88
16
AB
A8
44
9C
F5
CF
64
57
B4
E1
07
60
CB
5A
F7
70
AA
AA
F5
5F
3E
3D
36
44
70
82
DB
F5
A0
08
C2
69
8A
AB
53
B4
24
7C
BE
60
48
A1
B6
8A
DF
12
A0
64
72
E5
E5
2C
19
59
77
A4
6F
56
BC
72
E7
11
92
C3
49
EC
88
EE
D3
AD
7C
65
C9
67
08
6D
7A
A8
43
E0
68
EC
C0
10
A7
7D
36
3D
8D
30
7A
ED
3E
65
8C
F5
27
B3
C7
64
62
49
6E
97
79
AA
74
AA
37
89
BC
EE
C2
54
F2
11
87
A5
6E
CC
71
25
F8
94
51
AE
23
C8
8E
86
01
FF
59
F8
0A
A3
B3
0B
0F
59
71
33
E7
93
63
68
32
62
DF
A0
B9
70
5A
D8
53
72
8C
5B
2F
F3
15
17
14
7D
CE
AF
CD
0F
95
1E
B5
3A
D9
51
3C
FB
B4
FE
64
D4
3E
16
F6
CC
94
46
A9
16
C7
F1
1D
95
48
47
BA
0E
A6
75
82
28
43
8E
51
E5
81
25
2E
D4
28
9B
E0
B2
16
5A
97
07
0C
7E
C4
84
92
14
E1
47
6D
EB
0B
C7
27
1A
DC
17
29
AE
1B
F6
D0
37
1E
D8
B0
EE
5F
43
EF
7C
22
34
F6
69
43
65
7A
E8
AF
CF
12
8D
63
C6
70
14
C0
98
E4
0D
D6
20
7D
F0
14
60
A8
6A
D8
32
11
45
3E
3B
DC
CB
D2
AA
3C
1B
62
AB
27
70
DF
CB
F0
DC
34
0F
E8
A4
CB
56
58
65
16
37
F5
42
38
63
97
7B
6A
1E
E8
20
27
2E
A6
F1
80
16
C9
ED
4B
8D
E0
0B
2E
1E
17
8B
41
F9
3C
CA
D4
81
38
DB
90
DF
E3
B2
3A
C3
E9
A2
91
43
64
E1
8C
BB
3A
D5
94
F9
EB
66
C9
03
59
F4
21
4C
69
D6
0D
EC
0C
0B
1F
9D
1A
12
B4
CA
A0
5E
ED
57
0D
3A
7D
34
90
74
2F
A0
F7
0C
AB
36
F6
12
E3
0F
1F
A3
B2
70
E4
D5
88
8B
8A
EB
89
85
81
DD
20
E8
86
83
87
FD
9B
0C
59
BF
66
53
44
C7
69
E6
12
04
6B
85
D7
E8
21
2B
88
C8
79
4B
86
27
DE
CF
13
7B
19
6C
8F
AE
8C
50
DF
78
CA
87
7F
E6
6C
A0
40
87
60
EB
F2
86
11
78
25
9A
3E
33
91
56
AA
66
F7
79
51
76
30
29
99
47
A6
5F
06
1A
2C
D7
BF
95
C0
87
D1
A9
22
10
A3
9F
76
37
F0
8D
74
20
AC
99
CC
60
CF
EB
BD
85
E4
F9
E2
95
F3
B6
A0
BC
5F
CA
1C
A9
E5
46
B4
11
8C
B6
28
1A
E5
AC
20
C8
2C
1D
2A
D5
3E
41
E7
B0
77
62
E1
2D
3B
99
C8
68
26
58
5A
36
CF
80
A9
32
A2
DC
62
CB
7D
97
23
02
53
36
65
3B
F1
65
5F
E8
DB
40
BF
B2
E5
18
B4
F4
57
61
54
A7
E4
29
F2
6D
49
2B
95
7C
53
44
EC
C3
7D
68
E1
05
22
8B
57
E2
2C
07
BB
8D
AD
69
A3
2C
34
3E
A4
C9
70
CD
42
7C
C8
93
DA
16
EF
EE
29
4A
7F
A7
B1
96
DA
48
D3
D2
34
7B
BD
C7
ED
FE
E0
11
08
FA
AE
5F
91
04
11
6B
77
80
DC
B6
86
0A
02
1D
BE
F5
77
DA
D8
83
97
E7
59
A5
39
0B
83
10
96
7A
3F
43
4A
68
E6
9F
21
79
65
04
4C
D0
08
95
83
89
F5
CD
A0
D9
5B
D4
59
54
6C
51
A8
B7
D5
42
A4
77
42
F4
52
BF
35
0A
E1
B9
91
EE
B2
22
66
E6
E6
8C
CF
E3
26
92
02
DA
91
B7
05
E5
65
3D
4D
98
C0
DF
8E
29
42
92
51
E6
91
18
D6
22
1F
88
BB
4E
1E
33
37
3A
AA
65
AD
74
6A
F3
EB
F8
BA
E8
71
2F
DC
E3
93
D4
2E
7F
BA
02
2F
48
84
17
5C
A7
6D
76
85
B2
F6
EB
A6
42
6F
C4
DA
30
21
64
0D
43
A5
20
E4
79
BD
D7
DD
0E
B9
45
E3
8D
D1
AE
B8
CE
D8
34
0A
12
7D
AC
EA
5B
C0
C6
63
A8
01
F1
C5
99
AB
D2
EA
3A
86
38
FD
BC
8F
D4
8E
4C
27
C5
34
E0
4E
27
9F
04
90
FD
63
D6
42
02
1C
16
BD
30
4C
DF
D7
0D
4C
F4
87
7C
DF
A3
B7
93
3D
7C
A1
CD
6E
58
AA
C1
2C
9C
1A
18
2B
43
42
03
FD
D7
18
A8
A7
44
F8
F6
40
D7
D9
3E
EE
D0
14
AF
E1
A0
0C
36
C2
97
D6
E0
E1
C7
48
01
B1
F5
35
16
E2
0C
F0
6B
58
6B
64
AF
50
78
75
D4
81
89
6D
76
8F
AE
AC
0E
CA
A6
A9
32
B3
C0
38
97
10
F2
8B
13
55
40
45
37
33
A3
2F
25
DC
4D
82
18
29
AF
07
55
86
5A
A3
B3
4B
9B
B7
B2
C7
E0
F5
AE
A1
42
81
FD
2F
0D
93
43
FF
9D
5C
4F
6E
91
18
3F
91
D7
48
AA
6C
EE
5D
46
08
B3
D2
57
C4
81
3E
E1
EF
A7
CB
38
70
20
41
A6
08
78
D3
76
12
61
81
1C
43
17
38
EB
0C
11
51
99
0B
1A
DA
8D
25
10
4A
3F
59
4C
FC
2E
17
D0
F7
13
12
62
99
06
50
7E
95
D1
66
13
0C
EA
EF
03
43
C9
A9
C7
B3
ED
60
9F
46
5D
5F
C1
89
C2
89
9F
CF
7F
BB
48
B6
71
14
F0
E2
EB
31
30
30
34
FD
D4
AD
C0
A1
15
9B
9D
4C
73
6E
EC
A3
08
8A
41
1F
BB
C3
8E
D5
3C
9A
7E
42
F8
EF
CA
A8
4D
BA
DF
1E
8C
2A
45
CA
51
8B
C5
BD
98
DC
5B
2B
62
52
77
70
4C
D9
B8
DF
1A
4F
98
12
D3
5D
16
06
EF
B1
8B
7E
B2
4A
AF
33
F2
A9
6F
2A
B8
90
89
5E
08
6C
90
0B
B5
45
B3
88
81
5A
76
72
37
25
81
B2
C0
9E
BB
FA
FC
F3
B8
C3
E9
4F
FF
25
CA
7D
EC
81
98
F6
50
C6
E5
78
C8
9E
B2
98
AE
4B
48
20
46
8D
89
97
8C
29
10
81
49
BE
E6
22
FF
4D
2A
BE
15
E3
11
9C
7D
F6
7F
3F
9B
36
80
4B
B6
7C
6F
5E
B1
17
AB
73
69
64
CD
2D
7B
6F
C7
89
F1
3D
E6
5A
4D
09
5B
7A
92
F2
7C
DC
75
65
34
CF
00
F8
AF
3C
DA
6D
76
19
C3
09
90
07
B7
10
D6
2A
57
EC
45
89
8D
7F
30
28
BF
9A
59
94
E4
FD
1B
D1
56
7E
33
54
44
F2
43
1E
53
D9
3D
A4
95
73
B0
F8
6D
F2
B3
09
7F
37
1B
F8
67
D7
2F
57
AB
B0
E7
FD
79
A9
02
25
B0
E8
CC
FA
62
92
D4
3A
23
28
26
26
C4
C5
ED
61
E0
80
4C
A8
F8
27
50
7E
57
1B
52
66
A1
EB
DB
17
24
C5
58
BB
D8
0D
F0
19
FC
3C
EA
67
32
34
8E
AC
24
ED
1B
62
98
38
75
67
55
57
69
E7
EC
8A
30
2D
04
9D
9A
7E
87
86
23
3C
FD
CA
60
BD
34
9B
55
B8
68
F8
60
A6
6E
11
40
0D
1A
95
5F
A8
3C
FD
3C
82
E2
C5
5F
59
40
03
3E
5C
53
74
A0
40
C6
56
A7
CF
FF
A3
AB
E2
2C
74
44
CA
82
85
4B
06
BC
84
6F
B0
E9
D9
44
2C
F7
2F
81
62
31
58
FE
21
2F
B3
98
A1
C8
08
0B
F3
AE
20
CD
A3
8D
68
49
01
12
0D
0B
55
DA
BF
0D
02
BD
08
46
E1
85
DC
0A
3A
86
9F
1F
FC
64
46
72
47
59
23
7F
50
0C
AB
50
8F
64
3B
1D
CD
2D
1F
13
F6
20
86
3B
80
73
06
0D
77
60
EC
B1
76
28
74
ED
49
48
C9
F5
62
CE
EE
26
D1
C4
2B
C2
4A
F4
9D
C2
62
1C
DE
64
EB
74
85
49
24
FE
0D
A6
BD
06
8B
69
CB
5E
E8
D1
70
B5
3A
9E
00
E1
89
66
C0
0A
68
82
34
29
26
F6
B7
D2
15
98
A2
04
3B
70
44
D6
F9
3A
1A
DF
7B
20
0A
78
15
3E
3F
20
4E
FD
6D
F0
1E
A2
AB
5A
CC
F8
D3
8C
0A
F8
74
E4
99
95
68
26
46
38
2C
1C
3C
78
E2
68
48
CF
74
18
1C
1A
3C
ED
D9
6F
EE
12
75
12
0A
C0
15
2A
69
62
A8
E3
C2
0F
06
CE
DE
47
92
4C
A0
C6
70
B6
79
54
C6
A9
70
CA
4F
F5
C1
D9
CE
62
D8
BB
6B
2D
C9
CE
2D
FD
D2
B8
32
C0
C2
AC
AC
14
53
B3
A1
74
A3
05
75
85
D6
BB
45
D6
F3
24
4D
5C
58
35
47
B7
ED
FE
05
35
9F
03
3C
83
4D
D2
85
47
31
AE
50
D5
B1
54
19
A2
43
A4
AE
2F
AA
FD
23
A8
72
EA
4E
44
33
D1
5D
89
50
A9
80
DB
43
AF
7A
0F
21
E3
92
8D
4F
BC
82
79
7B
F2
D7
E2
54
BD
51
E8
82
B6
83
B7
DA
A4
F3
A0
28
0E
E6
E1
C1
E5
CB
9F
2C
FD
AE
C7
CE
3A
4A
83
07
BE
FF
BB
E9
F6
0E
C5
07
C1
EB
AB
83
29
41
CF
5B
73
DF
DE
D5
FD
01
8B
25
9E
B8
01
B2
05
97
49
EB
12
B3
FC
76
A5
CE
0C
33
79
6A
A0
31
CE
DB
E2
10
A0
45
26
6E
67
AD
77
67
59
55
E2
34
B4
72
45
31
FD
B6
83
49
9D
1D
D0
0F
7D
68
94
48
4A
BF
B2
C0
6D
14
D3
C2
C0
01
9E
8E
8D
74
FE
81
79
42
98
0E
09
68
0B
CB
FE
16
D0
77
FA
C3
9D
E0
10
F4
F0
09
CA
62
96
9C
E9
55
B4
5A
0E
96
3E
68
CB
5B
00
5D
02
6C
55
DB
95
03
AF
D2
F1
FC
49
91
37
A3
3B
BC
BA
34
60
DB
19
1B
9E
E5
66
B6
F2
43
EA
F4
F8
23
B1
90
D5
90
F0
C7
A4
88
56
22
35
36
CF
33
2B
05
3C
89
C7
B2
FC
68
55
D3
36
7D
3E
96
BF
34
D8
5D
02
00
56
8E
9D
14
BE
11
B9
94
9C
A3
8C
BC
1C
53
C7
67
1A
60
97
17
73
49
44
5F
25
31
86
A7
18
C4
32
10
71
CE
35
9B
69
20
B2
0E
66
62
9A
4A
47
8E
0B
EB
2A
FD
A8
49
3E
CB
76
F5
22
7B
70
5E
52
BD
77
90
71
7D
58
7A
97
EF
69
82
85
AD
71
45
29
00
A0
49
AF
AA
CE
BC
92
5A
1E
7A
36
2E
0A
07
9D
5E
A3
20
B6
45
78
E6
86
08
85
A8
44
3B
7A
62
38
D1
2C
F5
AB
0D
BB
23
5B
B0
59
BC
BC
05
47
68
30
87
66
29
1E
A5
24
52
AF
67
64
B0
A3
7F
6F
F6
39
E5
1D
38
04
E5
25
FE
B3
43
8F
57
FF
4C
CE
82
A4
55
A5
7C
9A
C9
B4
A7
DF
F3
87
4D
68
1A
E2
43
8B
10
08
52
02
D1
14
35
D6
C7
A8
7C
D1
EB
44
C3
D2
B7
12
2D
99
A0
F8
28
E2
E6
FF
E1
67
BC
6F
28
2F
17
4F
1E
E0
FC
11
04
6F
F8
CB
DD
D0
60
4F
EC
61
07
7C
37
84
07
84
BB
73
56
C2
12
BF
AE
C6
30
B7
15
73
94
69
03
1F
E2
19
0D
DE
D8
7C
91
CD
F5
F7
F6
57
50
F4
98
AF
2D
3C
B8
A0
D6
A1
95
C4
E3
74
81
47
A9
79
2A
81
47
B2
1B
35
0B
A1
13
66
78
A9
86
E5
E3
61
E8
29
F1
EE
51
A2
62
A6
8A
65
BE
86
45
76
A3
B5
52
BC
08
3C
9E
72
19
91
C5
3B
13
7A
CA
F9
88
F1
EB
E1
68
79
71
F2
B7
7A
67
7B
D0
48
7E
DD
87
2A
19
30
09
C4
A6
16
53
4F
B1
43
47
E8
1F
22
BB
53
E8
8D
91
1F
D4
15
F5
FB
FA
9D
9C
41
D6
02
48
44
D0
FB
07
82
8A
4A
D9
A9
44
09
F0
03
30
42
52
B4
5B
A8
0A
32
80
AF
5F
01
23
31
D6
1E
1B
7E
7E
76
B6
C4
F0
66
C3
B9
41
54
2B
0E
C8
A7
4F
79
54
95
6E
2F
E6
A3
4F
71
22
21
88
05
B8
EE
F1
03
AA
ED
61
16
ED
FE
6B
AC
7A
52
26
40
9B
21
CA
37
AC
31
4A
E1
17
1D
A3
BE
E3
FC
A1
0E
E4
F0
50
83
1D
11
BA
5A
C0
B0
1F
CC
CA
58
9D
F6
D6
38
CC
ED
85
3B
F7
EE
70
33
C3
67
DF
16
9D
9F
57
4E
2B
08
DA
AF
39
E4
0E
C6
3F
D8
A4
B5
7D
B8
20
28
C4
C2
20
13
D6
26
3C
CF
FB
27
BC
67
53
0F
E0
F8
D7
50
0C
AE
BC
5A
8E
24
AF
89
56
02
C9
B4
5A
59
EA
40
58
18
EF
72
34
05
49
31
6E
B3
66
1C
91
78
02
91
A0
69
42
B3
F6
2A
52
9F
E5
08
82
E4
AF
D0
F8
6A
07
62
FE
A0
CE
C8
E1
7A
FD
F1
E6
D5
25
E4
0C
6A
47
B1
48
0A
59
80
80
64
F6
5B
32
9C
FD
39
14
93
EA
19
7A
95
F6
FD
C9
DF
32
70
2A
F1
BB
63
5F
C7
56
0E
C2
D5
3B
75
E9
8E
71
5F
09
22
99
F0
0D
4F
A0
87
39
73
31
E7
BB
6B
1E
AA
04
DC
D5
3C
66
A1
84
0B
3A
93
7C
AA
44
F8
55
64
0D
F3
8B
77
84
CC
EC
6D
AC
37
DB
48
7C
32
77
FD
91
CC
AB
4B
59
5E
0F
C3
36
54
76
1B
A6
31
F0
7F
34
9D
05
4C
A9
78
A8
8B
4A
EF
53
BF
13
98
AE
57
CC
5D
1F
6D
98
C9
61
87
26
C6
BC
F2
B5
E1
C8
27
1F
03
6D
6D
13
3E
96
0F
82
15
C9
BC
A8
38
5F
6D
DD
DC
73
D1
CD
B5
56
5F
39
0D
85
ED
4D
A6
03
B3
8F
48
BA
06
73
F9
58
97
09
A1
76
14
F0
53
12
57
5D
42
BB
B6
53
CB
ED
C2
F7
F2
41
7B
C8
6F
68
55
C0
66
DC
A4
68
0B
64
45
5F
29
BB
36
19
D5
C1
19
43
E2
D2
4D
19
E7
AC
7C
48
9E
FB
B3
6E
F7
F9
12
D4
C6
6D
D1
0E
88
06
D1
66
7D
A3
55
92
32
4E
DA
D7
24
D4
5F
7E
95
6C
A3
E8
88
58
D9
B3
CF
C1
D5
76
73
E4
84
2F
BF
5F
FD
F1
3E
36
CA
97
54
9D
C9
4C
48
81
AD
2C
8B
B5
90
42
1A
4F
E4
B8
73
24
78
1B
2E
F3
A1
4E
F1
03
ED
3E
48
61
4A
9D
DA
A1
CC
C5
1B
23
F7
E1
22
A0
5E
67
6A
E9
FC
7C
A5
00
EE
25
5F
0E
3A
31
A8
6A
66
1B
42
F3
D8
E2
B7
7A
80
7D
88
DE
CB
5B
82
21
13
8A
32
DA
F1
BA
E3
F4
67
CB
4C
CA
F1
51
B0
A9
FD
B6
E1
D8
57
4C
DD
0B
C8
2A
CF
F6
5B
A4
E0
13
E2
46
A2
06
04
28
0F
88
9A
B1
E5
FF
F1
DD
A7
04
3A
2E
44
53
3B
63
07
1C
A0
CD
B5
5D
EF
04
A0
96
48
A8
B2
15
31
4E
DD
BA
4D
89
81
8D
F3
C8
A5
F0
ED
A4
37
F1
FE
DB
E5
F6
86
19
13
9A
60
91
33
2C
4B
8C
88
BF
4A
4B
40
61
88
73
41
72
21
87
F3
AB
51
83
12
B1
1C
D6
8F
57
71
56
E8
DA
E7
50
C4
71
DA
77
5F
FF
AB
62
F7
A7
1C
E2
13
65
29
8A
6A
53
48
58
33
7D
1B
E3
8D
E6
80
0B
79
B6
07
95
CC
C6
A8
41
5A
44
26
35
A2
2B
51
74
B8
85
CF
16
79
D6
92
88
A1
D5
52
18
BA
92
59
6D
4F
8E
43
F3
9B
DA
9C
D3
AA
9F
89
D2
A2
C5
48
EA
8E
0D
0F
C4
02
F9
9E
7C
DA
BF
11
7F
9A
DB
6C
13
7E
8E
2B
AC
72
D3
C5
6B
03
B8
98
20
D4
AC
65
2E
95
05
F3
9E
44
38
93
48
68
53
8F
CF
E6
E4
38
D5
16
53
E8
0F
D6
E3
08
89
8C
83
D0
4B
3B
96
1E
D4
1A
39
3B
1C
76
02
52
FC
31
3D
9E
42
F7
1B
94
8B
CE
1F
C4
C5
0B
05
8A
E9
89
2C
01
55
30
A0
F7
AE
E5
1E
8F
B0
DB
C6
10
1A
6A
27
F7
C5
22
6C
FB
6A
A5
3B
0F
D1
B5
48
B0
A8
77
88
95
DF
13
07
8C
B4
0B
A9
FE
98
02
9B
54
DC
01
03
D8
47
DB
85
25
A3
15
01
8B
26
22
63
10
17
EC
0C
F3
80
F3
24
77
24
08
BA
82
1A
56
EB
0C
54
FD
34
25
E9
10
73
46
4B
8D
62
46
71
F3
20
BB
38
9F
E3
7B
DF
BA
1F
07
9E
67
BE
92
B5
B9
7A
01
6E
23
9C
72
DB
A0
6C
5B
AF
C9
13
4B
E2
3F
66
10
63
8C
A4
A4
0D
A1
3A
2A
46
84
7F
AA
B9
C5
AD
EB
8C
A0
07
FF
39
84
44
C5
18
D7
8F
42
FD
6E
B6
18
FD
C7
6A
45
C7
11
5D
D7
A7
58
BE
F6
00
11
08
46
1F
E3
27
6B
ED
99
2B
56
9F
53
8F
D4
4A
13
FD
0D
13
66
CF
A9
6A
67
05
98
81
7C
BF
BE
9C
D7
FF
75
4A
53
47
93
EA
6C
33
65
B3
03
47
65
ED
15
C0
B0
7C
7E
AF
3F
90
D8
18
2F
C9
54
DB
14
51
D1
6D
D1
3A
EC
FD
78
47
ED
59
FB
A7
C8
20
49
5D
EB
37
16
B0
08
25
36
2E
BA
8E
3E
7A
20
2D
7A
AB
68
EB
B9
DB
06
09
1E
87
A0
B1
8A
25
41
C8
01
C6
F1
63
27
C2
FE
AD
17
18
C7
F1
C9
21
60
3A
60
66
BA
E3
2A
28
22
A7
67
3D
5C
A8
94
33
9F
F6
01
89
00
53
3C
A9
74
D6
DE
77
5E
53
96
A3
B3
B8
16
73
22
9C
25
72
27
AD
CE
50
AB
B9
80
50
26
8D
12
BA
13
A2
DE
9C
60
05
48
7B
D6
90
E9
24
82
3F
C6
33
34
CC
EF
A0
8B
84
25
8C
87
46
0F
03
BF
81
BF
98
A8
EA
FB
24
6E
23
79
05
79
A6
3A
B5
8A
D6
2A
34
19
80
BC
DF
D6
2E
0E
3E
25
86
5A
13
84
DA
81
3F
1F
3D
86
A3
C4
00
25
3D
6F
10
D9
0F
8E
46
8A
45
BC
27
04
E1
6A
17
42
43
33
27
44
64
D6
55
52
E2
70
B5
BD
BD
7D
71
D4
51
1B
7C
39
2C
92
0C
8A
59
35
75
81
DC
79
31
24
44
50
1C
DE
6D
0E
F4
B2
F7
0C
AB
77
35
D6
EC
15
89
D1
07
8C
92
16
C0
4C
9C
4F
F1
C4
49
BD
E4
48
BC
D3
1F
7C
49
18
49
6E
55
9F
D8
52
1D
94
FE
01
F8
80
FD
C1
36
1B
D9
FE
26
5A
C8
40
CC
73
56
33
75
DA
3E
09
86
EC
81
3B
25
E3
51
DD
5A
8B
10
56
CA
CE
65
EB
ED
13
2C
79
1B
6B
97
21
CC
52
5D
CC
8D
32
FF
6D
4F
99
95
D4
1A
EE
F7
58
1C
54
A6
E1
73
64
06
31
2F
AA
43
C2
47
B1
D9
D7
AC
C9
74
3E
E7
9B
23
25
90
99
AF
97
0D
4C
3F
14
FB
18
50
62
A6
72
57
74
03
1E
FC
FB
B1
D3
85
75
E0
CE
54
94
E3
91
25
A7
03
A7
E0
B2
E0
56
05
BD
6C
42
5C
20
FA
BE
8E
A5
EA
0A
34
00
41
9A
E9
8D
A8
A4
F4
5A
46
8B
20
53
95
E0
F9
B4
65
9B
7D
41
50
8E
7A
AC
9D
C0
D9
36
6D
5F
85
47
55
EE
95
03
D3
91
E4
A0
AD
0A
F5
09
77
E2
23
E6
15
60
DF
96
D2
83
41
65
8E
21
70
23
7C
2F
A1
F0
DA
52
60
6D
94
2F
96
A0
7E
4B
5F
7E
BF
27
BD
97
15
BA
9E
D6
43
E3
A1
91
09
AF
3F
31
3F
28
0D
07
9F
95
A5
F7
AA
6E
C1
CC
11
3F
A9
33
F4
CB
FC
3F
12
30
48
2F
72
75
9A
E9
6C
B6
96
F0
E5
5B
56
A2
35
0E
E9
A7
84
83
2E
46
34
87
8E
53
F9
DE
41
21
7B
7E
9F
C3
CA
3B
9F
E2
47
7E
F6
0B
DC
59
D9
21
38
82
87
FA
AD
E6
AA
B0
83
86
87
55
DE
4E
5B
77
4A
D3
A0
C1
97
90
53
89
14
7B
FB
3C
91
DF
FC
C7
AE
09
8E
AB
DF
4F
68
EA
95
6F
60
DB
03
19
4F
4D
36
15
41
91
7A
8E
19
0E
95
FF
29
BD
DE
39
86
A1
F4
FB
DA
36
32
3B
C7
DB
F4
4B
19
40
F5
A6
60
2D
88
82
13
98
BD
BB
79
18
19
B4
1E
2E
C3
97
A5
4B
75
B6
A5
5C
AA
01
62
E8
06
C3
AE
8D
72
96
A1
4A
6A
7D
3D
01
76
3A
AC
CF
E8
38
CA
CF
D6
D6
63
AA
77
C7
A2
9E
23
A9
BD
EC
8C
6B
36
A6
85
8B
14
75
28
C8
B0
58
4F
4A
AE
01
04
EC
28
FC
FB
DE
69
4E
FE
00
06
F2
00
62
07
98
56
35
F6
4C
10
F7
7A
83
47
2A
BB
A6
F7
BD
83
3F
92
8E
EF
35
8B
06
32
CD
BE
9B
09
77
23
EF
42
5C
40
05
17
DA
72
13
FB
2C
86
57
AF
99
52
A9
9B
27
55
E3
EF
44
E9
25
8E
20
7B
BD
32
05
B0
4B
9B
4B
29
02
AF
69
21
9B
1C
97
82
0B
80
54
89
F6
EE
1E
0C
4F
FB
6B
22
AB
10
0A
D7
0E
8E
4C
AA
75
4D
AE
A0
36
91
2B
BA
5E
84
05
F1
F4
B8
E9
8F
D4
07
88
99
51
E1
48
F7
AF
6F
A2
2E
05
E7
BF
F1
3F
C0
EA
7B
D0
E2
B6
34
D6
7A
29
AA
22
96
15
00
D1
19
CD
5F
0A
E8
A9
A9
16
73
7A
8D
38
A5
C3
79
50
F4
A5
29
45
2E
AC
55
D7
9B
F1
C6
71
49
B9
EA
A4
F4
D6
E8
3E
7C
7F
FA
4F
C0
9B
50
DC
4F
3A
EE
1C
C4
17
CB
FB
CB
0C
80
F3
BD
89
17
A9
2E
0F
B4
9B
06
28
3F
8F
3F
EC
2B
C2
1D
3D
76
69
56
6B
F3
D7
93
EB
62
11
09
9F
48
AF
CB
9F
9E
90
5D
57
31
F0
C8
1F
90
49
8D
66
0F
E4
74
57
16
98
22
E5
8C
63
B9
B6
21
EE
85
CE
F2
2F
F9
3C
0D
56
E9
B5
22
B1
08
DE
F3
12
BC
EE
1E
C9
47
35
A5
4A
F5
C8
45
28
94
07
DB
04
41
57
AA
05
45
90
8A
82
81
3D
8C
2C
61
9F
31
E5
04
A1
18
4A
EA
68
A0
BC
96
3A
71
6F
E4
5D
81
6A
79
22
11
E9
4A
7F
68
AF
58
16
DA
97
A1
2E
5F
6D
AD
6B
1B
2F
6A
6B
A6
99
01
A7
78
B0
A0
25
9E
D9
BD
AD
82
D7
06
CD
26
E7
5A
B6
87
B6
ED
F3
D0
83
93
F1
9B
30
E0
D6
A2
C9
E7
9A
B3
61
BE
2A
89
2B
9B
1D
01
1C
0F
B9
BF
19
01
EA
07
D2
AD
56
27
D4
A1
8E
9C
D2
84
72
EB
7E
DC
A0
2E
FD
33
45
45
3C
CD
F3
D4
27
11
44
43
65
9A
A4
A0
12
74
9D
D0
D1
8A
FB
FA
8D
72
80
55
22
7D
5E
BA
51
4B
A9
D4
5B
0F
39
17
92
74
F8
53
58
14
C5
2B
4E
E3
F9
8C
EF
A0
EA
0B
70
A7
18
3B
82
B3
BD
BD
56
EB
44
BB
B1
7D
77
20
EC
A6
BC
2A
8B
AA
EC
A9
5F
24
41
E6
F2
8B
2E
8E
B5
60
24
5F
5B
CB
1F
A2
E1
1A
B9
78
C0
30
38
82
89
4C
26
06
71
D9
55
03
1A
5F
CD
F9
4B
E6
D2
40
EC
41
2C
D0
63
2B
8E
E2
F4
2C
6F
72
60
8B
E4
ED
43
3F
96
EB
94
BD
E2
18
93
EC
59
EE
71
79
DF
F3
90
1A
76
88
73
98
A7
AB
2D
A5
DD
3B
A1
BB
2C
EC
4D
43
B3
7C
09
AE
B2
66
78
00
26
53
93
F6
0B
1A
BF
2F
AF
72
BD
93
6D
4D
E2
FC
50
E9
CE
F7
8E
B0
A6
4F
26
48
DA
A2
93
CB
3D
87
C6
D6
4E
D0
D4
0C
D2
E3
6F
EF
59
DD
A8
7C
8B
F0
17
CE
17
56
7A
10
34
13
FA
86
E3
C2
15
DD
20
D1
60
90
44
57
F1
79
48
99
D3
D1
67
C3
31
EA
CD
67
64
0B
AD
BD
1D
14
63
E8
65
BC
58
AE
99
54
06
DC
63
87
61
9F
31
AD
AA
CC
AA
65
06
75
28
4B
5E
5F
55
C4
73
61
70
D7
3C
C7
28
44
1F
22
A1
FC
D4
B2
41
E5
F0
01
FE
47
3A
BC
40
B0
4E
99
6F
5C
1D
28
33
9C
03
F5
A3
F7
21
36
EB
85
88
E4
A9
5B
3B
49
77
36
CB
21
55
8E
DD
1A
F0
9D
97
05
ED
C4
72
F6
93
B9
B6
5C
37
70
F6
18
FE
02
1C
3C
63
5F
35
A5
CD
5D
B2
E0
DE
7E
F8
5D
1C
D5
78
9D
8E
C7
15
91
D8
A1
E2
DD
E9
4F
13
5D
82
9D
24
85
CE
59
7F
5C
86
3A
E8
6E
6B
30
32
91
D0
A1
48
34
9D
B3
74
21
41
C9
D5
62
42
E6
B1
81
D9
66
CF
A6
8C
2F
B4
8D
C5
65
6F
87
D4
84
C0
8D
49
CA
07
D5
A5
EF
D7
65
C0
55
21
4C
51
41
89
14
6A
88
6C
A3
BF
1C
80
41
33
0E
A2
78
CA
98
68
39
9A
52
F6
1D
F6
26
36
16
32
87
19
BA
FD
E0
43
B6
CA
B3
5E
CD
21
B9
84
36
5A
19
56
6A
FB
1E
E1
6D
14
CC
4E
A0
D3
93
C2
D1
70
E6
12
03
F1
06
2A
0D
F2
47
26
0E
5D
D8
E6
C0
ED
C3
9A
91
97
34
95
51
2B
2E
30
53
58
BB
39
95
FE
85
3A
EF
37
1B
CE
D4
31
CC
27
CE
F0
78
69
1E
F1
62
0E
17
E2
ED
1F
9D
BB
06
39
FC
10
13
5E
4D
3B
8A
F3
75
9D
4B
37
40
3E
D8
66
2C
5A
C8
D0
57
BB
1B
76
FD
9E
76
33
94
96
07
F4
33
7A
A6
CC
4B
1D
CF
E5
C3
DF
CF
E4
CC
62
44
CF
8A
B7
C8
1B
A1
45
5D
E1
33
37
65
5F
74
44
16
F7
56
3D
6E
97
05
BC
18
7D
E1
34
92
A4
B6
52
9D
BD
2A
6D
1F
04
EC
5E
8D
AB
0E
99
DE
D6
D7
DA
4A
31
A1
EE
17
D4
9B
E6
73
80
02
50
2F
BF
ED
60
63
CC
6D
DE
F1
F3
FC
EE
B1
EB
96
26
48
C7
DD
B1
DC
00
E5
84
3E
8E
C0
DD
C3
C9
90
E3
6C
00
DC
20
01
CD
CB
6A
B9
EC
55
7C
19
33
C7
C0
5D
E9
A2
EB
6D
FF
F5
ED
DF
64
7D
0F
DA
28
82
3C
26
3E
57
AA
3C
AD
83
31
1E
14
01
03
E1
C0
7F
D0
13
EE
DA
29
1C
DA
38
61
4C
72
61
96
12
33
28
16
33
9E
DF
D5
E9
C6
BC
19
76
D1
51
77
29
23
33
E6
FE
17
FF
B9
76
F4
B5
58
DE
A5
EB
71
53
62
62
1C
E5
43
80
CB
25
F8
4C
AB
D4
01
07
D2
A1
62
CB
8E
45
51
41
B3
F6
C1
65
F0
39
5A
DC
79
A8
38
9B
6B
BB
3E
FF
8B
5A
67
D6
55
99
46
53
38
B6
FD
82
C4
34
28
E9
AB
24
5E
7D
A3
F7
F7
F2
7B
94
68
22
99
6C
E1
5C
2E
78
06
29
7E
D0
38
E2
27
5C
AC
FA
E4
12
7D
48
54
BD
5C
A8
00
09
78
2C
55
1E
87
AB
AF
74
E0
F4
64
88
02
6E
90
1E
67
C8
B9
DA
9F
0A
B1
FA
D2
46
A3
33
43
99
E0
CF
89
F9
B8
43
11
37
3E
74
52
C9
21
A9
B4
84
C1
FA
4B
42
C8
C5
8A
83
FF
3C
9F
AE
88
48
05
52
D1
AD
A5
46
22
5C
36
CF
7C
04
9B
E7
6A
BD
19
C3
4C
5F
C7
F8
0A
49
F5
AB
4E
14
49
32
8F
AA
D5
34
0C
5E
E1
64
A9
28
6C
E4
6E
61
72
A4
4B
69
FF
30
0B
60
55
26
4D
B0
95
31
18
6A
05
4E
BC
75
DE
19
EA
9D
23
BD
EC
04
7E
3E
7E
30
0A
8B
08
68
51
69
01
3C
77
57
D0
49
21
FA
3A
A5
02
A1
ED
19
F0
52
5B
77
68
DE
56
02
72
8E
73
29
B1
E5
A6
0B
65
D1
88
C9
F7
E4
01
F3
23
3B
4E
EE
D0
26
F4
BF
5D
36
20
77
B6
E9
92
F0
1D
12
31
9D
3D
7A
62
1D
F2
6A
BA
D0
B4
EC
0C
92
6A
74
B8
F6
31
66
52
15
DE
20
1A
F8
9F
C8
DC
06
77
14
3F
EC
6F
33
5E
77
FF
1B
E6
D0
52
C5
76
A5
08
CF
FF
6C
70
9F
45
10
0F
B1
6D
AB
A5
8D
74
5D
92
8D
6F
C3
5D
2F
15
17
23
E3
86
17
0A
D3
B2
5C
F3
11
CA
1D
4E
9A
C7
78
D7
0F
95
B4
E8
74
68
56
BE
E0
BA
AA
54
0E
85
93
7B
9E
C9
CD
AA
B1
A7
95
49
8E
40
2F
E9
3F
3B
55
F2
41
CA
EF
D8
B8
BC
63
5F
E5
04
3D
20
AD
E9
70
30
E4
95
22
B2
D0
2A
60
B1
A2
07
53
17
CE
B9
C2
14
0D
FE
CE
99
99
D3
23
50
AA
3A
07
92
AC
66
DB
C2
96
11
3A
CC
DD
CC
54
41
42
A2
F4
A8
7F
55
B9
3F
C0
5A
04
6C
21
3F
E2
DF
E5
3B
47
A0
19
30
E3
1F
CE
65
53
69
32
CE
73
F4
75
85
EC
98
BE
B0
41
BB
CD
E8
D9
82
1D
13
9B
69
5F
C8
75
32
33
18
2F
06
68
4B
51
70
8E
64
CA
BC
04
C6
F1
18
B3
1A
B6
56
77
34
30
FD
18
AF
CB
5B
EE
10
7A
CB
F6
E9
6E
07
C6
1E
6B
F1
9E
B3
8E
FE
95
69
EF
E2
4A
4C
1A
FD
CB
7C
C1
18
8B
09
B0
DD
D8
9F
76
BE
75
A1
7C
9F
D1
67
9B
E3
70
5D
82
9F
57
53
E8
34
7A
D4
D8
18
65
CB
D4
19
D6
B6
C5
07
5C
8E
9D
C4
60
02
89
EA
4F
52
EA
81
3F
E8
5A
92
7C
5A
61
C2
97
49
72
CB
B6
B1
BB
E6
A5
CB
59
DF
1E
20
04
C5
9C
CF
26
F6
C4
3D
95
07
93
51
A5
BA
0C
11
23
84
20
07
B1
4C
93
38
86
9E
38
A1
F8
8C
5D
1B
3F
75
0C
A9
74
80
71
74
61
2D
8E
4E
FF
83
4C
CB
CA
75
B1
E5
2F
93
B9
00
0F
5C
F5
18
A8
1F
24
93
89
60
28
A9
FE
7F
6F
16
25
4D
56
EC
A3
52
ED
BF
92
72
83
CE
73
82
29
33
A2
33
93
E7
83
0A
2F
9D
2E
08
6B
73
D8
B8
08
87
01
BD
8B
69
F0
B7
44
E0
15
7D
87
34
74
32
78
8A
B0
DB
0A
BA
C5
01
28
4E
61
4C
34
06
EF
E2
0B
76
5F
64
49
88
01
21
DD
79
77
E5
8A
A5
67
B8
44
1E
90
A4
5A
EE
4C
00
AB
5F
1D
38
5E
F2
0D
36
21
4A
7D
9E
9E
96
14
16
9A
8A
88
6A
FE
1A
2C
65
CE
1A
77
70
A9
47
81
4A
31
41
F4
E6
53
5B
48
2F
4B
46
92
93
ED
7D
D6
64
71
71
F9
86
0F
6F
3D
62
D8
40
27
81
6A
60
B8
FA
50
08
EA
E0
3E
DB
35
27
41
8C
8D
97
B9
E4
0A
66
99
CF
4B
C9
3F
BE
43
6D
EA
E8
BE
08
E4
6A
D6
79
32
67
8E
2A
69
0E
15
60
87
5F
93
32
DE
30
58
D4
32
04
2C
CD
63
0D
02
31
92
10
AE
56
B5
57
A1
CB
BC
4C
4B
95
B4
58
F1
5B
5A
13
5B
5A
D2
65
62
09
64
15
E8
D1
E4
B0
93
D7
97
F3
2D
C2
EA
C8
73
83
2D
FB
E2
1D
34
2C
F9
D4
65
1B
80
95
68
6A
BC
5B
D8
B2
2D
C8
32
52
0B
6B
F1
C4
CF
28
61
D5
1B
E8
05
0A
A7
8F
6E
71
78
B7
3B
C9
58
E4
19
BA
A1
44
62
FC
4C
8D
62
57
4A
B3
ED
C2
6B
0D
84
B5
AC
AE
E2
DE
22
0F
2B
97
93
66
F9
2A
CF
2A
3A
62
6F
43
06
56
47
FE
6A
11
95
A4
93
AD
D3
8D
5A
9D
EA
28
B4
36
BB
56
A0
42
3E
48
23
1C
F1
97
DD
8C
CA
4A
54
61
19
DB
9F
0F
03
12
FC
63
59
D2
57
B5
15
0B
DF
B6
9F
2E
97
1E
F3
61
AE
CB
DB
8B
58
9E
B2
82
50
D7
27
9D
13
21
A2
B9
9C
84
DC
6E
A5
84
55
AD
4C
25
11
B2
B8
30
2F
62
73
6F
79
0E
2E
42
61
2A
23
9E
15
95
19
30
99
08
E5
5D
26
5B
D9
66
A2
5C
2B
61
C6
26
AC
67
2B
E6
00
C5
04
E6
69
0C
72
D0
53
2C
8E
43
15
17
91
38
50
2A
19
C3
FD
BF
F5
06
D5
AE
CF
01
FE
A6
8C
35
08
E4
CE
A4
29
A2
94
C9
0F
EA
B3
D1
67
E3
C3
9B
2D
85
C1
3A
D0
3D
6B
AD
29
3D
97
BE
29
45
62
A2
25
49
7C
62
D3
45
97
72
27
FF
68
5D
DC
86
C8
D4
0C
4C
A9
39
8E
38
A3
D8
1E
FF
61
8C
4A
A6
2F
46
FB
B6
00
85
AF
CF
65
D3
B8
CA
19
2C
8B
39
83
84
60
DD
A6
A5
1C
14
86
AB
7B
6B
5D
E7
B4
EF
56
18
48
53
FD
51
F7
BC
85
D7
7B
9A
5A
8E
1D
48
AC
C7
B2
C1
1B
4C
0F
CD
77
A6
D3
10
54
2F
80
8B
73
33
58
D5
AF
3B
88
34
CD
D8
19
3D
87
16
23
C0
C1
C4
55
3C
9C
33
BB
22
6C
55
07
7A
1C
EE
BA
FA
FE
15
0F
B5
D3
18
3E
04
11
B6
D8
02
E7
EE
74
74
53
3F
A8
35
25
40
B9
6D
09
03
7E
4A
A0
33
77
E7
D6
74
E2
D1
3A
9F
FB
70
C1
34
76
A9
2E
19
6E
05
AF
63
92
5E
34
CE
A6
E7
36
A2
3B
75
85
E5
0F
2D
B5
DA
5A
CA
E2
0D
B6
F5
5A
A1
0D
90
D1
3B
92
5A
DE
98
C6
B4
24
35
8A
12
33
FE
1A
8A
82
9A
69
C4
37
14
60
A0
26
AF
FB
E8
F5
22
F2
23
70
B3
6E
5B
84
C5
B1
01
90
E2
55
46
72
99
A4
C3
CF
F6
33
0C
5A
8E
6E
7E
DC
04
58
CA
D4
D9
57
17
07
A0
0A
4B
5A
98
6B
70
B0
78
1A
2D
5B
D0
2E
00
69
B3
D3
92
1F
AB
4A
B5
7E
13
53
4E
85
E9
B2
CA
38
37
E1
7A
EC
41
E5
C5
08
76
4A
21
F5
07
22
DC
D5
52
1B
DA
FE
3F
70
0A
3B
9C
26
1B
79
AF
2D
5B
E1
79
FF
62
C6
92
FE
D7
11
88
EA
72
8D
47
0A
8F
68
70
F5
46
8C
0E
60
0A
BE
E1
CD
65
CE
43
35
BA
41
3E
05
DA
D5
5A
68
A8
F7
A5
2B
11
05
2E
F5
32
A3
0C
AD
5A
F1
DF
05
A7
37
62
0C
AF
D2
F3
27
2A
CB
6F
95
9A
B8
2D
A5
0C
FC
23
CB
1E
DA
09
98
C4
3F
B6
15
8A
89
16
AE
8F
D2
16
99
F4
C5
43
FC
2D
FA
AB
0F
41
99
84
D0
81
38
03
82
FD
8A
9D
21
0A
3C
68
EC
2B
36
B3
BF
94
B7
E0
30
F0
D8
EF
64
5E
F3
E7
5E
45
E2
8C
93
FD
B1
75
14
A0
F8
11
5E
2E
81
9F
11
D5
1E
A0
51
F0
1A
39
9B
A4
4A
7D
DA
A3
EC
3D
BF
76
AF
C6
96
B0
11
8D
4F
F0
DA
67
46
27
36
6F
78
55
C0
0D
34
64
73
09
AF
A1
74
68
C6
28
80
BA
A7
D9
B9
F3
2D
20
0E
26
C7
76
12
E4
7C
11
15
AD
1E
9C
A9
91
37
08
20
92
21
0D
02
E7
87
29
0A
E9
27
2C
0C
6A
F0
39
FA
24
1F
DE
C1
EE
3C
EA
3C
02
C4
45
7A
F7
4E
28
E1
B6
BB
3E
0F
86
42
CA
C8
46
41
5B
7B
FF
DF
B4
B4
F4
AA
10
10
33
2E
6D
A8
B5
91
95
58
25
74
A5
7F
3E
92
49
28
F5
17
57
90
3F
CB
28
38
FA
2F
02
E4
77
35
13
32
05
E0
0B
C7
C9
2E
2C
5F
7F
82
17
3B
33
E1
9F
1B
79
DE
AE
1A
79
BC
19
87
AB
38
32
4B
A3
C5
37
68
A4
43
ED
21
3F
65
01
D7
F6
AC
57
F4
AF
D3
6F
D3
1A
CF
FA
61
6C
DE
03
D3
C0
B4
58
2C
80
47
3A
78
AF
81
53
9F
54
1F
71
4A
A4
70
F2
65
81
B1
A7
7B
60
BE
42
50
46
91
EF
61
6F
58
60
E7
EC
26
2E
A3
3A
F0
12
1E
B1
8B
C7
8E
E6
33
91
1A
11
41
D1
AA
06
25
74
B2
BC
08
57
4E
7D
91
4D
77
C3
46
D1
C9
78
FA
A1
B7
90
0E
16
51
52
9E
D2
6E
C4
72
31
6B
66
CD
34
36
B6
74
E6
21
E5
54
1A
B7
E4
7B
F9
DA
0C
88
FF
09
CB
1F
EF
A4
64
A4
AD
72
C3
C5
3B
3C
D8
32
6A
75
DE
31
0A
DA
27
17
F3
13
8E
50
6D
B4
1B
90
DB
3D
B8
B9
32
71
BF
7C
8D
42
F6
56
66
FD
CA
04
9B
E4
DC
60
53
56
7A
60
3C
83
84
14
7C
19
3D
2B
B7
AB
EA
F8
C3
BB
A9
88
0E
0E
41
F7
CD
C1
13
AC
7D
1A
55
56
18
0F
A7
07
39
90
9A
73
C5
D1
94
33
CA
D5
78
1A
A4
C6
13
25
90
0D
1F
07
FA
ED
B5
E6
C4
FB
23
3C
59
1E
F5
57
AC
E2
B9
A7
CE
99
6F
80
86
DF
6D
13
2C
38
42
76
38
02
FA
D3
41
66
C7
54
09
68
1D
FE
DC
43
C3
3A
B7
CB
86
2C
05
73
79
E8
33
C2
97
76
E5
1C
08
ED
7B
58
21
31
B3
4D
E2
FF
AC
E0
C8
BA
27
12
36
CE
D4
A2
66
B3
E8
7D
73
82
73
FE
4E
6E
F3
4B
70
89
B0
55
0B
76
1E
97
F7
89
BF
A4
39
A8
D9
74
F8
6D
AB
6C
FC
27
6D
3E
BA
21
C6
A5
43
4A
5A
1A
10
3B
80
42
C8
5C
D9
C0
DE
FA
E9
61
9D
F9
14
A2
F4
9A
A6
EE
BE
19
6E
08
BD
D1
FF
49
BD
0F
47
FD
E5
6E
E6
9E
11
3E
7A
A4
94
A1
28
EB
D0
CC
09
35
A2
2A
24
7B
90
CD
2A
D7
D0
A3
F1
B1
58
5A
D1
E1
B5
14
80
BF
CC
0B
DD
92
97
C8
4A
8B
0E
DC
B4
E2
54
31
00
61
FB
CC
77
07
4B
02
F5
CE
0D
72
F6
F1
AE
9E
DA
8D
6D
E5
A4
0E
5B
2C
BB
1D
D8
AC
73
A4
5B
28
E2
DF
1E
8D
8C
58
63
58
25
4C
CF
5F
10
0A
39
34
52
7E
A7
D6
E5
ED
BD
05
BC
36
B5
CC
A6
22
FC
E5
1E
7E
BB
FA
8E
DA
5C
B3
16
21
8A
7D
91
54
FD
9B
F6
90
99
EC
BC
BD
1A
EF
D4
85
1D
9D
14
41
34
93
83
D1
24
ED
5B
95
02
93
55
8F
F3
8E
AF
CC
49
70
A3
68
5F
29
F1
90
44
C8
61
77
88
3A
7A
4E
99
DC
CF
9A
A2
71
C2
3B
44
99
EE
D6
4F
0F
C0
2C
CC
E5
AE
0A
DD
6A
BC
D6
8A
4C
35
ED
78
BC
66
9C
9D
4F
79
15
70
B7
38
82
94
43
3E
58
03
85
E4
3F
90
D8
0F
56
E0
73
0A
6F
F6
A5
20
88
BB
6F
BC
9E
9E
16
CB
5A
05
D6
66
12
E0
16
22
38
73
D0
57
5C
26
0A
51
3E
6A
1C
50
3D
75
4A
3C
FC
29
00
82
A5
31
33
2E
D6
1A
72
34
9B
D8
74
33
CE
69
7E
A6
4C
52
58
55
6B
81
4F
A8
0A
40
AD
A9
EF
0D
D1
CC
2E
6B
30
0E
10
0E
D4
F9
28
B2
83
14
20
95
4A
82
91
39
1F
29
3F
50
AF
56
2B
BD
1A
46
A4
B1
43
7A
7B
A8
0A
B7
2A
1F
C3
51
9D
A0
08
04
56
C0
35
2B
E1
28
17
5E
2D
52
20
BA
3E
65
DE
B6
CC
7B
FD
97
2F
72
58
C0
E8
F1
5C
5A
2C
3A
80
B4
D9
62
18
45
5C
B9
79
FE
06
83
BD
30
A6
4A
4C
34
51
F0
2C
FF
AB
02
9A
38
A3
76
99
01
36
41
78
2D
00
F6
83
98
21
23
63
11
BF
96
8E
DC
72
8A
93
68
DE
A2
1C
25
24
F6
58
DC
13
F9
92
1B
D0
1C
8D
64
6E
3C
41
79
15
BD
B8
85
4D
06
30
89
C0
12
9E
6A
F2
45
F9
EA
0A
58
D0
21
53
CF
82
96
CE
7A
43
B8
94
3D
03
8D
A0
16
C9
51
02
34
0B
87
52
8A
97
2B
D6
60
0F
D0
67
47
50
7F
07
E3
2D
72
AC
FA
2D
B9
91
71
53
85
2F
D8
60
9F
BD
22
0E
EC
E3
8C
27
89
65
C5
7D
9E
7B
E2
57
1B
08
6D
80
98
C2
3C
A3
95
E6
A6
D4
B6
81
F1
09
B7
5D
43
92
C8
73
EC
52
56
77
AA
B9
38
78
7F
09
26
D0
A9
BD
F5
5C
0F
97
21
A9
78
C7
95
BB
0A
71
4B
53
57
72
9D
D8
CD
6E
67
8A
67
BD
B9
DA
3E
04
0E
18
C7
67
03
1F
76
F1
2D
7B
DD
01
E9
C2
1E
C9
A3
6D
C5
39
30
33
17
D9
8B
C2
B6
1E
1E
03
80
AF
CC
CC
A5
7B
84
46
FF
ED
4B
DF
B7
6F
F9
4A
AD
F6
73
DB
D4
55
4E
CF
85
A8
93
FF
4E
AF
0D
BE
9F
DB
1B
B5
51
E3
AD
15
6E
23
E8
9E
5F
33
72
53
8B
5A
AD
25
CA
2F
55
40
21
58
D9
77
41
C0
6F
98
AB
48
32
6E
55
87
A0
8A
14
B2
0E
BC
C5
3A
CD
AD
05
54
51
46
0B
97
25
E9
83
D6
EF
DE
06
7A
CB
6B
4B
CA
45
38
DD
A2
EA
A7
48
93
CB
7B
06
26
19
EB
EF
C0
C0
F1
2E
94
AB
8A
15
23
0F
58
9A
80
EB
4E
FB
68
5B
BA
E2
76
24
67
25
26
EB
55
57
5C
2E
C1
0D
A1
AF
83
A7
A6
52
B8
63
19
90
C6
CC
26
98
BF
64
12
88
D0
73
B4
48
BE
31
70
AD
D7
CA
31
A3
EB
1F
08
7C
19
