28
E0
F9
95
91
AF
A1
8E
82
2B
4B
26
02
23
6C
30
63
79
E5
AA
8F
74
2E
0E
AA
16
DA
FD
16
D1
1D
5B
D6
1D
E4
9A
8E
BA
42
77
C8
CB
16
75
7E
8E
F1
E7
39
C0
13
4B
A7
F0
F7
69
75
66
95
17
A5
4C
15
6F
74
59
6E
3A
51
C0
C1
AC
65
17
BA
8D
85
F0
EF
34
6B
19
F8
C0
E4
C5
23
DF
2D
14
C0
E0
05
E1
79
6D
D4
B9
30
CB
7A
0E
48
EE
DD
7C
1E
20
5B
D8
71
45
93
77
01
C6
12
10
31
77
0D
09
E4
94
40
92
35
C7
DA
6E
17
78
F3
37
51
8E
5F
AB
A0
92
9C
62
47
A9
9E
39
11
02
98
B6
DB
47
F6
C4
56
11
C6
E6
15
54
E6
0E
9E
86
2D
F5
F2
81
B3
4F
72
2C
0F
B8
D5
33
6B
92
A8
8B
F6
99
55
20
8A
BD
AD
5A
11
6F
03
D8
6B
27
4C
E8
B7
DA
5C
C6
E9
73
1E
F3
B7
48
9B
EE
B8
21
D3
FA
44
42
28
96
F9
CC
20
E6
77
81
96
6B
C1
57
63
FC
C9
95
5F
1A
D9
0E
C6
B4
57
3C
B8
D9
59
19
E6
F5
0F
67
CD
74
D8
82
4C
A4
65
77
A6
8F
85
A9
28
CF
B3
10
43
50
7C
DA
C4
21
77
89
1C
86
B6
D8
BE
AE
4B
EB
20
C8
48
C9
5C
EE
B0
A7
56
B6
E9
99
40
8A
C7
08
2A
FD
B7
6A
D3
2F
DE
D9
E2
7E
28
2B
E2
86
DF
66
9A
87
C6
15
FA
B4
DF
73
7F
0D
F8
DB
10
C5
69
97
AE
63
B7
55
11
86
78
07
0F
EC
58
6E
A5
37
E0
CE
B8
59
F2
79
3B
ED
BE
E7
1F
C4
75
CA
0B
C6
9B
F4
43
FA
CA
D5
4B
45
9E
26
79
20
B6
F8
D2
CF
B3
91
80
55
C9
86
0D
59
41
96
70
79
2D
80
FB
4F
6B
9B
C4
3C
03
97
F2
DC
95
07
2F
03
AC
57
8C
DF
F3
70
F6
77
9B
E0
02
66
89
AD
5F
89
C1
C3
48
02
F8
78
1C
A0
B0
C3
C2
2F
5E
5E
C4
D3
FE
A4
C7
E8
69
65
C7
40
D6
6F
14
E6
4F
0F
A0
0F
C8
66
0E
74
32
6B
FF
16
AA
97
DA
4D
85
3A
56
7F
78
E9
80
4D
98
B0
17
EC
FE
8E
AE
E5
03
2B
72
FB
EF
B8
21
53
CB
3D
7E
34
97
EC
F6
82
B7
55
E7
26
5A
8A
23
BB
EF
20
7D
5A
B6
8C
A0
35
35
79
C1
76
02
99
FB
40
CB
5D
DD
CE
AE
F1
A9
5B
F3
A1
4C
C6
1D
2F
7B
A7
4B
D8
33
EC
28
11
47
D1
69
7D
AC
DB
B6
E8
F4
8B
3A
B4
54
70
27
9E
07
22
2C
AE
DE
04
95
25
3D
72
0E
22
91
3C
DB
56
B0
20
10
87
2C
9C
BA
A4
9A
16
6B
EF
61
80
EF
1F
F1
96
18
24
7B
3D
2A
51
CA
F4
BF
7C
B0
21
B2
BA
6D
D6
3C
92
4C
37
AC
BF
43
C6
82
A4
7E
42
F8
56
20
BA
A3
C2
06
DE
DE
2B
AA
E5
F7
B9
D3
B5
CE
CC
B9
C0
ED
A8
65
8D
BF
08
7B
A0
1B
64
5C
05
6A
AC
5B
5D
DE
EC
39
D2
7B
75
D7
19
AC
41
6E
8D
53
48
06
76
F1
61
99
A0
EC
A8
BE
EC
94
38
CE
10
1A
0F
46
95
52
03
9A
D0
63
AA
3B
2F
4B
CB
FF
D4
22
64
26
A6
AF
B3
22
E2
60
88
28
77
63
DF
30
87
E8
EC
6E
EE
96
19
E0
64
BF
5B
33
29
0C
2A
B3
12
F5
66
46
B6
9D
73
A2
31
C9
7F
7D
AE
E8
E1
BE
39
93
61
C9
FB
05
73
0C
10
DE
14
9E
90
92
21
85
27
C2
79
1F
DF
49
8E
05
E3
09
A7
53
06
B7
80
9F
8B
14
D9
75
1F
7E
B3
B5
C3
37
6E
8F
58
38
F6
67
46
81
3D
8C
9E
EC
05
75
22
26
DD
F6
72
3C
90
8D
5F
AC
E6
E3
33
DD
13
01
CB
6D
0E
D6
96
9B
E7
1D
4C
91
30
13
91
0D
66
5C
34
B6
30
42
86
3A
D1
BB
05
6C
AF
2E
17
92
32
BF
9F
E7
8A
51
ED
E3
03
92
6F
28
0B
9E
97
8B
E2
3D
42
93
F6
94
43
A1
9B
0E
85
7C
A3
FA
AF
23
18
5C
B3
14
6B
62
51
37
FC
59
3F
D2
C7
7F
81
28
64
D8
9B
7E
69
54
57
A8
60
99
42
AA
80
61
E1
69
CE
95
FC
E2
82
75
FE
C7
ED
7D
BB
55
3A
43
29
EA
CD
47
9A
25
45
09
06
91
DE
1D
2C
07
85
25
38
F6
E8
1D
96
C1
17
07
97
93
B0
EA
CC
C4
0F
88
2C
B8
11
B3
BC
69
71
BD
CF
DD
A8
2C
C7
91
A2
9E
68
6B
50
5B
51
BB
DF
4B
9C
D6
14
09
54
F4
5E
A3
74
81
4C
F4
89
A9
7F
40
E7
3F
22
56
47
2B
A1
FE
08
B2
6D
EE
1C
64
87
B3
BA
69
15
0C
76
DF
C0
F4
A6
40
1A
7E
00
E6
9D
46
A6
40
0E
C1
C2
75
35
FB
69
7B
7B
EB
BF
B5
4A
03
04
F0
5B
4A
8D
6B
14
72
B0
5E
F5
63
BF
A6
39
58
D4
87
15
E1
9F
42
A7
D1
15
6E
6E
8C
B2
4B
D8
0D
71
F9
48
8D
10
F0
D0
9F
29
E1
9C
9A
E1
30
6B
66
9C
D8
AD
D8
A4
A3
66
1D
C9
06
4D
52
9C
0E
48
AD
AA
54
39
22
63
98
62
6C
51
EF
E1
33
07
B8
85
C5
23
25
32
C6
E6
24
28
55
CB
79
8E
54
FC
0F
37
EC
52
00
1B
CB
CE
AE
F4
AA
05
B3
01
40
EA
68
A6
EF
36
16
87
82
CB
B1
E6
40
E7
2D
29
8D
AB
CC
EC
51
54
DB
30
29
44
EB
1B
4A
FC
AB
31
ED
65
8C
10
D4
0B
C6
E9
A7
1E
AF
B7
F1
7E
90
F8
CC
40
C8
5B
32
53
0D
BA
55
D7
9D
90
F7
FE
68
C0
BE
70
E5
EA
72
FD
79
3B
EA
A3
9D
E7
38
3C
20
D1
E4
28
77
F2
6A
44
B5
1E
ED
2E
B8
84
EA
BF
D8
34
E0
F0
1E
B4
C1
E3
16
31
68
D7
B3
0B
E8
A9
DA
1D
53
CA
E0
90
5D
DD
72
07
60
54
35
EF
33
10
AE
C6
10
90
B0
AC
F9
A3
53
10
0A
7E
37
66
3E
B3
5B
88
CB
F4
07
C0
B8
30
95
AE
58
3D
3D
0E
29
C7
35
DC
7D
F2
A2
5C
BB
F1
76
26
F4
B4
DE
21
E1
E5
6B
B0
E7
69
57
2F
B6
3E
0E
D5
2F
44
71
2E
F1
52
EC
E8
E1
C1
DE
87
E6
7F
04
DD
AB
D2
D5
5B
8A
28
10
EA
86
5B
5B
46
36
F4
74
52
00
2C
82
65
5E
29
92
BD
03
7E
65
9D
EC
C2
DA
C4
EF
77
D0
D5
67
57
DF
FB
B3
B9
A4
5D
DF
92
94
A4
22
F9
64
95
13
0C
32
1C
02
88
35
A8
7B
34
8A
F4
51
BB
C0
9F
C3
71
9D
96
BF
59
59
67
5C
AD
EC
BA
7D
99
70
4C
0E
C7
AA
21
86
1D
F1
49
B7
07
23
85
9F
D0
59
99
09
27
FE
A1
25
58
B8
A1
D3
BA
E9
96
7D
14
77
66
24
D0
5A
6E
95
FD
99
F3
8F
3C
EA
97
DB
E6
D1
8A
CA
3A
E0
FD
8A
32
E3
18
89
16
E4
CB
FA
5C
61
AA
79
26
3B
BB
CC
EF
59
54
0D
02
15
33
DC
CB
17
2E
FF
96
8B
A1
0A
E8
4A
6C
65
E7
3B
43
03
90
94
9E
4A
26
4F
DD
3C
3E
A3
9C
5E
C0
06
2E
20
3A
BC
4B
DB
92
34
52
92
86
9B
B8
9E
F0
17
43
8B
EC
F6
C1
51
CC
34
AF
AF
A1
0C
73
4C
DA
4D
D1
CD
08
EA
D1
9E
A3
5E
56
7B
8F
47
B9
B3
CF
00
C8
C2
9B
67
95
D2
59
72
CA
E0
94
50
2D
82
35
28
5E
EA
B0
BA
E8
9A
E9
0C
B9
23
4B
B5
6F
FD
BB
AE
CD
CD
24
1A
4E
38
17
CC
2F
03
C0
7A
C8
ED
DD
27
32
44
32
DA
C4
51
59
9F
85
39
1D
FD
EE
5B
4C
B9
24
00
5C
4B
7A
91
9F
AA
5F
2F
D5
33
AE
8F
91
CC
0C
05
15
4F
31
CB
89
21
4F
10
32
85
A1
3F
41
2F
99
AA
79
91
BB
B3
F5
50
3B
A3
49
EE
1F
3B
F3
A6
C6
BE
B8
FF
C5
10
01
CD
67
C6
AC
06
DF
7B
56
05
27
AF
D7
CB
13
A9
0B
E1
10
2F
34
34
E7
A9
D9
00
8A
1F
A6
F1
DB
F2
E2
1C
00
55
C6
5B
32
AF
84
C4
F3
0A
10
D4
23
F5
D6
66
3A
6D
09
EE
6B
0F
B4
FF
8D
2B
8F
F4
13
E4
7F
7A
A6
7D
96
65
BE
22
5D
61
1D
8F
64
D4
52
27
44
D7
19
3C
09
B0
F2
69
42
3A
59
E4
66
8C
73
E3
8F
2C
EA
5F
A4
AD
FB
B3
2A
79
6F
AE
B3
16
29
BF
2C
1F
95
27
7E
47
23
A9
02
6E
09
68
86
4A
11
03
9D
8C
61
34
AC
34
57
8D
FE
13
7B
05
73
80
E1
A3
E3
38
B7
75
43
41
16
A8
B4
FE
8D
14
39
8A
2F
18
C9
2D
6A
B4
C0
1D
DC
B6
6A
C4
FC
CF
7C
06
F1
4E
4C
97
19
C4
9F
5E
6C
5E
5E
AF
63
9A
78
DD
13
D8
14
2A
54
9F
D1
F9
66
40
A2
4E
63
31
7F
23
F4
C3
2C
C9
25
F1
FC
80
FC
4B
C3
06
56
1B
3E
2B
4C
A2
30
3C
7C
76
23
19
56
66
3A
6A
05
A4
5F
6A
FB
11
F5
78
14
2D
EB
F0
39
FB
1A
9D
28
31
DA
00
25
B4
7F
3E
86
52
3F
0E
39
0C
10
BE
C7
85
99
36
DD
23
17
38
C1
C4
96
74
14
2D
A2
13
0F
1C
4B
95
57
77
A1
58
F9
41
3C
B1
54
70
31
74
48
DA
63
A3
46
5B
DF
FC
EB
E2
C9
F2
86
C2
B3
A4
3C
14
31
AD
D0
F4
4C
76
EE
1A
72
EC
42
96
3F
9A
98
50
7B
92
D6
18
C1
52
7A
6A
F0
0F
C7
CE
BB
FD
A5
B3
4D
35
D9
19
26
D4
8E
07
05
F2
5F
64
59
E0
5E
98
B1
E9
28
78
37
5E
8D
7B
C1
A1
08
4D
4B
4E
EE
F9
B3
B2
CA
9D
49
23
A1
63
B3
7E
B0
DC
F9
B4
CA
B4
7B
59
DA
0D
C0
5D
F4
C6
04
BD
7D
B1
C7
9E
E7
DB
BA
58
34
05
47
83
C9
BF
EF
0B
8B
22
00
F8
78
4A
28
B4
60
E3
0E
3C
D4
62
11
92
64
91
8D
76
7E
E4
43
B7
4A
15
49
08
17
8C
D9
18
79
65
31
35
76
2C
1B
6F
44
B5
0C
AE
46
15
B7
28
C9
39
E0
B2
52
1D
10
31
F2
A1
99
74
DC
64
08
86
CF
7C
1B
1A
5C
2C
E4
AF
0D
33
C4
6E
6F
43
C5
36
C9
7D
C1
BE
DE
3C
99
6A
5B
16
4A
85
E1
07
2C
A2
BE
3C
30
9F
9F
62
47
CD
1D
61
D0
05
58
71
0C
BE
5A
5E
54
F0
7F
36
A5
F2
0B
F1
D8
11
52
A3
AF
9E
C0
2C
0B
33
BD
A9
53
8F
66
D1
7F
B7
73
A2
56
C2
F4
F9
2D
DE
AD
04
A1
E5
20
0B
AC
F9
15
17
F2
BD
66
49
FF
50
AD
0B
65
B3
52
9A
69
84
F0
5B
7E
8D
C2
F5
E8
25
CC
F3
75
75
C5
33
8F
98
D2
3C
82
7B
89
71
98
24
88
AA
6C
E2
22
DA
89
55
7F
2E
6E
B7
8B
F1
0A
FB
74
BC
7C
6E
6F
6A
AE
86
6C
F6
51
0A
F0
B2
5B
C9
7C
85
21
4D
51
88
EF
A2
89
C3
F4
ED
78
D1
2F
70
43
84
CB
A3
75
57
4D
C5
7D
9D
D0
33
29
3E
81
44
F2
6D
5D
A9
F0
33
7A
46
F6
64
67
0E
5F
7A
66
94
6C
93
EF
F4
B5
7C
50
51
DA
10
F9
00
E6
AD
25
C3
99
4F
F1
8A
EF
27
D2
09
72
81
A4
AC
93
E2
72
B7
A1
22
3E
FE
47
AD
92
92
88
DF
9A
75
E3
EA
8B
29
61
CE
96
5D
3E
53
93
71
19
82
E8
28
6B
70
B4
7D
83
C9
4F
E8
1C
1F
A1
93
C2
5F
33
7B
80
1E
46
9A
ED
0B
44
0B
EF
BF
8D
F7
C0
3E
3E
CD
65
98
3E
7D
85
FC
A5
61
FC
BD
96
BF
9B
FB
CF
69
44
93
6E
71
AB
3C
5E
A5
52
17
0A
C1
65
29
2D
70
7C
E6
BB
39
DA
D4
57
DF
89
50
46
D1
3F
EB
8B
71
DB
91
EB
D4
C1
1B
AA
6D
99
D2
47
F5
9A
BF
8C
0A
AB
22
FF
9D
13
B9
41
BF
F7
83
76
7E
47
03
EB
52
A1
C2
06
AF
7C
14
70
27
5D
86
13
71
0E
7F
75
5D
B8
03
15
F9
8E
A6
F7
62
11
64
0E
43
54
4D
DE
94
D8
8D
44
04
A8
67
CE
F5
40
18
53
A3
D6
C4
2E
F9
3A
7D
1C
DA
E3
8C
D6
86
62
29
70
7C
1B
8F
74
BB
A1
87
5D
B7
D4
9A
35
1E
21
E6
A2
D3
70
AA
FD
18
2E
24
32
65
BF
0B
2C
FB
F3
FA
E9
B7
1A
04
EC
D8
F8
17
84
50
A3
22
00
ED
F7
AC
9F
E4
65
1B
70
4E
01
1E
0A
76
43
A7
07
C9
6F
20
8F
A1
76
96
E9
AB
D0
3B
5E
6A
43
3A
20
06
8A
96
EC
66
2E
50
AC
32
85
B9
E2
98
A8
97
A1
E6
F1
3C
A3
ED
06
71
C7
EB
E7
91
C4
9B
5F
33
BF
A9
0E
04
A5
9A
91
4E
08
A4
05
58
04
36
39
6E
63
E6
19
00
B4
25
DF
90
52
F3
D1
55
2D
37
02
0F
F9
5B
F8
BC
AE
A1
66
5F
C6
9C
92
B0
02
EC
D9
3C
B5
AF
96
97
4F
47
6C
31
71
4C
64
55
84
2D
80
16
E4
24
AB
4A
55
F6
4A
4E
04
02
26
A9
B1
4D
F5
7A
3A
DF
4A
D0
85
D6
5B
EC
B1
F8
C2
AC
F5
D6
B4
25
82
4C
98
99
5B
F0
97
A7
88
E8
C5
CB
B8
E6
94
95
6A
31
B8
F9
D5
94
02
9D
2A
6A
18
ED
40
AF
7D
8D
2A
B9
C2
0E
C1
1E
1F
63
4B
F1
39
B0
64
06
24
E3
77
38
43
F4
20
23
E9
F9
D2
D2
03
EF
00
55
95
63
72
17
E5
66
BE
17
EA
D5
E5
37
B1
AD
2F
D4
2E
DA
1E
BC
06
1B
0D
EA
E9
92
45
4C
18
49
7F
7B
D8
0D
12
C5
33
C1
58
1B
09
91
82
9F
3E
1A
B1
4C
5B
0C
17
E1
39
7C
1B
DF
F4
B1
CB
F5
8E
F5
21
4D
F4
2D
0A
5F
9A
73
67
2C
62
B3
79
44
78
39
85
62
64
AD
6B
77
5F
FE
D2
43
88
C5
33
4D
88
EB
95
91
0C
3C
96
4A
A0
10
E7
52
57
D7
62
01
A2
BF
37
E1
F3
AD
32
82
D7
A1
98
9C
9E
99
D3
56
B4
BD
A7
F9
56
23
A9
2F
5C
CE
B9
FD
72
1C
03
40
36
18
FD
29
34
7A
80
85
10
D1
77
3A
5B
74
45
50
BA
8B
5E
12
CC
44
EA
6B
37
2A
DA
B3
AA
BF
B9
3C
2B
42
2D
EF
C7
92
9C
77
AC
7A
09
81
3F
CC
16
4E
0D
8F
71
96
CF
3E
EE
12
E2
48
3F
60
5F
EA
24
45
B0
82
65
B1
21
64
73
BC
F4
6F
FC
92
BD
58
AE
5D
86
36
59
95
2E
A9
7E
82
3D
3D
B5
7B
8E
E9
E1
84
58
1A
40
DD
EC
D8
D5
42
20
AD
4D
BB
77
A7
22
26
6B
3F
3E
E6
68
1D
9E
9B
22
79
92
80
2F
5D
0D
95
40
E2
39
6C
C4
77
B8
AC
B5
E6
B7
EE
DD
6B
BC
32
73
26
AE
66
92
30
58
50
54
D8
6B
69
36
5E
C9
32
37
8C
06
1B
82
17
A7
F9
76
CC
05
F1
77
09
81
1D
07
66
88
E7
BD
8C
74
07
BC
D5
D6
DA
A1
F0
1B
FD
C8
4F
99
28
6E
F6
87
EC
C9
86
6F
98
2A
F6
27
3A
8A
D2
E1
CC
9C
F1
A7
21
4B
6E
32
A6
2C
3F
98
46
3D
03
5C
73
3B
60
4A
D5
1E
B8
90
E0
54
3B
3F
AD
D9
AA
4A
25
3B
DF
79
DE
15
6A
FF
6C
68
32
83
A0
4D
CB
73
74
D5
44
CC
F3
AA
3D
0D
15
31
D0
4D
9A
CD
13
2D
BE
B4
46
67
9A
AA
50
88
14
34
E2
57
B4
7B
D0
8C
A2
D6
E4
64
F9
E0
F0
FB
2E
42
2D
91
31
66
97
99
76
6D
B6
8E
89
16
A8
AA
6E
EE
80
5C
1B
89
B6
36
E7
32
39
9A
24
7F
5B
1B
A8
1A
B5
9D
E0
53
1D
9A
BC
C6
E2
86
32
C6
68
DD
07
FA
CD
73
E4
12
5E
96
71
A7
F3
13
B9
3D
5A
71
E8
8A
90
8A
BC
59
05
94
A0
81
73
B6
12
6A
01
78
1D
AE
1F
37
CD
59
52
24
8D
34
20
C7
23
43
BE
BD
86
4B
20
96
73
30
75
88
6A
2C
CE
3C
21
06
3A
66
B1
2C
B7
29
3B
E9
51
96
82
F5
AA
D6
54
F8
08
96
BE
E5
A0
4A
51
9E
25
00
9E
2E
B7
8A
F7
E6
DE
78
E3
4C
E6
32
3C
8B
FF
43
30
9C
F4
CD
2B
CB
11
56
B3
13
B8
C0
1E
87
43
99
47
BB
B1
4A
58
BB
D4
DF
B0
0B
0B
1E
2D
11
81
2E
B5
73
54
2D
D3
32
AA
C4
8A
6A
C9
9D
67
DA
84
0C
40
04
69
26
D4
85
A4
53
90
BE
F3
51
73
A9
0A
38
1B
BA
D5
D6
51
B6
63
EA
DC
15
EF
14
49
45
91
2D
08
48
C8
94
A1
38
21
94
93
05
5B
66
DE
3A
2F
2A
82
02
CD
1E
80
3A
36
79
3B
53
6A
82
60
93
D4
69
31
DD
42
84
87
62
96
0A
91
43
CA
60
1D
0F
6C
D3
60
98
29
0E
95
77
B5
C7
50
3F
F5
34
E9
B9
21
47
08
B2
9B
67
15
C9
2E
9D
89
23
F8
46
F5
E9
D7
5C
E0
83
18
29
EF
11
EC
C4
E6
CD
A9
7C
42
A9
46
B1
D0
24
C9
65
08
D8
28
17
2E
85
39
AA
27
B7
1C
D8
23
6D
78
8F
92
DE
EE
2D
61
75
74
2B
01
74
92
2C
AC
8F
0A
B0
DA
D5
D6
BB
52
2F
23
77
A0
8A
E9
2E
FB
7D
0B
1D
3F
68
55
1F
FE
46
B9
04
99
C1
E8
55
76
46
5D
A0
6E
DC
B5
D6
A1
95
5F
9E
BE
56
43
2D
9B
57
0A
D2
CF
7C
CD
56
D5
D6
2E
C3
5B
F0
47
49
4D
14
A4
E0
05
CE
26
5B
8A
EF
DB
4A
2D
84
DA
B6
13
B7
C5
69
A3
97
CC
67
70
4A
DA
0F
0F
9E
73
C2
FA
18
4E
69
C5
75
F1
A3
C7
91
42
38
FC
FE
70
5C
AC
43
29
CE
F9
54
A7
6E
E3
17
01
A8
2F
9E
20
B4
70
DE
1C
C8
03
BB
E5
88
AF
FC
AC
97
61
8A
4B
DE
D3
67
12
99
D7
1B
E5
EE
6C
B3
37
3C
C2
AA
BB
B7
9B
6D
79
AB
9D
AD
3C
FD
1C
39
DB
24
94
A2
B6
98
29
97
9D
46
DA
59
32
0A
7F
0B
11
2E
FF
FB
3D
81
31
81
13
F3
58
E3
E1
3A
7D
0B
E9
E5
02
3A
6E
55
C0
41
F5
DF
16
3B
75
7D
6A
EB
CD
F5
04
73
88
4B
DE
F8
D2
9C
18
5D
43
4F
22
EB
0A
E5
EA
8A
EA
66
40
3A
B7
4A
CE
44
55
49
26
7F
7F
62
D7
6A
64
2B
7A
15
8B
77
E1
C1
FB
C3
6E
3E
E3
16
11
99
2C
65
18
19
1F
D3
FC
0B
EE
D4
63
4D
82
1E
80
BD
F9
E1
BD
13
B6
CC
88
24
3F
C0
A8
04
19
EC
5E
5F
8C
65
15
5D
5D
91
E5
90
A8
B8
ED
85
78
2A
E8
87
BC
27
C1
F8
CB
6F
E8
E1
3E
A9
AC
E6
8B
23
B3
B7
F1
67
13
45
79
1E
FC
4F
D8
A7
78
5B
8E
C1
D6
F4
39
C1
8B
0E
9E
64
C9
38
0C
90
7B
73
08
00
3F
7A
79
A4
9F
2A
68
0C
3D
C4
A9
36
84
4C
58
D1
77
28
BB
97
2B
8B
A4
9E
9C
A4
E1
75
20
15
32
D8
56
DF
94
6D
63
55
0F
46
0C
74
0A
69
31
5B
77
50
81
B7
98
4F
CA
4D
EB
9D
9B
69
2A
4E
D8
7F
47
AA
F5
F5
1F
B3
FA
CD
C9
06
E3
F6
CB
8E
11
3D
3F
E8
E6
F0
AA
07
C8
F3
95
CC
41
26
6C
0C
E3
C8
C1
21
AD
51
F3
91
90
80
A4
02
A0
08
A6
D8
62
FB
E7
C4
20
21
42
0B
5F
15
23
E7
53
50
D8
81
9D
7B
75
52
15
02
E4
D9
7C
18
20
52
B4
80
23
01
D8
0B
BE
83
EC
6D
9A
46
AD
B9
AF
AC
2B
E4
7F
EB
4A
AB
CD
A5
71
31
DB
14
A1
83
AC
C0
1B
1F
64
9B
A2
11
2E
1D
C3
C3
E3
81
08
9B
12
85
6A
75
D4
26
15
CD
9E
81
BC
6D
E0
0A
D8
9C
29
F3
54
8C
A9
80
18
8B
12
EB
E8
7D
31
BC
50
1D
15
C0
4E
C8
5F
2D
A8
7B
7D
E0
06
56
FA
B0
3A
0F
E1
BE
DF
C6
DF
8B
C7
85
71
B8
C2
D2
9B
5B
20
B9
38
37
E3
1D
18
AA
D0
43
04
9E
C0
63
25
31
63
0D
83
EA
67
73
F9
74
3B
6F
09
C0
50
40
9F
8C
79
1C
CF
9A
39
12
6D
75
2B
CB
17
42
78
A6
C2
65
F5
69
BB
AD
2F
84
AC
BD
7C
E6
D8
58
A4
3B
F6
A7
98
2A
B3
10
98
C9
B3
A3
38
23
46
3D
0C
0C
4D
E4
4C
C7
A4
63
0B
0F
56
FE
DF
98
25
FF
E2
50
34
91
DB
03
97
C2
6B
15
28
59
BE
A0
91
47
F7
5F
64
C7
F9
FA
2B
C3
BD
9A
60
24
73
5F
8E
5B
FF
03
4E
83
D3
31
A0
9B
1B
30
46
86
B6
1D
C2
C3
DE
8C
C4
FB
D7
5B
A7
BD
73
9F
B2
FD
CA
36
D9
23
29
4C
99
CC
BC
7C
56
D3
4F
8E
17
79
25
A8
45
EC
50
FD
16
8C
6C
74
C1
3B
71
96
DA
51
6B
9D
54
54
84
C4
70
D4
53
B5
2D
F0
AF
A6
1D
BF
FD
31
D2
FB
A2
20
7C
C5
2F
91
18
74
EA
4A
80
23
0D
73
D7
08
35
E0
0C
66
99
F4
D1
EE
75
E1
8F
89
6C
23
80
06
AA
95
E9
1F
ED
9A
88
54
29
14
5E
5E
D7
EA
F5
16
5E
FA
61
16
91
AE
01
83
66
9E
76
F5
B6
5F
9E
09
31
CB
52
C0
7C
6A
B4
39
55
59
E9
9E
94
CA
76
75
A1
78
71
34
D8
CC
FC
12
27
60
89
55
76
06
FD
7A
94
2A
0F
CA
A5
60
40
EF
99
D9
16
CC
28
21
43
54
B0
9E
2C
3B
54
DF
42
1B
EA
E7
CC
49
5C
34
32
50
74
DE
09
19
A8
23
BC
84
EA
EB
32
CE
5F
E0
D6
62
3A
82
3A
CB
83
3B
CE
C9
8C
60
CD
14
3C
D5
6C
9C
32
1A
E7
41
A2
E7
55
6F
F5
7B
2A
73
FE
82
4C
FF
5A
06
B2
8A
40
E3
CC
E2
30
75
C5
85
B0
D8
BC
DC
66
D2
AA
FB
8D
82
37
91
A4
B9
9D
C3
1D
30
A9
C7
8D
E0
F9
1C
CA
96
FC
55
DE
F8
22
4B
F8
15
71
54
5B
EB
6D
58
9A
97
5D
E4
3D
8B
AD
50
FE
11
CA
98
02
BC
33
C9
C5
4D
F5
57
26
BE
4D
5C
12
15
67
D8
68
AD
0F
7E
61
38
4B
71
DB
73
90
88
CB
D1
64
66
7F
7C
3A
45
A6
24
B3
06
09
31
9C
52
F3
1B
D3
AD
AE
EB
AD
C7
7F
41
5B
88
58
EF
DE
DD
96
08
D4
4F
F7
14
7E
09
3A
42
A9
23
D9
68
EB
9A
52
CA
B2
2E
65
D4
28
A2
93
8E
90
39
AC
4B
C0
BC
F3
FA
7D
DD
2B
F1
9F
B1
11
F7
0A
7B
2F
E4
9E
E0
4A
19
0C
B2
F9
C2
16
14
D8
F6
18
76
EA
5C
6C
63
00
6A
46
79
9F
03
37
C8
60
48
78
D2
BF
77
B9
D8
06
87
6A
C5
5E
DD
C7
43
59
68
6D
3B
C6
2C
D5
95
63
2C
2F
A0
AD
9D
46
2E
97
D0
20
AE
44
36
D4
D9
D5
32
A1
67
6B
78
FD
BA
A3
30
7E
11
C2
41
D9
38
31
63
14
5F
F7
98
AF
9F
BA
E3
B9
5B
E4
D1
62
82
B9
19
CD
B0
E5
77
42
42
2D
8F
3C
CF
C5
AE
A3
E4
F3
49
61
65
D8
CB
D8
25
16
A9
4D
A5
0B
72
AB
77
9B
CE
90
A4
B9
44
32
95
EB
7E
ED
A5
3C
E3
D3
D2
E7
31
E7
8D
DF
30
72
26
B6
4F
14
A1
F3
DD
F2
9B
D8
C3
20
DE
21
E6
AD
01
5D
FB
FC
EB
64
B0
94
D2
FD
2A
80
17
11
6D
17
3C
77
37
02
03
F8
E7
8D
B8
A2
AA
D7
84
AF
A9
14
9A
24
12
AE
69
FF
25
D5
0C
28
D7
7F
73
85
29
E8
2E
D2
98
60
75
7F
A7
8A
44
55
14
2B
E5
F8
95
00
E3
DF
FD
F9
A2
5A
EE
15
7B
FA
32
3D
71
CF
58
DB
E9
D9
A3
6C
74
26
AD
25
0C
03
53
31
D8
8F
2B
AE
01
33
FF
90
37
70
4A
C0
F2
12
6D
C6
03
5B
9E
52
B9
78
2D
69
7A
10
73
87
C8
AC
6C
E1
F5
81
3C
72
EA
81
AF
7A
D0
57
BA
0A
FC
F5
96
8C
68
36
AA
03
19
5A
4B
D3
2C
03
C8
85
28
EF
61
F4
91
7A
59
46
30
63
51
34
E1
D3
D1
83
D1
8B
3D
9F
B7
B5
51
05
5B
DB
8F
4A
8A
3B
A3
E0
97
1C
DE
20
BC
BC
D2
EF
DA
F3
9B
F3
F6
2D
90
E3
AE
60
52
7D
8D
30
10
BF
10
77
48
2B
8E
91
AE
17
72
4B
BF
85
7A
F8
AE
47
11
49
8C
0D
91
97
7D
95
7A
EE
FD
99
A2
10
39
24
38
FF
A3
4B
34
F9
BB
55
00
6A
5C
6A
91
5F
B7
2A
D0
B7
F0
71
03
58
79
29
F8
33
23
1C
F0
46
66
D1
F6
13
D6
AF
09
9C
66
97
4C
52
85
49
F5
CA
81
2A
D4
E0
E8
0F
F8
B1
52
C4
AD
76
B9
DB
86
75
CE
D1
CC
8E
5B
19
55
9E
0E
A3
D8
0C
EE
58
2F
37
8C
F3
FA
FA
47
84
29
EF
C0
D7
26
12
3D
E9
3C
45
13
0E
C5
9B
AB
E8
79
95
7D
F1
BB
9B
92
2E
BE
4F
0E
A9
49
71
24
13
66
20
9E
80
64
71
68
F0
C7
E8
03
40
2D
AC
B7
88
90
AF
45
CC
E9
F5
55
EF
04
72
25
1C
E1
3E
16
BD
21
19
66
31
9D
56
F4
7E
92
00
2F
FA
82
BD
25
42
29
5C
92
9E
3B
C7
50
BA
9B
69
75
23
CA
E6
E9
FD
71
82
B7
19
02
CC
3A
A9
B0
53
30
79
76
6A
9E
9B
4A
F6
14
4D
DC
73
07
56
D2
04
0E
55
9E
AC
EB
8D
63
0B
69
97
A2
2F
1F
F1
CB
D0
E1
19
12
0D
7C
F5
04
34
7B
65
49
D9
28
A1
64
DD
3B
82
AC
E9
44
5E
38
2C
B8
B3
0C
9F
08
95
71
9D
34
B8
54
0B
23
62
F2
63
1C
9C
5A
52
6C
B1
28
2B
02
AC
7F
98
EC
86
16
E0
9F
C4
5C
A9
9A
F9
0E
14
0C
41
74
F9
84
94
1F
BC
04
08
8C
41
75
DC
0F
64
67
DB
20
14
FE
4A
AF
19
A3
33
2E
9F
0A
0E
1E
DA
70
1F
D5
10
6C
8B
32
03
5A
B3
75
26
84
41
A5
0E
3F
EB
5A
20
67
37
72
FB
DB
12
6F
BC
82
FE
0D
8D
E8
C0
2C
59
19
7E
F8
2E
A1
66
3D
81
14
95
99
D3
59
F9
83
59
71
21
9D
41
9B
E2
5B
AF
E0
42
DA
BF
7D
B7
79
C1
58
BA
E8
AF
0B
53
26
50
79
9D
0E
11
4F
0E
28
B2
24
7F
11
EF
16
4A
62
83
0A
CC
C6
50
D0
FC
60
A0
38
22
B2
96
11
22
E2
B4
04
81
37
0C
45
90
08
46
EF
3B
52
39
C6
2B
FE
E8
2D
6D
9C
ED
B1
DE
F4
BE
48
FB
C9
40
F5
D0
8A
67
75
68
9A
29
82
00
B8
5E
74
BE
CA
63
D9
6C
EF
58
B6
86
3A
6C
3E
4E
40
71
E9
C3
54
E8
2A
CD
50
27
F9
03
1A
9D
A6
D7
FF
DC
6F
EA
F8
26
69
85
CB
EE
2F
13
8E
F5
7E
AD
A0
27
35
3B
20
B2
14
7B
1D
01
69
8D
B6
D9
6A
D7
5C
C0
C5
0E
7A
9B
CE
2D
40
32
0D
84
39
77
7C
8A
DA
FB
D3
8D
F1
07
65
38
72
1E
A9
7B
39
26
66
09
89
BB
A4
FB
18
F1
A8
FE
F6
52
86
AD
34
CC
E8
30
D6
8F
22
74
E9
16
A9
31
CA
8A
81
98
DB
D7
81
68
24
78
75
F2
E4
B5
26
D4
05
C9
B3
8A
EA
F2
EF
23
20
F8
F3
D6
13
44
35
83
BD
0B
DC
19
B6
23
CD
24
69
38
10
1E
AA
99
7C
12
1E
5B
3E
2F
FE
CF
61
30
BD
C1
E3
F4
B6
59
42
D0
31
03
92
C2
CA
DC
8A
CB
96
8F
5A
09
B7
15
C0
D5
BD
BF
72
DE
9E
6A
DC
A9
9B
45
F1
92
8D
DB
F6
5E
FE
8A
73
21
F8
A9
49
25
6F
EE
1C
B4
EF
54
75
D2
4F
D9
F2
16
70
26
A0
81
33
F4
4E
BE
48
AE
B3
F7
80
95
5E
52
82
1D
20
3C
DA
9D
5D
01
BF
A0
08
69
F2
67
82
A4
66
9D
96
D8
F8
A4
F7
87
89
34
69
08
88
9D
FD
77
4C
99
57
F2
9A
85
08
7E
6D
35
CA
DF
94
B7
4F
11
F5
83
F7
49
77
4E
F5
00
37
23
30
F9
26
3E
B3
1D
FD
82
E6
C1
10
38
9F
2D
37
4F
80
C7
6F
0F
73
B9
51
A7
AF
A8
2F
B4
71
50
16
DA
9B
FB
E2
77
54
89
C0
85
C4
FE
C2
94
B1
83
04
CC
E6
4F
9E
08
F1
AF
C9
E8
30
23
0C
BE
01
BF
93
AA
79
4B
9F
C7
33
AF
BF
1B
64
FE
9E
2C
95
7A
C8
39
26
70
70
D2
83
D7
1F
1C
80
62
A8
5E
E7
79
05
78
49
A0
DB
B5
47
34
2B
38
6D
0B
C2
20
40
52
62
F0
FB
32
79
C5
DD
C4
12
BF
13
25
43
6B
E2
EC
74
83
8B
53
7A
F4
9D
FB
48
0F
25
2B
F2
F4
49
24
5D
82
A3
EA
D1
58
EB
BB
F0
BE
12
EC
06
50
CE
69
B9
95
47
70
C8
51
2C
7D
A8
5F
AA
A9
2B
91
0C
50
A7
38
5A
34
92
D9
72
2D
8E
F1
EE
77
CE
98
AF
52
83
1B
99
B0
8F
FB
BF
D4
E1
A7
6A
63
67
96
53
33
13
87
98
3E
52
8C
72
DC
49
AB
0C
1B
4E
78
13
A8
1A
2E
A6
61
D6
09
5C
D4
02
28
89
36
D3
C2
CA
8C
03
FE
CF
C8
D2
49
81
25
06
B0
ED
60
48
BF
59
86
AE
0E
E0
85
CC
D7
08
85
1C
BC
E6
60
09
FC
14
D1
33
49
51
DA
34
33
8A
42
6B
D4
77
B6
83
AD
95
ED
44
3A
84
20
68
AF
18
13
D1
75
B5
A4
1C
E5
AF
9A
9F
26
31
AE
0A
7D
B6
53
55
29
B6
75
9C
32
39
5A
51
31
4F
40
50
5B
8D
06
AF
68
11
16
04
FD
06
B1
2B
41
1C
4F
6E
A8
D7
D1
47
39
4A
88
4E
7E
A2
7A
5A
03
8A
9C
93
EA
A8
63
74
B0
49
08
EE
82
B1
C6
30
1F
54
D0
4E
F9
6B
40
28
AE
56
44
FF
3D
06
6E
FD
E1
08
07
16
8F
58
C7
E9
C3
65
99
16
11
D8
0B
86
DB
8A
84
B6
E9
1A
FB
C3
85
55
A6
BF
EA
82
8B
AC
69
49
41
6C
40
B1
3A
13
4F
6A
3A
49
24
ED
94
84
48
B8
43
CB
BE
57
15
2F
50
13
CC
F4
63
D8
84
95
E1
35
6A
FD
FF
90
D1
0F
3A
95
6B
A2
5E
63
B4
29
A1
28
78
BD
24
A9
1E
C8
A1
C0
7E
D2
AC
0F
DF
D7
64
BB
82
CC
80
56
4F
E8
34
F5
4E
FE
FC
DE
8F
E5
3D
76
78
CF
8E
0C
33
E8
DE
58
9E
A9
32
D9
3E
18
0D
B0
4F
60
6B
3F
D4
A8
61
A6
15
99
3A
42
78
B3
B3
3C
5F
E1
00
6E
A8
44
E2
F0
33
4E
CA
B5
30
FE
90
D8
D8
07
37
0F
2C
49
84
36
C2
53
90
DA
2B
93
11
A3
D1
F5
58
AF
52
DF
36
03
48
CB
E2
19
08
4A
2E
66
E8
2F
CF
EE
43
9B
EE
7E
12
03
B0
E1
52
B8
F1
68
4B
AB
96
1B
70
A0
67
EA
39
94
14
51
ED
67
9C
4E
3E
15
BB
74
DB
F1
AD
8A
4B
F7
63
58
C0
9C
09
B2
27
9E
53
AC
6F
39
34
14
CA
A6
7E
7C
5E
CE
86
62
85
DA
1D
A5
E7
A7
5C
C7
49
56
36
30
09
1C
F3
AA
E9
8E
40
52
34
47
14
14
81
93
06
BB
7B
28
2B
9D
A4
F7
43
B3
9A
12
66
19
A9
21
F7
5E
EE
3A
8E
20
48
C2
61
12
34
47
01
1C
3D
93
64
31
6E
77
82
C2
6A
D8
AF
9E
21
F8
C3
C9
FA
D4
2E
10
7A
F1
F0
6A
14
03
AA
61
F1
C0
63
03
A7
41
1A
C6
81
A5
83
0B
4A
2E
23
76
80
F2
52
AB
32
76
61
6B
77
24
4F
EB
C0
E7
B3
8A
90
54
AC
13
48
01
E7
D9
A6
8D
32
26
FA
7C
55
FD
5D
D0
9F
D2
81
E2
01
7B
B0
9F
10
42
1C
ED
16
0D
12
CF
AB
B8
44
A8
2D
ED
2F
27
8B
A5
6A
D4
35
12
57
31
0C
22
F6
52
C9
AE
95
BD
C3
A3
34
49
46
35
2B
59
F5
1A
93
0C
C1
E1
A3
6F
0E
E3
D1
80
E3
86
AA
CA
3D
68
B1
74
C8
E4
ED
11
97
DA
35
5F
45
B4
00
2B
BC
76
03
1D
F0
41
BA
4B
46
4B
13
3B
CF
A0
2C
E2
37
0E
5D
98
F9
BB
DD
45
11
A0
ED
DC
7A
F7
FB
67
AF
D1
4C
14
67
62
08
EB
94
00
88
A2
B7
91
1F
AF
DA
50
F9
82
8B
AF
AF
06
05
18
FA
54
9E
62
72
EB
61
CE
C5
19
46
DB
68
B8
FA
23
2E
AD
7E
4B
19
7E
FA
64
33
4F
3C
2C
88
76
DE
65
C3
56
75
17
E5
EE
43
28
B4
B7
B8
55
CD
8C
FC
B0
02
F2
3C
F3
B5
80
73
43
69
55
6F
CA
4D
C6
10
E6
29
BF
9C
6E
D6
97
42
54
E4
F4
3A
57
B5
3F
D7
2F
0B
19
02
8A
B6
FF
6D
C7
79
87
ED
2B
E1
47
66
AA
DB
02
9A
60
E1
AE
00
DE
3E
D3
4E
55
5F
7D
4D
AB
71
49
83
81
30
1F
03
40
30
55
D8
A3
7F
F5
7B
09
F2
AF
CA
66
F2
55
20
B0
07
CA
0A
44
32
A8
CB
C2
65
66
CE
5E
DA
BC
FC
85
5F
AA
B8
18
0C
65
99
A4
D3
F4
57
B3
BF
42
6E
07
0C
E3
99
43
14
0F
B5
02
88
B3
FF
B9
99
F3
9A
A2
6C
F1
E3
44
03
95
DA
79
3D
E0
65
C0
66
B7
B5
56
A0
BA
01
B1
06
78
D6
BF
D0
EA
08
87
B3
3B
47
80
40
D1
F2
5D
D3
FE
67
B9
93
80
73
43
A7
F7
E9
8B
95
80
3F
8F
28
DC
F0
1C
40
02
72
70
87
EA
40
72
BE
07
14
DF
35
93
99
C5
08
BF
8E
5E
27
5E
AA
55
05
8E
D8
D6
D8
57
A6
26
CE
C2
0F
96
08
EF
22
1A
1D
F3
16
37
78
F5
8B
0C
D9
73
B7
9F
C3
70
EF
5E
A4
16
33
41
6A
9B
12
33
66
A0
61
27
26
CE
BD
27
88
19
87
91
D7
B3
72
B6
0D
9F
56
40
A3
DE
8A
E4
19
87
7A
55
CF
9B
2A
DC
53
B6
61
83
1D
95
44
7C
D8
59
A4
2E
33
60
98
20
D4
24
D7
59
C2
12
97
4A
78
3C
69
02
38
0E
21
A9
02
AF
EE
25
D9
26
51
0F
69
7A
8B
37
CA
0E
A9
03
73
8A
66
33
FF
88
4E
06
B0
52
6E
D4
50
67
0B
1D
32
D6
9C
FD
B9
06
DC
49
DC
FF
93
CE
9A
05
4E
BD
EC
4F
82
59
E4
85
4F
8D
F9
B7
3C
AF
92
8C
D2
39
CD
2B
46
8E
8B
09
F0
04
10
BE
E3
50
84
AB
95
46
4C
6E
CE
E3
38
20
48
50
F5
9A
FB
AF
98
7E
10
C6
D0
3C
60
F8
A7
28
01
2D
06
DA
06
F1
FF
09
F6
B3
5F
2C
DE
90
5D
36
0D
16
B9
ED
E4
41
D2
76
03
F9
AD
0F
AC
D6
70
BE
BE
28
B9
49
09
99
FB
43
2C
32
1D
90
D5
63
60
AF
D7
98
C4
DB
2B
7D
D9
DC
B6
E6
B7
93
91
28
10
45
0A
3A
53
37
F1
9A
B0
85
B5
9C
E9
DB
EB
BD
D0
68
80
14
9E
98
34
0A
08
07
5F
17
7B
3B
CF
CE
51
64
CD
FA
D4
8F
20
34
90
60
86
69
E0
AC
52
A0
34
9F
18
0C
37
AE
C4
71
CE
DD
B0
5D
58
B9
49
94
FF
AB
83
16
4F
E5
97
66
FA
5A
AD
89
27
D3
F6
2D
E9
72
C5
07
92
9B
78
D7
1C
E3
FB
FD
3B
08
8B
A5
95
A3
BD
B2
E0
BF
53
A3
CC
63
D9
F0
96
F9
CB
61
A4
99
3D
9D
39
4E
E0
F6
F2
A4
3D
B5
5D
9B
4B
66
76
7B
B9
55
C7
C4
A5
98
89
DD
C3
55
9B
A3
90
98
0E
D0
09
2A
2C
EC
D2
C9
3F
86
AA
CE
2C
79
20
AD
56
F5
24
1C
27
88
77
EE
05
F4
9B
51
CA
09
AD
EA
4F
F7
6C
E7
74
E6
81
21
73
38
7B
F7
24
43
AD
BB
76
1A
A5
CD
79
FA
25
10
7D
9E
14
3E
BD
33
96
EB
41
BA
A0
78
E2
40
D9
5C
97
4E
F3
6C
10
7C
2A
4C
A5
89
75
88
16
A9
5D
4A
DA
A5
43
65
CF
70
C5
00
9F
76
E1
A5
10
5A
FA
58
95
8A
F8
23
43
8A
BF
EE
3F
13
D3
09
53
F5
3F
63
7D
FE
7C
7C
42
F6
24
E6
F0
60
4E
BE
FA
53
F6
1D
8A
34
67
E0
1E
AE
F0
47
E2
7A
96
3E
CF
B8
E9
44
45
51
48
58
46
A7
21
E8
3A
64
6A
3D
EE
1C
A1
14
18
90
9A
13
1B
8A
CF
72
47
47
03
75
64
C3
DB
79
9E
AA
50
41
68
33
E8
15
86
6E
CB
36
24
59
C4
90
8A
15
E2
43
2C
34
E5
2C
0D
E3
E6
BF
0D
E3
63
00
36
7A
5D
BA
C8
DB
3E
48
45
EC
4D
E5
50
2B
FC
C3
71
61
8D
6B
B3
C2
C1
CE
EA
8A
1B
89
2D
5D
14
BF
A1
DF
CE
E6
A8
AF
6B
C3
53
76
ED
5F
4D
7E
56
B6
14
A2
89
9C
D3
78
19
3A
3F
3F
A2
E1
9B
E1
21
B5
F5
3C
01
17
10
A3
DE
03
EB
8A
AA
49
5B
3C
AB
E2
F9
9C
EE
B2
5A
1C
AB
F5
E0
A7
2A
C0
F3
EE
F3
87
C5
C4
33
4D
44
27
6D
26
2E
EC
84
6F
EC
BB
92
10
7A
3D
7A
FE
EF
7E
9D
2F
95
9E
30
53
DB
23
7C
C9
70
71
EE
E6
D2
C6
BE
A6
D7
16
73
4C
8C
E7
D0
65
1C
74
9C
0E
1B
1F
4B
C3
6A
CA
C7
BB
2C
11
CE
4C
41
14
34
C4
8F
D9
61
1C
31
9B
1B
7C
3E
80
D4
70
FA
68
B4
57
AE
AC
90
DA
70
A7
F4
DA
04
71
F7
48
45
D2
E9
E5
94
69
51
4B
A9
8A
17
76
B6
4C
FC
F2
CF
4D
57
0F
1C
90
4B
1D
14
17
D0
ED
AB
30
8F
CF
B2
D3
83
35
F5
CE
5D
71
35
40
D3
8C
85
0A
22
39
DB
8B
3C
DA
13
B2
FD
BD
D4
A0
FA
D5
43
64
84
86
A3
BE
6C
0E
13
94
4D
05
6D
07
7F
4B
9E
97
A8
95
CA
79
28
AB
F6
B5
67
67
E8
4A
1B
87
4A
34
89
50
7F
D5
75
E8
08
88
7C
62
68
09
B3
04
4B
6D
DD
90
FD
34
71
05
3D
48
9F
90
D5
50
CB
04
E8
7E
2C
6A
ED
13
0F
42
B7
F3
59
1A
3A
65
BF
1F
EA
F2
22
9B
67
BE
68
92
60
47
CF
37
5A
36
90
66
5B
E2
6F
DC
24
C1
D6
00
73
E0
A9
79
6D
87
95
C7
E4
3F
B1
D2
3F
58
14
D6
54
99
E1
12
6A
5E
2D
1C
B4
DE
38
2C
C6
1D
04
B3
D6
83
E5
A5
F1
3F
33
36
A9
5E
9E
85
31
BB
A0
DF
99
A6
AE
E5
DC
DC
82
0C
24
2C
34
3E
FE
43
52
3A
67
29
B7
07
B3
96
11
4C
28
D5
9B
D9
E3
08
8E
50
B8
0A
31
E5
D0
13
A0
B1
BA
CD
1B
C6
E0
F6
2D
D3
5D
4A
70
6C
81
E5
73
EA
AD
7B
47
EB
CE
14
77
CD
23
8B
E7
15
84
D2
FA
A6
5E
C4
70
A6
3D
1A
5D
84
44
E2
00
DC
18
D4
C6
A1
E1
CD
B6
2E
DB
E9
39
1F
85
92
CD
9D
30
27
94
6C
17
59
37
0E
B1
25
45
7E
CC
86
90
D6
33
ED
4D
80
AF
07
86
A2
2A
4D
4E
04
B7
3E
47
F3
FF
78
BB
5B
BC
5D
F7
C0
EF
4D
AF
6E
DB
51
09
7C
D4
BF
DC
8C
5B
18
7E
C4
09
36
28
38
FE
0C
92
A7
7E
7E
BD
F6
B3
6B
C1
FB
B7
D9
87
13
26
13
9D
61
51
F1
6A
EE
44
49
A3
E2
4C
5A
B1
2C
8E
79
51
28
2D
1D
81
05
C0
35
04
9E
47
CF
AD
66
5C
14
4C
21
5A
1C
27
49
A0
6E
B8
61
7F
C7
0A
5B
CF
72
75
7E
61
B0
C7
B2
65
EA
EE
F1
DA
93
A5
F7
B9
20
10
62
82
F0
4A
56
70
9D
78
5C
88
52
19
07
D8
51
26
6E
E4
17
61
1B
A4
1F
C2
68
4A
FB
F1
49
A5
64
98
10
EF
70
57
51
8D
6D
F4
B6
F2
6E
73
90
12
5D
D6
6B
EB
16
9D
0F
07
C4
AD
73
59
BE
28
3C
D6
D6
67
A0
59
B8
F7
48
13
26
DA
23
32
25
B1
D3
FB
2A
6B
C1
DA
3B
AB
EA
D4
6B
09
BD
33
04
48
E7
F7
51
81
45
C5
E3
77
93
CF
D1
94
64
99
3E
CA
04
2F
FF
75
8D
52
ED
C9
3F
5D
2E
18
2C
38
92
E7
17
36
C3
C4
83
E7
6C
15
87
74
9B
C4
2D
01
02
C8
F9
F8
A4
0A
28
9F
17
AB
6F
B2
43
04
85
9F
28
05
DA
E1
18
E0
E8
0E
1B
0F
D5
12
8B
F7
8A
96
41
2D
B8
0E
9D
97
E1
92
27
0D
60
8A
F6
17
02
F1
A9
6C
F1
DB
AC
FD
40
0A
4C
4B
4B
95
71
96
F5
E1
B7
A6
DB
76
FE
05
A7
AF
22
F6
96
8C
5F
E8
11
88
35
14
6F
9D
29
6F
4C
96
C9
C8
F0
33
9E
2D
DD
52
A2
68
00
29
44
E3
C0
B0
18
A8
9D
15
EC
E7
59
9C
F5
ED
C7
88
6D
BA
76
35
C3
C4
41
4D
26
6F
2B
7A
8D
A9
E6
41
24
DE
FF
C8
57
BA
C4
4E
A6
A2
87
0C
18
28
72
AB
5D
42
1D
B3
5B
52
0D
1D
5D
52
A0
B1
52
40
43
C1
9C
55
29
10
14
92
00
B5
38
D9
63
A4
C8
4E
C9
3A
25
92
6E
53
6A
18
5B
42
A8
A6
4A
B7
E3
FF
36
57
01
DE
48
70
28
5D
12
49
E8
77
6D
4C
51
A0
2E
D7
2E
F7
F0
6E
47
CF
B1
A6
72
A7
39
7B
DD
0B
75
23
36
5B
D3
FA
81
9D
3E
DD
37
F7
6F
4E
24
45
A6
C2
D5
A9
A2
81
5B
8D
C1
C4
95
04
69
74
F1
A3
35
BB
4F
BA
45
2E
8D
B8
01
48
40
D6
5E
67
09
3B
27
7E
36
DF
ED
CE
0E
DE
53
F0
8D
4D
92
55
3C
DF
03
15
BB
BE
1D
0F
9F
B0
2B
E7
40
DA
67
C9
3E
C0
A6
11
55
70
1B
A1
D9
33
E1
69
B8
88
CA
21
A1
8F
40
BE
BC
22
AE
FC
4C
49
21
13
35
70
E7
D8
64
0F
03
D8
61
DD
E3
10
60
A0
8C
B5
DE
32
59
6E
50
3C
3D
7D
BD
4E
3A
40
A1
3A
4B
99
29
7E
EC
A0
33
66
77
CE
62
C7
B9
C7
4A
03
C8
29
F9
EB
0D
D2
15
81
25
7F
86
46
EF
43
60
F8
11
27
B8
B9
80
7B
10
65
9B
8F
17
3D
74
95
04
61
5F
1F
D5
18
ED
5E
A5
46
2F
D3
9A
18
A5
96
29
7A
26
F4
2C
41
B7
02
09
19
8F
55
61
E3
4A
7E
11
EF
4B
41
15
65
73
FF
32
69
29
EA
C6
B6
A8
8B
B8
ED
63
B0
BE
82
68
09
03
AD
C7
7F
7D
9C
36
FD
B9
B9
58
B7
73
8A
CD
D8
98
EA
FE
A2
76
94
8E
8F
83
2A
6C
97
09
03
CC
C6
E8
44
4D
45
5E
C5
DC
5F
D4
15
A3
E5
20
6D
8B
34
6B
66
8D
4E
2F
05
1C
B7
01
CD
47
4D
F6
95
56
E8
B5
0F
5B
04
43
DF
C7
37
0C
A3
D8
CE
7B
B1
8A
2E
47
39
5E
46
E3
C6
82
37
7E
56
92
DA
69
7A
6D
6E
19
B2
84
53
87
4D
BE
E4
AD
2E
AC
35
2B
B4
3D
45
52
85
F6
FA
48
E9
CB
95
5C
B2
4C
FD
B0
7E
F8
22
5B
CB
F7
0A
CF
EA
EC
CE
9A
99
83
4F
41
E0
74
10
6F
DF
02
3F
AA
4A
4D
85
E0
FC
FF
D8
0E
1C
F0
94
6C
BA
B8
D0
F5
07
57
F6
5B
18
AF
92
AB
D3
96
5B
2C
94
28
1D
51
03
F0
67
59
23
0D
E6
C5
AA
EA
67
AB
DC
6E
0B
04
52
F0
01
2D
99
04
51
60
23
67
93
B4
D8
D3
49
E5
96
C3
B9
02
E5
0B
61
43
DB
A1
F0
5D
A8
6E
FC
AA
4A
81
47
77
5C
C1
2F
5C
AB
57
9B
18
31
FD
71
64
D3
01
21
AF
08
BB
F5
BE
D7
46
4E
1A
AE
42
03
E9
70
BC
07
17
A8
10
AE
2A
0C
DD
30
5E
B9
66
E2
46
C1
1F
01
BD
50
7D
DF
7C
F1
66
B3
F6
B9
0C
23
9D
DA
1A
A9
C6
65
E5
C0
77
41
15
4C
77
FD
20
37
CE
A0
F0
C8
45
C4
DD
A1
C4
4D
73
29
4D
1A
00
BE
67
31
79
A0
48
3A
8A
65
0A
63
29
40
47
DA
83
CA
31
4D
46
B0
11
CE
ED
A8
7C
9A
24
6F
38
BA
8A
71
ED
B7
22
A1
1B
F9
3B
4C
91
7A
3F
E3
01
F5
F5
C7
87
47
31
1D
49
D4
19
56
B9
A1
36
29
5A
30
CD
FC
26
DB
46
6C
ED
D7
72
9C
25
90
A2
AC
FE
79
D1
6B
58
F8
04
56
94
73
A9
AE
FE
FF
DA
A6
E6
45
B9
3D
E0
A5
0F
44
9E
D2
F1
1B
AE
00
44
61
7F
A5
BA
22
64
19
4A
ED
0A
C4
1C
FF
8D
C3
A6
6A
0B
18
B9
B5
4D
6C
57
E2
07
73
62
9F
AC
F0
A9
6B
26
39
78
39
6B
AC
D9
AF
13
15
78
C6
1E
AF
75
D6
31
0C
01
10
37
D6
EF
EA
84
60
4A
D3
9B
98
C5
D1
80
09
FE
CE
B1
11
5D
1C
58
36
E0
94
18
9A
57
7D
AA
37
6F
EF
CE
37
1A
55
64
30
6E
08
D3
99
A9
61
38
70
E5
1B
B9
E9
F1
30
B1
73
A8
FF
AE
01
A7
EE
FA
49
BD
5B
3B
BB
5F
8A
CF
53
58
6C
EB
25
49
FF
69
82
3C
C1
44
C9
CB
2B
60
DB
9F
B8
2E
D2
E1
E4
09
7A
F7
76
A3
D0
E9
35
A8
6B
F0
35
5D
34
E2
FD
38
AB
ED
DA
EE
7E
09
FB
AE
16
EB
D2
75
1B
76
9A
C2
5A
75
E9
29
9F
50
3A
E1
E5
98
20
F5
CB
1C
5A
8C
13
7A
F3
83
85
69
79
D4
02
47
C0
84
02
AC
22
B9
16
F7
C3
62
48
F9
5C
5A
20
B0
03
D6
A3
EB
3E
1B
3F
03
A3
49
8B
D9
FE
3D
BD
7A
82
03
19
41
36
D8
24
9B
4D
7F
71
DD
CF
88
AF
EC
06
ED
49
4E
62
AA
2B
CE
F4
45
8A
E0
5A
CE
D2
97
2C
44
C4
51
C3
AA
17
1D
F4
BC
E2
64
26
DB
5B
5A
89
C6
5D
A9
1B
16
12
A2
80
6F
C5
66
55
E7
37
A5
69
D5
30
FD
07
D0
76
CE
03
2C
6C
80
2B
E7
E6
5F
F5
5D
D2
82
19
BB
F2
C1
7E
67
38
A8
3E
46
5E
64
13
50
79
32
27
1D
EB
A5
BD
37
0A
F7
2F
21
BE
F7
90
56
FD
38
B8
7F
50
DB
9B
04
90
68
14
64
71
BF
0E
B4
0E
CB
7A
A7
C5
F3
17
AF
BD
CD
D6
80
9F
7E
41
73
A7
F8
14
20
8A
98
AA
52
79
29
93
00
0C
C1
20
6F
50
21
D9
20
1B
D4
BF
EF
F0
AE
90
25
D1
39
83
9A
9B
94
4C
B8
AF
3B
3A
BB
B6
2D
08
49
0F
9C
C1
3A
23
97
F8
17
F0
0E
42
18
A7
84
60
C1
93
9B
4B
15
E6
B0
C3
F0
5A
3A
D6
78
E7
34
B9
19
60
C1
78
B7
01
0A
8B
F6
CC
C0
2C
C6
01
8D
44
F3
FA
C6
6C
B8
7F
09
EB
85
64
CD
AA
E9
44
49
B7
4B
45
08
50
0D
31
02
5A
23
5F
87
F7
DA
AF
10
E8
D2
FE
19
22
A9
97
3C
D0
9A
D0
E2
EE
2C
88
81
BB
A6
F4
80
B0
AE
79
6C
62
DC
A7
AC
02
83
A7
53
A6
71
81
20
EA
5B
48
5A
3C
5E
85
2F
7A
3F
92
66
26
C3
60
D2
D2
76
78
9F
16
4C
12
CC
37
3D
A0
F2
F2
53
74
77
35
15
F7
31
8F
61
EC
52
9B
D8
3C
47
3A
DB
1D
2A
C4
97
E6
1B
74
C7
74
74
19
5D
BD
5C
9A
4A
8C
9E
59
72
91
C7
C3
24
81
53
65
DD
02
18
8E
64
85
43
E1
51
9B
9F
E2
9F
4C
05
53
61
53
85
1E
AD
9F
D8
1D
C4
7E
63
4F
33
3B
73
55
33
9E
CD
D8
3F
3C
6E
C5
A8
08
1D
1B
EE
42
D8
2F
6F
B5
47
93
62
5E
64
0A
80
CE
A6
6B
50
43
FA
70
C9
F0
10
1A
B2
10
EC
3D
FE
EC
CA
C6
77
3A
F7
DD
D4
9E
69
2E
3F
DC
68
19
29
CA
B2
C7
68
BC
3A
7C
39
5F
FB
E9
24
27
34
F1
68
82
7C
91
47
B1
3A
1F
B8
80
5C
20
6B
07
26
66
82
3D
3F
9B
84
BF
68
DC
E6
A8
41
DD
BD
10
FF
75
0C
C7
A9
8B
62
2A
2B
2E
42
E0
4C
B3
8B
D9
2E
22
38
01
26
75
F3
AE
FC
81
BE
3B
2D
7D
D1
B0
44
FB
76
5C
9C
AC
3C
0E
E5
D7
03
FC
D7
A6
36
7C
F3
FF
C5
5D
7A
A6
A9
B1
21
9F
5C
EB
8A
67
98
AD
87
AD
42
CB
DD
FF
8B
01
96
C6
2E
7B
BC
77
27
D4
DA
2D
F2
9C
82
D4
5C
79
67
29
F1
9C
1B
66
C2
7E
13
AB
DD
CA
C9
29
23
22
B3
EA
0D
54
1A
57
3C
15
F5
8A
FD
C4
75
1E
49
27
8C
C3
C4
35
76
BF
87
D1
0B
CA
48
A4
94
72
E9
AB
73
C7
C2
F6
E8
B3
62
1C
BF
47
EC
51
59
97
D9
74
27
E8
1C
0B
2A
F7
B1
94
45
E0
E9
27
D0
CB
C7
1D
64
34
5C
3F
F3
1F
C3
28
51
A7
01
4E
9B
57
4D
E2
9E
C7
1C
2E
E9
7A
3C
DB
DA
81
E2
03
E5
42
FA
9B
07
90
FB
5D
42
E2
BC
AF
19
37
E5
38
A5
A3
5D
78
8B
08
71
F2
FF
EB
8D
F1
F8
1E
F6
DA
8A
9F
C6
0F
56
27
68
5F
D3
46
0E
8B
2F
1B
1D
EB
31
5A
19
36
F1
47
57
A3
9B
6B
06
8E
87
98
FF
92
4A
00
2A
91
F8
3D
A0
D9
02
8E
1E
CA
27
0A
57
DD
A3
8A
76
9B
33
CA
9F
B7
E7
85
49
96
D8
DB
6D
CE
C1
AB
0B
6F
37
AF
0C
0A
C0
0E
73
AA
19
7D
33
54
9B
1D
94
7F
9B
EC
04
2C
69
C7
5E
26
10
3A
41
DE
3B
A6
42
4E
22
54
BD
D0
E5
F4
63
D8
53
7D
31
97
0C
18
85
FA
B3
2E
87
AC
83
9F
6F
23
4D
9C
B3
60
E7
E0
17
6B
73
76
8C
03
5A
F3
74
C0
52
EF
03
65
C2
67
B8
B7
FA
03
5D
8A
53
EB
D1
54
B2
0E
71
98
96
85
70
F9
AE
BE
57
31
3A
69
FE
5B
F1
D7
8B
71
8F
C5
D7
33
0A
5E
83
05
79
23
37
2D
BD
FC
2F
C5
E2
EE
74
D5
5E
81
C0
0E
87
A3
4B
75
06
42
29
BC
85
DC
8C
20
C1
7E
75
50
DB
5F
39
7C
05
9D
C1
8B
C9
04
09
FD
C7
7F
B2
1E
91
85
E7
E2
BB
A3
6E
21
0A
0F
85
1F
B0
F6
C9
16
F6
3A
EA
65
D6
B8
B6
44
2E
3F
1E
27
F2
70
62
C1
8F
C7
26
7A
5D
40
E5
1E
DC
FA
39
8B
75
57
24
66
BF
05
75
ED
7B
C5
5B
29
D1
47
E1
93
A7
A3
B2
0D
65
81
A6
4A
73
7B
DF
BB
CA
14
0E
DE
95
94
52
72
F6
3D
68
E0
94
AD
8F
59
36
27
B9
01
EE
07
03
9E
E9
87
52
B6
8D
EF
5E
22
84
18
7E
1A
28
B8
54
84
52
20
B6
4A
2C
AC
D7
B2
43
09
F7
E6
22
F0
12
5B
7A
4D
55
8F
BD
E6
0F
73
85
8F
BE
A7
EB
54
71
59
D1
55
BF
57
A5
4A
68
C3
88
EE
8A
CB
FD
5B
29
D1
A8
38
D0
76
86
6A
43
CD
EB
3E
89
50
CF
64
F9
FC
EF
FF
9F
AB
EE
5F
83
A8
2F
54
D6
0F
8A
7D
16
74
8A
EC
79
29
35
BC
0C
93
49
5B
7A
BD
70
BC
0A
73
55
4E
97
6A
C0
96
63
9B
B2
DF
CD
BB
19
99
DD
28
45
8F
20
80
05
3A
D5
0F
7A
6E
C5
83
CD
2D
5E
35
55
75
4B
DF
9F
40
C6
1C
3C
2F
12
C7
5A
93
C0
C1
04
CC
CA
ED
96
A5
7B
97
1A
28
25
28
F3
85
67
3E
60
98
36
37
6F
38
2E
ED
69
C7
B4
0D
89
5D
47
B4
8F
84
90
7D
BE
B4
56
AB
A4
A5
EB
AA
46
0E
D0
80
44
4F
F4
75
53
8E
8D
60
C9
5F
50
7F
22
6F
33
8A
9A
FE
52
93
28
88
18
F8
A2
B1
35
4E
5C
25
7F
DB
84
82
84
94
B9
93
AA
56
CC
C3
60
48
5B
A2
D1
93
49
C0
03
74
D0
1C
CC
F5
C9
1B
65
90
DE
FB
D2
69
AE
CB
0F
BE
1F
A6
72
4E
26
8E
CC
EB
BA
9B
DD
84
EF
CB
ED
AD
D8
D1
71
69
1C
BB
4B
33
FF
09
2B
60
24
95
A6
DD
99
BA
65
4F
4F
A9
16
23
E2
0B
57
64
E6
0F
5D
68
B3
65
64
30
0A
6F
93
A5
45
9B
A8
D7
0E
AB
1A
58
AE
2B
A8
9A
3D
8C
60
44
25
93
39
B1
AF
8A
F4
70
D3
E0
50
D4
65
84
2A
AA
2D
69
98
62
5D
C7
9E
45
71
89
15
08
48
56
D5
EC
4B
4C
B0
5A
74
6B
C5
C0
E2
CB
2D
1D
49
79
C5
8E
34
C8
D9
9F
A9
22
0F
D3
72
CE
66
83
F7
3D
F9
BB
BB
86
38
B6
23
26
BA
21
47
F6
AA
EF
AF
4F
F4
77
F6
D4
8D
3C
B4
B0
FA
25
F9
03
2C
53
89
64
5B
6E
D3
C0
D3
32
1B
1B
8B
B9
C0
0A
74
5B
3C
BE
BA
E6
84
F9
26
18
8E
5D
D9
8A
94
D2
CB
71
03
90
F8
07
C3
28
22
21
F3
75
F9
1A
5F
D1
F7
6B
AF
E7
53
95
72
1A
71
BD
D0
33
AE
47
C6
6C
BA
60
61
9D
25
26
28
B4
73
48
84
7E
CF
75
1B
04
30
15
10
D5
28
C8
C2
13
C2
1E
A0
03
E4
21
4D
13
4A
43
4B
A6
FA
6D
EF
B2
AE
4D
EC
1A
16
BA
2D
E3
41
07
F7
29
83
B4
45
B9
3D
68
75
C5
43
E2
27
1B
75
D5
2A
54
78
35
10
F5
D0
72
D1
34
4B
45
0E
17
9D
60
40
CE
10
74
23
8E
10
11
A2
E5
64
87
8E
DE
BB
86
AE
5E
34
5F
DF
6B
94
86
3F
9E
8C
89
FD
A1
9F
23
F4
38
AE
3D
19
84
5A
71
35
C2
67
32
9C
60
8E
DE
BF
21
34
1E
19
34
5F
89
92
13
31
53
8E
DD
14
F2
70
9C
00
22
95
2C
D8
9C
81
CF
B3
DD
28
93
AD
B0
DF
CC
40
1E
E4
A1
AB
60
67
82
F8
77
EE
94
31
67
23
3F
BF
F0
76
E1
A9
43
EC
9D
4B
4F
4E
82
6A
9B
9A
D5
33
1F
3F
76
FD
ED
92
6C
47
B6
73
07
98
22
8B
0B
CD
7F
43
C8
11
12
6A
31
31
5C
BC
BE
75
5C
6E
3B
F1
F2
79
E5
E0
4F
EA
38
80
03
7B
E4
DD
94
3D
8E
48
FD
DD
38
F6
70
CA
BD
63
72
50
EC
E4
AB
CE
AA
41
3D
FA
21
2D
80
C6
63
62
52
FB
E9
00
32
DD
7B
21
73
BC
C2
9D
6B
BC
BA
D2
D9
64
D3
B3
CB
32
B2
F6
90
1E
97
21
24
60
BD
A8
DB
B7
B5
2A
23
28
FF
CE
9C
2F
8C
F6
44
69
63
3A
65
0E
9F
F1
82
A2
10
10
8E
49
2F
28
C2
6B
8A
A0
4C
F1
3B
3F
C4
DA
4C
D1
94
8F
61
E4
68
7D
97
D5
16
B9
5B
6F
2E
30
63
88
D5
7C
4E
CC
21
FE
41
9F
28
57
5F
65
D9
BA
45
5E
2E
97
83
BC
9E
B8
A6
D4
22
60
96
65
86
47
96
B2
E7
99
30
E6
2C
3F
95
2F
38
BB
58
53
DF
46
89
47
FD
11
EB
85
74
0A
E0
26
95
CB
91
85
6E
1E
77
81
45
6F
1C
A6
94
EA
C5
33
EC
E4
83
4E
66
05
A5
28
30
66
85
A4
2E
2C
12
29
64
EC
1A
24
9A
27
10
44
09
DB
C3
E4
55
8A
1C
CF
AB
8D
E8
24
B2
DB
33
F0
91
91
1D
D7
C3
97
F0
FE
EC
26
72
B1
62
DB
4F
0A
E5
2B
50
57
25
D9
A3
91
23
AA
D2
53
3B
AD
35
44
C3
BA
4E
F7
EC
20
29
FD
49
76
EA
31
5F
F3
FC
FB
49
D3
13
B9
EA
9A
21
EF
AC
CD
05
2F
49
31
A4
03
CA
21
C8
E7
71
B6
8E
27
E6
B6
EF
BD
88
66
6D
8D
0C
BC
C5
EE
B8
20
F2
2F
E9
33
0D
E1
51
90
D7
DA
6E
F5
AB
8C
38
01
22
B3
A4
7C
F8
26
AE
0B
20
2F
0A
92
B1
38
9B
67
83
D1
05
56
AA
33
A0
DF
8E
7F
8D
D3
7B
38
AE
AA
AF
B5
1C
47
F6
79
66
D0
CB
23
8E
B6
27
DE
EF
FD
91
84
B7
D6
EA
05
44
17
BE
C6
55
0D
0D
3D
F3
67
78
58
9E
14
C8
98
12
AB
D3
2F
F2
D6
85
DD
91
2C
B4
A3
B9
AC
27
4C
C5
D2
E1
A4
C8
4C
ED
61
1D
20
50
34
DE
CE
98
5F
A2
EC
C0
11
10
82
2F
4B
E9
8A
9C
2A
8F
1B
E2
B2
E0
F4
88
46
43
79
E3
A7
DE
85
49
09
FD
DE
E0
D7
20
23
38
EC
F9
59
E6
EA
F1
42
02
3B
F3
94
85
E6
23
CF
29
BD
0A
FB
47
8A
BB
FE
26
6A
77
DE
89
2F
03
03
82
80
BE
9C
DF
38
F2
14
75
89
63
DF
1A
97
04
F2
D5
C5
BF
24
1C
EB
54
AB
B4
C9
CC
5A
CA
87
83
76
2A
24
E9
E7
8B
EF
71
EA
A7
4D
22
D1
22
43
19
AC
B2
92
99
D2
1A
16
12
7E
95
54
24
B0
D9
CB
8A
22
FF
21
41
48
1F
E1
7F
25
8F
68
1E
74
B5
72
91
A1
EA
37
CA
C8
39
1A
FF
B3
BA
24
2B
F6
D5
0A
0F
CD
D4
4D
B9
CB
03
10
01
5E
B8
4C
3A
CE
69
70
F5
EC
E1
18
DF
D5
1C
3C
77
B9
88
95
F9
99
40
76
AF
D4
78
50
EF
A5
0D
7D
D5
8B
5C
2C
A3
92
45
75
07
95
8F
D1
23
3C
B3
9E
6A
CC
A8
00
18
68
ED
AD
A7
71
4C
74
7C
AD
5C
65
EB
9E
58
6F
DE
B5
47
56
03
6F
D0
AB
E6
8B
4F
5E
6C
B6
AF
63
AA
6A
F7
11
C9
5F
41
83
9A
64
56
52
E8
41
90
E8
A5
79
2D
33
D0
8D
14
2B
6C
80
74
4A
A5
8D
02
1B
77
BA
E2
B6
BF
8D
2B
BF
D8
DA
10
FD
90
CC
2E
BE
8C
F7
6D
EC
54
E3
6D
EB
4E
09
56
D2
6F
2E
B0
FB
74
F2
B8
BC
17
1A
67
62
06
6F
E7
F1
BF
11
9F
60
74
D0
85
C0
EC
A3
97
E7
3E
7C
90
78
FB
96
57
DC
E5
DA
F2
99
E7
E1
1C
60
95
EC
47
4E
69
2A
88
13
B4
D0
D8
00
49
19
CB
94
E0
5F
86
5A
0B
85
C9
44
C7
ED
A2
67
67
AC
99
E8
7C
ED
AB
BB
15
B3
5D
CE
E6
DF
F5
DB
A6
34
A6
E6
2E
8A
70
F6
BF
C7
B6
14
2B
06
0F
5A
0F
44
57
DD
3A
F7
17
F5
EF
79
D4
97
21
88
A4
CC
AD
2F
26
37
CF
6A
E5
07
CD
83
1F
4D
C5
03
63
98
36
0A
E6
74
77
B3
9A
5D
FC
46
AD
A0
71
F5
B4
08
49
08
94
3B
17
96
10
88
9A
BF
00
35
6E
92
B6
95
F1
A4
64
E4
C8
31
92
40
EF
78
60
D8
8F
F5
9B
F0
81
7C
4B
C4
9E
BA
46
9C
3E
BC
C9
C2
2E
F4
0B
2D
FE
DC
16
C4
12
4A
A4
B8
37
CE
91
EC
0A
9C
C7
7F
55
0F
FE
D7
DC
DD
25
79
78
99
79
63
DE
F8
A3
D5
87
47
A7
78
49
C0
5F
23
85
A8
C4
9A
9E
4E
B1
7D
F2
E6
C0
79
62
16
E0
C7
31
11
04
4C
67
37
0F
A9
F9
54
74
DC
1C
CA
62
01
14
D9
AE
CD
A8
5C
96
C9
44
D3
CD
63
C4
04
D6
F1
57
CA
5A
1D
4E
2D
65
B4
B7
21
3F
01
1B
0B
3B
E0
A1
8C
AA
17
37
28
5E
5C
CC
3F
9D
27
B6
20
C1
59
AB
FB
64
A8
9F
2D
24
52
7B
7F
38
38
D5
F4
26
BC
1C
EC
83
A2
02
3C
2B
F1
44
F1
0C
54
FC
9F
A9
E2
F1
2B
22
E5
06
3F
4B
48
29
8A
4D
BC
DC
2F
A4
34
FE
62
3E
9A
49
D7
69
3E
F5
05
AB
4B
B1
D2
A0
39
55
92
71
A8
FB
B1
A7
B2
10
D4
0F
21
91
FD
AF
F4
ED
F0
6D
43
84
CE
7F
7D
BC
F9
91
0B
A6
03
B3
99
D0
82
06
DC
61
67
6F
D1
C3
DA
0E
D4
A8
17
E2
79
47
FC
6A
73
19
78
51
4D
58
A8
06
70
E3
15
73
F3
EA
B0
0D
ED
26
E0
F9
E7
CA
B7
D6
AC
42
7F
69
38
2B
48
95
B5
67
D1
FC
B3
3F
04
F8
5B
DB
EF
AA
A5
A6
BB
A8
4A
B7
56
4E
A6
D8
7D
47
1D
55
66
A2
D4
8C
C3
90
12
83
2F
92
AC
1B
49
D0
E7
52
E6
9B
84
02
FB
06
E8
FD
C6
97
D8
1A
E3
1D
3A
BC
9E
CC
43
FA
7D
91
09
4A
B9
E1
AD
85
DE
B0
58
2F
D5
96
B3
DE
36
AF
F3
37
4E
CD
DE
1C
36
18
4E
C7
16
91
FF
4A
43
80
DD
77
AE
BB
8E
C8
4D
FD
D0
1E
8D
02
7C
40
43
C5
F1
46
60
C6
99
49
37
28
7F
88
18
9F
A8
3E
44
05
EC
4C
22
86
B6
1A
4B
E8
BD
11
12
FE
47
8F
6B
34
DE
83
27
AE
7C
DD
AB
BC
BB
A5
A6
F4
5E
93
54
10
76
A8
0B
ED
09
B9
E4
47
EB
4B
BA
09
9C
1B
6E
F0
CC
2B
D8
F3
DF
40
53
22
A4
88
A2
E5
EB
69
35
A8
7B
70
E0
75
84
A0
9C
39
18
F4
02
11
C4
C0
07
C3
D0
69
AE
60
B6
08
24
97
6A
D5
0E
99
3A
3D
7D
03
5C
C8
E7
1A
10
44
75
0B
3B
75
84
73
BF
81
39
A8
8A
CD
A8
5E
48
CB
86
72
D4
1C
54
A4
8C
CF
24
23
4A
2F
15
29
86
48
62
B0
EB
32
2F
60
D1
1F
2F
9E
65
74
7F
07
A5
97
93
2B
F8
74
A5
DE
D8
B9
8D
37
AD
93
89
92
C0
53
C3
01
5E
FB
F1
F4
FF
74
4E
CF
FB
F2
E8
26
DD
E9
B8
24
98
AA
1D
09
36
73
ED
C5
C4
84
95
1D
F6
D3
99
A8
73
CF
0A
13
57
92
E2
89
1E
4B
67
9B
9B
50
DE
CA
F6
61
5C
FC
F0
9A
B9
5C
52
28
89
D3
36
7B
B1
FC
EA
D9
F1
77
DB
F1
BA
55
E8
21
CF
01
F4
14
E0
51
18
A9
5E
8F
DA
68
2C
5D
1D
42
36
B5
D1
E8
37
AF
9C
63
C4
BD
43
DC
1D
30
09
EC
AE
37
68
FB
3A
D1
6B
52
40
A5
C2
14
42
1D
87
CB
16
40
1E
EB
BF
60
32
D6
61
6C
E3
AE
EA
29
C5
9B
66
D3
35
BE
1A
7C
6E
BF
2B
97
90
36
3B
53
6C
0B
2E
E5
1A
81
6F
FE
3B
BA
9B
68
2F
1D
CB
46
E3
0B
55
E3
95
E6
66
DF
02
A6
E8
77
A2
11
B9
C3
01
79
6F
0E
45
F8
18
D6
FE
7D
29
7D
1E
17
E3
65
05
8B
B2
AF
8C
51
65
B7
27
85
0A
34
D7
07
37
07
E2
38
F0
91
33
30
FD
9F
9D
8E
6C
0A
B1
EB
9E
FF
9F
06
1A
C9
62
DC
34
C9
79
39
38
6E
F1
34
F1
8D
26
98
83
23
15
CC
BC
FB
5D
BC
5D
3B
0A
DF
60
C9
B7
8B
AA
D2
1F
6F
C4
40
7C
18
4E
4E
C8
92
96
D4
BA
29
A3
3A
EC
F6
48
DB
01
4F
D4
8D
D2
0B
42
E0
A7
BB
D6
C3
B7
E2
7B
CB
97
23
DE
BD
0E
97
98
71
F9
20
5B
BC
36
A3
41
32
E8
83
00
75
EF
E2
F1
AE
99
B1
5D
6F
9F
37
E0
81
93
75
18
E4
77
71
B1
B2
17
07
ED
FD
A6
BC
B2
E9
F0
07
52
B8
2D
86
12
F7
B4
67
0F
93
E4
98
35
91
80
AF
83
03
A8
22
D0
81
DB
4E
7A
A3
78
91
16
0F
BB
0A
91
16
75
DD
14
46
90
9C
55
87
D2
56
0A
04
8A
FE
78
D0
4E
61
D2
20
ED
D2
11
1B
23
0F
DB
91
CC
05
0A
88
2F
E8
90
30
67
0E
54
C5
14
48
E9
FA
A0
1C
4E
03
82
BF
A4
44
32
E9
CA
60
AD
41
F2
E9
EE
6E
A7
19
EF
60
FC
FB
B1
E5
68
35
C0
D6
58
C4
F5
77
BE
46
95
8C
08
BE
4A
D3
15
2C
DD
46
84
AF
50
38
13
68
E4
FF
23
05
D5
D0
E7
5E
B6
B2
66
07
43
D4
AA
68
0E
1B
B6
8E
5B
5D
EF
B0
4A
96
9E
61
E2
7C
48
10
56
54
6D
8B
84
70
63
54
FF
00
1D
E6
4C
D0
5B
D3
76
5F
C3
C9
68
57
E9
0A
C3
C6
D8
3F
B6
A2
04
55
D0
23
35
9E
28
0D
0E
3C
A7
B7
20
50
F6
3D
C4
AD
04
8B
03
30
7E
66
16
F4
04
56
E7
D1
C3
FC
6D
9B
D1
8D
10
B4
B3
BD
D4
3E
BD
75
E2
44
AE
D8
EE
3E
89
15
52
88
6B
EC
A9
B5
3F
70
42
D7
0A
64
DE
32
16
1C
78
CF
BD
C7
7D
0D
2A
4A
BE
2A
F4
5D
19
90
94
BA
8A
49
81
55
4B
BB
8B
0E
52
2E
F4
94
DE
F6
F0
6E
40
EF
88
58
16
10
F5
F6
B8
D8
2A
4C
2F
75
93
46
98
4D
3D
70
20
68
D7
D1
29
5E
DD
8B
95
EF
CF
3C
83
1C
9F
2E
C0
9B
C0
19
AB
15
6A
44
62
F5
6F
F2
98
A4
CC
C7
21
B0
63
A3
0B
47
A4
B6
48
9E
43
44
15
4E
DF
55
75
E5
EF
D6
B7
8F
F8
47
E6
9C
D5
F2
7B
B7
A6
92
75
57
2D
A1
3E
81
F8
C5
6B
A1
40
FA
2A
6B
78
