27
FE
1E
3B
C3
1D
E2
85
A3
2E
56
BE
32
47
50
1D
EA
62
30
88
00
CB
9D
66
67
E3
1C
CF
EE
41
EE
34
A0
19
DE
C7
86
95
1E
33
74
8D
0A
37
73
72
A1
81
33
E4
33
B7
77
1D
01
AC
8A
5D
D0
CC
9A
CF
5F
E9
FC
7B
9A
58
8D
B0
8D
80
55
1C
30
2C
CF
35
41
F7
2D
80
AC
00
4B
FB
0E
F1
F0
6B
6E
73
ED
BC
74
DD
09
08
39
5A
97
82
FE
7F
3C
92
0E
8E
ED
47
12
24
11
76
23
30
55
96
C8
37
88
0A
13
DC
90
B3
CD
A5
E5
3E
FC
41
7F
22
F8
6B
67
4A
F7
39
B9
CA
94
25
8C
13
10
7B
B1
58
9F
7A
64
B3
B4
7F
05
54
76
04
54
D3
0F
37
32
91
E0
BB
23
AA
98
45
46
39
D6
12
63
CD
71
2B
18
97
0D
A1
8A
01
ED
B7
2B
B9
02
CB
0D
8E
24
C5
EC
F2
F4
21
1C
29
5B
76
49
81
C5
84
31
68
CE
B6
EF
F7
70
C7
04
43
66
BC
C7
DF
B8
42
6D
06
66
23
C4
E6
B4
29
79
71
57
F7
FB
C6
39
56
57
26
2F
D2
E7
C3
00
8E
38
07
59
34
19
86
45
93
05
83
A8
2F
8F
1C
81
21
3B
54
2B
20
63
3B
23
75
0B
C7
6C
23
4A
24
AE
44
02
88
87
BF
3E
E6
8E
D7
EB
42
3B
78
BF
75
46
50
BD
5F
6E
C8
E4
56
B5
D6
85
8F
0A
BF
12
69
B6
6D
11
E6
C7
9A
4F
86
01
BA
D6
B8
B5
AF
AA
4E
93
82
E4
F5
B2
04
48
F1
38
9F
FE
A8
D0
4F
82
15
36
65
7D
50
48
A3
FE
32
A9
C4
47
6E
64
02
25
36
D9
6C
43
2D
71
08
CB
34
1C
75
AB
54
15
DA
DE
96
86
84
D8
40
1C
AF
F4
6C
F2
D4
35
02
66
29
02
55
2F
B2
B6
15
6F
5E
F7
3F
30
F1
6E
64
88
6C
E7
C2
DA
2D
A0
E2
4B
5C
5F
2B
6F
1A
46
3B
6A
CC
12
A2
55
0D
21
55
27
86
CD
6B
A0
6F
31
22
75
92
FD
95
86
9F
AE
18
5F
DA
2D
81
2E
D7
B7
4E
51
CE
B8
D0
C1
AE
52
9D
D8
21
FD
21
57
35
32
1B
C3
B6
35
95
36
76
FA
BD
78
6F
59
75
0C
E9
50
1C
6E
4B
75
4D
A5
53
9B
08
CE
0C
12
CB
AC
7F
1A
63
BC
7C
AF
89
64
F5
F3
E5
FD
5A
F8
D2
15
BC
92
28
63
40
E0
E9
6B
BF
B2
01
D6
B1
06
F6
98
40
9C
FE
FC
C4
F6
A7
29
6A
AA
86
AA
3E
44
60
14
15
5D
96
A8
0C
70
47
45
9B
6A
DB
47
D9
77
0F
8E
1A
B9
B8
8C
02
87
2B
FE
D5
A9
9A
E6
EF
CB
98
86
D0
29
B2
AB
A0
0C
58
9A
88
99
8A
64
52
11
75
23
24
29
2D
19
3F
32
58
8C
06
F3
31
4E
02
70
19
F5
CB
D3
DA
47
3C
8F
CE
A2
99
64
29
42
23
02
7C
FF
B5
FD
EC
B6
9C
DA
4D
C6
4D
4E
BB
A2
2A
F9
75
6D
82
FF
48
54
87
61
CE
46
BF
AC
DE
11
97
95
8C
6A
76
E7
75
4C
4C
16
51
F4
99
3A
04
FA
08
BD
A1
2B
CA
70
78
89
09
43
B3
18
37
F2
B2
BE
06
35
B7
E0
10
38
46
37
BD
E8
95
25
88
96
15
69
51
6E
79
E7
0F
3B
54
DA
CB
48
19
3D
C4
D7
0A
86
6E
D4
3D
1E
B8
E8
AE
F7
73
ED
EB
B7
E1
36
46
4C
83
74
57
BA
A3
CF
3A
89
B6
3E
DC
33
11
B7
48
04
46
FE
93
CE
40
36
59
20
1F
18
9F
D4
CE
19
C6
59
8E
B0
30
C9
2A
E6
62
4F
1C
1C
D6
AC
D5
BA
17
B3
A0
2C
C9
F2
8E
C2
9A
CE
2F
32
D1
F5
07
EE
82
9D
82
64
63
1E
76
DE
4F
73
87
7F
6F
77
76
0A
DD
4E
E0
D5
60
36
8B
51
06
66
76
7F
F6
C3
AB
E2
89
89
47
05
0D
F2
04
42
9C
20
3B
3D
E6
83
80
84
F8
CE
DF
88
56
9B
96
1B
5E
C7
2B
FF
01
E6
57
D2
B8
05
6D
DB
FB
19
AB
DA
93
EA
2F
CC
DA
69
3A
FC
40
F7
C5
25
50
3F
51
2A
7C
70
79
74
22
77
F6
94
8D
E4
59
DA
23
1B
59
BD
06
71
5C
2D
48
B4
58
C5
B5
2A
DA
A5
86
7E
98
30
21
C4
8D
CA
D6
91
F8
EE
2F
C6
B7
E8
28
AB
FB
F4
50
A4
E5
D0
76
64
94
F7
8A
D8
E6
26
3D
47
00
46
2B
19
54
7E
6D
91
E6
9D
D8
D3
F3
94
1D
FB
91
00
44
5E
06
D8
F0
B1
5D
9F
4B
78
60
FA
21
46
D4
F8
12
53
E5
87
6B
5B
66
44
9A
4E
46
1D
24
B7
08
72
AA
E8
45
07
CA
31
D2
70
A7
78
4D
12
71
BD
8B
EB
91
C0
9C
3A
93
90
56
B6
93
36
70
9D
7B
3A
40
4E
4B
0B
BA
23
1C
03
98
36
DD
18
E5
2B
BC
42
35
9A
54
98
AC
4C
E4
E7
52
4D
EE
57
34
64
A6
F3
A2
B5
3D
C4
EE
AF
E5
AC
E1
1D
CE
B5
43
26
80
6B
88
EE
78
5F
26
0C
CC
54
C2
79
18
08
17
8F
F0
57
C3
AB
EA
39
90
C6
19
13
AA
6F
89
1F
1D
F6
42
EF
3E
F6
D0
86
23
9A
DB
E5
DD
2C
CC
CE
4C
FC
C2
AF
6F
76
69
1A
48
22
65
51
0B
CE
70
AF
9A
9B
EF
9E
3E
E2
37
16
D1
06
FA
FA
C3
BD
CF
E7
C2
F1
B8
B2
11
75
9E
80
A7
53
4B
70
E4
A6
03
7D
14
C2
87
13
AE
84
53
09
3E
C0
36
51
B8
8E
D9
0F
C6
59
95
C0
15
C2
F4
57
87
A7
58
44
1B
78
61
8F
ED
E8
ED
99
20
EE
A6
C2
6D
69
3D
85
E7
E1
05
AC
DE
F3
14
9E
86
44
BE
EE
72
5E
AA
A4
CA
F2
03
B0
FA
4C
BA
83
1D
AA
B4
B7
F5
00
FE
79
ED
95
4D
42
54
3D
5E
36
D2
CE
E4
CB
E2
99
24
8A
39
11
0F
FD
D8
2F
68
CA
DF
88
26
EF
35
00
FC
70
43
EA
7E
D1
9F
88
27
91
34
FF
4E
9B
12
96
7D
A5
43
6A
AC
32
D6
AC
D0
F2
E8
F9
09
AF
2C
81
3C
64
EA
8D
E9
20
12
25
11
39
54
27
C2
74
66
BE
55
97
B4
51
2B
B1
93
0F
A4
FD
AC
7E
D6
DB
DA
74
E3
7A
CE
5C
F5
67
F9
EB
0B
E8
4B
CA
94
82
70
85
70
98
82
02
73
79
0F
0D
AE
EC
AA
FB
09
C6
BF
41
C4
B8
06
DF
31
AF
90
5E
F3
71
60
CA
01
A9
72
55
BD
25
B2
C2
3E
2C
4F
71
12
AA
40
9E
30
9D
80
A0
18
2C
F5
FD
B4
B3
56
D7
A7
B8
07
80
87
CB
C1
AB
33
45
F5
0E
9E
3C
8B
24
D6
7D
37
9A
18
79
E0
E5
99
7F
0C
AF
B1
25
8B
1A
94
DF
4A
EB
C3
FE
3C
0B
CC
49
C9
42
28
E1
D9
1D
0A
A0
C0
5F
E8
A5
8E
D6
90
76
35
C1
88
F3
34
86
D6
60
32
21
35
9E
9F
1F
1E
80
A4
74
53
93
5B
26
E8
44
75
5F
F7
2A
D8
AA
83
D3
CA
AA
73
0B
74
CD
90
2D
06
82
0F
F8
B9
AD
F3
43
9C
9F
0F
75
18
2A
52
0D
BB
E3
D9
61
65
50
8D
4E
FE
EF
B5
B5
FB
02
A3
C4
AD
90
7A
8F
4C
7E
CC
5D
29
E1
2A
F2
5B
AA
DB
AE
D2
46
68
BB
B7
10
B9
2A
96
BA
84
7E
9C
02
24
F0
9C
1C
55
B4
2D
15
50
10
D2
A5
30
4B
60
35
95
C9
57
6A
3B
C4
77
DC
F5
91
31
F1
21
5D
6B
B1
B1
CA
32
F5
6A
A3
2D
E9
F8
8C
BB
44
73
A7
EC
9D
A6
36
9D
96
52
27
C3
F6
9F
D2
34
D4
22
3A
7B
77
01
23
25
D9
7A
18
AE
F5
5C
E5
1E
2E
51
B4
E5
94
69
B7
A0
13
4F
DC
22
96
C6
07
00
C3
72
18
40
94
93
B0
04
14
78
EE
8A
00
C1
B9
63
8E
F1
8B
CC
10
4E
FC
B0
32
00
48
09
BE
19
EE
B1
0D
9D
E8
FB
3A
3B
1C
6E
52
C2
74
74
31
33
EA
B0
7B
92
F6
5B
21
8F
66
85
05
FD
EF
4A
6C
2D
18
FA
30
A4
A2
2C
05
FE
96
29
74
96
A4
CA
75
54
C5
99
C4
05
96
F4
06
D3
C1
7D
60
9F
E4
69
CC
8B
C8
31
B2
D7
D1
F3
75
5F
FF
BF
80
66
E4
D2
8C
B1
87
46
AA
2A
26
7B
1A
BC
B7
61
C6
FA
8C
AC
73
E5
F4
5F
82
1F
5B
6F
39
2F
84
3E
58
7F
08
8F
60
B4
42
6E
E7
1F
DC
0E
10
32
2D
79
AC
52
3E
B2
CD
4F
85
BE
64
EA
85
0D
B9
88
DB
C3
B7
7A
2C
D1
B5
1F
97
28
D6
B8
2F
D3
FA
EC
BF
97
D7
18
B1
3C
1C
38
6D
E5
65
90
DB
52
7A
70
D9
1B
35
28
37
7B
1A
E5
10
79
65
E6
BE
98
74
24
17
C0
67
02
90
49
2C
B2
8A
9C
71
30
AD
97
56
FB
BF
19
1E
C6
3B
4C
A3
FA
87
65
D0
A3
34
0E
BC
72
DA
81
24
A5
A5
00
C2
BC
EF
FE
23
09
E5
19
76
3F
B9
2D
91
51
F6
5F
6A
C8
F2
63
6E
54
C9
CC
14
5D
A1
61
D5
C4
91
D5
E6
26
40
43
31
E7
DE
4D
F9
21
72
0B
78
54
11
78
85
3C
9C
44
31
A7
B2
DF
CF
52
C4
0D
C1
FF
7B
0D
72
A5
A3
EC
00
01
9F
E3
B8
86
66
A9
1D
77
1C
38
B9
B3
F9
E2
6A
BF
B4
AD
B3
5C
A0
B7
A4
1B
22
95
2F
04
9C
21
56
86
8D
8D
80
F3
C9
F0
12
08
FF
DB
2D
64
5F
E6
C2
A1
00
1A
81
83
1B
59
37
D4
D6
58
E4
72
8D
1C
90
EE
CA
89
5B
7C
43
B4
51
A0
B0
CF
E0
E2
75
BA
4E
D0
68
37
95
96
96
E5
68
CF
8C
CD
1A
D9
7A
0D
36
B5
4E
66
E4
B3
46
24
9F
A8
5C
30
3B
D5
26
99
6C
EF
4C
C2
D2
67
7F
9E
9B
26
45
17
9B
A4
9A
08
77
CB
C7
83
C9
56
9D
65
D3
29
5A
10
98
9F
8B
95
54
33
3E
5B
CD
C1
E7
BC
55
2B
E0
99
74
40
EF
50
99
96
5D
8E
6B
19
E1
7B
4A
7F
97
67
76
E6
65
D0
C6
16
D6
6D
90
77
32
F4
D1
91
0D
3A
06
E7
F5
3A
B7
B8
B4
74
BF
5F
C7
40
93
82
08
F4
A5
EC
97
F0
4A
48
B7
D9
EB
6E
5A
65
39
FB
2D
25
0F
AD
E5
B7
B2
B6
9F
07
F6
69
BD
9C
1A
73
FB
EE
32
46
1C
49
4A
12
D9
86
8F
DA
4F
A7
56
BD
AF
89
BB
2A
D3
A7
7A
22
DD
C7
4B
5B
AA
97
FA
74
8F
50
27
5F
83
19
42
4B
5E
7B
81
94
C3
FE
FB
4A
FA
F7
65
B1
81
66
AF
EF
11
AC
B3
6A
64
A3
97
D5
5B
27
5C
47
C1
E2
EE
25
1B
22
6D
A2
5C
6C
E1
B1
4A
34
D3
F3
1F
C6
51
37
47
C4
4D
7C
C9
F8
