35
0A
87
8D
34
8F
EE
CC
30
B0
D4
40
CD
E1
F8
40
4D
9A
A3
F4
4F
91
27
6C
B0
5F
54
07
65
45
5B
C9
79
64
21
33
BB
0D
50
F9
66
11
08
3E
59
9E
43
0F
59
59
00
6A
C0
20
FD
CF
9F
35
94
3B
78
F5
F9
4C
CE
0D
C9
7D
F3
82
FD
8C
94
E6
59
DF
91
7C
43
4A
DD
C9
49
B6
3B
C3
0A
9D
79
63
78
94
8C
D2
92
5A
97
E9
C8
16
1D
C9
67
55
81
77
A9
B1
52
53
B6
09
6E
20
9A
2A
6B
32
9F
25
6E
5F
4F
C9
18
A3
C5
EA
31
B8
03
40
0D
1C
8F
FF
85
B4
C3
6A
4B
32
D0
C7
53
6A
B8
59
56
8D
6C
49
9D
3A
DB
DB
1D
A5
06
67
A5
37
65
20
39
19
50
BD
5D
1A
CE
90
28
81
F0
F7
5D
26
5E
24
38
C2
99
74
F9
7F
6D
B4
A3
94
5B
D4
3F
33
B3
E7
F0
1D
9E
F9
61
72
42
6F
0F
F0
9B
DF
57
9D
F3
7C
4D
7C
26
3A
59
95
6B
ED
47
60
0E
02
0D
B1
5F
85
1E
11
F9
7D
41
40
D3
7C
6F
43
07
88
43
60
0D
94
C0
24
85
33
36
5C
71
B0
D3
6B
E0
48
7A
B5
5C
1B
CD
13
E1
C3
A7
4C
34
D2
98
AD
68
78
FB
41
7D
6F
18
1E
3E
51
82
6E
85
12
44
6B
64
9F
65
44
43
C9
75
43
1B
A7
19
CB
7F
60
27
1F
F7
C4
25
AF
B1
19
A5
19
1E
28
C3
57
3F
A2
06
13
D4
BD
DD
49
50
E1
9D
23
74
99
77
D0
43
E3
92
07
BD
0E
E6
6E
29
F5
22
AD
06
C7
E7
F1
21
DE
A0
8C
11
62
A0
4E
8C
00
4D
D8
93
54
25
7C
57
61
89
0D
B5
72
B8
01
8C
D1
1B
EE
9E
58
CD
C1
C2
5D
63
E2
99
56
9B
C3
4C
73
16
F0
D9
C4
67
58
8C
A5
F0
E0
49
B0
EC
F3
EA
F3
86
7B
DD
BD
68
C7
67
CB
CB
1E
06
BC
FC
4C
3E
0A
8D
B4
78
78
2D
43
12
55
8E
52
1E
36
C2
9D
75
78
0E
83
60
89
32
39
84
50
D7
4F
3E
F5
F3
7D
3F
B3
6D
9E
A9
96
07
60
86
D3
44
FC
D3
02
BD
6E
39
BB
B2
36
49
0F
3E
F2
44
FD
43
4C
2C
FE
CD
AE
C5
45
8F
13
6B
12
D3
4F
FF
DF
97
9D
C9
0B
05
62
41
C4
76
CC
5F
5A
38
BF
B7
5C
1E
2C
25
F8
05
96
EF
BB
E2
B1
94
51
CE
B8
A4
1A
9C
2A
EE
68
42
C2
11
CA
CA
DF
52
A2
82
D1
46
88
9B
31
2C
06
49
87
D3
4A
71
D5
D3
E5
60
05
E1
A7
AF
37
FA
84
4F
35
41
A4
7A
EB
80
77
89
E3
A0
35
20
95
58
DC
E3
1F
C8
07
C2
D3
FC
F3
C4
E3
01
6F
8B
98
65
6C
B8
87
CB
91
2B
19
25
2C
0C
34
69
E0
97
52
D2
D0
AB
9D
9F
ED
38
13
3C
67
5F
C7
5F
87
8F
E9
7F
EF
DF
43
F9
C0
6C
94
2C
F3
E4
2D
76
70
77
6F
65
1D
63
3D
FF
BE
94
B8
E0
F4
6E
DF
6D
34
CB
F6
46
5E
32
19
FE
5E
14
CE
70
A5
3B
C4
5C
A2
B2
61
E5
08
14
00
A6
04
6A
EB
8D
E3
7D
39
F3
B8
F4
B8
3F
A4
85
A7
E5
D5
48
FC
BF
A4
C0
25
2E
66
4B
04
F5
E6
B9
5A
AC
72
4D
0A
23
82
85
A1
ED
D9
40
9E
17
69
55
4D
91
C6
21
9D
BA
DD
37
2A
C4
49
4A
45
0F
BE
02
19
F0
52
A9
11
F0
F2
BD
F6
CA
AD
05
D4
AB
F0
05
C0
2D
90
BE
20
E0
61
93
E0
87
29
94
B1
6D
72
A7
4C
2F
88
0D
89
78
90
DB
FF
56
5B
CA
4F
FC
CA
45
BC
CE
CA
3D
1D
E4
45
77
C1
14
C2
58
FC
5E
A0
BC
E6
1D
E9
00
81
F3
D3
D8
E8
CB
03
C1
C1
1B
B5
7D
63
21
CF
1F
3E
BF
7A
8C
0C
3F
F0
A0
E4
A8
95
1F
98
0F
CA
37
D7
19
FD
97
6C
54
21
5A
DF
1B
9A
03
B5
CE
14
D7
3E
1E
C9
16
1D
56
05
1C
C5
02
BA
61
72
F5
A0
94
E3
94
B3
1D
3A
32
A1
59
F6
63
B7
93
60
A6
FC
8F
32
54
74
42
28
E6
65
B0
8F
62
79
64
CF
F7
54
39
DA
C5
77
E7
4F
DA
9F
AB
5F
83
08
18
17
5B
D3
16
75
B6
3D
EB
6A
D0
EF
BA
81
91
27
80
8B
99
CD
60
0F
EE
E2
8E
81
3A
6D
7F
64
64
46
50
BD
89
A2
E1
F9
70
23
D0
6E
36
DB
B3
0B
A9
1E
B9
98
98
7D
A8
88
32
B3
AB
C6
78
37
03
AD
8E
01
CC
FE
72
2B
C3
67
A7
78
86
56
0A
00
2D
56
6E
1E
FA
71
DE
B7
08
8A
83
D9
D6
DD
70
1C
A0
00
5D
F5
20
3D
6C
3E
53
F1
70
F5
83
9F
41
4C
40
8F
24
71
F5
0D
75
8F
69
EC
FE
A4
21
87
E0
65
DA
35
86
99
54
6F
B7
AC
57
26
9C
59
CE
55
3E
0E
E2
35
AE
71
BF
7A
BA
1F
98
84
77
10
36
53
CC
7F
88
EE
B2
CB
10
53
43
56
94
4C
A5
3D
BB
6C
BA
4B
8C
1E
E5
75
82
C0
28
11
C3
F5
09
7B
03
DA
4D
E5
EA
CD
8A
8F
DB
05
1B
B1
06
5D
60
D1
19
5E
22
1F
CA
1D
1F
B1
17
DA
A6
10
EA
7F
BE
A9
09
3F
91
F9
E4
CA
D8
86
0C
53
61
AE
7C
8E
90
18
AB
66
DE
6A
E9
06
EA
66
E9
3F
4D
4F
23
3E
B9
18
F5
CC
85
3D
FE
87
3C
0A
48
CC
D7
5B
95
4C
A1
7A
00
7E
27
EA
44
2C
6B
99
C8
93
3A
93
24
73
2F
14
E5
24
FA
BC
D2
82
72
49
47
74
78
7D
E9
B3
70
52
6A
3B
63
07
5F
5E
13
90
8C
1D
6F
10
53
A0
4A
47
E3
52
B5
89
2A
6D
7C
18
EB
8E
02
B8
24
0D
34
2A
DD
E6
1F
37
C9
D7
87
2C
DE
10
CF
B8
18
DB
BA
D7
DC
CA
87
CF
D7
2C
C9
48
E6
1C
72
69
94
09
F6
B6
A8
54
15
BF
48
E1
5D
91
A9
81
6E
67
29
36
1F
FA
01
63
A8
AD
C3
B4
D7
45
87
4F
95
C3
5F
22
8B
28
3C
E7
EE
FD
0D
5A
52
0D
70
EA
6B
58
4C
88
AF
3D
FE
F7
39
69
14
45
1F
AF
97
13
66
2A
B1
7B
D3
15
D1
21
3E
34
AC
C7
A4
3E
BF
55
82
B1
3F
7D
F5
DA
E7
7F
C3
EA
99
67
3C
95
9F
D4
04
65
EB
29
CC
11
38
49
0A
2E
76
F6
34
0C
F7
47
FC
48
B4
BF
A5
0F
A0
44
7E
74
33
B9
1E
F1
5E
0F
68
4A
91
2C
91
D9
A2
D6
CB
3B
8B
FD
4D
D8
B2
7A
69
BC
58
78
99
EC
EC
1F
02
02
DE
6A
58
81
09
03
0B
8A
EE
FA
51
3F
33
4D
34
CB
21
BE
BE
66
72
89
27
44
C2
79
07
B8
ED
4F
71
9A
A6
B0
43
E0
87
09
3D
AB
7C
1E
62
6F
DF
B2
AF
A7
EA
B9
0E
89
9C
33
23
72
95
54
89
EE
D3
55
B9
58
C5
07
85
1B
BC
1E
FF
D5
2A
A4
BF
DC
B0
83
29
C2
1C
60
C8
28
69
C7
3D
52
77
56
DE
7B
50
77
5F
1A
1E
94
EA
37
B4
FA
61
12
A1
C6
5A
9A
7F
78
22
18
FE
AA
FE
8E
65
03
2C
3B
BF
97
BF
8D
A0
F4
94
E3
8B
9C
22
F0
EC
6D
11
0E
4B
0E
58
B9
12
8E
36
2D
88
A1
0D
8D
49
E3
78
8C
90
C9
39
C5
31
38
27
7B
E7
AA
F2
5E
26
F5
BC
0B
A8
DD
FF
BA
89
4B
DB
01
0B
14
22
69
4E
05
F2
FC
DE
E3
97
47
0E
64
A9
A8
1B
E0
16
9C
83
41
8B
5D
23
35
D7
AF
76
3F
6E
78
40
43
94
75
F9
A0
3C
44
EB
A7
C4
90
F8
A5
49
58
61
50
AE
B1
2E
C7
27
A6
50
A5
88
C4
26
F4
FF
E1
25
2C
44
E5
2B
25
23
2F
B2
68
C3
5A
60
EE
21
D7
7B
03
94
F3
D4
55
1E
1F
19
C5
24
A3
ED
BA
09
37
A3
D4
A6
C9
C4
51
84
09
60
10
24
B3
00
3F
0C
24
34
59
A0
34
05
61
D4
EA
24
C9
49
12
01
C7
9D
75
F8
E8
ED
B9
F4
E8
E1
13
FA
58
D4
82
7A
A8
B0
F5
44
41
C4
B3
D9
A3
05
E1
A8
5E
12
7A
B2
DF
32
C1
F4
99
EE
4F
AE
12
F8
EE
0C
EF
F6
48
CB
66
5A
38
44
27
04
BB
41
4C
1C
D6
3A
0F
DB
46
43
43
A3
B0
3A
10
F5
B6
DA
8A
A8
DE
F1
35
4B
62
74
65
02
CC
09
99
59
C5
8C
E6
B3
58
EB
30
8F
24
81
FB
3E
C6
D9
90
79
34
0E
56
30
43
2D
E7
97
AF
B8
9D
1E
54
89
4E
6B
8F
95
B5
9F
1B
E7
5E
31
34
58
2E
61
EF
CE
AB
1F
E7
4C
32
7F
4A
87
46
A4
46
94
83
47
85
D4
55
CB
6B
95
63
2E
64
6D
24
C9
33
60
D9
BD
F5
2C
C7
55
63
5A
C8
C5
55
A7
8F
DC
7D
71
C7
4E
C7
95
4F
95
4B
9D
8D
FC
DA
BD
52
E3
C4
48
E8
83
6F
AC
CA
D8
64
3E
CE
73
1B
73
C9
7B
AC
B7
10
B3
17
14
6D
0C
63
A1
42
6D
B6
F2
CA
CD
AE
90
1C
D0
11
91
76
BC
E5
50
BC
11
7F
41
89
23
55
B2
51
03
79
40
3F
E4
F1
2A
44
8A
4F
38
15
7A
03
89
DF
D2
DE
24
79
5D
59
AF
82
A1
2B
77
33
D1
21
44
00
3B
5A
37
28
6A
20
76
1A
30
C6
CB
FC
BF
D0
A3
C1
C9
07
9E
2F
1A
EB
36
7A
46
AC
25
2A
1B
C7
F2
70
FF
D0
C8
7C
03
FA
EB
1A
A9
EE
D9
55
61
37
0E
FA
54
E0
8F
76
0B
24
4C
28
C3
51
D8
D7
4C
85
DD
F5
1B
96
34
CF
3B
D4
B7
81
C9
13
06
E5
32
0A
B8
C4
03
42
36
64
DD
FE
33
F5
1E
18
03
CA
2C
9A
2A
1D
B0
50
27
EE
9B
FA
E5
44
0C
E0
78
FD
75
5D
1D
ED
DF
58
89
0C
41
75
DD
8D
D8
8F
66
C2
9A
C0
06
0C
F2
6E
A3
6A
EE
CA
A2
8D
7B
75
D7
0D
A8
3B
A6
DF
35
F8
A3
71
07
EE
6C
C7
D0
4B
13
71
0F
DE
30
56
98
A0
5F
1A
A9
04
3A
3A
89
6B
E6
D6
E9
20
B0
46
A7
0F
59
38
00
7F
19
C9
44
7D
23
2E
01
76
AA
44
37
D0
7D
1A
59
B5
E2
DF
47
19
2A
53
F7
16
62
C5
D0
11
CB
3C
15
A5
20
65
54
27
63
6B
CA
9D
CD
B9
AF
C3
60
7E
CE
3B
ED
C2
57
B9
AC
54
DA
8A
2C
01
A5
90
57
92
E2
38
8E
AF
DD
77
5E
BF
9C
25
10
52
69
E3
8B
F8
B8
92
FD
4E
46
C4
15
C1
3B
FA
96
72
DB
CF
FE
A9
A7
3C
59
F5
31
D0
4D
4F
F7
5A
8B
1C
89
A4
71
C8
AE
41
43
72
40
75
FA
B5
36
44
6D
85
5B
DD
B2
22
79
67
