A0
D2
22
28
CF
28
A0
47
5C
D7
E3
22
3D
21
71
57
51
59
6C
42
9A
D8
EC
37
06
3F
40
74
63
E3
E3
C1
9A
CC
28
5F
49
3F
EE
F6
89
A1
01
E4
F8
49
26
DE
CA
33
B3
9C
38
F1
CA
37
1D
FF
4A
E0
02
55
4A
0D
9C
0C
EC
86
0D
E8
D0
C1
4C
C0
01
17
52
0D
E5
63
98
01
9A
76
FC
CF
19
D3
89
B9
70
D2
4E
FF
7B
C7
DB
C8
B0
31
E7
E2
1A
A0
B0
D1
59
17
25
EB
5D
41
C6
D5
55
54
8D
16
A2
1A
FA
CE
8E
63
9D
8F
AD
40
27
E7
66
4E
8B
9C
7F
82
DB
23
9F
22
F1
15
BE
FA
8D
0A
37
40
80
CE
4D
10
43
0F
AA
AE
30
EB
37
33
11
36
CC
62
F2
62
95
A0
A3
C2
EE
A1
3F
D3
EA
4D
5F
34
4B
89
1B
F0
C6
DB
DB
BB
8E
8C
E5
D4
B0
23
9F
F1
A0
3F
C7
7D
91
F6
18
D8
83
85
AE
66
91
E9
93
4D
0A
06
A0
1A
35
E3
1D
C2
86
6E
A4
40
4E
2C
CF
68
97
92
B4
DB
59
54
D8
43
97
2E
65
4A
D9
CD
74
D1
AD
41
69
82
CC
CE
49
2F
33
38
44
60
86
B4
07
16
10
12
7A
76
B3
72
60
2D
0D
59
64
50
C4
4F
00
80
9D
FA
5E
69
84
F6
06
E8
97
5A
3D
B1
A6
23
6E
BA
E5
75
56
77
33
0B
FC
B9
30
A7
B9
60
56
02
D7
F2
03
A6
CD
29
68
C6
56
51
2C
F3
7A
3A
84
0E
C8
52
89
DB
07
8C
E4
89
3F
5A
40
CB
87
E0
06
5E
82
D7
9D
F3
7E
C1
9B
25
B9
70
13
3B
7E
AA
97
BD
9F
43
F7
9D
73
ED
14
0E
C3
53
1F
E3
30
42
82
51
A5
84
C7
9F
81
C3
EB
8F
7E
3A
38
FA
88
B7
04
67
2D
B7
B0
19
40
89
57
42
B0
F6
77
70
CA
66
0E
ED
9C
74
34
FA
59
13
54
EE
DA
5E
2B
61
E5
2B
85
6A
1C
91
53
BD
20
6F
CC
64
1B
7C
C8
07
5E
C9
B0
4E
52
D8
E0
B1
6F
D6
12
DB
99
B2
43
EF
71
E5
62
91
1C
0A
F9
61
8A
ED
EA
16
E8
E7
73
05
DF
39
73
DA
D4
18
25
07
65
4E
EE
88
A1
A3
5B
E4
67
39
64
6A
D5
D0
F6
B8
2F
51
7E
56
9A
CC
4F
1B
7B
05
74
19
C7
A0
F9
0D
A7
6E
EA
F4
ED
08
09
CE
9E
22
C2
BD
C0
06
53
CF
A6
2C
BC
21
E1
84
DA
1E
6E
83
E2
82
FA
70
30
4D
17
2D
3A
8E
DB
C9
AF
C7
F1
C1
FA
2A
C3
67
81
86
D1
63
5E
6D
DC
BE
E2
F4
16
9E
4F
A5
E4
EB
26
7B
BC
EA
B4
48
9A
1D
4D
AD
0F
53
E4
54
6C
48
2E
F3
50
B3
E9
5F
2C
11
CE
48
6F
05
DE
15
FE
DC
C6
14
3B
D5
67
BC
C0
D2
7D
D3
46
CC
7F
01
0C
41
98
FF
4D
4F
29
75
F4
25
14
94
D0
3C
F0
A1
DD
21
0E
0F
AF
10
43
6E
EE
C0
CC
C7
7C
3B
4F
20
B0
37
E1
12
61
62
3B
C7
5A
5B
3E
8A
B9
FD
ED
52
58
5E
0C
47
FB
56
7F
22
EB
31
3F
EA
62
38
DE
8C
48
71
8A
73
45
6D
E8
04
BC
B1
01
E6
99
D6
F5
52
E5
93
90
4C
26
19
2A
C0
B9
31
2A
63
1A
73
A7
E9
27
67
76
F2
7A
73
7B
97
1E
58
89
33
82
64
B5
37
D7
A6
18
94
0E
EE
51
38
B5
69
75
63
45
55
97
9A
0A
CD
2F
C6
1D
89
21
68
22
91
19
21
6F
31
61
2D
E5
51
ED
6F
2A
DA
92
C9
BC
3F
ED
B2
A7
20
43
33
5C
37
32
68
D6
0D
57
52
A9
EF
FB
0E
FE
D6
B9
0F
A9
3C
82
B4
76
1F
8D
B3
02
9B
D1
80
59
9D
78
46
4D
20
E5
02
52
2B
9D
3B
54
04
D7
9C
7B
E3
A8
4D
94
52
7D
EB
C8
04
C7
DF
4C
32
6C
1C
68
DD
9C
84
F9
3A
36
97
34
22
6B
28
2B
0B
8A
BA
2D
61
44
C6
24
39
1E
12
25
31
5D
35
6C
20
CA
05
6C
09
98
69
57
8A
D5
76
A5
6A
6D
91
ED
35
8B
CA
0A
0D
9E
95
5C
E8
24
29
AC
16
AC
11
3F
DC
2D
D6
AB
D1
38
D6
7D
72
15
A8
6F
F9
BB
7A
E5
4E
09
55
68
30
40
FD
D0
28
0D
84
3D
4E
AA
B7
F3
EB
2F
F7
EF
FE
18
FE
D9
69
68
37
3C
F4
16
74
59
8D
E1
7F
0B
40
0A
24
D1
59
DE
9F
88
F2
30
BA
C2
EC
54
23
49
4C
1B
C7
6A
43
24
0B
81
69
53
DA
87
1C
72
03
73
C3
2B
4D
2A
12
1F
53
91
2F
BC
82
B3
35
EE
12
26
7C
85
DB
1E
DE
C3
CD
8D
5A
5F
DD
3F
55
50
FF
66
37
93
06
60
9B
B1
0F
DC
33
C1
AB
2B
26
C7
6E
BB
2E
08
9A
60
61
96
06
E2
9F
55
15
01
3A
4D
22
E2
65
1D
EE
9F
0D
AB
52
23
EB
03
72
ED
67
C9
64
36
27
9C
AC
71
9D
95
F0
56
09
FF
E1
BE
8F
55
65
44
9D
4F
21
6E
0D
0C
7F
4F
89
18
DB
27
8D
DE
3E
17
18
6C
B9
74
33
08
00
B9
85
EF
D6
67
C8
3A
E6
9B
8D
AD
7E
3D
42
EB
14
98
76
92
08
06
03
D9
F6
25
ED
A6
AB
C6
FF
7E
21
76
5B
E1
5F
F2
50
D9
9A
55
B9
04
67
55
5F
D9
FF
5A
8F
F6
70
78
6A
72
23
60
53
2F
7E
8F
87
8F
57
BD
8A
F3
E2
E0
AC
49
22
DA
F1
23
6B
40
FE
E3
D5
6B
2E
3F
AB
4F
24
5E
E1
84
DE
AD
9D
AD
F6
55
80
3F
E6
85
60
D1
6C
C5
2F
28
9D
B5
90
61
DE
8A
20
AB
74
D0
35
58
EC
91
96
69
AF
CD
8B
E1
E0
A1
81
8E
18
80
CC
C3
B2
DD
B1
B2
66
4A
C2
35
10
22
4E
C3
E8
A2
5B
D8
96
01
67
E8
9D
B1
1C
4C
EB
77
05
29
09
C9
CC
AD
55
32
9C
18
9A
D9
43
42
22
53
6C
A2
46
94
0D
F3
B1
75
EB
6F
2A
F8
71
48
1B
4C
A4
CD
F0
4D
BD
95
D7
10
66
6F
6B
F9
CE
88
94
7A
43
97
99
71
FB
16
C1
C0
E7
BC
05
7D
30
A4
F2
29
04
AC
23
36
4B
0E
89
B0
53
B8
91
07
9C
E3
94
89
F1
7E
38
B4
CF
0D
B5
6E
A7
33
57
EC
3B
F7
46
60
88
53
27
F0
68
E6
D9
1A
34
23
F2
8C
68
9A
0C
58
D5
90
2E
DF
C5
D9
63
46
34
A8
BB
AD
3D
03
8B
8D
3F
82
8F
00
F8
12
28
1D
31
A8
C1
AD
82
A7
7B
7C
28
39
88
35
48
A6
49
0C
F4
06
D7
C6
48
23
BE
1E
9A
D2
4E
AF
04
4B
4B
49
A3
93
26
43
B1
65
AC
4E
F4
4B
8C
A4
C6
9C
F7
06
3B
DD
2F
4D
08
D3
CF
83
01
43
CE
FF
95
41
70
50
99
2E
B3
1B
C8
DD
1E
02
82
96
44
51
60
85
4B
47
7A
11
27
C8
6E
B4
61
D7
0F
15
73
93
5C
E4
D7
55
74
43
7C
CE
50
EA
80
9D
49
CA
76
BB
7D
E8
DE
49
46
A2
92
85
2A
CA
FF
ED
38
61
E8
D0
70
08
94
20
55
9E
73
1B
F1
F7
ED
66
5A
F8
D2
03
07
E9
ED
0B
4F
DF
9F
2C
2A
AA
89
8F
FA
E2
80
17
C7
F0
76
C7
EE
4A
7E
CE
21
10
18
13
93
32
AA
72
45
E3
68
26
FB
C1
52
70
74
17
27
BF
FD
ED
14
73
F1
7C
DD
1E
5B
0E
EF
F9
2E
9B
CF
F7
71
82
45
4F
EC
9C
12
85
F5
FD
38
F1
B7
33
ED
CE
9B
35
27
D0
AB
39
85
82
36
2C
15
3A
B9
75
40
7B
B0
4C
C7
FF
07
31
C8
AB
34
15
87
51
19
33
26
E0
56
B4
2C
B8
55
1E
62
41
3A
46
89
EF
12
F6
05
B7
3E
EF
AD
D2
FC
AF
1B
31
01
F5
E4
95
94
59
22
76
E1
1E
8E
C2
7C
65
08
C6
4B
E5
4C
17
C9
83
A1
1C
16
A2
FF
19
FA
60
CE
44
16
42
66
83
F4
BF
36
57
8E
D2
4C
06
CB
88
0A
30
FE
AD
7D
8E
60
52
31
20
25
B7
B8
E2
10
37
D0
80
19
D2
3B
2F
19
67
31
1D
3F
FE
1F
82
00
F7
8F
F0
36
D3
E5
87
E7
D6
93
10
8C
CE
1F
2E
F1
AF
67
C9
AD
CC
B0
17
18
F6
CC
94
0D
DE
8B
AF
7C
30
A4
5D
0F
6D
F1
CE
26
FC
68
BF
C8
4D
38
E1
F2
00
03
08
DC
77
6A
30
3F
DA
A3
BC
9A
A0
F1
6B
80
22
AC
C7
6D
B5
15
66
2A
37
A9
66
D8
8E
D4
2F
55
C4
C0
93
BA
E4
6B
4D
44
03
49
60
94
6D
85
B5
79
53
9A
DB
51
BF
D4
76
6B
E6
CD
AF
32
15
2A
AF
54
17
28
2E
6B
AE
CB
1A
1B
4A
34
6D
49
6D
57
07
7C
85
A6
D9
56
9A
3B
A7
D9
89
65
00
84
A6
EA
EF
BA
C9
BD
49
2B
6D
98
77
B8
59
98
61
CE
24
30
B8
5D
35
6B
41
25
E0
F3
5A
B5
32
66
22
7B
3B
12
2D
77
47
FA
F7
BE
7F
7E
78
26
32
51
2A
7C
3D
D8
46
6B
30
F1
6B
5C
B2
28
FB
21
1B
7A
92
79
EF
BE
4E
1D
A3
7B
42
D9
E7
36
E7
05
98
EE
8C
FD
A3
23
69
48
4C
9B
92
A1
BB
35
B4
54
06
26
1F
CB
40
BE
0E
B3
C8
87
B5
03
7A
AE
BA
89
DB
8F
5F
E1
23
5C
C3
DB
ED
9A
3C
F4
DD
2D
2D
2D
48
4C
3E
93
1D
BC
15
44
E2
5A
F9
C0
2E
5D
EA
F0
5A
3D
43
83
1C
F3
AC
71
FE
A5
44
49
04
3E
FF
C9
40
EC
2C
DA
EA
B2
FE
7D
72
4A
CA
98
C4
11
99
78
3E
73
52
94
F5
F2
EA
25
5C
E3
BC
A8
B7
37
E8
D9
10
06
23
DB
7E
17
0F
14
32
33
5E
BB
70
45
6D
4F
24
3C
0C
36
57
67
68
AC
73
BF
81
77
7C
A1
DB
81
DA
D4
F4
FA
88
02
A2
E1
F5
B0
F7
8D
25
6E
0F
0A
FA
D8
30
F0
34
92
3F
A6
8C
FB
38
D0
59
2D
3B
7A
34
83
80
AA
CA
FA
80
27
76
FF
6F
59
D7
C1
45
BE
76
DF
E7
4D
E0
67
4B
69
30
3E
B7
A4
79
C0
15
88
45
55
BC
6E
A2
BF
9E
F7
0F
1E
7B
CC
0C
93
79
7C
EB
4A
AD
C2
78
90
C8
D2
8A
C8
E7
4F
56
08
03
C5
81
08
E6
B3
FB
48
AA
A9
5D
D7
9A
7E
12
7B
95
E5
67
45
C3
52
2C
F7
68
40
AD
2D
B8
69
2E
10
1E
D2
B0
C7
35
E5
4E
AE
B6
60
F4
59
09
5C
29
67
FF
CF
A0
FF
92
49
6B
EF
68
7E
A8
09
10
5A
76
D5
92
DB
C4
3B
F1
36
55
77
14
E5
DA
32
6D
8B
6E
30
FF
98
E2
64
BE
25
12
D7
F3
81
FF
FE
43
D1
26
0C
85
C8
86
A0
BF
39
26
35
59
44
61
22
1A
99
21
E4
ED
03
