5B
D1
70
86
D4
74
38
49
3E
9D
DD
3D
E5
07
BF
59
E0
9A
EC
34
DD
E2
45
05
A9
91
98
65
F6
F4
82
0A
87
22
22
DC
1D
79
41
AE
E6
0C
BB
0F
3F
21
8A
AE
FF
51
F1
37
08
FE
89
54
E0
98
A5
E4
F9
A9
AD
E2
38
FF
29
1F
6A
EC
1F
44
BA
26
2F
A1
DC
26
52
65
5E
AE
A8
36
C2
6E
3B
BB
F1
16
1A
9B
E5
7A
5A
BE
4A
1D
13
62
04
5C
75
DC
5E
7F
07
1A
D3
69
70
07
03
16
1D
95
07
CF
0A
2F
A9
E3
DB
AE
FC
82
FC
A3
A2
58
26
AE
8C
42
94
56
F0
AF
14
A3
84
DB
26
0B
27
BB
0E
80
12
AE
22
96
51
28
FC
84
E0
71
A0
64
7C
4F
B9
A2
03
52
35
5D
7F
D6
B4
B0
BA
60
AD
43
91
00
A6
A7
ED
13
89
01
97
10
42
96
6A
25
AF
2E
5C
10
E5
27
1E
7C
67
79
39
F7
EA
35
1B
AA
96
46
88
0A
9E
42
AC
EF
D7
DF
59
F2
6E
EB
30
A0
9B
24
6E
B7
67
C2
01
4D
16
E0
05
AE
88
8D
1C
AA
A2
67
99
CD
86
40
9B
78
9D
46
06
63
63
1C
21
12
E6
4D
B7
15
15
E6
EC
84
7F
54
89
C2
85
E4
6F
2D
AE
81
E8
8B
56
1C
E7
07
98
5A
38
64
16
CC
AE
50
AF
A5
D5
54
57
72
1A
88
D8
6C
26
7F
EF
52
95
D7
F0
AB
76
F4
35
BD
92
B0
BB
9A
63
B3
44
9D
08
89
94
3E
92
0D
B0
C7
01
E9
11
D0
5B
37
07
13
BC
0C
8A
CC
3A
EB
8E
51
E6
D2
2D
FD
D5
BF
BE
51
F2
15
D0
2C
C5
B2
6A
54
EE
EC
0B
D9
46
85
A2
80
45
24
3A
DF
A0
97
73
48
FB
DE
64
A4
CD
1F
C3
71
C0
6E
A2
81
18
AC
26
5E
45
F6
0E
F5
9B
5C
3C
BC
91
56
02
F9
3E
07
7F
9A
DA
48
46
A4
30
42
54
A7
7A
1D
0C
5C
7B
D3
E8
35
C1
BC
31
D1
27
1C
54
53
54
72
D9
16
56
19
6B
05
F6
79
64
4A
C1
71
BE
1B
4F
49
4D
FC
03
98
DA
43
21
27
78
D0
F6
3A
C2
10
04
7A
88
F0
F0
1D
46
9A
E1
74
44
98
95
74
85
FF
ED
38
5D
68
93
06
CF
19
66
F8
CC
FA
AE
24
3C
D2
F1
83
36
4F
CC
BD
6A
1E
EB
E6
E5
C1
21
7C
7F
AB
AB
A6
E6
8E
05
FA
A5
A4
B7
71
7F
3A
1C
75
18
E7
E0
C8
79
04
34
8A
2B
1D
00
5D
3E
62
EE
F7
C0
50
3A
1C
35
8C
AF
57
3D
17
F5
90
E5
2E
06
46
4A
68
D5
44
20
6A
9F
2B
5E
E9
4D
16
7D
9D
BC
E6
11
C8
B8
33
05
B7
15
83
C8
F4
62
10
03
32
0E
31
9B
C3
06
67
07
02
8C
EF
94
F7
69
51
AC
30
A3
34
24
09
0F
1A
08
E3
A8
EC
22
AE
14
7C
28
25
1B
D2
56
0B
49
17
9E
7A
52
DA
34
C8
10
AF
55
6B
40
F3
85
61
8C
F9
6C
AA
23
14
84
18
EE
F9
F9
0D
39
81
6B
91
E9
D9
A3
A8
13
F5
B5
47
E8
00
D1
5A
67
D6
D9
A8
B3
ED
10
ED
05
24
7E
A8
16
AE
50
D9
A9
5E
7B
B4
97
0A
46
66
F3
30
12
FE
F0
28
2E
FE
04
9F
FE
62
9F
2F
4C
0D
2D
EA
1E
77
10
CD
E3
C9
4A
08
FB
CD
1A
E9
0F
6F
C3
0E
10
94
16
16
ED
6E
56
B0
89
09
70
E3
8D
2B
78
FE
D3
D7
A1
2B
CF
83
94
04
2F
0D
95
1C
B0
15
40
DE
BA
2B
9F
00
D8
9D
BD
E9
21
1A
1B
DF
D8
3D
51
08
F3
13
06
4C
90
B9
B5
48
93
06
65
0B
7C
9B
C5
4B
16
0E
0D
66
14
BF
DD
B1
43
71
B6
18
EF
BF
39
ED
BA
40
2B
86
5B
32
AD
B8
64
20
0D
38
2C
00
2B
ED
A0
A8
A8
87
A2
5D
48
78
E2
39
DE
1E
48
EB
01
DA
D9
04
D1
36
F1
93
04
8F
1D
6B
59
92
3D
BA
56
89
78
4F
8B
85
2B
E1
4D
0F
90
51
FB
6E
F3
E7
7E
37
FD
71
4C
31
6E
87
62
F1
3D
AB
2E
2E
7B
8A
4E
93
D1
9D
A2
20
D7
D9
73
60
F0
EF
92
5D
B7
CE
4E
14
89
84
BE
65
E8
B2
72
57
FA
78
07
2C
BE
9A
16
54
A2
36
0C
CF
01
9E
16
AB
60
C1
1E
C2
E7
5C
9D
E1
09
24
A9
62
46
D7
81
E2
BA
7D
8A
CF
26
9E
98
C5
DB
6B
9C
22
39
39
15
68
86
A8
7D
5E
66
3D
92
3D
E9
EA
C8
03
92
DC
A8
16
54
F2
A5
5E
2E
A0
9C
E4
F4
2A
49
79
11
66
15
74
06
43
D7
D5
E5
2F
07
55
C7
CF
2E
1D
37
9C
85
FB
AD
84
06
F7
2E
2F
D3
12
FA
73
D0
DD
5C
78
A3
8C
EB
B5
87
54
71
AD
FB
C0
17
9A
CC
10
BF
90
57
B7
80
F8
2D
BD
0E
EC
F1
5C
7F
95
3F
2B
2B
0A
9E
0F
4A
77
16
A3
A0
47
3C
14
F6
8A
D0
31
9D
0E
31
77
FC
CE
2D
95
D1
31
D7
45
D8
9C
2A
5F
BD
1F
89
F1
A4
A5
5E
B6
8F
BB
EC
37
B0
F8
FC
6B
8F
5E
93
2A
4F
9E
8F
B3
CF
EC
CD
5F
5A
61
02
15
FC
05
1D
BE
FA
B0
11
0A
26
A7
BA
54
D2
A8
C5
9F
75
F8
D3
84
8B
03
22
C4
03
2D
92
E4
A2
77
19
3D
43
71
22
EE
2E
BE
4B
0E
AF
B3
8E
A3
93
A0
E2
CE
EB
16
47
82
BF
CE
6E
4D
4D
EA
40
E2
2B
C6
A5
38
ED
EC
D5
D8
40
4C
10
2A
2C
BA
4F
E7
15
13
AC
FC
78
E6
80
64
2F
2D
02
D8
1D
C5
7E
D3
C5
17
7F
BB
3E
87
F7
46
50
3E
45
C4
CA
99
33
E8
A3
75
B4
51
D3
A0
79
BD
24
E8
FD
13
7C
20
02
9F
3C
DF
EE
FE
6B
31
5D
28
F6
B7
2E
7E
FB
85
4A
3A
2C
06
5A
9A
7F
1D
55
48
65
57
05
E2
08
F7
E5
62
AE
AE
E8
17
D3
81
AD
09
08
21
5E
53
4D
61
F9
17
14
CD
3C
8B
54
28
2A
80
21
EA
37
F7
A1
6A
C5
96
A6
5A
71
CD
6B
4D
93
21
B2
B4
2E
65
82
16
B5
B4
F0
25
A8
A8
8D
F7
CA
58
D9
B0
C1
9A
D5
43
1E
1A
7E
05
65
A8
C2
B0
3F
F6
98
26
59
E9
60
17
5A
CA
BA
B5
B9
71
C5
E9
F9
D0
3B
B6
B6
7C
3B
97
2D
3D
23
A4
6D
C3
28
A8
5E
87
34
7A
17
05
23
C8
CC
C6
C6
AC
58
44
1D
9B
24
CF
17
C6
A8
FD
26
12
98
57
6B
F7
1C
1D
F9
6D
9E
FA
7D
E3
6A
67
14
43
E6
97
66
CB
81
7C
99
7C
F7
A0
DB
B1
8B
DA
81
67
84
DB
FB
92
BC
AC
97
D3
5A
38
E0
1E
37
82
3E
3F
E1
EE
61
2A
4D
77
88
33
46
D7
FD
D1
A4
24
45
F5
23
EA
A5
CD
49
85
13
F3
1C
2E
4D
9D
4F
B8
53
FE
A5
D3
57
70
D4
63
81
91
65
13
AA
06
A8
00
F7
1C
20
DE
C1
53
5C
AC
52
E1
6F
0A
AF
6B
7A
41
26
25
D0
74
5E
7C
8C
07
D5
27
85
37
E8
ED
C1
80
82
31
07
61
D4
1B
F6
74
46
A7
75
76
D4
84
BF
65
71
1B
DF
27
30
5E
E3
76
3D
C7
08
12
77
FD
96
93
E9
0E
C6
1E
A3
DC
DE
39
46
1C
14
45
54
70
80
8C
3A
6F
2D
0D
EC
FF
3D
62
11
61
01
A6
99
83
67
85
5D
FD
4A
3B
C8
2A
64
65
84
F7
D1
CD
4D
8E
AB
FC
8E
30
F4
9E
E8
39
57
AC
58
F2
F3
65
E5
A2
7F
13
38
B1
52
14
FC
EF
04
F2
A9
68
5C
4F
44
C9
FF
73
58
BD
26
0E
EE
45
7F
A3
6F
E6
41
ED
FE
4B
D0
C1
1D
2E
2C
DF
BC
11
4A
06
2C
32
64
A2
2E
49
8C
EC
A1
68
5C
42
B6
17
76
76
51
2B
1F
DF
DB
7F
6C
02
43
5C
E7
3B
56
B5
2A
0A
4C
A5
87
68
4D
C0
49
D9
14
D0
D8
4E
3D
0F
BA
9B
4B
4D
8A
59
07
57
9B
80
1F
48
E0
9F
C5
49
26
3C
9D
C7
19
6D
B3
1A
47
EF
8A
61
20
95
D7
11
F1
82
59
2F
D5
30
CC
97
C7
F2
B7
E9
A4
04
5A
9A
8B
B8
86
1E
71
7D
F6
E7
C4
DB
33
94
3F
DD
B4
77
98
A1
CF
52
B5
A9
6B
11
1C
03
29
8E
0C
B8
A3
35
F4
39
27
3C
19
14
11
02
15
DA
C2
71
5C
C3
D6
C6
4B
90
09
DE
EF
1F
CB
D0
6D
C1
4F
60
EA
05
79
FF
5B
3C
60
5A
48
93
85
69
76
CB
34
72
09
BD
F0
04
2F
E6
B9
19
F2
41
17
3C
A9
2C
29
63
59
05
78
96
F4
36
C4
01
E3
E4
41
F6
BA
A2
DE
80
B4
1F
84
1A
A7
AA
12
D9
CA
68
1F
1F
BD
A9
54
8D
05
7A
A6
B3
83
E0
93
9B
F4
14
CE
AA
5A
00
D3
07
36
2F
21
40
7D
2C
09
DC
D7
41
2A
D0
C4
97
8F
62
F1
A4
F7
20
F5
F1
8F
F9
F8
6A
FD
EC
82
D1
D6
1E
06
D4
76
33
57
04
D6
F1
55
82
D3
14
8B
E3
60
A2
62
EB
EA
56
90
2C
66
0D
C2
5D
16
30
4A
45
C1
F8
C5
9E
E5
86
6A
2F
8D
03
A3
2C
D5
AF
90
2A
0F
BB
55
09
AD
7D
00
3C
B8
E3
EB
8F
1D
A9
77
FC
01
2D
42
6E
6B
5D
CF
41
E6
57
62
EF
25
07
CD
B9
AC
8F
30
44
5C
F9
32
FB
07
AE
46
15
C5
D1
D9
41
33
DF
77
93
CB
12
AA
83
D5
C2
6F
39
FD
72
1E
45
03
5D
17
9C
90
A2
D2
3A
5C
D2
24
C9
CA
30
C0
CD
50
F7
D8
0F
F7
93
3E
C4
1B
3A
37
32
9D
88
C9
ED
F7
12
11
DE
50
35
69
F3
36
6D
C0
5B
26
24
9C
3D
A3
E1
4C
5A
4B
C2
03
81
79
26
78
06
95
52
8B
AB
C3
E2
B7
70
79
3E
2F
AC
01
FE
92
98
E5
BC
19
17
D3
0D
6B
FF
6E
BC
25
1F
C9
7E
4F
42
C2
46
EB
D6
31
54
98
A5
60
DF
F9
33
C8
64
B7
29
31
B0
C9
55
9E
73
E4
00
84
58
1B
3D
5D
BD
3C
F6
6F
6D
DB
6A
5F
97
58
A5
09
BA
58
46
11
F6
B2
5B
2A
36
8B
0F
30
55
07
B5
00
78
E3
02
A0
8A
79
99
4F
A7
66
4C
36
D0
B9
93
1C
8A
57
CA
7E
5F
16
68
BB
9B
24
D9
1D
77
0A
95
D4
8B
10
7E
5A
AF
DB
91
00
33
B7
BB
59
DC
B4
37
03
69
C2
19
6A
6A
81
33
30
88
F2
E7
2D
88
1C
31
B2
C7
38
9D
A1
F9
A1
44
66
A7
4D
42
DF
0A
79
10
35
6D
E0
1D
BF
72
6F
44
72
F9
EE
B4
CF
A2
D1
7C
98
1B
5C
4D
28
02
FE
29
F1
34
01
00
C7
98
7B
43
60
57
CA
1E
63
0E
1E
B3
83
3A
74
F2
88
DB
