A9
D1
D1
11
E2
4B
17
4B
A0
B8
6F
9E
90
E1
E7
23
79
F5
25
09
BE
77
81
B2
95
B7
BD
86
00
45
45
52
E4
32
CA
41
5D
63
80
CD
ED
11
80
4E
C5
1F
C5
F8
E8
99
93
77
B5
F4
2E
0B
0D
EA
56
ED
63
3C
3D
FE
E0
4A
EE
B5
65
F9
0C
41
E6
1C
D5
EF
34
5A
8C
6B
05
DC
F3
A8
59
30
1A
C7
3F
D0
D1
01
57
24
53
AA
20
64
FD
43
47
A4
47
C7
2B
B6
E0
E7
FC
88
61
77
6A
D8
B8
A4
21
5F
83
EA
A1
3B
4D
FB
97
8F
39
CA
01
42
ED
27
87
90
29
4F
74
AA
F7
4B
98
99
CF
F2
78
20
C4
5C
DD
A5
07
F6
1F
4B
99
53
37
F3
40
6A
5D
84
82
40
F8
E1
E6
A6
06
F8
86
71
AF
AB
94
D0
57
A6
6D
A4
B5
9E
3A
D1
BE
88
AE
4F
C8
99
9D
03
CF
36
67
14
81
09
07
A1
22
63
62
B5
61
5B
44
F9
FE
1B
82
75
15
91
39
3B
D2
9F
75
8E
BF
05
AD
CB
3A
23
95
74
B0
73
C4
88
33
78
EE
E3
94
45
B2
38
8B
E9
09
8F
0A
D3
10
0D
F3
DE
5B
EC
B5
3A
8A
C2
D2
10
B5
82
79
33
04
51
C5
0E
E7
4A
E9
67
26
60
0D
49
FE
5A
20
1A
38
7C
EE
43
AA
85
65
86
D7
81
45
E8
C4
9A
F8
E1
20
1D
6D
60
B8
64
7D
65
A9
38
8C
D1
79
A6
98
0D
AC
FF
5E
A1
1B
C3
15
E6
57
CE
F4
3D
60
69
E2
0B
91
59
14
CB
EB
79
8E
DF
E4
8A
C2
DE
3C
AE
A4
19
80
6A
2C
4E
6C
E0
99
D3
50
09
F9
A7
7F
CA
6E
60
57
C7
D0
70
BB
05
E5
66
8C
B7
B6
DD
D6
1F
B1
44
A7
68
A2
AB
4F
DA
F9
B6
8C
D8
A8
69
75
D5
47
A9
E4
88
73
D7
88
63
0A
80
B1
10
FB
3C
93
95
57
73
68
42
EA
74
E5
E7
87
BE
36
76
FD
E8
5B
E9
35
A6
7B
1A
DD
C5
78
C8
80
60
32
92
E1
9E
A7
35
13
8E
DD
1E
63
D0
F3
BA
21
81
54
33
38
96
E1
19
E1
1C
DC
E4
8C
26
D9
E4
7C
B4
F3
FF
B5
9D
2E
26
34
67
DD
8C
33
AE
8F
A9
85
4A
A1
9E
23
E7
38
9C
98
72
24
CC
5A
E5
E2
C6
B9
32
36
B2
EE
2E
34
8D
B6
20
B6
2E
5E
C1
3F
0F
02
4E
63
69
1B
57
B2
B4
79
65
FD
88
C3
6A
16
62
D0
15
16
5C
A5
32
FE
51
21
4B
15
2D
53
51
DE
FD
8C
EC
71
BC
6E
70
24
97
04
99
E7
32
7F
AF
F1
B5
BB
34
AF
42
57
4F
BD
86
72
59
59
49
65
ED
1C
C5
10
5D
6A
29
FF
C1
C0
D0
F7
6C
CD
6B
67
68
41
8E
2C
6A
2A
09
3B
E8
8F
F1
41
D6
2B
6C
DE
02
BD
E8
2E
16
91
11
ED
8C
9E
7B
72
61
83
E0
19
68
7A
51
88
B9
52
93
32
F7
06
9A
5D
12
63
A5
6D
70
C5
AC
87
FD
F2
49
04
33
94
7F
FD
68
CF
39
26
27
81
D2
43
47
39
B5
27
9E
EE
2E
23
B7
EB
AB
94
03
9C
55
FD
DA
67
1F
60
5C
B6
AF
19
9A
17
3D
67
AC
26
3F
66
CA
52
F2
4A
AA
99
70
54
92
DE
4D
EF
3D
B7
F6
D5
E4
9C
06
70
68
39
A0
37
05
54
10
38
6A
F5
F2
BA
D3
86
C6
7F
EB
F1
B8
64
F4
D4
C1
F9
C2
83
B9
86
6E
BF
61
A9
F3
83
97
8C
2A
38
27
53
C8
67
24
CE
D2
83
7F
E5
FE
0B
85
A1
A7
F6
54
63
BB
AE
40
B4
63
BC
5F
2D
01
A9
FF
B8
EF
CF
42
3C
9E
57
44
D8
74
17
10
37
3A
0E
3B
1C
6A
89
CA
6E
CE
B6
9F
5B
B8
43
9E
8D
8A
CD
82
C3
A5
AA
D5
65
62
77
05
46
D8
D1
80
0C
16
29
21
90
15
28
FC
9C
82
A0
CF
50
08
68
F6
63
3C
D3
7B
52
9A
93
45
D9
40
61
25
73
EB
10
63
EC
22
1A
77
7C
90
B1
C0
C8
60
CE
40
01
7C
CF
C6
6E
91
24
11
F3
0F
93
84
0C
0D
B0
C9
23
9B
11
9B
55
7C
08
AD
7F
1B
DA
C0
C8
9B
6B
69
79
C9
E3
19
92
2C
6F
E5
F3
1B
A6
F6
75
E8
2D
69
F5
63
A7
D8
86
EC
D5
B5
0E
9A
86
63
50
C7
BB
E8
2D
93
79
BA
CD
20
39
D7
E8
BC
27
C3
2F
C3
D7
82
41
C0
A9
D9
CD
2F
3E
AE
03
88
35
30
02
00
E6
69
02
DD
25
B4
CA
B6
AE
A5
44
01
89
08
EF
F4
EE
41
F6
97
96
1D
5C
42
4B
6F
1B
53
AC
C6
16
CA
A4
35
1D
F7
20
D0
3D
7D
C6
09
56
EA
A9
97
32
8C
AA
96
28
5F
E9
94
D5
3D
4B
DD
3F
FB
DF
BF
2A
4C
8C
06
CB
2C
F5
E7
5A
01
2F
32
39
34
CE
6B
3A
B0
CE
75
A7
EA
64
1D
AD
36
78
AA
FE
A9
C8
D6
3D
AD
D5
2B
B0
FD
75
57
73
8D
83
0E
CE
C8
3F
22
6E
60
E0
84
16
80
57
9D
AB
F5
96
D1
E8
4E
FD
93
AB
27
05
09
12
33
68
79
AB
46
70
59
0A
AC
1B
DC
3B
1A
DC
A9
A5
97
B0
45
E7
4E
78
21
EA
62
63
03
02
02
67
3C
8F
D8
CE
52
DF
0B
16
89
E5
16
7C
02
08
FE
06
F4
28
CB
28
8B
25
49
8F
49
44
E1
D4
60
C0
98
CE
7C
22
8D
5E
D0
