D8
C9
98
D7
35
B7
C9
73
1D
52
D1
4B
C1
A8
1C
C6
40
F7
AC
E5
F3
CE
A2
15
E5
59
D1
9E
39
45
2D
CA
F9
2F
55
6C
B8
36
28
1B
24
EB
88
9F
F6
08
1C
35
75
4A
E0
66
B5
D9
10
84
48
80
89
D6
44
9C
92
76
F1
3A
79
7B
97
DC
25
FD
3E
EB
B5
E6
DA
BF
E7
96
5D
C8
82
82
B2
D1
D2
53
0E
E7
0D
A9
FD
27
70
E6
AE
2D
6C
FF
C8
51
ED
4F
AD
8D
9F
25
E4
28
16
46
1D
48
9A
BC
70
26
8F
7E
4E
21
8D
23
93
D2
C5
E9
38
F2
BF
D6
B0
30
61
B5
37
2B
B1
98
37
8A
6F
AD
98
39
2B
F0
08
33
E0
B9
EC
54
AF
DD
15
35
DE
A8
4C
D0
2A
13
A4
03
82
C2
7B
42
26
23
1B
DA
58
31
8D
56
E6
99
9D
CC
60
2D
A6
44
B0
84
B8
BC
B6
5C
84
15
27
2B
0B
80
D8
D9
A2
AF
1D
21
A8
78
E6
B6
3E
B3
61
90
A9
65
04
91
7C
1F
86
0C
C0
81
FA
04
ED
1D
AD
DF
C0
89
5D
3C
69
FC
9C
CE
FD
16
B3
CD
AA
01
0E
C9
BB
9B
13
3E
93
63
18
04
61
4C
F4
BA
76
32
32
0C
E1
30
44
2F
BE
41
C2
8C
76
E7
3A
9B
97
AE
92
FE
DB
75
D2
A0
CA
08
A2
57
C7
DB
80
C0
A2
F2
28
58
28
35
37
70
79
0A
60
22
0F
F8
F6
A1
79
45
A1
AC
4F
0D
AA
7C
69
9A
8C
A5
05
BF
84
F2
13
44
F0
19
B7
F9
99
85
F3
54
A8
77
F3
34
A8
35
CA
6B
C5
AA
87
01
FB
AA
D3
12
57
7E
DF
5A
68
8C
60
17
A3
AC
05
C5
C7
CD
DB
18
F7
D0
07
14
4A
2D
BD
99
91
AF
0D
F0
CC
42
82
A9
B9
9D
81
E2
EF
EB
15
E4
84
DA
E0
30
16
EE
EA
F8
8C
E6
54
BD
37
71
C5
0F
8E
63
E7
6B
39
0C
C6
1A
5A
2C
85
64
7A
4E
B1
4C
5F
D1
2B
6E
43
3F
07
86
B8
36
17
43
28
6A
1A
B6
CF
ED
B4
61
5B
51
32
54
DB
05
9B
D7
38
D4
BA
6D
D8
EB
F7
F7
C6
00
44
B2
D4
96
D2
97
06
A5
C8
7F
55
C6
18
9D
0D
AA
2B
9C
03
66
AE
D2
1E
A9
76
1E
E1
FD
6C
B1
45
85
77
CF
40
3A
0C
51
71
9C
B4
06
AC
43
34
8E
7C
CF
24
AD
2A
0D
BE
1E
C1
C8
C1
DC
C2
F0
72
35
DD
08
27
56
BE
74
4D
B0
CA
07
BC
20
C3
AC
5E
16
C5
D6
85
1D
FC
AF
18
7C
21
93
66
5E
DF
DF
2D
F5
19
F5
9E
8A
38
AA
65
C9
7C
6E
CF
9E
E0
8F
BE
F3
3E
2D
5A
6F
D7
B5
5D
EC
25
79
43
9F
3F
C0
26
5E
C1
6F
4F
F9
98
2F
A3
BC
65
84
86
23
13
1C
54
A1
D5
CE
41
4B
29
13
36
5A
D4
A7
47
F8
C1
5F
29
34
6E
2F
9A
F1
7C
7F
81
B3
06
BC
45
3B
9B
9D
83
82
86
97
14
C0
41
F5
00
2C
0C
94
A5
82
AE
54
3B
3E
A2
AD
4B
A4
C8
C2
5A
0A
60
90
8D
0D
07
88
CE
9E
1F
75
57
D0
57
38
51
F6
EF
A3
10
A8
84
9D
48
2D
46
B9
AE
DB
98
F7
D1
DC
CB
39
37
AB
D2
1F
7E
A9
3E
7F
34
16
DD
81
7F
CA
4A
75
91
34
36
0D
C4
19
37
0A
2F
3B
3B
52
88
C5
9D
D5
35
D1
DF
9E
A2
1B
9C
60
EB
81
4F
D7
F7
C2
9B
12
AD
CD
F6
BA
00
E0
38
75
28
C8
7D
76
48
CE
56
29
9F
D2
C2
E8
D3
80
54
B4
4C
B5
7E
4D
27
9F
5F
92
8A
0E
05
C1
BD
2D
26
45
AD
A7
58
79
2F
41
52
F3
2A
FE
0C
E6
B2
D2
AF
4A
BC
8E
24
CC
F5
46
14
8E
29
B7
C6
E6
99
8C
33
CD
67
F2
D8
36
0A
72
8E
83
18
E8
0B
AB
27
A3
FA
F5
18
F0
0B
BD
53
DA
06
D8
69
DC
0E
BE
F0
E6
C7
EB
76
2C
06
81
CA
6F
69
5F
6B
50
E1
02
49
05
61
8C
B3
20
ED
42
70
23
15
D7
82
D8
C3
52
26
C7
4B
E7
5A
12
1F
DA
A2
CF
C1
F1
F0
4A
44
D7
F6
1A
10
E1
A7
50
CC
1A
DE
C0
12
BB
D4
71
28
F3
15
F1
32
06
BD
88
B5
2E
12
CA
A0
50
0D
76
13
6A
E4
F7
01
21
F2
86
14
37
6C
42
9E
27
B1
BF
3E
DC
BD
E4
78
4A
D6
CF
D8
BF
D9
30
22
13
2A
DD
80
5A
36
55
37
3E
EB
98
8F
AE
A7
90
FC
F4
0B
AB
32
2F
C0
88
DB
4F
F1
38
DE
61
A1
F4
E2
28
6B
1F
8A
60
52
85
E2
B7
16
6B
E9
3C
C6
E9
18
D4
86
FC
55
E0
C0
C8
64
50
91
D5
C8
AD
87
99
4B
47
58
1A
AA
47
29
F4
E3
3D
5C
A0
FB
3D
D6
C4
AC
64
5C
99
98
04
00
D2
54
16
4E
9D
B9
58
8E
0D
4C
AB
9B
7B
DA
86
A3
6C
7D
D2
69
10
18
47
E7
14
E7
A9
DF
3B
51
B3
2D
BE
D3
6B
CC
6A
68
69
14
6E
F9
49
B0
34
FA
50
A6
76
D1
68
25
15
66
F0
08
9D
80
6C
13
EB
46
43
53
57
80
AA
07
36
F4
65
0D
5D
95
ED
3D
CF
DD
61
D3
F4
11
12
A2
2C
BF
3D
36
FB
0E
F4
2C
8E
AC
37
94
F3
02
E9
E8
C6
68
4D
34
B4
23
1E
E8
94
3E
DD
B5
6D
FF
2E
55
8B
5F
C4
AA
BA
C4
4F
FE
FB
55
AE
05
46
46
8F
B6
B3
04
75
2B
08
6D
22
5A
2A
FC
81
C3
26
49
33
03
36
63
44
78
BA
15
E7
3E
5E
06
13
5B
20
FB
1B
F6
12
BF
54
DA
E2
1C
66
B9
93
DE
7E
B5
15
54
C3
50
11
AC
0E
E6
2E
7A
E3
25
75
96
16
BB
E2
06
56
33
9F
55
43
9C
93
18
2A
A7
FA
F8
5D
C6
CB
AC
BC
07
69
B0
64
68
58
C6
C5
E0
C7
2D
1E
DF
78
E3
FA
A2
6D
CF
39
D1
03
B9
23
72
50
FB
42
7A
9B
9C
B5
EA
84
50
11
0F
AF
D3
6A
11
45
7B
53
BA
27
25
EA
E5
1C
7D
12
D8
9A
67
68
21
D0
15
B4
83
75
2A
72
C4
06
D4
62
F4
BD
75
20
7E
0B
A6
53
CD
E9
28
52
C0
C1
63
20
3C
7B
9D
66
D5
24
FC
39
2D
74
7B
04
94
91
92
3B
4C
E1
04
70
F5
57
36
FC
EF
F8
18
56
FD
74
D9
D5
E3
70
C8
CD
DC
3A
E8
03
7A
BB
6B
1B
A5
00
E9
9D
48
32
9D
C2
E0
52
83
41
FE
75
C9
B6
55
72
B8
1A
50
72
E5
3D
BB
2F
A2
B4
D6
4A
51
15
A3
E6
B0
21
85
65
82
D7
EF
FE
98
71
A6
A5
DA
3F
9C
93
D5
A1
9A
6D
43
25
44
5E
F3
8D
88
D2
E9
5B
97
E6
45
FA
BE
41
A0
66
92
6D
26
C9
60
80
7A
53
7A
89
31
C6
9D
AA
FA
F9
B9
4C
08
5B
A7
76
7D
E1
F3
34
26
02
76
52
7B
DF
C3
5A
02
BC
F6
A1
15
66
1F
71
EE
FF
FD
9F
7E
F6
70
B1
E7
67
40
A0
1B
AF
A1
F0
4A
FC
54
9A
FD
D4
9E
FB
46
24
3A
5A
39
80
CD
3B
E8
4B
19
37
1E
29
95
C2
B4
2B
A1
ED
0A
E3
E0
21
A5
79
78
76
86
7C
0C
F9
06
CC
FE
36
F3
F7
DF
9A
35
57
36
92
3E
41
87
9E
FE
E7
BD
8C
0C
FE
95
01
7A
8B
FC
D2
F0
38
E8
0D
26
77
37
2D
40
5E
53
2E
7B
C9
94
77
11
98
61
33
F8
19
B0
9E
7D
B1
5D
A4
14
C6
85
69
64
B8
22
1A
32
3E
9A
AD
EB
79
D3
54
E3
47
7D
EE
AA
13
70
CD
75
99
E5
02
FD
7E
A7
2C
E5
E6
0D
1C
AE
55
49
7A
12
94
33
1E
5C
A8
69
8B
21
A6
CE
9C
A9
2E
27
E7
CE
C6
2A
70
D7
64
6F
1B
63
42
B9
95
53
F7
02
96
C5
D3
8E
03
C0
16
AC
6F
FF
6A
5E
92
32
9A
8A
C5
F7
2C
ED
B8
34
17
A6
56
A1
59
12
DE
30
28
CE
72
02
3F
E5
FA
DC
9A
93
F9
8C
3A
D5
B0
A9
71
C6
0F
56
48
37
6E
6A
8C
4D
7B
51
2E
75
4D
3F
E1
83
80
EE
AA
08
A8
36
D1
E6
56
7A
94
98
C0
52
E3
AE
49
00
A6
E2
E1
C2
9D
E4
57
FE
57
30
41
59
7D
9A
3F
0D
C5
1B
F9
8D
75
D7
09
2E
21
E0
17
64
BD
E0
03
36
92
BD
E8
73
85
0F
16
84
46
FF
A9
13
1B
56
71
11
87
AD
1D
56
24
CA
E2
D9
52
AD
C6
69
5B
A7
FA
5E
CA
52
DF
5C
11
21
64
2A
E4
D6
41
3E
3D
89
CD
19
BE
E4
E2
09
A8
EE
0D
F3
2C
00
A2
2E
03
41
AD
5D
46
72
D4
A5
9A
D5
0C
5B
EB
FD
2E
B9
C5
90
A8
ED
6F
2E
32
8F
2B
17
33
F1
F0
B1
F4
53
2E
D4
B6
77
64
67
21
63
07
1C
81
A7
F3
F4
EC
2F
83
FC
3A
FD
EC
CD
0C
93
A7
47
4A
18
A9
DD
06
F8
74
55
7D
42
02
D6
EA
B2
63
67
55
7C
66
F2
65
54
74
8C
B4
46
E9
BF
3B
12
C8
9B
96
96
E2
DD
64
94
08
84
A5
F8
2F
49
55
A8
C8
E6
D2
30
66
88
65
95
AA
8D
FA
E3
D5
65
21
CE
3D
89
CD
EF
93
A0
57
55
86
4A
9A
E8
D8
27
50
9E
0C
85
EB
99
D3
10
B9
2C
61
A3
BD
50
E8
45
0C
8E
2C
3C
2B
02
1E
6E
7A
B5
05
C9
D1
2C
25
B0
37
6A
5B
E9
F8
32
15
C4
80
E2
B9
52
C7
6D
EF
C6
16
C8
EB
FC
3D
A4
79
17
1A
8A
A9
32
9F
77
10
A9
83
E7
66
92
C8
4F
52
3D
FA
DE
FF
