D8
C9
98
D7
35
B7
C9
73
1D
52
D1
4B
C1
A8
1C
C6
40
F7
AC
E5
F3
CE
A2
15
E5
59
D1
9E
39
45
2D
CA
F9
2F
55
6C
B8
36
28
1B
24
EB
88
9F
F6
08
1C
35
75
4A
E0
66
B5
D9
10
84
48
80
89
D6
44
9C
92
76
76
32
32
0C
E1
30
44
2F
BE
41
C2
8C
76
E7
3A
9B
97
AE
92
FE
DB
75
D2
A0
CA
08
A2
57
C7
DB
80
C0
A2
F2
28
58
28
35
37
70
79
0A
60
22
0F
F8
F6
A1
79
45
A1
AC
4F
0D
AA
7C
69
9A
8C
A5
05
BF
84
F2
C1
DC
C2
F0
72
35
DD
08
27
56
BE
74
4D
B0
CA
07
BC
20
C3
AC
5E
16
C5
D6
85
1D
FC
AF
18
7C
21
93
66
5E
DF
DF
2D
F5
19
F5
9E
8A
38
AA
65
C9
7C
6E
CF
9E
E0
8F
BE
F3
3E
2D
5A
6F
D7
B5
5D
EC
25
79
8A
0E
05
C1
BD
2D
26
45
AD
A7
58
79
2F
41
52
F3
2A
FE
0C
E6
B2
D2
AF
4A
BC
8E
24
CC
F5
46
14
8E
29
B7
C6
E6
99
8C
33
CD
67
F2
D8
36
0A
72
8E
83
18
E8
0B
AB
27
A3
FA
F5
18
F0
0B
BD
53
DA
06
D8
5C
99
98
04
00
D2
54
16
4E
9D
B9
58
8E
0D
4C
AB
9B
7B
DA
86
A3
6C
7D
D2
69
10
18
47
E7
14
E7
A9
DF
3B
51
B3
2D
BE
D3
6B
CC
6A
68
69
14
6E
F9
49
B0
34
FA
50
A6
76
D1
68
25
15
66
F0
08
9D
80
6C
11
45
7B
53
BA
27
25
EA
E5
1C
7D
12
D8
9A
67
68
21
D0
15
B4
83
75
2A
72
C4
06
D4
62
F4
BD
75
20
7E
0B
A6
53
CD
E9
28
52
C0
C1
63
20
3C
7B
9D
66
D5
24
FC
39
2D
74
7B
04
94
91
92
3B
4C
E1
04
70
0C
F9
06
CC
FE
36
F3
F7
DF
9A
35
57
36
92
3E
41
87
9E
FE
E7
BD
8C
0C
FE
95
01
7A
8B
FC
D2
F0
38
E8
0D
26
77
37
2D
40
5E
53
2E
7B
C9
94
77
11
98
61
33
F8
19
B0
9E
7D
B1
5D
A4
14
C6
85
69
64
B8
56
71
11
87
AD
1D
56
24
CA
E2
D9
52
AD
C6
69
5B
A7
FA
5E
CA
52
DF
5C
11
21
64
2A
E4
D6
41
3E
3D
89
CD
19
BE
E4
E2
09
A8
EE
0D
F3
2C
00
A2
2E
03
41
AD
5D
46
72
D4
A5
9A
D5
0C
5B
EB
FD
2E
B9
C5
