71
AB
10
F5
DA
31
86
7B
6B
85
98
58
26
F3
11
85
46
34
3A
DE
7F
66
0F
9B
20
68
AD
F5
9C
74
58
F8
49
F5
79
F1
09
BB
91
FB
CB
BE
B8
E1
C2
D6
E4
86
82
7D
14
E5
CC
27
5E
D8
6C
6E
FC
49
9E
6C
CD
15
1A
BB
C6
26
C5
BF
F9
87
1A
B6
A6
A3
E2
64
CC
AD
FB
7C
F4
7C
6E
11
92
90
08
77
47
19
F4
87
10
3B
05
59
73
AD
85
5A
0A
10
E7
97
17
90
19
C2
FC
62
2A
FC
F1
DC
12
E6
CB
A5
0F
78
F3
9B
68
E8
E0
FD
16
23
EE
92
CA
74
8D
3C
CF
1A
D5
70
9C
47
F4
EA
A5
36
79
76
3A
94
79
11
F0
53
52
F4
2F
50
55
EE
93
32
71
23
14
FD
15
D5
9B
65
3B
72
B1
AC
5C
05
20
4B
E4
A7
71
E0
55
4C
27
C9
D9
6E
D9
7E
0B
0D
B5
D1
80
48
09
79
D9
FE
A1
40
90
49
48
2F
87
6D
F7
E1
D0
3B
23
34
84
A9
4A
0A
0A
58
C9
E9
F3
3B
ED
13
26
DF
86
56
09
EF
72
65
56
81
E5
45
30
46
0F
49
80
3D
B2
6C
9D
42
D9
57
70
62
DF
A1
89
50
BC
B3
17
1B
9E
B0
65
76
F2
E2
6E
E7
9F
8F
BE
04
2C
A7
7F
68
CB
E0
0B
99
1A
EB
FA
FA
F8
3F
1B
08
EA
02
7B
B8
25
38
26
8D
2C
93
9E
B9
6B
0E
18
56
9D
AD
D8
AE
DF
64
A2
DB
F8
8B
39
3A
24
D5
1C
27
B7
06
13
37
9A
C8
12
2E
1F
54
95
AA
E9
6C
87
39
8A
17
AE
2F
E8
A9
02
99
F9
36
5C
A9
39
9E
77
50
4C
55
16
7E
A2
FE
3A
FD
10
1C
FA
62
9D
ED
F2
31
FD
06
DC
4C
91
76
3C
CE
E4
66
94
F2
EF
B8
88
18
1D
6D
12
82
59
79
7B
5A
76
35
AE
8F
0F
38
67
3E
4A
72
02
F3
B5
EB
11
FA
03
81
64
A7
7E
47
96
06
68
D9
35
F5
8E
55
BF
B8
CB
D9
3A
1B
9A
B7
6A
3F
EF
5F
BD
D8
03
FE
AD
CF
A2
BB
DD
55
FA
66
AC
4F
54
1C
7C
CF
3E
DC
F1
2F
63
00
0B
DB
41
0F
6B
B1
F2
3A
80
45
26
89
F0
41
9B
1F
A9
68
A1
CC
4C
7C
A0
13
DC
B9
B1
2C
AC
21
BB
B5
5B
19
47
41
7F
B9
47
A5
6A
C1
FB
6A
26
68
29
F4
47
1C
F1
08
FD
23
55
C5
19
EA
5A
2C
D9
BD
1B
2C
BE
46
CA
F1
75
1A
9A
7A
5A
93
76
6E
27
93
80
C5
FD
1D
E6
25
84
9B
DB
80
FD
44
5A
73
2B
EE
07
99
69
67
78
A8
A6
26
2D
3C
AF
7C
17
B5
41
A7
72
6C
04
00
A7
0C
7A
61
C1
3B
40
AB
1D
DD
4C
38
D8
43
C9
F5
03
50
E5
02
3F
19
7C
B2
40
35
D2
DD
07
74
A6
CD
33
C4
05
86
FF
43
39
6C
8D
B4
D0
FB
39
CF
B1
18
0A
B3
91
62
3A
DB
3B
2B
17
A1
F5
F4
57
44
8F
FB
9F
64
74
9D
D8
53
41
7E
2D
DF
1F
83
1B
C8
13
03
0F
EE
84
4D
29
F3
92
F4
66
4F
45
D3
0F
81
6E
7F
63
E4
2B
D4
8B
AF
15
D6
CB
E4
BB
6A
BD
C0
67
8C
21
E2
2F
BA
25
29
09
1A
7E
2F
7E
72
D3
F7
95
9D
AE
4F
5A
BD
CE
9F
55
FF
15
3F
83
FE
4F
93
E4
08
57
F5
32
43
02
D3
7F
D7
00
43
51
A2
34
78
48
3C
BF
AE
3F
61
AB
6A
D4
64
2E
14
62
8C
F2
E3
69
5F
A5
1D
C8
DF
BE
92
17
E6
72
BB
FA
58
D0
01
26
81
28
0A
88
12
94
03
7A
72
AC
25
87
CC
EE
17
6A
D1
EF
1B
16
8E
8C
2D
85
0C
C1
F0
0B
73
41
00
22
16
2A
EA
EE
2E
BD
66
8D
05
58
32
C5
17
DB
A5
1F
B0
AF
36
5B
47
70
C7
8E
86
19
1C
0A
B8
62
FC
42
E0
DB
D1
69
69
3C
DA
9F
7F
7C
6F
FA
91
F9
2A
C9
38
FA
EF
00
15
76
23
1E
CE
3D
DB
8C
1F
E0
CE
58
4B
51
F0
E4
02
9B
88
FA
E3
77
4B
E9
3E
EF
42
5F
74
3F
88
C7
6C
A4
E1
FD
DB
42
E9
FD
FE
6C
1C
F9
19
CE
65
BF
19
43
D6
10
1A
22
C2
A0
E1
FA
38
5B
8C
61
53
30
F2
FD
49
DF
A6
23
06
BF
B2
B8
99
2A
27
C5
E1
8C
02
83
CA
E0
78
30
DB
1F
D2
DD
26
28
18
A6
92
DC
E1
11
31
23
9A
3B
80
1E
FB
55
71
E7
DA
89
65
DD
D6
70
E8
D5
BC
DC
FC
11
72
16
B7
D7
60
43
58
4B
B0
3A
45
69
FE
D2
61
31
7C
59
1B
B6
A9
06
69
5F
5A
0C
1F
B4
D0
82
7C
5D
A0
A7
49
71
AB
0A
BD
13
C5
CF
62
4A
FD
D3
64
CA
A2
32
A2
44
D2
D6
A3
9A
D3
96
EB
F8
84
1F
E9
26
2D
A8
D1
EB
5D
29
72
AA
5F
F6
B2
A1
AE
A5
9F
05
50
C2
C6
18
97
F3
50
B2
31
C7
1E
1D
A1
65
DF
73
71
78
9E
CF
57
E7
CB
A7
F2
4D
25
C1
6D
47
E9
BA
89
CA
6A
DF
8E
69
D4
51
49
F9
46
DB
D6
76
B7
A3
5A
A9
FF
4D
C3
AA
87
F2
9C
20
3B
60
1E
4E
9C
4D
5A
A4
A4
DC
3E
4D
17
D1
89
76
0A
D3
06
D9
57
2F
46
38
B4
09
02
BF
F3
8E
58
BF
AB
70
39
BB
94
AA
B4
33
4C
A0
CC
47
8C
A9
95
