C6
2E
19
6C
A2
22
FB
A2
8A
EE
FB
CE
30
C0
C6
89
6A
C5
4D
61
6E
47
59
9B
72
D2
9D
D6
A7
3A
C2
AE
EF
ED
6C
42
14
91
67
2C
2E
68
0D
4A
02
8F
1F
4D
9D
DB
88
AD
D7
50
7A
BC
E5
60
74
36
7E
5E
F0
29
42
D9
A9
3A
3D
1F
20
58
A4
AD
25
4E
E0
58
9E
AA
95
46
CE
AD
1E
E5
09
F0
2D
F0
AE
E3
CB
DF
46
13
2C
77
B0
AC
0D
54
3D
84
78
A2
EB
D3
8B
BF
F7
14
76
C9
26
8B
BE
CA
0E
61
DA
F3
A4
11
4C
21
E6
2C
57
27
B8
19
A5
98
41
A6
FA
A1
EC
8D
74
50
01
C2
60
6D
52
CA
0D
2F
9E
BD
2A
C9
3E
B4
CB
8D
E4
66
AA
29
A3
31
45
47
D6
18
36
7F
A3
82
CB
6A
96
95
F4
12
AB
71
1E
40
5D
54
4B
F9
82
6C
C9
37
67
F2
A7
EF
E5
8A
9A
BD
B1
80
33
B8
69
FB
7F
6D
E6
78
F2
40
1A
D0
06
5B
28
4F
AD
B2
59
E7
63
B6
BA
56
A0
75
96
07
DA
E5
43
83
87
15
ED
23
84
95
81
4E
3C
12
B3
15
C7
17
6E
E4
67
1B
63
43
BB
7A
63
70
D4
DD
1F
71
97
F5
C1
4A
06
9A
5D
A4
BC
F4
C7
27
52
7A
36
80
5E
2D
1F
AC
A3
0F
37
E7
1A
F9
99
06
42
E2
D5
97
DC
9D
25
02
B5
8B
DD
89
58
94
65
8C
DA
26
96
FF
A3
4B
A5
43
33
38
22
8C
15
0E
17
78
A5
C1
8C
6B
62
C2
99
12
BD
A1
D8
E8
C0
23
68
80
82
80
F3
3B
57
8A
F6
1F
87
76
F7
18
EF
AF
AD
D6
75
B9
53
A2
26
BA
6D
C2
11
9A
89
18
68
7C
F6
12
82
A9
86
5F
91
0E
1B
D6
4F
91
6F
6C
DF
7A
30
53
74
74
2B
8C
00
04
55
5A
74
66
DD
FD
7F
9B
07
2E
19
42
92
38
B3
7D
D6
D5
EF
91
31
60
0B
CC
9A
67
25
7D
DA
21
FB
81
80
0C
54
8F
8C
9B
A8
22
5C
F7
CB
B4
46
A2
5F
4A
6E
26
19
A9
D8
73
86
0E
58
59
9F
55
42
9C
20
A4
B6
90
51
C8
7F
D2
E2
25
AD
13
93
B8
33
2E
5E
86
34
1B
C4
53
04
B2
DF
43
2B
EF
B3
BB
94
C9
EE
91
E3
B3
A9
E4
75
72
D2
1A
6C
46
80
6F
BF
52
BE
E2
CD
53
06
A4
77
03
7B
F5
69
62
39
13
0F
CC
55
DF
37
13
B1
C9
F3
53
21
B4
3A
BD
32
A2
78
5B
77
FE
44
2D
F7
7F
04
56
89
58
1C
CE
6E
61
AD
7F
69
18
8B
D8
19
03
D7
B3
1F
6C
70
A3
7B
D2
98
C5
A9
36
15
C5
DA
83
7F
64
BD
63
FD
2B
