AC
29
81
82
1A
42
3D
1F
C8
2F
66
F1
84
23
CA
69
BA
85
0E
66
C7
AB
77
95
D1
F0
D3
3A
22
9E
D4
1D
C5
46
9E
53
EA
81
62
9D
D6
79
4F
DA
AD
C6
D5
65
D9
E6
78
7F
37
5A
9D
AD
7E
47
B0
5A
F2
27
99
50
E6
9F
54
8B
97
2A
89
91
89
57
1B
22
CE
A5
E0
9C
25
3A
5F
01
D3
17
C5
B0
DC
65
D4
47
C5
C0
C6
C1
AF
A7
E1
9A
08
F2
E7
22
F2
B5
30
B6
FE
25
1A
F7
B1
C6
9C
D3
44
25
F9
D7
AF
D2
39
ED
A6
1F
F4
8F
D2
31
80
69
04
8F
EE
E3
53
82
92
BD
8A
20
E7
61
F6
C3
1D
13
F1
00
C7
08
3B
49
BA
0E
9A
BA
1E
BA
DC
C2
F2
1F
86
00
7F
F1
BB
6C
D5
72
B1
4E
6F
29
42
8A
16
36
44
EC
D4
A4
B6
E9
73
49
4C
A8
3C
D0
8F
79
DB
A5
75
79
B2
E7
0B
1C
C8
5B
E6
85
CA
46
1A
E7
AF
8E
F5
B2
F4
20
EC
4A
93
69
FB
1A
73
3F
A0
91
41
2B
CE
90
E5
93
54
F9
F2
12
6B
C6
31
EB
D0
AA
79
3C
36
11
21
95
33
75
C5
0E
24
4D
6C
EB
70
5A
5D
9E
77
25
21
C5
0E
26
B4
CB
53
0D
30
99
52
40
F9
56
40
96
94
05
C3
B5
19
63
02
74
44
55
C7
E5
F1
D0
68
AB
B5
0E
EB
28
FD
38
84
79
7E
52
88
49
81
1E
80
16
F5
0F
F6
46
49
80
EA
FA
F5
2A
1D
B8
6C
A5
46
B6
22
69
D5
F3
82
99
93
7C
CF
83
5C
62
C0
B6
1A
99
96
37
D8
3E
87
0E
ED
30
8A
BB
E2
9E
9E
6D
DA
22
22
97
3E
F5
12
3D
CA
37
17
B1
50
C5
55
C2
1E
88
96
BB
D1
43
6B
DF
92
73
17
BA
71
9E
05
48
65
06
AD
EF
5C
36
60
18
CE
78
BA
3C
BD
A7
E0
40
86
EB
28
45
E4
4C
A0
1A
A4
8F
1D
18
46
42
8A
52
55
BD
B3
97
CB
61
C7
89
87
E0
2A
65
B8
27
43
F9
D1
E3
06
7F
1B
21
3D
66
51
6B
79
2B
5E
89
54
38
10
D0
28
A6
D6
84
B3
2A
8A
0D
78
9E
8E
55
4C
2C
9D
E9
C8
43
F3
14
4E
31
5E
8C
25
77
78
EE
23
C3
05
E8
F0
E4
0B
83
9F
0F
56
08
04
C6
BC
C8
55
FF
66
FE
18
3A
67
C6
CE
85
A3
A1
FC
E0
22
67
55
8B
42
6C
3B
11
69
4E
89
5B
F7
38
F7
69
5B
93
B4
B0
CE
A0
82
14
CC
5C
B1
78
3E
4D
99
EC
52
5C
3D
54
A7
79
6B
0A
51
1C
E0
43
1E
AF
B7
26
24
7A
F7
EC
D4
0E
40
EA
E6
49
7E
4A
84
48
08
95
AC
88
87
6C
9F
85
74
A9
66
D8
C9
C7
9F
F8
0D
BA
00
9D
3D
08
C9
22
DF
C6
2C
9A
95
B0
3F
62
EE
AB
C3
58
93
14
DC
D3
B0
CD
86
95
8C
3C
A5
2B
45
1F
45
C0
FA
28
B4
AE
39
D6
4A
33
47
E8
F6
B8
24
63
48
69
32
2E
9D
E8
5D
87
95
E3
59
0A
B9
2A
0C
6F
E6
A2
6E
96
48
9A
C8
79
36
50
9F
58
E5
C9
11
49
F2
5C
DC
67
2D
E7
81
2B
60
E5
7A
1E
99
61
DA
1A
BF
4B
8C
BF
CF
DF
8E
73
88
6B
FF
99
D6
1A
11
20
0E
54
3D
5D
92
90
B7
3E
E9
55
EC
2B
8F
A6
34
22
18
74
EC
97
62
5E
EF
1B
B2
26
52
C7
4C
F9
E8
E1
AD
44
F9
4F
06
F7
8C
AC
21
C9
9E
06
39
7A
7B
EC
4D
3F
DF
36
16
FB
DD
A4
96
9F
B1
AE
90
2C
0D
D8
8C
6B
35
FD
79
0C
28
8E
1A
A0
6C
03
41
EC
6E
76
64
14
60
4E
9D
4B
4A
87
83
99
E0
0F
5D
4C
FA
51
42
44
FC
50
F9
E0
70
A8
8D
00
EA
67
0A
41
AD
E5
27
9E
BD
EB
D6
50
48
C8
E8
A1
9F
14
EF
A1
45
76
DF
41
F2
C6
82
0A
34
F4
E9
BD
41
65
00
B0
44
FC
08
EC
AE
CF
6F
D7
3B
7E
48
53
6E
83
7B
09
59
DD
4B
63
0E
0A
80
9F
38
01
8F
8C
3A
F2
5D
57
10
11
47
0F
2E
15
ED
4F
BB
05
2D
C9
01
99
89
02
EE
C5
A0
D5
AE
E0
65
67
6C
14
28
CB
6B
14
B2
6C
5D
04
15
F5
CB
8D
8F
3C
BD
25
52
A9
04
D3
CA
55
69
4E
BD
C6
7F
FC
B4
9F
F6
76
4A
85
6D
B9
0D
45
BE
10
E6
EB
40
47
BA
4C
BD
7F
99
0A
17
B3
AB
F4
80
3F
93
21
AD
B4
D3
35
3D
46
F6
F8
30
B3
84
2F
68
D2
C0
CF
B0
DA
0A
06
A7
FC
2E
8A
5E
16
09
CB
BF
76
3C
67
C1
1B
6E
90
5F
52
DB
7B
FF
A3
2C
63
73
EE
2E
8D
31
F4
A1
63
1D
80
75
33
41
77
8C
73
F8
BA
EB
6F
E7
F5
D8
DD
EA
69
16
5B
26
F0
23
39
DA
33
BE
17
25
E7
FB
8C
A6
A7
4B
FE
EB
E8
AE
20
33
AA
6C
38
F8
E5
C1
9B
CE
75
53
45
E4
D1
4F
6B
1B
45
0D
24
EA
B1
B4
BA
F1
D4
41
9D
3F
06
B0
3F
7B
46
0F
5F
DB
21
C3
CB
B5
A8
2A
08
5D
22
CC
E1
4C
62
65
BC
06
06
70
7E
F4
78
C0
2A
E0
1D
08
7C
1E
36
94
80
74
EB
51
51
44
A6
EA
13
EF
A9
DF
B8
CF
39
6D
04
E4
4F
61
C1
57
7C
53
A4
19
CB
2A
EA
15
54
F9
AE
34
70
19
85
4B
00
3B
7A
36
90
7F
B4
7C
00
CC
82
5C
4B
D5
56
B9
EF
7E
16
72
4D
EF
FB
50
ED
FB
7D
AA
6C
47
CE
E4
AA
D7
D8
6B
50
59
7C
07
BA
AF
2B
53
EA
39
A1
61
83
E8
88
BD
0A
E8
3A
E3
3C
3E
CA
0C
3C
77
23
15
EA
F6
50
FD
CE
B9
C9
16
47
82
47
7E
D5
86
18
5B
BD
B3
DF
8E
1C
71
DF
D4
3E
BD
8F
48
F9
F7
0B
C2
DE
01
B4
7F
B1
A0
A0
B7
A6
8B
A8
C8
45
2F
A9
87
A4
CB
E5
BE
74
34
0F
ED
18
C9
46
11
4C
7C
50
62
6B
A8
DB
67
26
74
67
60
86
5A
A5
8A
4A
51
F6
45
4B
B9
E7
80
94
43
8D
87
E1
E7
BF
72
D3
96
89
71
D6
D4
3D
10
5D
A3
F0
5D
7E
5D
13
10
59
EF
48
0C
57
D4
E4
CE
77
D6
DF
31
CD
94
98
01
A5
47
7A
67
32
66
EC
69
C0
B6
E4
4E
12
F8
21
A9
53
B7
AE
B3
0B
0C
32
1B
96
7B
25
E7
09
E7
26
AD
63
95
CE
27
7D
06
FB
65
B7
17
3C
5C
41
BC
22
28
2A
84
6C
BC
B0
F9
D3
C5
41
31
70
65
A7
BD
4B
12
6D
B6
D2
C1
8A
19
B0
B0
E3
F2
EF
53
5A
89
7A
C5
92
0A
80
B7
D9
27
33
24
F7
65
14
AF
B5
0A
68
70
1A
6F
BC
82
45
5D
0E
CE
75
03
AB
6E
80
01
BB
48
6B
CC
63
01
28
A6
1C
A7
99
D0
AE
2A
54
96
E9
DC
CF
2C
94
44
FF
49
23
69
D7
CC
DA
4D
39
A9
DF
91
AB
66
F1
C3
B2
29
BA
3B
A4
1C
01
09
3D
8F
99
F3
F2
C2
95
29
F0
63
56
39
62
BB
DD
64
4F
83
49
31
D5
63
9D
C0
58
0F
AB
E7
EB
A8
31
07
98
05
84
D5
7D
29
7E
8E
96
7F
77
A6
BA
B8
59
3E
94
9B
5F
84
60
63
D1
C0
92
96
4B
AC
28
FC
7A
EB
4F
4B
1E
25
96
29
82
35
6F
5E
F7
4B
32
0B
41
EB
97
7B
37
25
75
DF
5B
D8
AB
D8
04
75
DF
3F
10
CD
40
B9
49
05
16
B2
DE
93
B3
1C
2A
CA
07
12
D5
5B
EC
D5
21
42
9B
D7
8C
07
C2
60
6F
C0
54
E3
47
90
15
2C
F7
FD
6A
E7
A7
18
78
35
A6
DC
67
6D
73
6D
6F
4F
BE
2C
16
C1
14
25
56
C7
BA
E9
00
0C
28
C7
7D
DD
10
FF
E5
C0
D6
8B
70
8B
A5
C1
37
70
63
94
01
46
83
13
6D
EF
E2
8E
3C
0D
21
D0
F8
29
6D
BA
36
62
B6
A6
D3
DB
12
69
59
4B
5B
A1
1B
67
32
A9
2C
AF
4D
2E
82
78
6F
5B
11
97
75
E6
BA
40
38
55
32
DA
AB
01
20
AB
59
37
68
C4
E7
7B
FA
43
7C
FD
81
BE
0E
5F
74
C6
68
19
4C
2F
D2
79
D2
02
01
24
62
D4
1A
C6
C4
A1
1A
10
22
70
96
B4
B6
88
78
FC
46
3C
2F
CE
D3
93
E3
76
3D
A7
FB
B7
19
7C
79
0D
4D
0B
FE
B1
AD
66
CF
8E
4C
ED
40
0D
44
1B
8D
18
8F
AF
E2
2E
C9
E0
1E
27
40
C9
59
F5
F4
4A
D6
E2
F0
86
04
C8
E6
51
E8
E2
82
52
82
6D
1D
8D
EA
03
21
D0
FC
9A
5E
D6
46
94
47
92
41
44
5D
35
63
D1
BA
FE
CE
4E
1F
BB
28
7F
03
EC
C9
1E
19
F6
D6
14
F0
FE
28
88
62
42
1D
F7
71
A1
66
F8
FD
58
6F
65
85
A8
39
A6
91
9E
95
08
FD
A6
14
2D
9F
4D
06
DF
80
E4
B1
94
78
B3
59
9F
F2
AE
7E
8E
A9
13
96
4C
EA
5F
CE
E7
F4
E0
0D
FA
F0
B3
E8
B4
96
5E
AE
F7
CF
46
5C
A6
10
BD
BE
E0
4B
84
13
2E
7E
B8
85
AC
58
83
F2
24
FE
8A
98
6F
5D
12
D3
2C
63
65
98
AB
FA
D3
99
08
98
1A
79
5A
5C
1C
8C
4C
1B
11
10
D3
1B
A4
67
24
24
FD
8F
40
C7
BC
1F
EB
DF
F3
52
B6
5D
AE
62
E3
4C
F4
A7
F5
9E
FB
0D
32
4E
58
E2
A2
EC
13
64
20
63
45
55
54
93
63
25
6B
F7
B0
51
40
A3
8E
9D
9A
15
11
A4
92
A4
25
86
9A
D1
77
31
C6
9C
58
56
70
57
53
A5
E6
28
95
BC
76
D9
F2
A3
D7
74
CB
B2
E3
FD
E8
44
F6
01
67
44
42
59
FF
E3
52
A0
BB
7F
1D
21
6E
AE
4A
93
E0
CA
F5
24
DC
70
71
51
C1
D7
3C
C2
19
04
1E
86
3F
94
19
25
FD
08
39
7E
F8
FC
AA
42
DF
FA
3B
40
39
73
53
34
82
E4
14
4B
1D
C0
0D
5B
12
E3
35
C3
09
B0
09
13
58
AC
77
C1
AD
79
53
DB
92
A4
43
78
7E
8C
32
DC
B9
AA
AE
B7
7B
F8
B5
69
6A
B6
67
73
54
C5
B1
9C
05
A6
F3
D9
32
F0
56
A4
8D
D1
32
55
39
61
CF
BF
87
0A
63
ED
01
F2
4B
85
F5
19
D3
8A
11
62
A5
82
F8
D6
22
89
D5
1F
9D
A1
B8
3A
BA
AB
DD
FA
FA
B3
E3
56
42
57
5B
B3
C0
58
A2
A9
6D
B9
C1
28
93
54
37
61
07
52
E3
43
0C
45
D1
1A
C5
65
2A
35
81
8C
48
5D
B9
AC
DB
29
33
5C
47
0A
E2
60
74
F8
51
8A
07
81
31
33
04
9E
EE
67
0C
EF
34
DF
06
36
34
D6
14
60
12
EC
DC
A9
B8
12
24
72
71
A0
AC
64
7C
92
B3
93
A7
CF
