00
0A
3F
77
45
5B
51
9D
F9
29
BB
42
1E
00
F2
D3
40
D7
95
77
74
E6
28
71
C4
1F
EE
C6
12
65
37
F3
C4
B2
83
28
75
43
51
8D
44
DD
90
1F
B0
E4
AD
53
1E
ED
F1
44
BB
67
05
16
EB
52
C8
F3
C6
8F
2D
60
4E
68
71
BF
F2
48
92
91
36
0F
FB
04
F4
11
08
B4
CC
40
A8
66
CB
A5
07
E0
7E
D5
E4
41
D2
6A
A7
F1
4C
71
5D
A3
5A
6A
3A
1A
A5
30
94
75
A0
E8
D4
99
05
60
E9
F6
8C
9E
A5
AA
CC
F8
0E
38
CC
5F
0C
2C
13
C2
7D
96
63
7C
AC
8B
A4
F6
40
B3
2C
A8
B7
55
C8
31
58
D3
50
9F
D1
13
E2
40
2F
68
FE
97
DC
10
3A
1D
DA
AF
33
C8
5B
C2
91
9C
9E
4D
18
7D
8E
9D
7A
5C
7B
6F
CE
36
12
B7
D6
D1
47
E5
80
63
6E
AF
28
25
2D
F3
65
4A
62
22
FF
69
04
B8
11
FB
CC
26
80
86
D5
5F
F5
C5
A2
40
A6
4E
EF
D1
C9
74
2B
66
9E
39
9F
06
65
DA
6D
F0
46
8E
4D
1A
A5
35
84
AC
07
CA
4F
A9
A1
F2
52
41
48
44
8F
4A
58
F9
54
0E
1A
0C
8E
F3
A8
4C
29
AF
06
AB
A1
6F
1F
DF
14
A0
48
DA
EA
6D
D0
D4
FE
AC
62
9E
96
AD
6F
AB
DC
42
10
A5
D8
4C
71
9F
B3
97
2D
34
BD
6E
69
BF
EF
84
7E
63
01
F6
C3
49
31
69
31
05
1E
08
AA
69
C9
E7
75
F8
6D
97
AF
7A
DC
BF
FD
D3
51
BE
43
CA
CE
26
FA
30
C9
C2
92
49
1E
92
E5
B6
47
B7
98
EB
B7
16
C7
B8
F8
B9
91
A4
A1
3E
32
74
1B
0F
91
9B
EC
E8
6F
2D
BD
88
B9
DE
4A
76
3F
A9
70
C8
C6
10
61
E4
B8
A5
14
18
90
E8
7E
2A
3A
B4
15
03
C2
46
91
34
D5
1F
87
D0
8E
B8
52
5A
DE
EC
58
B6
63
84
C7
5D
19
5C
86
69
AF
7D
CA
BE
0D
D2
BD
F0
79
F8
72
99
D0
C5
3F
C4
08
C1
A1
8D
06
BC
C5
F7
ED
47
35
9A
DA
9A
E7
ED
DB
E4
70
BB
B6
0E
36
7B
8B
A1
8F
E4
90
9B
34
C1
C8
65
2C
6A
6B
20
50
AB
EB
8D
8C
CD
87
DF
BA
CF
5A
AB
BE
7E
7B
F2
A5
C9
A9
1E
DA
B8
CB
35
3A
27
A4
73
F4
DF
93
17
D6
3B
00
3B
3F
08
08
FC
06
44
6E
ED
EF
8B
17
1F
89
D1
7C
0C
48
FD
A1
C4
8C
CF
23
90
08
7F
03
4C
CE
7E
9C
01
43
DD
56
6C
B1
94
E2
21
97
2F
8F
2B
B1
D3
07
8F
B2
9A
5A
22
06
50
26
5F
CC
DE
39
84
D8
0C
8B
F4
78
6E
C9
5A
45
18
6A
B5
3C
C6
81
D3
B5
A1
5E
70
CB
7E
1B
52
0B
E1
8F
6C
7E
89
3A
F8
A3
2D
80
5E
E7
D4
55
9B
DB
BC
FC
71
57
D5
00
AA
80
06
1E
AB
67
29
15
A4
1B
ED
E1
92
BD
8C
CB
74
A0
FB
BA
BA
42
20
76
8B
AB
5A
D6
E1
57
DE
1B
31
69
1B
73
01
46
D6
F1
75
98
A8
4B
ED
6E
D9
1A
3C
A3
07
56
9B
71
B4
80
38
84
7B
7B
45
85
77
FA
51
93
45
6A
CF
9B
67
81
BF
2C
79
EB
6F
2D
65
5E
B4
AD
04
41
52
F3
10
B0
74
36
0D
D8
29
E9
F2
E5
FD
16
04
EF
43
45
73
12
6D
7F
9E
9B
02
1C
EE
C5
3F
62
8F
A6
05
17
E1
12
3E
B0
3B
7E
CF
1F
D4
73
67
8A
A5
3F
69
9B
96
39
68
5B
E2
10
91
FF
19
C5
94
FE
46
4E
DC
EB
52
D5
8B
FD
D4
28
A0
84
9A
E1
32
9A
A9
04
D7
71
03
F4
74
A8
08
16
DC
E9
0A
C4
D2
09
60
EB
58
7B
AD
7D
60
FC
81
09
43
61
E3
43
A3
50
BB
8B
F8
EB
DA
6E
63
81
49
89
91
0B
2B
3B
33
94
FB
7E
98
46
E9
1D
FF
3D
AF
71
DC
40
B2
97
B7
70
5F
44
23
61
B7
0C
A2
D6
18
E3
A4
D5
4D
08
1E
6E
2E
91
90
4B
B7
D5
F1
8E
6B
B7
AC
D0
B8
76
E6
02
4E
70
42
65
AE
22
79
F3
17
F8
10
AC
DE
43
C9
44
1D
BA
B5
2B
C5
5B
52
52
4C
3A
60
D6
1E
FC
13
62
D2
0C
E9
A8
ED
3D
F5
76
22
5D
98
DF
AE
FD
A4
1D
BE
AE
A2
8C
20
CB
5D
F3
49
02
12
A0
C5
14
C2
2A
E2
67
EC
C0
5B
40
EF
A6
6D
91
91
54
CE
0C
0F
F6
2B
C6
7B
95
F4
4C
4D
60
FC
D0
8A
57
41
6C
EB
37
2D
5F
4A
7F
DB
5C
88
4F
91
2C
1E
08
C6
3D
C2
BC
91
1D
C6
D2
AB
CA
B3
70
5F
0D
27
8A
62
B4
C1
94
F3
09
EC
1F
1C
C7
29
08
D8
9E
A9
E0
7B
05
0E
6F
D4
D2
F7
0C
1B
76
05
62
F9
12
A6
09
80
0B
1E
05
75
74
BD
FE
D1
BF
2A
E1
18
66
36
65
FF
71
EB
F4
C3
F9
B2
B0
32
F3
EE
7C
61
51
2F
36
35
B6
75
BA
30
C2
0C
96
CF
08
19
B6
7B
FA
39
14
78
85
EA
FB
EC
80
2B
72
EA
A9
0D
DE
2B
E7
EF
DC
C4
5C
53
44
D9
B6
87
86
BC
B0
7A
0F
6B
62
A3
19
1A
62
74
05
23
1D
24
2F
09
22
95
2F
D9
3E
5E
17
51
E6
09
39
F8
95
DD
A0
37
AA
B7
90
4A
1B
E0
59
B6
91
8C
B4
4D
1F
49
63
73
