F0
9B
C8
47
66
7F
42
20
18
4A
DC
82
41
46
81
96
E6
B5
4D
EA
4E
D3
79
4A
42
D6
B4
0C
C4
F2
C2
3A
F5
EC
A2
CF
27
43
54
24
63
AA
B5
10
B1
DC
91
59
72
A0
75
20
A7
CA
D1
ED
76
B2
8B
1E
E5
FF
EF
07
A4
7C
7D
FE
DA
E8
26
DA
C4
B0
20
2E
90
71
B9
65
3D
2F
92
E5
E5
1F
C5
8F
EC
BA
AD
FD
A8
AA
47
83
F7
B7
3F
62
4B
50
FD
EC
A9
65
8C
A1
1E
31
27
C5
20
86
72
C7
2A
65
1D
FC
5C
63
84
64
E5
C2
5F
CB
C2
A6
6C
29
25
59
BF
4B
28
13
0B
6F
75
8B
7F
F6
BE
6D
9A
C5
A7
F7
CA
FB
9D
11
E0
C7
AE
11
83
1F
15
97
04
3B
E5
D4
AA
E6
5F
8C
CA
2C
7E
27
09
AA
B6
DD
A9
EB
AA
C8
07
EC
3C
85
43
0B
49
DF
6D
EA
1F
D2
17
BC
EA
05
31
E4
83
45
E2
0B
DC
6B
A1
E2
2C
9E
80
D6
47
10
1E
1E
FE
43
C9
E7
13
72
BD
24
EE
A8
23
4C
C6
CA
26
1E
40
72
ED
12
BB
AE
4D
17
58
24
0E
7B
99
E7
70
5A
C8
12
68
4C
16
E6
17
AF
27
6F
C9
6A
81
22
CD
5A
99
7C
3C
AA
4D
9A
65
B8
BD
28
B7
35
2B
13
FE
D1
9E
2D
61
5B
99
0C
8D
AA
A9
3C
CB
04
CB
39
08
AA
AC
2B
65
F1
0A
BC
AF
E8
B4
E8
52
54
E7
54
DA
BF
BB
47
77
67
1C
48
AF
DD
13
E2
65
E8
04
AC
98
6A
98
27
CF
86
21
FE
87
DD
8B
D0
F0
90
1B
2C
57
A5
61
98
1D
2D
05
31
B7
22
F5
2E
A8
7F
12
10
E9
09
0B
B8
0F
EB
18
0A
79
3E
0C
26
08
8F
D0
85
DB
60
4B
4E
4F
41
02
D9
6A
D6
17
78
FB
07
07
34
C2
BD
6F
DF
17
56
E3
80
93
F4
77
51
95
92
7A
14
26
8F
59
B4
E8
0A
2C
FF
6B
BF
C7
5D
1B
9C
DF
F8
78
46
DF
72
FE
85
00
D1
F8
AD
02
3A
8F
C8
40
53
C6
B4
0E
37
65
07
31
BF
31
D9
93
9C
E5
C7
82
BD
51
89
BC
32
58
85
8E
33
25
A6
BA
02
DB
5E
B5
01
FB
33
BB
56
23
F7
7B
3E
9C
BC
24
98
FD
28
94
26
A2
D6
69
48
94
8A
66
32
FF
97
96
D7
2B
52
78
D7
9C
1D
E7
58
09
87
62
6B
17
50
91
EC
61
8D
10
54
BB
79
9E
14
E6
16
BF
83
5A
AD
2F
27
40
A9
19
F5
00
52
15
61
6D
A2
7C
50
1D
D7
AC
CE
FB
C4
A3
9D
2D
5F
3F
65
35
17
A2
52
F7
0A
CA
22
19
4C
DA
37
43
CB
E1
A5
6D
A6
51
CF
EB
A4
69
4B
C7
C0
EA
2C
CB
9D
65
80
FA
EB
FB
8E
84
B6
E9
DF
C9
36
8B
10
60
E4
42
B3
CB
D3
8E
E6
F5
54
EF
2E
D0
E7
09
39
50
DC
55
1D
8C
64
3C
9A
FE
F1
16
42
56
50
0A
DA
0F
A6
0F
A0
B8
F3
30
A2
7C
C5
6D
8B
AC
A0
4F
69
DC
67
8D
03
74
61
85
25
BF
F3
A9
38
B5
CA
90
93
BD
AB
76
00
F2
4D
DE
6F
66
4F
29
0C
29
2D
F4
AB
7D
67
09
98
41
8B
AD
39
25
9E
D3
45
F3
90
30
48
F0
3B
08
1F
64
D3
CE
88
00
C1
A6
BE
FF
74
01
62
85
39
43
BE
88
D0
33
7F
7F
97
D7
D7
B2
4F
D1
04
6F
B2
8A
54
4B
93
24
70
18
DC
D9
78
5E
35
C7
E5
E0
BB
FF
95
AC
62
15
CD
7F
CC
B3
B8
87
DB
04
E6
B5
E9
81
00
4B
37
84
8E
07
99
62
DA
6B
CF
9F
CE
A5
D8
EB
46
6A
48
92
FA
5B
3B
66
51
D4
08
72
5A
92
D0
03
AC
24
1C
56
76
C0
38
2D
F6
F1
BE
52
DC
43
EF
99
14
17
43
F9
21
79
54
FC
15
76
A7
31
93
FD
2B
19
B3
FE
B2
46
63
EE
25
1F
AF
59
58
6E
12
F1
2F
74
4A
94
79
60
00
92
72
AB
47
5D
67
19
95
AB
85
BC
76
85
F2
57
DE
ED
E9
7B
29
5E
C7
A4
EB
AE
F2
AD
4E
0C
CF
A8
F6
39
92
84
9F
BF
D2
C1
E1
4B
7A
04
05
F5
8C
BE
6D
F0
DB
7C
C6
57
2D
82
38
CE
EF
E9
94
F2
25
87
03
67
38
99
A4
F0
92
49
A1
65
CF
7C
E2
D3
5D
61
A7
C1
D4
ED
3F
DC
8E
7A
57
ED
0D
63
3E
9C
7F
34
F8
41
B6
4B
A7
29
9A
D3
A9
1E
10
7F
7A
38
08
9C
81
3C
98
0D
FC
67
08
EF
19
53
AB
04
76
BA
B8
F9
8E
F7
5D
6F
C9
70
31
1A
4A
7B
E1
7C
7A
F6
A6
C3
55
EE
CC
1C
66
EC
8B
02
B2
0B
ED
E0
E1
56
FB
9D
99
9C
50
E3
28
DD
D5
88
D8
82
05
00
2F
C3
69
EF
EC
BB
CF
16
3B
CD
9D
42
0B
15
39
9F
AE
06
1E
D7
89
97
77
05
32
EA
62
CC
F5
3B
D1
30
11
E0
BB
8E
A2
54
37
B9
67
67
9F
B4
40
D9
4F
1D
50
06
7C
CB
8B
67
70
FC
02
31
2D
27
50
96
45
BA
F8
9A
CD
3E
29
19
76
2F
3F
EE
45
E2
EC
74
02
DB
EA
0A
D2
7B
F3
51
36
43
69
92
9C
86
37
22
D5
AE
53
6B
5F
2A
F4
D9
69
8F
1A
65
0A
15
7D
EB
A2
3E
CD
7F
3B
AD
38
77
3B
F6
26
9A
E3
AC
72
5E
A6
28
C4
66
D1
98
49
FE
FF
C1
03
A0
62
A5
0E
D7
D3
D5
91
47
F0
5C
9D
15
44
FE
CA
32
46
4D
42
A4
E3
C4
47
D3
37
17
AB
C7
98
19
CF
CF
36
81
A9
5C
91
AD
8B
D1
15
6C
EF
A7
29
21
96
7C
E5
BD
11
CD
11
D6
77
D6
FA
A8
47
78
8D
62
B0
5A
F4
8E
22
CE
77
36
84
1E
DA
02
8C
A3
1E
4B
A5
CD
D8
A5
13
E9
D5
B2
E5
3C
A9
90
3F
D0
6A
E5
BD
82
D3
DA
5C
AD
42
D2
EC
55
35
30
33
CC
C9
EF
3D
4E
63
94
92
BE
E9
E7
D8
0D
A4
57
92
53
4E
97
03
F1
DF
D2
A6
A4
C6
DE
86
14
A9
27
87
0B
A7
93
24
CA
D6
CE
CC
5E
FD
67
C1
54
79
A2
DD
38
34
AF
37
A1
B7
E2
0E
EF
F5
A0
05
E0
FA
67
AB
B5
50
B7
06
4B
27
28
D6
75
69
B5
AC
4A
ED
2B
02
DC
5B
D1
A4
B9
85
50
2F
B9
44
C7
EF
A9
A4
F9
08
77
B1
FF
05
BC
E0
53
3A
D2
96
8A
18
DF
68
DD
D3
41
4E
DA
6F
2F
6B
E6
AC
D8
21
8D
63
F5
86
A9
87
3F
51
CE
DF
E3
04
0B
60
98
61
D3
83
25
7F
10
81
72
61
E7
B1
84
4A
59
5C
75
5B
CD
67
8E
ED
18
14
79
0C
19
D2
75
16
AE
DF
CA
76
98
06
96
75
D8
BB
11
D6
F9
2F
55
6C
B8
36
28
1B
24
EB
88
9F
F6
08
1C
35
75
4A
E0
66
B5
D9
10
84
48
80
89
D6
44
9C
92
76
F1
3A
79
7B
97
DC
25
FD
3E
EB
B5
E6
DA
BF
E7
96
5D
C8
82
82
B2
D1
D2
53
0E
E7
0D
A9
FD
27
70
E6
AE
2D
6C
FF
C8
51
ED
4F
AD
8D
9F
25
E4
28
16
46
1D
48
9A
BC
70
26
8F
7E
4E
21
8D
23
93
D2
C5
E9
38
F2
BF
D6
B0
30
61
B5
37
2B
B1
98
37
8A
6F
AD
98
39
2B
F0
08
33
E0
B9
EC
54
AF
DD
15
35
DE
A8
4C
D0
2A
13
A4
03
82
C2
7B
42
26
23
1B
DA
58
31
8D
56
E6
99
9D
CC
60
2D
A6
44
B0
84
B8
BC
B6
5C
84
15
27
2B
0B
80
D8
D9
A2
AF
1D
21
A8
78
E6
B6
3E
B3
61
90
A9
65
04
91
7C
1F
86
0C
C0
81
FA
04
ED
1D
AD
DF
C0
89
5D
3C
69
FC
9C
CE
FD
16
B3
CD
AA
01
0E
C9
BB
9B
13
3E
93
63
18
04
61
4C
F4
BA
76
32
32
0C
E1
30
44
2F
BE
41
C2
8C
76
E7
3A
9B
97
AE
92
FE
DB
75
D2
A0
CA
08
A2
57
C7
DB
80
C0
A2
F2
28
58
28
35
37
70
79
0A
60
22
0F
F8
F6
A1
79
45
A1
AC
4F
0D
AA
7C
69
9A
8C
A5
05
BF
84
F2
15
4D
F8
58
8E
2C
09
8A
07
6E
1B
D6
FF
F1
37
75
C3
77
A2
41
73
90
17
3E
87
C1
7E
13
56
AD
6B
54
74
AD
1F
08
0F
1F
A6
B4
AF
DA
2D
9B
A1
FB
74
02
D5
4A
C3
4F
70
C9
0F
51
D6
84
8A
71
FE
F5
27
AE
38
DA
92
D1
84
6B
FB
26
E4
02
84
3F
2B
6F
75
8F
46
D9
03
4F
24
30
3F
2B
D9
F3
67
D8
7B
79
9E
27
1B
AB
25
7E
FF
25
B4
C5
43
DD
E1
D3
70
01
3B
44
DF
A8
DD
5F
A5
67
32
60
2D
93
FB
65
C8
76
E2
BA
63
94
C9
2A
19
FF
F4
2D
4A
A4
95
EA
D3
EA
1F
88
B4
9D
93
E5
BE
3A
F6
EA
6F
A5
F5
FB
3E
98
C7
8D
6F
C6
06
67
EF
27
81
0C
A5
BF
90
D1
8E
66
F6
96
62
68
3A
6A
08
4B
14
17
E0
EC
4C
74
4A
50
39
48
15
D7
7A
D4
C5
4E
84
D9
B7
E8
67
2D
24
6D
D5
02
38
4C
66
38
F8
24
B7
13
BB
07
92
50
71
6E
05
5D
D4
19
C6
C9
8B
68
D8
FF
86
17
66
5F
C1
97
B7
4A
66
E9
B0
5B
28
26
43
28
97
6D
B2
FF
D9
ED
A6
8C
98
1E
41
62
BD
E5
ED
84
D3
E3
6D
3F
E7
44
1A
73
68
EE
8A
9F
69
E6
57
F2
2B
01
48
CD
81
DE
B7
47
B2
F1
7E
E3
F5
C4
9B
66
E3
F9
F6
01
76
9D
77
80
17
31
10
C6
E9
4E
D9
3B
15
DC
77
78
C9
1A
10
76
43
00
1D
86
87
26
D5
AF
E6
E2
50
35
39
5C
05
75
0E
7E
7C
9B
07
D5
E1
0A
DC
07
88
89
A9
E6
00
42
A6
65
0B
2A
FD
4B
F9
59
F2
5D
F5
3C
22
01
CF
5A
A8
98
20
11
2F
DE
BC
14
CD
F5
F7
10
5F
0E
17
73
46
CF
86
03
2B
92
23
B1
60
01
71
38
EF
C4
75
0C
22
47
FE
AD
1A
91
3C
C0
C0
7D
F3
50
45
C6
81
F4
FC
6E
BD
57
41
FC
63
02
46
8D
C4
21
C7
D1
95
31
BE
0B
52
93
EC
03
22
8B
DC
B9
96
57
4F
17
D2
37
1C
19
23
AD
1E
88
BE
C3
BF
49
D0
BD
D5
08
E8
4F
B4
6E
AE
95
C9
06
2B
4B
43
7E
AC
46
18
8C
3C
00
F7
1E
34
82
74
FD
26
45
8C
89
7E
40
50
41
B9
37
A7
4B
25
E7
C7
A3
DE
57
56
DB
31
C4
86
D3
CC
25
9F
A2
35
7E
17
E5
3A
98
00
33
28
F7
6E
2A
1E
3D
2E
2A
F8
8B
FB
9F
ED
D4
B2
E6
1A
54
23
CA
D8
48
9A
8B
70
18
C5
8C
FB
35
29
EA
32
8B
DE
41
87
0E
4B
43
44
DC
59
86
6A
BD
58
47
E1
DD
43
EE
19
82
