46
05
BD
97
F4
2F
13
B2
43
EB
C7
E2
DB
2D
D8
AD
36
53
ED
AF
62
96
89
79
60
30
84
E1
46
81
F2
BE
48
08
1A
56
E1
03
76
03
FF
54
A1
45
E6
46
3C
4E
A9
FC
EC
D9
E1
F3
DB
AD
4C
B1
E4
64
9C
64
BF
FC
A2
BD
AD
B5
AC
C7
A4
00
C9
D9
D2
25
DD
8A
8D
82
6B
9B
7E
C1
59
8B
80
EC
62
20
8A
8C
DB
EA
10
DD
9C
BB
C3
44
F3
40
EC
05
C5
CF
97
7E
02
1F
91
87
DC
E5
6A
B2
B8
F5
18
01
C1
FC
0A
03
76
95
21
CA
95
0A
31
A3
ED
6B
12
4F
6E
B1
A5
8A
F1
BF
FD
C3
9A
AC
64
38
F2
F9
DD
F1
15
5E
C3
C0
C9
B5
E0
F9
73
9E
AF
4D
70
78
E4
E4
B0
5B
E0
46
D2
BE
42
34
17
C4
A1
78
1A
51
D1
31
23
25
18
AD
6A
25
33
A0
90
D9
C8
ED
37
1A
47
8B
09
FD
2F
24
35
DC
70
02
50
EF
7E
65
6B
3E
48
64
C9
3A
26
11
C9
E6
1C
E8
A5
61
30
C2
50
DB
FA
E5
7E
9F
9E
72
D9
3D
33
34
D9
4E
F9
B4
F2
54
C8
61
61
55
7B
52
83
25
74
8F
B1
2C
25
D8
DA
11
50
DA
3C
7E
EA
88
94
C9
30
88
23
48
90
F1
65
F1
DB
F7
2D
32
2D
14
5E
AE
8E
CC
46
A5
A7
83
2B
D4
FD
F3
3F
69
36
C4
E1
12
43
BB
91
9A
A3
99
D7
F9
AB
E0
0C
0D
F0
05
0C
AA
BC
D4
18
30
EB
F8
04
8F
FB
40
7F
02
5B
4C
26
E6
C2
3A
9C
AC
D0
3F
6B
3B
48
DD
B8
34
54
7C
AD
70
AD
15
A0
DF
CA
8A
D7
9F
97
68
89
75
2B
C4
B9
A0
16
D2
18
95
AD
64
E8
73
30
D0
49
3E
A1
70
26
45
87
23
0F
22
F3
88
BB
8C
DA
7C
9B
8D
F6
64
CB
4B
D6
7A
AB
D2
1F
EA
B9
68
DF
52
1F
A6
EB
D9
3E
62
CC
EA
F2
27
79
74
5C
B7
32
A7
2C
C5
0C
00
34
91
ED
FA
BC
A4
A3
E6
31
97
17
11
9A
85
D4
1F
19
22
F4
64
82
5D
98
3E
59
93
CB
D5
26
26
01
27
C0
20
35
6C
A2
64
08
2E
34
70
0A
43
DA
61
89
CD
AD
50
70
FF
C3
34
5A
94
D2
1C
85
DF
15
A7
C2
F4
BB
B2
E5
8B
85
89
40
3B
33
2D
CC
8F
C8
91
52
7C
4A
C5
C1
01
D5
BE
38
FA
EE
75
22
FB
48
CD
91
D3
1C
5C
69
CE
AA
8E
86
BA
79
18
67
09
C9
AD
60
30
A1
F9
23
2D
9E
C0
F7
C4
55
1A
2F
D2
2D
07
FA
58
03
D2
3C
16
01
44
D1
87
84
DE
18
F1
2D
FD
F1
9B
4E
DC
F8
FF
68
51
6C
F8
B8
04
0A
27
42
47
CE
90
8F
4A
13
CE
B3
07
88
21
63
74
68
88
59
84
F5
67
D7
03
4A
D3
F5
74
4F
54
EE
2C
4A
2D
A1
6F
CE
36
D3
AA
91
A0
50
EC
F5
EE
72
28
86
94
13
F9
83
E1
4F
08
23
57
37
4E
FB
32
B2
70
5F
84
34
5D
26
5A
30
82
CA
96
FC
19
27
C3
03
79
B5
E3
11
A7
60
35
23
51
3E
0E
74
CB
70
97
22
A1
C8
D2
1D
B2
25
B3
75
87
EB
FA
FB
BA
6A
A7
3E
9C
55
BB
51
32
D7
B4
94
C5
C2
BC
B3
43
EA
B4
DF
29
CD
37
44
85
FD
F6
7C
21
E8
85
A8
26
B4
58
35
81
B8
B4
56
4D
EB
E0
9D
16
2F
9A
DA
25
95
05
37
FC
97
62
4E
AB
C7
49
A8
99
AB
F0
8D
B4
74
0C
94
A2
94
83
77
4D
B5
A6
E1
C8
49
F8
D9
65
CD
19
18
28
5A
90
B1
3E
80
D8
6C
2D
1B
CB
5E
08
87
A5
FB
39
F5
BD
34
72
60
07
2F
BF
2B
A9
45
A6
FB
B6
AF
B4
B3
03
83
52
AE
DC
97
65
D2
13
E9
39
3F
A9
9E
27
DC
94
52
6F
D0
07
CA
81
6A
E9
9C
9D
A0
DB
84
6B
E4
99
51
C1
82
BB
C2
3B
6A
3C
67
2F
E2
60
4A
D5
F9
51
D4
1C
21
54
DD
67
87
9F
D2
7E
D5
7A
B4
8F
D8
98
58
61
FA
DD
3F
F2
A8
F4
22
F6
86
40
0B
16
72
87
AE
C3
D8
19
59
41
E2
5A
36
CF
58
DD
F7
EC
65
86
6F
EE
BA
06
44
A1
46
C9
D2
19
37
E9
5A
48
55
8A
25
51
45
4E
1C
2E
78
53
0B
E2
1A
82
92
DE
AF
56
88
1E
DE
21
51
6B
BE
C1
9C
2E
FA
E6
02
C1
02
11
56
44
F5
BF
9D
5C
56
46
ED
75
95
EC
B9
78
2D
27
57
19
E8
AE
34
43
D6
F1
64
17
48
2F
E4
6A
10
17
03
96
EA
4E
38
52
18
C2
B5
1B
A2
7C
FC
91
63
A1
1B
46
75
9B
0F
78
FF
A1
0C
72
2C
ED
C7
58
70
C3
B7
A4
4A
62
34
61
86
66
2F
87
FC
B3
FB
1D
97
66
18
AD
04
F6
41
9F
E8
49
9D
FC
01
27
67
25
06
99
02
89
DA
DC
96
B7
07
EE
9C
64
B3
6B
A8
29
8A
EC
5D
FE
7F
BB
0A
3B
F5
B3
14
54
25
4B
7E
CA
FB
E7
5A
FD
7F
55
97
2B
A9
F6
F3
33
F2
06
5E
FF
8B
CB
5D
F1
AD
F8
C0
C3
67
68
80
6D
3E
D0
B5
A1
B4
7B
C7
01
0B
18
6F
DA
66
EE
E9
CE
DF
FF
21
A6
85
AB
4F
E4
E2
9A
DA
FF
18
D2
C3
F5
8D
DA
52
A6
B9
1D
1C
AE
10
11
E8
85
A3
31
72
FB
5B
AE
99
19
E8
E9
7F
16
95
F2
4B
1E
24
E1
48
34
A3
90
E8
74
8F
26
56
6B
AB
65
69
84
3E
F0
84
93
AD
44
08
B0
CA
8E
76
7E
1D
EF
31
50
9F
B3
09
96
9C
AE
70
7E
1D
D7
B9
E1
4F
AA
09
D7
64
15
4D
B6
18
6D
23
38
56
2B
C9
1C
55
D8
37
0F
57
4A
75
38
B3
B6
BD
12
2A
7A
F1
B2
7E
48
24
07
97
58
A8
FC
7D
99
FF
25
7F
81
E5
30
21
6E
2F
42
98
2F
95
E4
AF
01
56
A7
A1
AE
CF
68
C0
CE
3C
A4
44
0E
4A
CF
71
1F
74
F4
87
5C
EE
60
8C
82
72
1F
D5
2D
62
EB
12
56
2F
E8
DC
BA
BF
25
93
57
F4
1A
37
E2
D3
95
34
7A
24
55
2B
14
FD
E7
3C
FF
A8
3D
F8
C8
04
92
8B
68
63
0E
4E
E5
CC
20
AD
2E
B3
1C
56
F9
10
4E
15
9D
59
A8
52
94
F3
59
7D
3C
6B
F4
CF
53
BD
44
05
1B
B3
DC
6C
52
F8
36
D8
0C
FA
2E
04
61
13
8C
DB
05
66
C5
D7
9C
60
CE
60
6E
DD
B6
7F
7D
8F
E6
3D
6D
06
A0
54
A7
5D
E7
7F
2F
41
79
10
0A
0B
79
B5
C8
AA
0D
1B
1B
27
E1
17
21
00
7E
FE
F9
39
3A
52
EA
82
95
D1
FE
07
61
6B
96
59
08
25
BF
E7
DD
11
07
4A
3E
A3
41
BC
5F
85
F6
54
D3
10
F4
04
3D
D5
4E
E7
39
B5
36
19
8F
31
73
54
15
3F
BB
48
D5
C5
48
90
91
81
1D
64
D1
79
BA
F2
9A
1E
A6
F2
89
55
7C
41
93
6F
C2
B2
31
E3
21
76
60
11
DC
2E
1C
AD
1A
A7
7C
FB
BB
FE
33
B2
B9
5B
89
69
EC
F7
5D
B1
3C
1A
3A
5B
85
27
6D
46
23
00
F6
6B
AD
AD
7C
DA
7F
8A
D5
9A
5E
A6
06
82
CD
11
E2
A8
02
5A
4E
5E
47
2E
A1
B6
C1
C9
38
C4
46
E3
2F
AF
DE
14
3E
79
D5
9B
50
86
2C
80
6F
D8
25
0D
00
55
07
13
DC
E1
9D
F3
CA
1C
2A
78
C3
7B
F4
C8
AD
31
E5
AC
A4
5F
D7
BC
91
A6
4B
9A
1F
D3
0F
79
08
D4
3B
F0
AD
E5
51
B7
28
BC
03
33
A7
72
24
43
CE
0B
4C
24
6F
01
F3
51
1F
34
B7
9E
AA
66
FC
30
E0
86
F5
B4
80
28
3C
26
CF
0F
50
89
65
71
AB
88
8D
9D
3D
5B
2D
75
D7
DB
7D
58
E3
8C
78
D2
3B
11
C2
3D
DA
8B
D6
0B
30
47
52
02
54
D6
B9
DE
02
F1
36
9D
11
04
5F
76
69
06
05
F3
FD
8E
88
41
E6
C2
A2
42
AE
91
AC
29
E7
25
61
34
ED
19
C6
B3
20
FC
15
85
57
D3
6E
38
0B
0C
4D
2E
46
27
09
95
07
14
1C
62
A3
D6
84
F9
CC
A8
71
AF
BA
BC
E8
5C
4C
A0
B0
F8
93
C8
1A
43
7E
1C
56
CC
D7
7C
29
B0
C9
F3
50
EC
13
B6
A0
B4
7E
1F
A2
80
E5
0A
CB
DF
6D
B3
5B
5B
64
23
76
F6
02
5C
80
0E
7B
6F
09
6B
91
9E
10
DA
71
8D
29
EF
1F
BE
5F
02
88
B3
FC
BF
C3
B5
91
21
99
74
19
FB
41
31
11
D9
B5
D8
8B
97
AC
7A
7D
62
86
B5
E7
6E
A5
D9
4C
4D
AF
D5
73
DE
9D
48
A9
9A
56
60
F7
56
44
56
51
CA
EF
E2
FE
5F
44
D3
1A
85
10
60
B7
F0
DC
A2
8C
A8
8B
6D
57
47
03
9D
98
5F
16
6D
44
78
2E
36
2E
59
71
5D
29
34
9C
D5
EA
F0
41
6C
F1
29
D1
80
E7
D8
EF
0E
88
BC
5B
98
E8
58
03
13
12
48
A7
C6
EB
25
64
8F
CD
A1
8E
33
F4
33
C8
56
B3
85
10
D4
01
3F
30
40
05
2B
9F
6E
63
CA
D0
53
FA
5B
D0
6E
F1
16
DC
D2
17
11
FE
45
AF
3F
B5
E5
7D
96
07
DF
8E
85
35
80
92
F9
A8
5D
53
A4
45
7D
EB
1F
6A
0F
3C
BC
2A
9A
75
81
02
11
CD
1E
2F
4C
C2
46
9D
2B
8F
57
09
31
65
57
1F
5B
00
79
DB
C9
C1
E9
60
0D
ED
4B
87
33
F4
E8
42
5C
07
E8
53
78
34
75
5C
CA
B7
21
4A
31
4C
21
7E
7A
37
71
8B
F7
27
F5
5B
DA
9D
A1
53
EB
D5
7F
8D
10
9F
1C
DD
7B
25
18
3D
77
4E
01
36
82
11
A7
A2
BD
87
DE
E1
5E
36
90
DA
94
F6
01
AA
20
75
5C
39
00
A7
E5
F4
C5
3D
04
82
72
11
DE
03
B7
88
10
A6
03
E3
20
0F
95
56
8B
90
CC
A0
3A
80
B9
33
9B
5D
AB
A8
91
E9
38
33
67
A4
DD
60
15
BB
A7
24
3B
07
F3
4C
44
9F
D9
2C
B2
5E
37
14
17
08
3E
46
59
88
66
7A
AA
5A
74
E7
46
05
A6
D0
89
58
06
46
F5
81
8D
20
C6
8A
7C
38
7D
A7
59
00
01
42
91
6F
5B
C2
36
51
64
44
72
15
06
1D
B7
BB
F0
9E
D7
A8
95
FD
B8
2D
CF
F1
7A
CE
2D
9B
73
7F
01
A9
B9
44
FA
5C
72
93
0A
AB
98
8C
C4
3F
F8
92
78
FC
71
5E
A9
92
5F
58
4A
27
C5
DA
B7
E1
4F
65
A9
08
02
C6
43
85
94
00
DA
BE
9F
3B
56
A9
81
5F
54
70
6E
FE
91
5B
13
5E
C7
6D
CA
F2
5D
63
72
7B
AD
39
91
C5
42
49
B5
C6
C1
81
4A
A5
A4
B4
E2
34
32
71
23
B7
F3
5B
65
69
6F
58
