D4
75
C3
F7
6C
75
E9
56
4C
C7
14
39
A1
36
A2
BB
10
90
ED
36
FD
45
83
7C
F2
DE
A5
0E
B6
05
5E
6B
6E
B7
7F
A8
12
5E
38
59
49
07
8E
8C
A9
8F
0C
16
3A
2C
7A
1C
C8
66
6F
34
72
6C
52
5D
CA
38
9C
A3
A4
C2
8A
B0
6B
98
65
50
52
42
84
92
2C
6F
7A
A6
4F
AC
76
B0
FC
0C
A6
8E
18
58
5B
FB
1A
D9
FE
A6
32
DE
99
62
76
0B
DA
6E
A9
13
68
B6
6B
9A
95
69
C6
17
0A
5C
ED
90
1E
1E
A9
AB
B2
DA
3B
69
A7
9F
57
43
BA
D9
2F
79
E7
B8
68
6A
3A
D2
A6
8C
31
1B
29
02
28
78
C6
5F
56
54
FD
AA
47
36
5D
A7
79
30
2C
35
24
E9
81
2B
ED
05
CB
FB
F8
B8
CC
64
4C
2C
C2
A0
20
48
AA
9C
9A
33
F9
7E
4B
57
67
AE
7D
2A
D6
C9
5C
1F
C9
26
9D
A6
C0
D5
AC
E3
8A
A7
52
94
B0
9A
B6
9E
71
A1
F2
FA
53
7D
E5
98
9B
0E
D8
47
15
51
BE
FC
53
81
B4
10
2E
0B
CE
A0
65
42
19
84
4F
44
D0
ED
C1
6E
8C
6C
18
23
48
49
5A
5A
4C
74
B0
6D
B2
7A
23
6E
2A
D1
90
02
FB
BD
F9
3C
7A
A6
4F
4C
F8
37
B4
E3
29
D8
0E
10
EE
1C
CE
AB
FD
59
27
1C
5E
A5
50
F4
EA
54
FD
BD
E0
FB
32
81
1E
06
C0
A2
D2
99
8C
51
C3
C4
A5
22
E9
B0
C9
7B
8F
54
05
E4
56
9F
59
D4
5F
AE
4F
76
2B
2B
DD
3C
41
21
52
66
F9
46
51
BE
AE
EE
97
70
62
49
2C
EE
B8
42
D3
24
19
9A
46
2A
9F
51
06
D5
F8
F8
8F
8F
86
AA
7D
C5
3D
F4
39
5E
04
14
38
18
29
3A
A9
39
AB
A0
33
C5
E4
79
0D
FF
5C
BB
BA
26
ED
D0
13
9F
77
2F
75
79
F5
AD
33
BE
8B
90
CA
FD
3F
27
F4
B9
4D
08
64
C1
E4
39
27
A5
81
70
43
02
22
49
2B
31
CC
B6
85
02
A9
1F
56
BD
3A
6A
77
18
A3
49
38
3E
32
1E
F1
46
48
47
2D
14
A3
74
E9
60
15
0E
BF
29
C8
D5
47
42
75
AA
BA
85
B5
43
F6
21
58
7C
5E
9A
FA
21
99
F3
0F
03
1C
F1
11
8E
83
84
65
1C
B1
77
6A
82
DB
E5
FE
B2
18
9F
4A
5B
A7
C3
4C
10
1F
AA
AE
A9
24
A3
7A
04
B3
78
42
DA
97
53
FB
61
7C
BA
F4
60
D2
FF
02
A4
F1
5A
9A
E8
D3
B6
F9
16
DA
0B
11
DE
10
34
A6
75
0F
AC
DC
0F
80
D1
51
FE
54
4D
26
4E
7C
13
6F
B7
DA
1B
11
E9
00
BB
FF
8B
1D
8F
A1
07
21
06
61
48
84
AE
95
51
CF
F8
FF
FC
8B
00
7F
11
4B
12
57
F3
4A
9A
C3
E6
33
67
3C
BC
32
ED
85
A2
94
2B
98
F8
C6
13
08
35
39
D2
0A
1B
61
6C
B6
04
7C
88
A8
47
BF
57
38
B9
5C
8D
D4
40
85
18
51
DA
34
85
02
F6
92
39
F6
DD
AE
2C
19
37
D9
D8
39
D8
9F
BE
8A
32
45
B9
0E
F7
F3
02
8E
E3
FC
F4
90
7B
C5
0D
C5
F7
BC
74
50
8D
04
07
98
B2
BA
35
76
D2
81
2F
FA
1E
F3
CB
1D
B3
81
08
61
7C
E4
6D
CD
2E
1B
96
19
EA
C4
57
EF
52
9B
4B
13
0B
58
C1
DA
DE
D3
D9
39
C5
D4
DB
CF
EF
8C
D8
61
2B
05
F4
08
71
9C
0A
1C
37
69
7E
32
88
76
6A
B8
75
88
A6
7C
A1
1C
96
89
93
A5
F6
1E
AA
40
9C
67
53
37
AC
31
10
80
1F
60
B7
A1
92
C9
5A
A2
36
E6
6C
D9
A2
8C
97
3C
01
FB
30
1D
DD
B6
F6
4B
80
86
14
CD
53
33
0E
E6
AB
14
AC
C3
7D
30
0A
CB
00
24
51
D7
9E
3E
84
A7
19
BF
3A
DE
B6
8E
4A
C0
B0
44
61
24
1D
F4
94
B4
39
06
66
72
FA
1E
99
F1
FD
3B
D4
DC
1E
C5
5F
26
2A
FF
6B
53
71
E6
73
F1
AC
09
ED
DC
C4
A0
F5
F7
AF
21
FF
91
02
11
8E
95
AB
DD
C7
A3
46
4F
26
68
51
98
AA
B4
D7
72
71
6F
5F
53
64
E3
6B
7A
3A
01
4D
CB
81
65
20
F3
DE
C6
11
61
7E
C0
B0
00
07
02
6F
47
11
93
CB
4D
B1
81
F3
A3
A3
29
F3
64
12
2A
01
6B
6E
14
90
F2
25
2C
40
3E
69
DF
1D
38
B3
EF
09
B1
98
13
4F
2B
4A
AA
12
33
9B
B1
F6
DE
35
82
BA
9C
E5
AA
1C
DA
7D
90
04
B5
C9
E7
F9
D5
0C
53
3B
37
D9
61
79
FB
80
B4
DC
14
1A
B3
03
A7
40
A0
80
8F
EC
CF
71
F7
79
3B
2C
D2
9F
D6
38
1B
6B
43
0A
85
DE
B7
F7
1B
4E
68
3F
37
AF
BF
F4
D9
72
79
68
58
B8
E1
19
C2
20
A9
6C
E9
9F
A5
4A
0A
63
8F
65
BA
83
49
9F
0E
E2
AE
0F
D4
4C
94
96
D0
67
F3
11
D3
A4
49
A0
68
D5
CA
CB
8E
E8
94
98
1C
5F
18
06
C5
01
7B
E3
08
48
3C
2C
49
22
61
67
5D
C6
BC
65
0F
23
BA
91
18
01
4A
11
F5
27
E0
F3
64
18
4E
05
0E
F8
6F
34
E5
F2
E9
86
58
AC
C9
6A
E0
2F
42
EB
E5
0A
8A
F8
09
6B
0A
F7
03
23
0F
F7
84
D9
A5
64
5D
7C
9D
B5
06
00
A8
44
34
35
00
8B
D8
EC
FB
2E
CA
52
E3
CF
57
F0
3E
18
73
09
D7
6C
D1
E6
85
48
E4
3A
BD
7B
5B
10
6A
72
EE
3C
A0
8C
D5
60
01
BD
ED
55
A8
61
76
44
0F
C6
86
F1
65
81
3A
7B
76
2D
0A
CE
3A
46
6F
D5
08
D4
9A
EF
F2
63
25
BD
23
DE
66
29
08
36
C9
D8
49
49
53
1C
42
2D
FE
57
F0
50
A6
AD
1C
15
7D
DE
46
57
BD
36
59
06
26
4E
07
7D
C1
AA
2A
95
02
57
CC
64
A7
DC
22
91
6E
8F
D2
18
EB
A6
6D
85
66
1A
15
D7
8E
1E
CF
45
0C
EC
A4
D8
01
76
7D
D2
F5
BF
59
3D
BB
1D
61
8C
7B
B6
FF
83
9E
2E
E5
25
D9
93
F6
67
F9
3E
4A
39
41
92
71
C5
2F
10
B9
BD
1F
17
77
14
1D
B6
54
3F
C7
2C
2A
49
0D
5E
57
03
E5
88
8E
24
F1
17
C2
CA
1B
59
00
80
F8
06
4C
A0
C7
F4
C0
73
BD
BB
09
F6
D0
7F
BB
1D
A8
C8
44
4A
58
4E
F6
57
4F
B3
93
A8
07
FD
3D
C2
B4
B6
0C
06
B8
E0
B9
60
99
0A
A4
36
42
B1
09
72
29
71
02
EF
1A
E5
A1
38
74
D1
21
FD
75
AE
C2
48
99
3E
23
93
FC
10
5C
98
2F
EC
B0
C9
EC
C5
2D
82
A9
8E
1A
B4
14
B7
9E
0D
C9
86
A1
40
7D
8D
4B
FF
85
6F
64
58
51
B7
BA
C2
DD
0E
B5
A7
85
5F
D8
0D
E5
E1
C1
4E
9D
4B
9D
88
26
51
EB
C1
BF
DC
06
06
15
51
8B
C6
D1
33
0D
32
55
1C
21
40
5A
3E
79
EF
A6
A0
A6
3F
98
C8
EF
0A
81
EA
48
DD
3D
71
3F
47
DB
73
60
AE
C3
68
0B
1B
4D
A0
7D
8A
17
E3
21
C4
E0
9B
1A
1B
30
9C
95
51
43
6A
11
74
8B
CD
E2
CF
DB
E9
47
99
E5
09
E1
57
D4
12
7B
6E
14
61
D5
B7
25
B3
98
A0
4A
9C
FE
D4
EB
BA
D8
A2
EE
24
A7
B5
FD
D7
E7
28
CF
2C
10
26
A9
8D
4F
0E
FD
B4
EF
ED
AA
B9
AF
30
54
2B
FA
3F
7F
4D
26
5A
A5
22
EA
04
30
7A
8C
9B
51
06
26
4C
FC
62
DA
A4
9C
1A
D8
34
A6
2D
C1
4A
61
EE
A2
56
2B
73
73
CA
89
91
47
F7
FD
6B
A0
3A
7D
FD
58
2E
A1
21
D4
FF
E9
CA
A3
81
95
21
8C
A2
71
D1
37
0B
C3
A5
AD
EC
D8
62
BC
1E
DF
8E
31
4F
47
AC
0F
9F
5F
88
56
66
6C
89
5D
FF
06
09
45
AD
28
2C
AB
BA
10
D7
FB
66
8E
2D
63
B9
7A
0B
D3
5D
FA
78
8F
D6
FE
E7
1B
4D
D5
DE
F5
63
E6
89
B8
F8
7E
1D
99
A0
20
2B
55
2B
96
FF
03
93
C7
67
9D
E2
11
1C
38
C4
70
A7
2E
72
69
8C
91
25
63
BB
DD
28
D4
88
DA
41
F1
C5
6B
24
F4
33
5E
C3
5B
BC
2B
23
63
97
B3
B8
06
4A
B0
90
B4
80
E6
21
A2
AF
9D
39
5A
82
B3
E2
8B
8C
24
4C
15
5C
69
3B
33
CD
91
33
45
FD
45
0C
E1
05
2C
DF
17
59
24
B9
4F
D2
94
FB
15
C3
D9
6A
31
97
CE
2C
49
0F
AB
40
D6
84
F5
D2
76
4C
9D
73
21
03
8A
75
B4
9F
FF
B4
E6
C7
07
FD
57
86
84
63
B4
32
07
FD
2E
35
B1
55
A5
A5
8E
E0
85
24
10
FA
F1
15
1C
5D
9C
75
04
EC
5C
8A
0A
7A
93
F6
CF
22
D4
E8
B3
65
CE
36
A1
61
AA
01
50
64
29
A6
20
C2
BA
2A
F1
DB
87
FB
30
1B
87
D0
78
1D
51
60
9E
18
D7
E4
11
57
4C
E3
45
34
BE
62
7D
1D
B4
72
AC
8A
AB
E9
CD
C7
08
4F
DB
27
4E
8A
E0
E4
96
80
FB
DD
32
59
98
2E
FE
88
27
78
57
59
91
34
2C
50
6D
E9
A5
21
61
DE
3D
8A
F7
90
02
98
0B
60
14
1B
DA
E7
08
95
17
8E
25
3B
1C
F2
FC
58
B2
4C
BD
6A
A3
0E
F9
5D
9F
CA
24
EA
3F
4F
98
74
8D
D3
37
19
1F
65
50
DD
ED
F5
05
A7
08
8D
E7
23
D2
E5
ED
EF
8A
45
F8
0D
AF
1D
41
C1
B2
25
EC
66
83
4D
22
47
28
D3
3A
0E
18
76
AE
B7
