38
F2
BF
D6
B0
30
61
B5
37
2B
B1
98
37
8A
6F
AD
98
39
2B
F0
08
33
E0
B9
EC
54
AF
DD
15
35
DE
A8
4C
D0
2A
13
A4
03
82
C2
7B
42
26
23
1B
DA
58
31
8D
56
E6
99
9D
CC
60
2D
A6
44
B0
84
B8
BC
B6
5C
15
E4
84
DA
E0
30
16
EE
EA
F8
8C
E6
54
BD
37
71
C5
0F
8E
63
E7
6B
39
0C
C6
1A
5A
2C
85
64
7A
4E
B1
4C
5F
D1
2B
6E
43
3F
07
86
B8
36
17
43
28
6A
1A
B6
CF
ED
B4
61
5B
51
32
54
DB
05
9B
D7
38
D4
A5
82
AE
54
3B
3E
A2
AD
4B
A4
C8
C2
5A
0A
60
90
8D
0D
07
88
CE
9E
1F
75
57
D0
57
38
51
F6
EF
A3
10
A8
84
9D
48
2D
46
B9
AE
DB
98
F7
D1
DC
CB
39
37
AB
D2
1F
7E
A9
3E
7F
34
16
DD
81
7F
CA
4A
75
D4
71
28
F3
15
F1
32
06
BD
88
B5
2E
12
CA
A0
50
0D
76
13
6A
E4
F7
01
21
F2
86
14
37
6C
42
9E
27
B1
BF
3E
DC
BD
E4
78
4A
D6
CF
D8
BF
D9
30
22
13
2A
DD
80
5A
36
55
37
3E
EB
98
8F
AE
A7
90
FC
F4
FE
FB
55
AE
05
46
46
8F
B6
B3
04
75
2B
08
6D
22
5A
2A
FC
81
C3
26
49
33
03
36
63
44
78
BA
15
E7
3E
5E
06
13
5B
20
FB
1B
F6
12
BF
54
DA
E2
1C
66
B9
93
DE
7E
B5
15
54
C3
50
11
AC
0E
E6
2E
7A
E3
EF
FE
98
71
A6
A5
DA
3F
9C
93
D5
A1
9A
6D
43
25
44
5E
F3
8D
88
D2
E9
5B
97
E6
45
FA
BE
41
A0
66
92
6D
26
C9
60
80
7A
53
7A
89
31
C6
9D
AA
FA
F9
B9
4C
08
5B
A7
76
7D
E1
F3
34
26
02
76
52
7B
DF
02
96
C5
D3
8E
03
C0
16
AC
6F
FF
6A
5E
92
32
9A
8A
C5
F7
2C
ED
B8
34
17
A6
56
A1
59
12
DE
30
28
CE
72
02
3F
E5
FA
DC
9A
93
F9
8C
3A
D5
B0
A9
71
C6
0F
56
48
37
6E
6A
8C
4D
7B
51
2E
75
4D
3F
E1
8C
B4
46
E9
BF
3B
12
C8
9B
96
96
E2
DD
64
94
08
84
A5
F8
2F
49
55
A8
C8
E6
D2
30
66
88
65
95
AA
8D
FA
E3
D5
65
21
CE
3D
89
CD
EF
93
A0
57
55
86
4A
9A
E8
D8
27
50
9E
0C
85
EB
99
D3
10
B9
2C
61
