4C
63
AD
87
F7
93
C8
34
19
5D
F5
AF
8D
31
AF
AB
EC
7E
78
39
D7
4C
4A
B1
AF
ED
A9
A8
40
D5
6D
24
2D
8B
51
C7
7E
C2
6C
88
EC
21
35
AD
B6
6B
F8
9B
5D
16
59
7B
49
2E
AE
2F
7F
C8
DE
FD
49
78
FB
E4
DB
D5
A1
67
C3
79
9A
7B
CD
85
49
1B
8B
7F
72
1D
B5
19
4E
D2
FF
FC
9A
55
BF
D1
52
36
65
14
1A
7A
2E
E2
99
B6
A4
CE
98
02
C9
63
D1
2D
FF
3E
2B
08
A8
13
52
04
1A
99
36
0E
A9
8F
E8
28
F7
3A
C3
89
CB
54
82
60
55
E0
09
56
43
55
4B
1B
9C
77
A2
E4
A3
18
9B
32
6C
F3
29
8F
38
8C
BE
C3
CD
90
88
C2
8B
17
17
C5
AC
F5
E7
AF
93
E8
46
D1
2C
BD
33
85
16
F3
55
D7
BD
FF
A5
BE
D5
AF
A1
6B
21
D5
71
8B
14
BC
17
DE
B2
43
AD
62
88
CC
A3
86
C9
E7
90
6F
70
0D
79
78
09
06
A8
D6
33
FF
F1
B7
2C
B2
32
90
B3
CD
BC
36
F8
7A
96
60
1D
80
1C
CA
BF
A5
03
2E
E0
78
F1
6D
81
C5
CF
7E
B0
6E
96
20
5F
8E
9D
40
AC
39
8B
1E
10
E2
A0
F4
1B
54
37
2A
7D
00
B1
7D
2C
93
FC
E3
10
6F
4A
02
F2
19
AE
FD
BA
CC
C6
17
B8
D6
87
C0
1E
37
7C
D9
5B
BA
3A
A8
C0
59
51
9C
C1
16
6C
FF
A0
0D
B2
D5
67
07
B5
75
5C
0B
65
7E
83
05
C9
B4
51
15
02
85
36
2D
3B
CC
97
A7
BB
9D
9F
CF
43
60
48
95
F4
5E
2E
6C
09
75
8F
22
20
7F
94
58
1B
F8
5D
A1
02
8C
42
39
44
08
60
5B
1B
F4
9E
EF
D5
55
77
44
06
E2
EC
73
78
7C
8D
41
16
21
85
02
60
00
C4
7C
91
0A
9C
31
2D
E6
B6
5D
2A
AE
24
50
47
49
BA
48
98
0C
A3
F1
F8
41
D4
2A
73
0F
CB
E5
00
D2
6D
7C
C5
28
BA
E8
29
47
D6
79
09
5A
4D
F4
59
A8
BF
E7
5B
6F
AA
07
4E
D2
75
F5
F5
84
29
C3
DF
CA
49
99
06
FE
7C
EC
2D
C8
3B
9D
9E
62
BD
F3
B0
16
3F
11
25
3E
DA
D9
70
14
E8
BD
43
93
39
7B
88
4E
01
22
14
37
4D
E1
33
09
46
74
C7
F0
D0
29
1C
80
77
7D
5E
42
FF
6F
10
65
D3
52
6C
FD
07
40
99
8E
B7
D6
2D
6B
D3
67
7D
4C
A3
30
0C
D0
C4
5F
5A
7C
0C
B3
F5
A5
26
D5
B1
55
65
79
F9
EE
50
28
F9
31
05
FB
1B
A0
12
E5
3C
A6
98
B3
CA
94
82
4B
66
AC
68
56
21
A7
34
87
48
D4
1B
CE
55
C9
3D
4A
3D
39
13
94
23
E9
D6
7B
2D
F5
D1
02
13
A7
B7
A3
AD
5C
59
87
A1
79
B3
E8
E2
0B
98
C5
AD
60
3D
54
67
F8
10
49
4F
6B
26
9B
7A
CB
F0
26
B4
D9
FA
3A
21
41
09
DC
E1
FA
BA
22
AD
68
98
EB
49
0D
6D
02
BF
DC
1B
EA
8A
94
D9
73
7F
5B
CB
41
22
85
3C
64
41
91
39
DC
4A
60
2B
61
EC
88
F0
E9
00
DA
52
3D
BB
66
FB
E4
63
93
96
65
B6
A3
CD
5F
28
50
FF
94
29
79
7C
CD
B0
71
90
5C
6F
05
4E
7A
57
5B
54
69
7B
D0
25
17
1A
6E
1D
C7
F7
1C
92
79
3E
12
1F
99
CE
76
DC
83
A6
1C
D5
60
74
94
13
42
AA
9F
65
0B
9C
B4
E5
1A
1F
AF
3F
F6
29
69
23
8E
F9
A2
C0
E7
4C
BC
D2
E8
58
C3
AA
28
A0
21
19
72
8B
F1
06
35
48
A7
21
7B
51
DC
A3
F2
8A
D3
85
71
23
6B
A4
99
B2
E3
3D
E8
B0
37
55
78
5E
94
F4
8B
D5
4F
48
E6
19
50
EA
39
76
96
7F
BB
D1
29
3B
78
30
DB
DC
89
76
58
3F
31
A4
B3
B1
C2
3B
8A
33
E8
02
8B
90
B2
42
32
3B
B3
14
9A
4C
04
D8
F3
76
20
3C
87
D0
AA
AA
E5
B5
94
BC
F8
F9
E1
6F
08
89
5E
EB
D0
7E
DE
61
66
A2
8D
2E
CC
CB
C9
BB
E5
E3
77
44
6F
D4
5F
67
12
2F
94
6B
37
6A
0C
EF
90
07
5D
24
6C
FC
4C
9B
D8
1A
66
2D
A4
08
46
F5
FC
DB
56
B1
30
9D
AC
DF
B2
0D
62
E6
C5
96
73
43
61
1C
98
9F
54
19
52
6D
69
D5
26
A3
EE
8E
D8
07
5A
72
F2
09
83
48
63
86
9A
D9
48
DD
D8
50
B2
49
BD
C8
22
AB
9D
42
A0
C8
D1
F8
62
FA
8D
8F
D8
A5
6A
8C
14
A0
AE
59
35
7A
B7
D0
E1
BD
CF
5F
90
8D
EA
97
71
FE
A4
75
2C
BB
EB
3D
F7
17
CC
B8
3E
3B
B4
23
53
C2
30
BB
05
0C
A3
F4
52
0B
47
D5
17
12
88
7B
1D
CF
3A
C8
0A
E6
2E
15
99
5D
CC
68
31
A6
1F
71
85
0C
16
6D
8E
57
7C
D3
B0
BD
CB
02
55
D1
28
A3
46
98
63
60
44
B6
93
D1
94
5A
14
23
C6
4C
A5
09
33
A7
6C
63
BE
8E
86
14
B8
ED
4C
D8
42
53
09
B0
2D
8A
97
67
42
C7
0E
72
81
F7
78
88
ED
03
1D
6F
9A
F9
4B
DA
54
55
27
F7
75
BD
DC
77
F2
68
FD
F8
72
25
68
4E
D3
30
58
B3
23
7F
78
5F
C4
BE
4A
AF
A5
BC
D8
BB
58
61
0D
F4
69
CC
16
6B
5B
A4
A2
76
09
D0
63
