1B
76
ED
27
6E
59
1A
39
F6
43
0E
2C
14
B1
4C
B3
DC
60
B7
D4
D8
D6
2D
07
DD
2E
B5
9C
3C
78
46
F8
66
A4
CE
9A
B8
6C
37
03
8A
67
B6
7A
92
FC
D9
5B
4A
A8
A9
91
D8
21
8F
13
00
94
0D
9A
9F
C1
F7
9E
A1
EE
55
8E
6C
84
3D
9E
A0
EB
83
73
D5
29
83
63
5D
91
DF
2D
06
33
C9
B6
D1
B6
2E
39
94
28
79
9E
FF
B8
F2
47
84
6D
DA
9D
C6
14
A0
02
8B
F7
8E
D9
BA
D5
BC
EA
50
77
14
E9
B9
FC
A3
AF
57
51
24
2E
98
67
A4
D8
F1
39
8C
3A
93
C8
1A
99
23
F0
B8
8F
96
1D
AF
DE
CF
1F
7C
4E
80
5D
1D
DE
F4
8E
AD
0A
DD
53
C1
8B
9A
BD
7C
4B
33
F9
28
E9
81
92
A5
E7
EF
40
31
D9
94
E3
99
2C
88
8B
47
F5
6E
2D
85
C3
84
9B
B8
F1
BF
0E
06
C9
7A
EA
3D
74
7C
2C
0D
AB
1A
28
5B
14
66
F6
62
01
13
65
F8
41
3B
76
79
DD
A7
EA
A3
3B
52
D0
A7
65
E5
B9
2C
3D
CE
0D
3C
A5
05
08
6F
7E
C8
9B
92
65
A3
46
4E
95
6F
F1
A0
E1
86
9C
77
D2
59
73
B0
33
56
47
24
CA
3F
FE
A4
DE
11
93
DA
CC
1C
D2
06
AB
E6
C9
40
18
71
A7
62
8D
E1
8E
86
D2
3B
22
0D
D2
E5
55
CB
36
35
5E
03
A2
47
FB
92
06
94
EA
6A
AB
94
B9
BD
37
39
8E
F0
40
66
64
EF
A2
C5
C7
68
21
DC
29
78
DF
E4
EC
40
B0
D2
EA
C9
CE
B3
59
DD
91
80
55
FB
A6
54
10
9B
49
66
05
3A
D7
11
F3
A6
4F
1A
38
83
49
5B
FB
3E
D5
47
10
1A
A3
5E
CC
23
3B
4B
CA
31
97
A9
95
45
83
1E
72
EE
C7
7D
1F
13
05
DD
EF
DC
D8
76
C2
FF
50
1A
2B
AE
C4
E3
55
EB
FB
6D
03
0C
13
9E
7E
97
25
FE
F4
20
C3
F4
E2
FC
07
69
6A
B7
0B
C5
50
03
94
AA
25
08
1B
EC
89
25
5F
77
FE
C2
70
51
80
83
CB
A2
9C
A1
12
C0
10
3A
42
90
64
1E
3D
9E
52
E0
DB
45
57
0D
C7
CC
AF
19
4F
B3
9A
29
E4
19
8A
0B
6E
63
52
74
87
84
03
9A
36
6E
B6
74
5A
0D
4D
14
DD
32
70
58
0F
0E
5E
06
32
7F
40
A3
AE
8B
46
E8
DB
FF
4A
D2
63
95
9B
AC
6B
C5
EE
9C
1E
F3
47
EF
AD
97
9A
89
C7
3D
9B
B5
04
A9
00
D8
C2
F7
6E
5D
D0
F8
68
0D
3F
95
32
86
3D
D1
B8
D8
DC
8F
33
1D
4F
E3
EA
C8
96
F3
EC
95
0B
8C
38
8B
7A
77
A2
E1
68
F8
41
E4
5A
9C
39
4C
E8
99
C7
AF
56
45
C7
6C
1A
FB
75
06
03
8A
CE
8B
F5
63
CE
DB
FC
93
C1
B9
F7
EB
50
AC
9C
53
A6
06
EE
5A
0B
38
6C
C5
6B
69
76
20
2E
BC
18
78
52
0A
62
1D
5E
FB
B2
B1
FD
B8
B4
79
37
2B
55
DB
16
03
60
8C
17
71
49
A1
E1
B1
86
3A
F4
A9
C3
7F
F8
F0
47
30
C3
23
EF
05
73
C4
03
0B
E7
3A
EA
1C
4E
BD
7A
4C
6D
2F
23
7B
AB
1D
21
19
F9
CE
80
43
5E
EE
2E
CE
58
C6
17
0F
DD
0F
7B
B6
79
16
AB
13
FE
7A
58
B2
85
7F
28
D3
4E
EF
E4
53
2C
97
3D
52
8D
F7
21
B8
CF
42
E9
7D
D8
6C
59
32
82
E8
49
11
BC
8A
7E
CC
D7
A0
D1
50
1B
6B
08
BA
2F
33
49
60
DB
9D
44
74
9E
80
F0
7B
76
7B
98
54
30
20
AA
4E
B5
09
E9
B8
89
C4
3E
D1
CE
3A
77
89
1E
D1
74
15
4B
29
98
AB
FC
DA
7D
53
F7
93
EF
FF
BF
29
7A
52
C9
6B
77
9B
F6
33
99
E4
9C
65
63
31
47
8A
07
B2
E4
A8
E4
F6
D4
5B
FD
EB
F3
2F
E9
E7
5C
A2
B9
26
90
68
4C
35
7E
AD
D3
96
58
83
30
BB
8E
2A
34
CF
3B
CB
9D
A2
15
DD
37
35
BF
4C
90
B9
0C
33
C2
3D
99
BD
B7
CF
B5
D8
C0
AF
B5
97
E2
86
2C
68
0F
F6
75
4B
8F
AC
3E
8F
52
0C
55
6B
26
00
E2
02
41
99
32
F8
7C
EC
05
21
43
04
B5
52
C2
22
A8
28
92
7C
85
6F
69
8C
D1
25
69
1A
18
4D
FC
8B
67
72
14
5D
E7
C9
65
31
09
12
A1
DF
2E
44
55
BA
2A
5D
19
9E
F6
F8
DE
44
02
3E
9B
A4
E8
3F
65
95
8A
65
36
A7
CF
D6
B5
3D
CA
27
B1
FE
B4
19
07
82
08
A1
3E
46
83
6F
E0
BE
73
89
F1
78
B5
31
FA
13
26
1C
5E
EA
FF
79
80
C6
E4
25
AA
46
53
8A
50
DC
F8
61
58
FB
67
72
43
99
A5
A7
CE
A8
1F
61
16
49
83
64
ED
7B
C8
8D
F2
9B
E0
96
8D
6D
98
B4
3D
34
B0
98
72
AD
FC
55
1F
A6
66
CB
F7
4B
2A
6B
24
39
4D
D1
76
D5
12
28
85
B5
D6
2D
A4
85
45
12
64
2C
00
81
5F
A7
73
0F
C1
96
46
E6
A2
74
14
BC
52
84
25
B8
2E
9D
BB
40
55
74
6C
BD
58
D1
35
E2
6D
AC
9D
9E
10
64
CB
38
95
F7
63
9E
8E
B9
11
EB
6B
26
F0
7A
9C
8B
DB
BA
71
A1
7C
92
DD
6C
B6
C1
45
0D
96
B1
D1
A5
10
92
49
8F
87
0E
49
69
DF
EE
B2
94
81
57
1A
0F
CD
74
13
83
9E
94
10
6A
9B
8B
A7
AD
E9
80
B9
07
62
4B
1C
85
76
ED
A3
7C
2B
C9
E7
7F
85
1A
E5
34
23
98
59
76
1B
08
85
BF
DC
F1
82
5A
AE
AF
87
B2
51
C3
2D
F8
1E
FF
B4
E3
7F
EB
8B
5B
D7
4C
8C
EC
A1
C4
AA
97
73
D3
B3
51
0D
6F
BF
32
F0
E7
2F
37
2C
95
EB
48
68
7A
A7
19
EF
EF
65
57
FA
C7
E1
33
A0
43
76
7C
F8
B4
23
05
61
37
78
BA
6B
88
20
74
07
18
45
0B
7F
D1
4D
3E
0E
07
54
8A
C5
10
A9
2B
CA
C5
98
76
74
89
55
BB
CE
CE
70
E6
F6
59
A7
EC
D3
89
29
C5
F3
38
62
F6
B3
D1
33
BD
F4
40
B3
E2
27
96
13
F4
E7
F4
AA
6D
A6
0E
BE
9F
8D
41
82
2D
23
BF
13
16
D7
69
B4
69
78
4A
62
0C
49
BC
83
14
AA
7A
CA
DE
C7
7C
D4
39
B9
A8
D9
77
88
B7
F3
D4
4B
A4
75
E0
7D
51
80
9B
E7
98
51
77
64
E1
9A
C5
F2
B3
B3
87
10
06
9C
4C
4C
8B
E7
61
1D
0C
C8
39
FC
DE
F8
A7
E3
AD
D2
55
2C
4C
4A
B7
AF
7F
E8
62
91
07
B2
87
77
87
D0
28
2D
13
D0
75
4F
4E
90
16
36
A7
4F
B5
17
F0
86
E7
21
63
37
ED
33
26
54
16
81
21
CE
1F
8A
39
40
89
E2
4D
5C
50
FE
29
83
A2
6B
9E
49
62
81
E9
93
3E
BD
39
56
3D
E0
4E
82
74
DD
D3
84
CB
55
62
4E
DA
91
11
5B
7C
3D
83
EE
CC
6E
04
A6
3B
16
71
3A
55
28
9D
95
A7
C7
7F
6B
8E
BC
0F
E8
5E
5F
A1
F5
06
14
C8
98
26
F9
97
51
F0
67
F9
81
B2
0E
04
A5
E2
0A
DC
D2
A0
07
AF
B0
7E
8E
8E
F6
28
E8
B3
B0
9D
C6
1A
81
CD
B6
77
EF
2E
78
78
C6
E3
AD
6A
BA
B8
B0
D0
BF
47
60
33
4D
38
7A
02
91
EE
06
79
5A
3D
C2
75
21
55
D9
1F
64
38
92
00
38
C3
13
E3
07
F2
D4
79
3D
3A
9E
42
F2
20
A3
8B
A7
AF
DA
CE
42
AB
0C
D8
DA
8B
75
9B
A0
52
0E
9A
A5
A9
43
83
9C
D3
4B
54
E0
E4
47
15
48
DE
EA
EA
6E
22
5C
64
69
28
39
A5
9B
D4
AD
8F
5D
B6
07
5D
D8
EE
E5
28
2C
6D
AA
07
EB
B4
C6
CF
4D
B6
9B
0B
0D
25
10
6C
8D
81
D9
BA
E3
E8
02
6D
51
44
F6
84
78
51
50
ED
3E
75
74
22
C4
F9
5F
01
27
34
17
4A
14
31
80
03
52
9C
5A
88
F4
49
18
8C
9D
E9
4B
88
9B
B6
2A
BC
F8
69
D4
10
E6
6E
EB
3E
DF
6B
C4
D6
3B
C8
87
3A
CD
2C
B6
F5
80
6F
DF
CB
46
B4
BD
09
36
01
62
4E
A1
B0
93
EB
D0
C8
C2
E5
01
59
6C
78
C6
D6
00
63
65
72
96
F0
25
3E
F5
EA
3C
5B
E2
12
13
45
DB
E6
EF
B9
8E
FE
D2
2F
A6
BA
60
17
8D
0C
D0
9D
9F
8D
7D
56
75
2E
D9
2C
33
8C
88
2A
A7
84
D5
47
98
35
C8
F9
BB
B8
9A
B7
23
5C
90
F0
E7
74
FE
C8
44
39
3D
45
55
6F
2E
20
A0
BD
1F
60
40
A9
2C
2C
FE
11
F0
06
11
67
08
35
DA
C6
54
9E
42
FA
9F
25
D5
80
C0
71
D7
10
B1
18
78
27
5F
EC
48
02
9E
CC
31
1F
FD
40
D5
CF
4F
63
A0
CE
2B
E3
CA
C6
59
B1
DE
63
00
97
C1
21
93
9A
7C
46
98
D1
83
5D
B8
B1
BD
F4
F3
EE
6A
F7
67
EA
94
11
82
82
10
22
28
B8
62
F9
B9
0D
A4
D5
97
2D
03
83
59
FD
CE
D1
63
92
A2
B7
BF
7B
69
FA
B8
3B
44
3B
70
9E
8B
CB
AB
23
7D
F5
2B
9F
E4
9E
CC
BE
D5
2E
17
19
5A
F5
DD
40
0A
E9
B5
81
15
E0
D1
F8
40
11
FD
43
1F
16
66
67
67
E2
57
04
F4
00
FB
9C
D4
7E
B4
E5
60
8E
09
73
0A
51
A8
04
25
41
37
3B
4B
C8
31
40
21
DF
48
7E
9C
02
EB
1B
C0
9C
E1
52
AB
0E
33
FD
01
3B
EB
E3
38
A9
BC
80
42
9A
D8
