49
AD
D3
F9
8C
B3
4E
F1
3D
08
DD
B3
55
EC
C6
B4
D4
EE
65
2C
73
DC
0B
43
40
EE
DD
79
28
05
01
81
7A
B9
85
77
A9
DE
77
77
73
3E
15
7E
41
91
88
CB
73
0E
23
89
DC
C2
56
D5
8A
F5
FA
07
64
B5
8F
48
31
6E
B1
AF
46
FB
36
D2
A2
99
B8
7C
DD
CD
F3
2D
4F
B5
7C
CA
4E
EE
44
C3
E7
BF
BA
D0
13
58
B0
3F
9B
59
04
3B
7A
37
45
4C
24
72
65
0C
02
55
3B
DA
5C
22
07
B4
BA
06
8A
6B
64
A9
4E
FA
C8
B8
95
FD
9A
2D
58
72
1F
BD
E5
26
2F
FC
75
42
FC
0A
9E
76
2D
A6
1B
28
71
DD
81
BB
E6
08
96
49
5E
BC
5F
01
2E
89
F2
53
D9
FC
DF
26
27
0E
83
6C
82
19
36
05
CA
C2
C8
A7
73
3E
2D
FE
9C
03
EE
45
5A
4C
B8
C2
39
D0
0C
0D
B1
91
A1
5F
EE
2F
8F
5F
09
4A
02
28
FF
8A
0A
DB
3C
5B
23
17
F8
F6
93
7F
E2
11
2B
88
6E
11
FC
F6
78
03
D4
F9
3C
57
ED
80
96
4D
B3
AC
05
4E
A1
46
4A
B5
79
5D
BB
06
7D
31
EA
C4
37
80
72
5B
CC
B1
9A
21
B8
FF
B6
48
50
89
1E
DD
CD
84
7A
AC
9F
9A
9D
E8
D5
F6
42
FD
4F
C1
0C
48
30
04
3A
CF
D4
B9
35
0A
91
B8
67
DB
19
0B
14
A7
8D
A0
2A
5A
75
CD
0A
C7
71
AF
6C
3E
5F
88
42
AF
10
92
A5
02
47
64
5E
2B
4F
0B
97
DF
9A
89
69
D2
49
26
32
9E
C9
9C
CB
A8
18
EC
BC
0B
46
26
2D
F9
A0
3B
2A
BC
DB
6A
1A
23
31
FE
54
FA
E8
55
D8
82
F9
AD
9D
66
B4
59
5D
37
C1
71
F9
B9
61
17
7E
52
88
EB
BE
80
EB
28
09
37
84
CB
82
D3
6D
29
CC
A7
D0
6D
3B
A8
8B
5F
1A
4F
8F
11
D1
65
FD
E4
7A
35
49
DE
AC
35
BE
34
3D
A8
D9
C3
97
97
8B
6A
2D
99
6D
CA
7D
A2
C5
4F
CD
0F
AF
BE
E6
F3
91
C9
AB
D8
97
46
F8
15
D5
0C
3E
50
DD
DB
03
AB
50
32
0F
50
92
00
B2
9A
EC
35
49
23
BE
3C
6F
CF
32
FE
64
54
EB
0B
DA
4F
1E
92
AF
0C
50
1C
C0
C4
92
23
C4
FF
49
88
CC
D7
AE
45
2C
9F
89
09
82
63
F6
2A
10
FD
6E
2E
D2
15
E6
1F
A4
DB
94
3B
04
1F
14
CC
AE
48
C4
A7
E9
A4
E9
7E
2B
9F
04
78
D7
FC
96
A1
EA
85
5A
75
A0
E1
CC
54
F6
FE
B7
C4
14
F6
BE
8D
C2
B1
EB
74
43
0B
F0
41
F2
8E
36
59
1F
77
DB
4E
17
31
63
F6
DD
EE
25
A8
69
B8
91
D9
25
3D
2A
14
41
94
7D
31
C2
50
50
40
BB
B4
EF
6A
2E
50
CF
B8
69
A5
B8
8E
F0
9B
C8
47
66
7F
42
20
18
4A
DC
82
41
46
81
96
E6
B5
4D
EA
4E
D3
79
4A
42
D6
B4
0C
C4
F2
C2
3A
F5
EC
A2
CF
27
43
54
24
63
AA
B5
10
B1
DC
91
59
72
A0
75
20
A7
CA
D1
ED
76
B2
8B
1E
E5
FF
EF
07
A4
7C
7D
FE
DA
E8
26
DA
C4
B0
20
2E
90
71
B9
65
3D
2F
92
E5
E5
1F
C5
8F
EC
BA
AD
FD
A8
AA
47
83
F7
B7
3F
62
4B
50
FD
EC
A9
65
8C
A1
1E
31
27
C5
20
86
72
C7
2A
65
1D
FC
5C
63
84
64
E5
C2
5F
CB
C2
A6
6C
29
25
59
BF
4B
28
13
0B
6F
75
8B
7F
F6
BE
6D
9A
C5
A7
F7
CA
FB
9D
11
E0
C7
AE
11
83
1F
15
97
04
3B
E5
D4
AA
E6
5F
8C
CA
2C
7E
27
09
AA
B6
DD
A9
EB
AA
C8
07
EC
3C
85
43
0B
49
DF
6D
EA
1F
D2
17
BC
EA
05
31
E4
83
45
E2
0B
DC
6B
A1
E2
2C
9E
80
D6
47
10
1E
1E
FE
43
C9
E7
13
72
BD
24
EE
A8
23
4C
C6
CA
26
1E
40
72
ED
12
BB
AE
4D
17
58
24
0E
7B
99
E7
70
5A
C8
12
68
4C
16
E6
17
AF
27
6F
C9
6A
81
22
CD
5A
99
7C
3C
AA
4D
9A
65
B8
BD
28
B7
35
2B
13
FE
D1
9E
2D
61
5B
99
0C
8D
AA
F6
03
56
C8
70
1A
11
77
52
95
CD
A4
E5
07
A7
4B
74
CA
86
53
04
E6
D8
1F
78
AB
0F
AA
45
F7
5F
7E
22
8C
EB
C3
0F
A3
37
B8
9E
22
AD
97
D1
AA
59
8C
0D
AA
4F
3D
18
0A
B3
B8
4E
13
10
00
D9
F4
D0
55
FD
84
87
CD
E3
8B
19
11
CA
1C
98
D2
64
AC
66
C5
68
35
96
B2
E4
D6
3F
38
C6
CE
9A
13
91
DB
C4
9D
B1
20
D1
95
13
21
E6
CD
37
69
2E
D2
81
B6
9C
23
99
4D
C1
63
16
F3
36
99
1F
2D
B0
32
8C
D6
7A
B0
0C
BE
6E
96
90
A5
1C
BF
D8
D4
88
D3
B9
7A
CD
25
D5
BD
82
0C
1A
D0
3A
D3
90
CB
D1
98
D9
1E
1A
18
A5
09
A7
A4
0D
6C
03
85
F4
B9
34
9A
8D
7E
83
71
8B
9B
68
A6
44
A9
C5
38
E4
CF
A1
A1
43
55
4B
4D
36
26
62
21
BE
76
18
2A
1C
D1
24
3C
58
64
FC
6C
2C
64
76
9E
83
3E
17
09
F1
89
87
04
8F
F3
8F
E3
F1
9D
7E
A2
41
4E
DA
29
16
C7
56
AA
43
0F
D2
E2
93
8E
3A
3D
90
68
13
DD
B3
3B
1F
99
05
1E
A1
73
EB
0E
88
A7
4E
76
F9
7B
9C
2B
D0
F3
BD
7F
C8
6B
5B
40
5B
87
5F
C2
45
B9
E3
A4
91
C9
1D
C1
EA
3F
69
4B
C7
C0
EA
2C
CB
9D
65
80
FA
EB
FB
8E
84
B6
E9
DF
C9
36
8B
10
60
E4
42
B3
CB
D3
8E
E6
F5
54
EF
2E
D0
E7
09
39
50
DC
55
1D
8C
64
3C
9A
FE
F1
16
42
56
50
0A
DA
0F
A6
0F
A0
B8
F3
30
A2
7C
C5
6D
8B
AC
A0
4F
69
DC
67
8D
03
74
61
85
25
BF
F3
A9
38
B5
CA
90
93
BD
AB
76
00
F2
4D
DE
6F
66
4F
29
0C
29
2D
F4
AB
7D
67
09
98
41
8B
AD
39
25
9E
D3
45
F3
90
30
48
F0
3B
08
1F
64
D3
CE
88
00
C1
A6
BE
FF
74
01
62
85
39
43
BE
88
D0
33
7F
7F
97
D7
D7
B2
4F
D1
04
6F
B2
8A
54
4B
93
24
70
18
DC
D9
78
5E
35
C7
E5
E0
BB
FF
95
AC
62
15
CD
7F
CC
B3
B8
87
DB
04
E6
B5
E9
81
00
4B
37
84
8E
07
99
62
DA
6B
CF
9F
CE
A5
D8
EB
46
6A
48
92
FA
5B
3B
66
51
D4
08
72
5A
92
D0
03
AC
24
1C
56
76
C0
38
2D
F6
F1
BE
52
DC
43
EF
99
14
17
43
F9
21
79
54
FC
15
76
A7
31
93
FD
2B
19
B3
FE
B2
46
63
EE
25
1F
AF
59
58
6E
12
F1
2F
74
4A
94
79
60
00
92
72
AB
47
5D
67
19
95
AB
85
BC
76
85
F2
57
DE
ED
E9
32
2B
E8
51
BA
2F
8A
61
56
42
EE
2E
A5
EB
AC
37
19
7E
97
5D
7B
0F
6B
BE
AC
61
65
AB
1E
B6
78
22
7D
5C
86
B2
C5
AE
6C
E4
2C
05
8F
EC
1E
6A
CE
68
6E
A9
BA
E1
3C
B7
24
9D
AF
5F
CF
49
E7
C6
A9
2F
2C
94
85
74
EC
65
41
25
3B
05
4D
BF
BC
BC
80
CC
FE
2F
A2
EA
33
F8
00
6E
33
72
50
56
4B
2D
9B
FC
F2
E9
C6
71
D0
63
38
86
3D
35
44
E6
99
B5
7C
D8
42
99
C5
5B
4E
E6
DE
FA
30
E6
02
7B
E5
74
F9
47
57
95
8D
E7
72
95
06
CD
DD
CF
5F
CD
2B
32
A2
05
23
7D
51
3E
B4
5D
04
AE
F6
C4
25
53
AB
7F
C5
BE
DA
80
5B
5A
15
82
34
7A
81
3A
A9
E9
06
BA
7F
29
0F
1F
BA
FF
D7
65
E1
9D
5D
25
25
C6
2B
70
C4
E5
EF
CE
FC
7B
6D
EF
6A
EE
40
C0
9A
02
F5
90
00
BF
DA
93
8E
B2
48
B6
82
43
46
2C
AD
63
C4
BE
CD
DE
BC
66
0B
A2
9D
E8
89
E3
A9
4B
50
9B
DA
95
03
5E
49
CF
17
7B
18
E4
D7
2E
51
5F
C3
F1
46
AE
E9
DF
4E
21
CA
D7
13
AC
0B
B6
29
91
16
05
14
04
B8
51
DD
31
CD
3B
FF
46
7E
7D
F7
BE
FA
F1
D7
C9
7E
13
C1
03
A0
62
A5
0E
D7
D3
D5
91
47
F0
5C
9D
15
44
FE
CA
32
46
4D
42
A4
E3
C4
47
D3
37
17
AB
C7
98
19
CF
CF
36
81
A9
5C
91
AD
8B
D1
15
6C
EF
A7
29
21
96
7C
E5
BD
11
CD
11
D6
77
D6
FA
A8
47
78
8D
62
B0
5A
F4
8E
22
CE
77
36
84
1E
DA
02
8C
A3
1E
4B
A5
CD
D8
A5
13
E9
D5
B2
E5
3C
A9
90
3F
D0
6A
E5
BD
82
D3
DA
5C
AD
42
D2
EC
55
35
30
33
CC
C9
EF
3D
4E
63
94
92
BE
E9
E7
D8
0D
A4
57
92
53
4E
97
03
F1
DF
D2
A6
A4
C6
DE
86
14
A9
27
87
0B
A7
93
24
CA
D6
CE
CC
5E
FD
67
C1
54
79
A2
DD
38
34
AF
37
A1
B7
E2
0E
EF
F5
A0
05
E0
FA
67
AB
B5
50
B7
06
4B
27
28
D6
75
69
B5
AC
4A
ED
2B
02
DC
5B
D1
A4
B9
85
50
2F
B9
44
C7
EF
A9
A4
F9
08
77
B1
FF
05
BC
E0
53
3A
D2
96
8A
18
DF
68
DD
D3
41
4E
DA
6F
2F
6B
E6
AC
D8
21
8D
63
F5
86
A9
87
3F
51
CE
DF
E3
04
0B
60
98
61
D3
83
25
7F
10
81
72
61
E7
B1
84
4A
59
5C
75
5B
CD
67
8E
ED
18
14
79
0C
19
D2
75
16
AE
DF
CA
76
98
06
96
75
D8
BB
11
D6
3B
46
8D
F2
3B
7C
2C
2E
1A
3F
AA
E6
AA
CC
49
25
4B
92
8B
B3
13
3B
CB
78
BE
5D
E0
96
CF
D6
DF
5E
98
FB
DD
47
9A
16
B0
8F
B3
E6
F0
5D
51
76
73
F2
09
14
13
17
F2
70
C9
C2
B1
64
3E
C9
1D
0B
E3
AF
00
21
E9
52
FA
D7
7A
6A
35
C1
F3
AA
03
6A
90
49
D6
54
8B
5B
86
BF
4E
8A
1D
5C
DE
76
59
6D
AC
E2
40
A4
14
8E
7B
32
72
E0
1C
33
46
CD
98
44
0D
72
27
58
0E
36
19
4C
08
3F
10
7D
15
66
9E
2C
B0
39
BC
06
4D
21
07
77
B3
08
44
0A
65
13
00
D8
B8
D7
4E
F0
CB
9A
E3
6C
CC
43
46
45
68
30
2D
5E
E7
5B
6B
02
4F
0F
F4
C9
28
CF
DA
35
A8
E5
62
E5
B9
1E
7B
D4
C8
88
DA
6F
13
76
93
FE
76
22
D1
C3
51
1F
A7
55
AD
0D
FB
FC
1C
71
01
26
AF
1E
DD
56
11
0C
BC
8E
A9
78
FA
ED
82
84
E5
89
20
AB
DD
A1
B3
CB
46
EE
2A
A4
66
C7
21
AD
4C
E9
F8
24
60
E6
58
82
E7
54
2C
A2
F8
87
29
D4
1D
46
A5
67
1D
50
50
3A
