CA
2D
F6
59
42
FC
6E
48
1D
50
3F
CF
6A
D8
E7
2F
A5
36
48
BC
85
E1
B3
76
6E
AB
7B
B0
E2
DF
41
81
95
D9
98
05
78
B4
D5
5A
0A
5C
23
E9
47
3A
0C
B2
5A
A1
2E
37
FC
BC
11
2F
1C
2B
0A
A1
76
A0
A5
82
76
5F
D3
0F
07
52
08
80
D6
E4
DE
14
DC
AA
E3
D2
4F
A8
73
02
A2
C9
4D
ED
47
A2
E0
90
C7
CA
CB
A9
AC
06
1F
A1
20
D5
2C
4E
E9
18
EB
0C
04
59
8A
B0
BD
37
5D
4A
A4
DB
59
40
90
EA
F8
D9
15
74
6F
F7
4D
58
EF
19
E5
52
86
D2
9F
A2
6F
37
0D
7C
62
6E
EB
E6
A4
6C
93
BC
CA
C8
95
46
9F
D7
1D
A8
9D
68
B5
C9
3D
41
A0
A6
19
13
04
5F
44
FF
11
CE
EE
B4
3E
70
F2
5A
AD
C5
94
67
86
4C
EE
62
9C
70
29
EE
38
5A
42
1F
AE
CB
7A
4E
08
73
21
AE
FD
A8
E4
D7
EE
BB
53
3E
BA
2C
31
AE
6F
77
FD
A0
68
7B
73
DA
7A
DD
20
39
46
C5
B8
4A
C6
98
4B
63
70
BB
1A
76
AA
DC
4E
DB
3A
95
B8
D2
05
F0
28
BD
6D
4F
D1
A4
FF
44
93
27
6E
D7
23
5C
34
C3
92
9B
3F
25
12
83
E7
97
EE
A0
F7
48
00
FF
DA
7E
2F
17
03
C0
E9
BD
AF
1B
94
9C
16
B4
79
E4
59
EC
F1
2A
D6
A1
BC
D1
5C
FC
77
C5
07
9F
C0
40
D2
CB
43
93
1C
8D
F1
E8
AA
6E
E7
44
34
A9
CE
7A
85
8F
4B
80
DC
32
8B
0C
17
AA
78
F6
77
11
26
07
C9
EE
3E
05
F2
69
30
7C
7B
EA
13
33
8D
D0
DB
8B
33
0C
C9
72
45
2C
75
14
03
C9
70
A3
B9
F6
17
EC
73
97
54
36
CE
0E
DD
B7
24
7D
70
EE
2F
D7
20
CD
79
99
7F
A4
26
8C
82
95
5B
61
9F
E0
41
06
DE
A9
0C
2E
4E
54
C1
CE
4A
63
3B
53
36
D4
F9
69
E6
AD
7D
F9
D2
60
A8
31
6A
FA
1F
57
B4
40
B3
B5
D0
A5
84
3E
62
E9
C2
4E
75
57
41
A1
9B
17
4D
6E
05
49
F9
28
61
F1
E7
D6
9D
F6
B3
40
61
75
7D
4F
5C
2F
EB
B3
1C
FE
B0
E6
62
CE
1C
E0
22
8A
EF
6D
1B
77
A5
BE
EA
C1
45
3D
9A
71
F1
67
CF
01
E1
A2
5E
BF
87
8E
25
7F
BA
D8
E5
25
36
C0
C9
BC
6D
2B
5F
77
01
5A
67
C8
99
65
2C
09
3E
DF
75
28
10
C8
9F
AB
3A
AE
41
6B
57
D0
F1
0E
DE
4C
48
6B
0F
8F
58
16
39
34
88
1A
BF
8A
46
D8
31
6E
6B
71
D4
82
65
71
E5
A4
9D
CE
99
24
73
33
D2
45
3C
93
99
97
E2
D7
49
E8
B6
ED
90
E6
98
59
A1
52
8C
FB
F5
98
C1
3A
0D
6F
32
74
99
E1
B4
87
F1
19
AE
90
A1
A5
BA
22
F3
5B
BD
D5
D2
E8
27
CC
17
63
B6
38
DE
54
16
AE
67
C1
93
DC
45
12
40
C5
13
14
88
97
A6
E1
1C
66
78
60
BA
B9
AC
C8
C2
D5
21
50
71
14
95
2B
59
7E
46
E0
24
C4
20
32
3E
18
05
BB
8F
4F
0F
FB
59
39
C7
B3
23
CE
6C
8E
07
B6
16
D2
57
82
91
EE
7B
E5
0D
20
4D
46
31
15
5E
18
3C
0F
E8
F3
23
2E
3D
DD
0E
21
DB
C3
04
D7
8F
CC
34
EC
55
FC
ED
95
47
5B
2F
E6
4D
5D
CE
71
74
B0
0A
42
33
A6
01
0B
DC
2F
56
13
91
9C
17
8B
3A
D0
FD
B7
03
B0
D1
5E
47
A8
43
1D
CF
09
4E
1F
57
70
0B
1E
AE
4A
BA
01
51
DD
FA
58
CA
E8
42
DF
A4
23
9F
78
7F
6C
23
68
85
D8
94
BE
EC
F5
6F
6B
1D
06
C5
24
A8
36
C1
BD
D1
C0
79
2D
57
FF
F5
FC
C7
92
88
A9
94
B2
CB
74
5C
B2
2B
B8
C1
C6
3A
69
8F
69
97
B1
98
65
7E
03
4C
DD
3E
AF
31
E8
CD
88
2A
50
F0
74
A3
8B
28
78
63
46
4B
FA
51
AE
DA
87
3F
4D
15
42
22
31
47
88
B3
8E
F3
45
24
3F
69
AA
A7
AD
8A
A8
82
C7
81
4D
AB
2A
1D
8A
9A
60
43
91
B6
C0
B4
1B
D3
01
58
9A
68
3C
94
87
0B
6A
98
4E
55
25
48
C0
62
3A
47
4B
B7
0A
84
B5
EE
AE
ED
14
E4
78
DB
63
C7
31
41
05
6B
49
54
ED
9D
D7
FA
26
9A
FC
30
35
60
44
07
24
F5
3F
E1
7F
9D
64
D6
C7
D5
DD
CE
24
4C
4C
9A
21
02
51
01
29
D8
A4
1B
C7
C6
BF
8A
DA
E5
19
2D
5C
EB
A8
7D
B8
64
7A
14
0C
D1
8F
A9
D4
9E
55
1F
0A
B5
6A
9F
DD
56
E2
C6
89
CD
AB
95
22
CB
12
CD
64
43
68
4C
E5
66
D4
14
4C
50
8C
95
1B
ED
2A
21
3F
FD
96
89
06
AD
16
40
64
71
44
40
6E
CB
33
57
F8
F8
56
42
77
47
1A
DE
ED
9E
04
2A
34
5F
85
72
17
27
DA
A8
A7
FB
FC
8C
1C
88
C1
75
AD
C9
08
03
DA
FB
2E
F3
81
0C
76
16
35
AF
5C
45
81
D5
62
A1
35
CB
6B
28
72
F0
56
91
D7
99
55
77
03
F5
54
E3
A3
59
CC
59
8E
1F
E5
E0
2B
B5
B9
FF
9E
DB
04
A0
83
64
C4
98
EB
60
C6
33
11
75
E7
90
3A
C0
40
32
D5
5B
98
82
A7
1F
62
36
1F
52
9D
