AB
B1
CD
BD
22
40
E2
3E
76
68
B8
28
72
35
73
4B
9C
BB
A0
9D
37
AE
C5
2E
84
2F
E1
DE
C2
1D
D4
9F
34
0D
39
75
64
D5
44
4B
77
5D
6B
B9
3B
3B
79
28
68
4C
05
D2
85
39
E4
E7
AF
A0
D2
22
69
C8
ED
B1
4F
12
B1
B4
A2
B4
FD
3E
91
B3
7A
EB
0A
75
67
5C
32
06
8D
93
78
1F
A4
BD
16
B5
A5
2F
2E
15
79
CA
4A
4E
7F
20
BA
EB
2A
2D
B8
03
7E
42
5C
73
C3
EF
7E
D8
7F
1A
F5
94
07
C9
37
CB
6D
83
E9
30
58
DB
9A
2A
D8
11
48
EE
D3
24
A2
0B
31
39
B6
B5
B3
24
88
F8
9D
70
11
A7
2C
4E
2B
7A
52
79
F6
AA
8C
10
94
F4
BD
90
37
30
50
17
AF
2E
A3
B4
63
39
A9
24
00
2D
17
0C
9A
CB
61
B6
2C
93
A3
14
3E
2C
BD
07
39
77
94
0F
A7
87
4F
15
3E
94
53
6C
25
03
B6
F1
1C
8C
B6
0A
27
86
6A
15
92
2E
FF
BE
57
22
97
89
37
8A
16
39
2B
AD
7F
A4
C0
3A
70
F0
63
62
66
F5
D6
F4
84
7C
8C
78
59
E6
9D
67
42
72
FA
95
D0
70
30
62
D1
C7
F2
A9
31
F1
72
42
91
B6
F5
F9
A8
6E
E4
9A
78
9B
FB
CA
7F
AB
4A
C6
65
EF
BE
AC
75
42
C6
2E
19
6C
A2
22
FB
A2
8A
EE
FB
CE
30
C0
C6
89
6A
C5
4D
61
6E
47
59
9B
72
D2
9D
D6
A7
3A
C2
AE
EF
ED
6C
42
14
91
67
2C
2E
68
0D
4A
02
8F
1F
4D
9D
DB
88
AD
D7
50
7A
BC
E5
60
74
36
7E
5E
F0
29
42
D9
A9
3A
3D
1F
20
58
A4
AD
25
4E
E0
58
9E
AA
95
46
CE
AD
1E
E5
09
F0
2D
F0
AE
E3
CB
DF
46
13
2C
77
B0
AC
0D
54
3D
84
78
A2
EB
D3
8B
BF
F7
14
76
C9
26
8B
BE
CA
0E
61
DA
F3
A4
11
4C
21
E6
2C
57
27
B8
19
A5
98
41
A6
FA
A1
EC
8D
74
50
01
C2
AE
C3
EA
53
7B
E2
51
3F
35
26
77
38
B6
C5
7F
B6
2F
9D
5C
77
C8
B9
62
72
C7
87
9F
AA
64
B3
98
48
0E
D5
8E
62
C6
A6
FD
85
D7
68
73
CD
70
C0
30
61
0F
DC
0F
BD
D7
08
E1
3A
AA
61
23
BC
86
94
C0
C1
2A
64
35
FC
FB
8A
2A
CC
1B
31
94
4B
41
43
E1
CC
61
BC
0C
A5
3B
1C
D4
61
E5
A0
00
DB
7F
37
66
2B
82
B6
5B
94
80
31
25
D7
9E
D0
1C
CA
37
A3
4A
54
D6
89
19
6A
53
4E
81
BF
CF
70
2A
97
AD
70
44
D1
1F
27
40
0E
50
A4
A5
C4
11
44
5B
FC
F8
53
CA
63
60
C7
75
16
0E
86
EE
51
B8
3D
B8
56
04
76
A5
B6
93
DB
61
26
E5
B8
ED
81
64
6B
C0
9A
50
7F
43
AB
71
14
24
7A
03
56
66
1C
B7
2C
18
01
D4
36
D3
84
F6
2A
C8
F9
21
80
68
64
27
61
7E
59
C4
69
AC
73
C3
AE
19
42
F8
6D
59
F7
95
05
F2
38
7E
D4
E3
22
8D
28
A8
28
C3
07
34
C1
87
72
C7
FF
7F
58
91
54
42
4B
8C
4B
AD
E6
54
4A
9C
BB
CF
67
D9
AA
51
45
71
2E
11
DF
76
BF
49
59
5D
BD
52
A4
0B
06
6C
5B
CE
C1
62
5E
F3
AC
4F
45
33
DA
F8
E5
B9
D4
E0
AA
E8
EC
ED
BF
01
82
37
0C
00
B0
57
3A
EE
34
11
55
36
14
CC
A4
EE
8D
BB
47
DB
4E
22
EC
67
EE
5C
C0
62
0F
18
7F
A1
ED
80
25
BF
05
CE
BB
43
DF
D0
F0
51
41
9A
F8
8B
1B
A7
2B
31
FB
BE
B0
14
1D
BA
5E
09
6C
39
1A
54
8D
1F
33
67
74
9B
3E
58
09
65
49
71
3D
58
98
D0
83
D2
C2
72
D3
8A
46
C5
A8
F5
79
0D
74
21
F5
E4
8F
9E
29
A7
26
C5
67
67
43
F0
0B
51
0D
0D
75
1D
CA
DB
3A
C8
31
9C
B3
0D
06
13
F2
ED
3A
35
86
B3
AD
66
D8
6D
51
D4
61
90
39
AF
70
3D
8A
9E
13
E1
09
64
7B
6D
A8
B0
98
FA
DB
3C
E6
95
B9
19
DE
34
69
62
97
9F
20
8E
AF
4B
F3
79
E1
36
A8
A9
61
F8
2A
E9
7D
CF
A7
B2
20
FF
98
39
33
15
8A
FB
D0
A5
59
D6
B9
B1
6B
16
F1
66
B6
C1
86
C1
DB
65
63
2C
DB
1E
AB
76
4B
88
BA
07
49
40
28
EB
CA
27
69
40
3B
C9
A5
E8
90
94
80
A7
9A
DB
61
E8
50
23
D6
04
CE
FD
54
2C
4C
5B
15
2D
D2
E5
AB
A3
0E
C4
87
90
FB
9C
97
A8
5A
F1
36
9D
E7
2B
A6
B3
85
FD
56
4E
11
20
F7
93
49
F9
A4
A3
9C
81
B3
FF
70
F8
06
41
F4
11
A4
FB
EB
04
98
FA
CF
11
9D
AC
AB
8F
48
03
23
12
66
B1
53
63
AB
57
44
D5
D6
EF
AC
3E
24
36
31
85
61
3A
26
5E
BC
A9
2A
43
B3
01
A5
48
A5
2D
76
0B
4B
01
4E
A3
F8
B1
5D
D3
25
80
B8
46
E9
0C
2B
38
21
45
89
86
48
15
73
72
A2
10
38
FE
06
BA
DA
F4
53
F0
3B
C6
A7
55
A1
69
46
EA
D3
56
9A
45
33
91
97
73
92
05
07
02
4B
92
06
6D
CB
67
1F
F8
A4
08
3F
C5
02
AF
95
50
1B
2E
57
E2
82
6D
E9
B0
F8
57
B5
F2
66
10
E8
B1
33
85
8B
A1
E4
C0
46
8B
F7
24
DF
AF
C5
E4
91
9B
E4
96
CA
42
85
1A
B7
74
A2
AE
B1
BE
C4
74
D6
AF
74
F8
83
A9
07
D7
73
B3
CB
BB
E5
04
92
73
BF
4C
F3
AC
CA
0B
A6
41
4D
3A
16
E6
D0
40
3B
8A
36
33
B3
3E
4F
2A
CB
F3
2F
F9
C2
67
6C
52
15
DF
5B
5C
FE
F0
B4
3E
69
2F
09
6E
F0
FD
5E
31
27
72
48
6F
1F
75
7E
26
13
F8
A6
A9
DF
81
A5
D8
05
DE
A5
4F
EF
10
70
10
6C
D4
12
DB
A4
04
CB
E6
11
94
49
2A
73
C4
1D
FB
87
CE
91
30
8D
D2
B7
04
A2
8C
51
80
7C
2C
25
42
43
01
6B
6F
42
16
F0
17
C4
7A
B6
1C
C6
64
50
8E
4F
5F
02
83
74
A1
CB
2B
BA
C1
46
40
95
7B
85
F0
81
72
24
77
7B
51
17
CE
FE
AA
20
7D
69
24
95
D7
A8
83
F5
F3
7A
84
E9
1E
42
66
60
93
83
40
28
09
47
EF
86
0A
2C
41
52
51
C0
DB
BB
E1
B3
6C
70
9B
84
25
0C
A5
E0
69
46
CF
A8
B3
3D
17
88
9B
F1
26
A3
07
D5
76
DB
A3
60
B2
6A
AB
DC
4B
C1
76
A8
31
B6
79
5F
E9
9B
52
39
06
EE
F6
5F
FE
A5
3E
38
63
FE
C3
C1
50
76
04
2D
F0
B8
89
4B
43
DB
4F
6F
B4
E0
F9
1D
24
65
69
88
E0
D7
ED
41
52
64
C0
02
35
06
29
63
59
78
3A
D5
B6
49
5D
0D
CA
D6
43
83
1E
CA
8A
7A
C0
E8
3E
28
E7
21
71
BD
63
22
3A
11
5C
CD
84
83
58
D4
2D
10
BA
BB
67
12
7A
EC
F4
41
75
A5
AD
70
2E
9C
D1
7F
B0
C5
7A
B5
91
A8
38
DC
02
6C
DF
0E
11
BE
28
E7
39
25
52
0F
46
71
13
D5
DB
BB
DF
5E
50
BC
1C
54
98
28
E9
31
91
91
7A
4E
33
CB
4D
EF
E7
11
CA
FC
2A
EF
D2
94
42
68
68
AE
58
28
8E
49
86
54
11
4E
6E
3F
6C
B4
C9
98
3E
54
AB
59
FB
5F
AB
DB
44
6F
B2
54
D2
21
52
B9
2E
9F
4E
40
BB
3C
54
F6
E1
E5
14
16
8B
A4
79
41
C4
32
A4
C0
47
0D
1B
76
9B
15
EC
F2
CE
45
1F
5F
DF
67
B8
E6
53
35
A8
2B
D6
3E
35
97
7D
33
9A
E0
76
93
7A
84
C9
AE
56
BE
FF
B2
C9
BC
68
D3
27
64
8C
4F
A8
08
43
B7
45
BC
79
AF
17
6B
4E
A5
91
7F
D8
57
49
95
9C
EA
B7
45
8D
A2
8E
CD
F2
0E
EC
45
10
A2
EA
2B
E0
2A
61
79
35
47
47
91
16
6A
F1
B9
BE
A2
A2
FD
58
5F
F6
45
86
61
1A
6E
05
6B
58
E9
21
56
BB
45
CC
CB
E8
67
54
72
05
F3
73
37
54
3B
7C
E9
E9
AE
80
E7
71
15
7E
E6
8A
4A
95
CA
17
23
6B
6A
DB
81
47
55
F7
21
EE
DF
4E
F7
3B
2E
E6
00
64
10
6D
9B
8F
47
67
7D
BE
E2
32
A6
27
55
EE
66
82
4F
12
2C
93
8E
B1
DA
AB
90
D0
C8
DE
0B
82
4F
0A
45
82
70
13
EA
E6
D2
1B
FC
7F
C1
42
19
5B
2C
60
12
1E
76
7E
47
69
A9
6B
72
F8
42
FA
1B
7B
14
F9
9E
70
4F
B5
41
AE
C3
98
9D
87
CA
71
D6
10
45
1F
BD
62
29
7C
9D
63
48
73
B9
DA
DA
31
3A
67
66
0B
CB
2C
91
2B
DF
60
42
FA
3B
3B
77
FB
CC
71
83
D9
5E
CA
28
EF
C0
14
EC
CC
61
C5
74
FE
D8
6F
E8
B1
F4
94
5C
A1
9E
7C
A9
C8
68
F2
32
5E
80
B9
6B
CC
38
B6
34
BA
5F
1B
53
E1
A1
50
99
48
39
51
5D
61
6D
CA
87
B2
8E
2D
3F
05
40
2B
C5
B5
E3
58
1E
13
B7
DD
30
0F
98
F3
03
22
31
F7
5A
6B
EB
98
7D
23
A2
C6
EF
5E
5B
B0
42
37
6E
E4
8F
F4
B1
75
F0
B4
51
AD
F0
0E
A6
DA
E4
2B
F2
77
8D
A1
AB
D9
5E
0C
53
3E
79
21
A5
4C
3E
F6
58
57
5C
BE
38
FC
27
E2
DE
8B
5F
C2
24
4D
FC
08
21
B8
61
87
FA
C8
64
AA
1B
3F
76
98
0B
9E
89
5F
48
03
94
BD
77
B5
73
75
97
52
10
D2
6C
C0
7E
61
62
DC
33
2A
5C
EC
39
CA
9B
05
18
30
C8
C0
6A
E5
28
D8
46
CF
BE
5A
71
EE
42
15
D2
BC
E7
90
7A
AE
90
BA
AB
3E
65
1C
17
97
37
C2
11
6E
90
90
EC
3C
6C
01
3C
6E
E4
1F
0D
99
92
95
D3
6C
FE
66
2F
41
F9
E0
AC
23
F8
B9
73
73
14
B4
9D
C4
B7
D5
B0
DD
75
AE
8F
AA
24
83
03
72
65
A5
84
EF
05
74
79
01
D3
8C
82
41
D3
3C
DF
79
E6
FA
F9
47
D7
D6
03
32
E8
3F
82
11
BF
4C
21
09
60
D3
10
A9
47
20
E1
FD
4D
61
1A
CB
A3
A5
A8
FA
72
7D
A8
F5
50
9C
7C
0F
58
F9
AE
5D
73
3C
9E
06
B8
1F
44
E7
61
8A
97
AC
36
11
51
E4
E9
2C
85
9F
A8
14
BC
F1
3B
0B
0E
4F
ED
F3
4E
DE
93
66
6A
A8
47
13
49
69
5C
06
B4
48
AD
5A
07
BF
A9
F7
6B
C0
24
C6
35
87
90
81
04
13
1F
2A
CD
89
EC
60
E0
9A
1D
14
41
03
1A
1C
95
76
23
1F
EB
7B
38
AC
94
56
37
4B
61
2F
C4
CC
A8
15
90
66
D0
68
5E
EB
2B
59
C4
