2C
5F
C3
93
CE
07
3D
66
D9
7B
32
0B
64
95
FE
E8
D4
24
7D
1F
3D
92
DA
CE
30
30
03
8F
7E
24
4F
37
DE
D0
D9
57
98
9B
73
77
16
1D
AB
BA
97
C5
14
D1
F8
95
FC
A6
25
1D
40
11
1B
87
79
D8
14
29
2C
63
B5
35
47
B1
6A
44
12
DA
91
F6
0F
6E
A3
D9
65
67
62
8A
47
AC
AC
8D
DE
13
76
61
7F
46
48
88
E3
8A
7A
94
C7
85
65
21
73
DE
0F
56
B0
4C
41
14
87
AE
A7
3B
AD
13
90
16
E9
1C
76
E9
28
80
A1
30
92
D7
E9
5E
65
CB
7B
DD
02
3E
8F
9E
03
B5
65
3D
6F
7A
BB
9C
DB
0C
41
99
2B
25
C1
B1
A9
12
D9
C5
C9
B5
0C
B4
22
67
B7
F8
B6
AA
6E
28
98
4B
9E
77
0B
36
FB
89
7D
3B
21
D5
07
DD
26
E9
EF
47
C2
FD
BB
66
B4
CE
A5
CF
C7
D9
FA
86
67
ED
CD
A2
43
34
0B
E8
EE
D3
5E
63
5E
1B
F4
29
9B
CD
93
AC
CA
C7
8F
A4
EA
21
89
42
40
FF
52
CF
30
84
5E
58
AE
7E
88
F2
33
5A
E0
EA
65
EC
5B
56
D7
80
5E
4A
B5
5D
98
B9
BB
26
51
78
38
A6
EF
89
2E
4A
E0
E3
9E
60
85
0F
E8
39
2D
B5
AD
D2
A3
B0
F1
8C
EC
0F
19
2B
AA
B0
F8
69
EC
43
10
0B
99
5C
43
6F
FF
99
2F
56
FF
F2
B3
59
EB
4B
6E
34
D5
A1
98
80
E4
B6
7A
D6
43
21
94
2B
4E
C2
64
2B
62
8F
65
7C
3E
1A
F0
0A
DE
C7
40
F7
8B
83
BE
94
5F
B5
D8
A6
46
82
32
0A
0E
2C
23
2F
89
5E
50
84
F0
F8
E8
29
D4
EE
7E
73
E5
72
57
74
D7
D3
C1
DC
B5
28
67
50
7C
B2
0E
4F
21
2E
BA
1D
C6
EE
3E
A9
86
48
4C
3A
54
8B
F7
B9
69
C9
AD
AE
45
33
82
29
BF
65
C9
87
E5
9D
65
03
7C
83
40
7B
2D
BE
F6
03
DC
40
77
27
E8
BC
5A
42
D7
FC
ED
AE
7D
85
07
77
9F
4A
B2
82
86
11
ED
61
4F
C5
E9
41
01
5F
D0
5A
70
6D
48
5C
B7
EB
FC
A9
CA
34
85
71
9E
95
6A
5E
BA
CC
58
1F
D0
89
26
41
67
55
64
87
2E
C8
6F
0D
65
85
AC
7D
72
C0
3D
E7
A6
59
26
8B
91
CD
DF
E5
6E
AD
39
2D
9C
84
F3
2D
2D
C2
D0
4E
EC
23
62
AD
BE
03
E4
F9
D0
AB
D2
D4
0D
35
BF
5E
D7
9E
2B
A0
96
B6
1C
4E
04
BE
3A
8A
F9
62
46
52
7D
2B
5B
8C
98
A9
08
E5
E9
31
7E
8B
D2
58
DB
E0
F1
E3
85
87
08
64
9C
8B
FE
BF
B9
2D
9F
28
92
57
C9
15
ED
D1
47
8D
0A
86
B6
62
61
BC
16
CA
B1
57
2F
12
46
44
8D
6A
6B
89
F6
35
39
CA
09
2B
21
B7
B7
3A
FA
62
96
79
13
69
17
78
31
10
23
0E
65
7D
C0
44
D7
0A
40
F1
89
B3
D9
19
9F
7B
27
13
33
B2
E0
2A
0E
B3
3E
70
E4
D9
B3
25
53
4C
A6
87
82
8F
1B
F9
24
DF
3C
FC
7D
FE
60
C2
F8
67
80
2A
2A
FD
17
48
A3
2E
FB
56
39
C8
9E
F6
0C
75
A3
74
33
01
A2
02
39
DE
98
AD
1F
0D
4F
B7
D0
73
03
8B
68
8C
CC
B4
E3
84
CD
58
F6
94
68
9F
BB
6A
86
6F
ED
C5
77
FD
52
18
63
CB
B9
54
D7
4F
FB
78
33
47
62
65
08
57
ED
D6
6A
24
67
5F
35
14
B7
76
2B
50
FA
37
5B
71
1B
13
7B
D9
80
13
D4
42
A9
07
C8
16
ED
C9
69
6E
6B
9A
8C
1B
03
CC
08
61
5C
0C
A4
C4
96
6B
41
EA
05
48
1F
80
1F
A1
4C
40
69
96
0B
6F
91
4C
1E
D8
0E
6F
DF
3F
A7
C5
E8
7B
79
17
27
8C
5F
C2
9B
83
C8
11
3E
46
E4
C6
F7
4E
C9
24
CE
E6
D3
E4
B2
92
05
A4
17
37
6F
0A
41
53
77
19
65
E2
7A
8F
0D
0A
BE
31
35
8F
42
B3
A1
45
69
CC
17
D4
D9
D5
80
7A
58
AE
19
98
41
BD
C9
ED
0B
D8
4F
69
A7
15
FC
54
48
DC
5A
20
4B
52
20
77
59
C7
20
07
C8
B0
80
03
09
62
6B
9F
5F
A7
E3
14
F8
A9
87
CE
E1
0E
33
42
AF
56
8E
D7
13
53
21
07
26
1C
93
7B
3B
D0
A1
A1
41
52
07
C7
40
71
28
6D
B2
B5
3F
AC
7B
3E
53
8C
A3
BE
68
B9
97
AD
B5
2C
F5
F7
1A
7E
00
DE
67
8D
46
28
BE
0A
DD
F9
60
98
B1
DC
17
5D
C8
B1
35
DF
BC
78
3D
19
22
11
B5
93
07
7E
D1
1D
FC
6E
71
58
97
43
17
41
D2
2F
92
CD
23
C9
A3
4B
B1
B7
4F
8A
F3
22
AC
87
7A
B6
4B
14
2A
17
AB
AD
1A
95
DB
90
1F
D6
BF
97
4D
E7
73
E8
78
F1
FA
25
91
BE
74
65
9B
D4
0D
2C
FB
01
DC
4B
9C
05
F7
E0
96
93
1B
6B
5F
05
CA
96
9D
84
99
5B
4C
56
4C
F0
EA
01
02
98
91
0E
90
59
56
17
5A
93
CE
CD
69
3E
E0
4C
55
29
94
47
E9
A7
38
F1
C3
78
66
7A
E5
32
96
53
B0
8D
5A
87
A4
50
2C
53
FE
91
AB
8B
7F
39
D1
95
C9
35
57
0C
B4
11
72
7F
05
BE
2E
F5
D6
D3
A7
72
73
06
B2
91
29
41
A9
42
D6
5A
86
54
18
79
BE
81
C7
AB
6F
85
A4
B4
FC
2C
70
B2
3C
C5
14
EC
9E
71
EC
5C
5E
BC
59
24
10
77
18
E1
7B
CB
E2
4D
17
F4
B1
B9
73
AE
A5
23
96
BA
D2
1C
51
97
AC
9C
31
24
64
68
F5
BD
69
4E
CD
D2
E9
E2
F1
CD
7B
53
4E
15
15
0C
4E
8C
27
12
45
66
1F
F6
1A
3C
8C
59
0E
99
DD
AD
31
92
CC
DC
23
DB
A1
A1
F6
A8
AA
3B
1F
68
1C
A0
1E
D9
51
B2
51
AA
EA
CE
2A
0C
90
EC
86
67
AC
11
68
C2
00
D2
00
BC
B4
55
3C
4E
D6
8F
0D
D9
4E
50
B3
44
E1
AB
DF
A6
B9
A2
05
8A
22
ED
66
0C
20
5B
09
CC
81
9E
46
8A
04
26
59
8C
26
D3
E1
10
B2
98
9D
E2
55
B0
E3
76
7B
D0
94
B3
4B
8D
7D
D8
D2
61
BB
1B
E9
3D
D0
5C
DC
21
60
2C
0E
6D
07
14
8F
2F
23
5B
40
C6
DC
59
C0
15
69
A3
B3
62
CB
D1
AD
6F
FC
28
B6
81
0D
D6
86
A8
EF
E2
22
DB
B5
35
0E
70
F1
F6
FC
BF
D4
5B
D9
46
55
23
1C
CE
94
4E
E4
8E
EB
48
08
23
31
25
D5
58
DD
21
D9
11
A6
6A
D0
EE
13
2C
B6
E4
D7
78
32
EC
56
1B
49
63
86
70
9B
80
88
7B
B2
49
80
34
F0
53
99
B1
85
B9
7B
79
9E
B7
D9
99
16
5C
4F
8C
02
95
B8
7A
41
89
6E
ED
3C
CC
CC
15
A5
B7
8E
1B
47
DD
1A
5E
8D
71
C3
9D
F6
74
CF
3D
5A
F0
BF
B3
A0
79
DD
91
81
4B
EB
3B
D4
62
9D
FB
B7
79
A3
0D
7A
F7
C2
02
C6
C1
D5
7C
79
B2
70
3D
6A
B0
55
1B
4E
15
71
94
17
DD
F8
EB
EA
DC
F1
E2
2E
FF
F6
F9
05
7B
7B
96
46
6D
7D
1F
02
36
A1
21
3A
65
2B
8A
74
D7
0E
AF
EB
AF
4D
44
C5
07
45
51
96
D0
B1
1E
04
D8
64
2D
DA
6A
F1
1F
D8
75
9F
75
46
4F
C2
D7
B3
37
02
5A
15
F0
D5
48
3F
22
55
5F
59
AD
49
F0
0B
F4
32
2E
78
1E
42
36
9A
12
FC
41
A5
11
4B
C9
F7
32
5C
EC
C9
7B
AF
E2
0A
59
90
D2
57
38
06
B6
C7
9E
0C
25
05
41
EF
DF
E5
8B
08
EF
20
95
0E
ED
62
17
5D
BE
0C
AF
99
96
B3
C1
89
65
CC
C0
1C
77
1A
95
F5
51
3A
BA
4F
5E
C4
2F
23
2F
9F
DE
53
FC
2F
30
6C
5D
7F
30
75
EB
2A
2F
24
A2
B1
66
55
B5
97
0E
46
C3
A2
F2
96
F5
79
96
A8
F5
86
65
E7
0E
21
D7
5C
7C
F7
1F
4F
C3
7A
04
65
92
83
86
9B
91
8B
0C
AF
99
07
1C
6D
46
CB
D7
44
B6
AE
7B
39
A0
25
72
69
C4
2C
10
2B
BB
65
B5
49
C5
73
9C
FF
02
5C
BB
37
0F
D6
FB
AA
E2
88
2C
7E
CD
5D
5C
D8
A7
78
5C
A1
9C
BA
C0
E4
3B
26
A3
1D
39
02
80
46
2C
19
12
FE
46
B8
20
C5
E5
8D
5C
75
83
0D
95
36
9E
E8
88
42
8F
C4
4C
8C
91
08
FF
02
A6
CE
08
19
08
7B
79
38
C1
8A
A2
34
4B
9C
FA
D3
29
36
EF
9E
85
7A
80
44
70
DF
34
D7
0D
78
74
67
AC
2A
BC
F5
C6
E3
C0
A0
BC
CF
DD
C7
98
E9
21
D7
88
58
85
B1
A7
02
8C
D3
00
55
AB
FB
E1
D6
8B
0F
D8
A4
D0
F1
B5
E7
16
73
9B
BB
42
4B
01
01
6B
CC
5A
01
4C
6C
DF
70
DA
E9
1F
29
00
26
E2
2C
DB
58
56
8D
F6
AD
A3
67
19
FF
38
E4
EA
A2
B2
25
17
73
68
6C
C4
5C
BA
A6
F2
29
F4
39
ED
1B
CF
30
42
7A
29
D3
7B
D1
8E
53
56
CD
1C
C8
50
D1
89
FA
66
DB
4E
F8
C9
17
09
1D
0D
87
7E
89
AE
69
A2
1B
7F
75
48
85
E3
EC
CC
91
1F
34
99
48
B1
C7
FD
A5
66
83
DF
57
3E
DA
1D
C8
59
63
38
81
EE
04
D9
D8
C5
E0
83
D6
1A
30
95
9C
CD
61
E5
97
44
7D
55
89
7F
9A
EE
5A
D9
EF
1A
5C
54
87
C4
92
71
96
5D
CB
70
FB
05
33
EB
69
15
61
DB
7C
5D
BC
70
70
53
28
AF
3F
D6
7C
8C
7A
AA
E7
E1
FD
60
D9
CB
DC
4D
19
34
71
EC
43
95
13
98
94
DF
0F
DA
D0
F5
90
94
4C
0F
CF
C4
0B
A9
12
3E
7B
E3
77
49
D0
85
F7
2D
3E
54
87
1F
0A
06
A5
D0
88
50
25
66
EA
69
D9
72
E9
30
4C
A2
F8
3F
9A
19
5F
CA
78
31
33
5B
7F
A5
36
74
4D
F7
5D
2D
97
BC
39
4D
42
5F
F3
B1
EE
12
4F
62
72
F2
C1
9D
3E
ED
B9
DA
70
ED
9D
7B
5D
66
BE
BF
E2
63
EC
63
2F
76
B6
45
BE
52
B8
E8
CD
99
14
1E
0B
A8
74
07
9B
F4
82
40
AB
3E
E4
C4
DC
B1
B6
EB
AA
8B
E3
E6
90
01
E3
94
27
4B
44
72
D1
47
E2
5A
00
5B
16
6D
26
CF
5D
7B
14
F1
64
8D
40
5C
CD
80
0E
67
50
99
83
2B
E1
50
BB
D8
3F
46
3C
7D
AF
BA
93
57
68
66
89
6C
EF
DF
56
3D
41
C7
68
E8
4F
F0
21
72
F3
F0
7B
99
1A
CE
6D
30
A4
DC
AF
9F
BF
D9
20
E2
74
90
61
89
F0
8C
E6
F2
08
69
3C
69
6D
D3
09
A5
3C
55
B5
6E
B2
4D
53
27
FD
1F
