78
9D
D1
9C
26
9E
81
27
1B
B6
AA
DF
02
43
FE
2B
53
4C
56
B9
C5
E9
4B
A3
9A
EA
DC
1E
74
F2
B0
BD
01
2E
07
E7
5C
86
AD
87
A5
76
02
11
82
81
3A
D4
8F
17
B2
88
5D
6D
C3
FD
27
19
63
24
01
59
EC
D1
50
34
FF
02
A8
CF
E3
B1
FD
6F
0A
6C
0B
71
51
88
A2
C9
87
4B
EA
08
E8
72
40
87
6A
7C
36
BD
9A
15
2C
5F
C3
93
CE
07
3D
66
D9
7B
32
0B
64
95
FE
E8
D4
24
7D
1F
3D
92
DA
CE
30
30
03
8F
7E
24
4F
37
DE
D0
D9
57
98
9B
73
77
16
1D
AB
BA
97
C5
14
D1
F8
95
FC
A6
25
1D
40
11
1B
87
79
D8
14
29
2C
63
B5
35
47
B1
6A
44
12
DA
91
F6
0F
6E
A3
D9
65
67
62
8A
47
AC
AC
8D
DE
13
76
61
7F
46
48
88
E3
8A
B4
8F
6A
4E
E5
27
9B
DC
79
EE
FA
C9
1D
F4
1C
97
BB
8C
48
72
6B
6D
ED
39
61
A7
62
CC
1F
87
5D
62
C2
45
8A
D2
C2
48
3B
73
9B
34
89
DB
AB
CC
4A
94
4E
9B
A8
EA
28
D4
64
C2
3E
0C
55
6E
16
C8
4F
19
67
41
A1
51
4A
3C
C0
E3
2F
FA
0A
95
9F
BA
26
03
F9
27
05
5F
FA
BF
BB
5E
38
FF
DF
99
75
04
05
07
63
46
A1
B4
7B
F5
99
64
A0
4F
3B
B0
97
A7
9B
86
A6
B2
E2
5F
21
8D
FD
82
B7
59
B7
2A
9B
9E
66
2A
A4
2B
37
6E
06
40
4F
A5
C3
0C
81
24
A4
99
76
0B
37
66
DD
E3
40
53
0C
C3
C0
6C
8B
58
2E
4A
57
F2
93
AC
8A
27
12
17
FB
56
9C
BE
83
06
C9
CC
69
84
BB
9D
54
A5
91
43
00
61
DB
07
0C
A3
A2
C5
B7
01
AA
D5
31
57
EE
AB
C8
62
DE
B5
5B
12
DA
2D
AE
CA
7D
70
DD
68
8A
B9
92
98
30
F3
AB
4F
70
2B
EC
19
25
C7
57
AD
3F
22
DE
D8
44
59
14
9B
87
35
F5
87
A1
03
56
5D
AF
2E
7B
D7
73
CE
C7
37
B7
65
89
94
CB
EC
EF
FC
E5
BD
47
8F
40
73
39
74
1E
44
F2
1A
83
BD
32
B0
70
16
D8
2A
6C
47
FB
23
B1
A5
D6
F8
44
9B
4F
7C
9D
1B
7E
3A
77
A5
0C
07
57
4D
3A
FA
BA
81
65
81
42
6E
2B
88
4A
D8
C9
F6
2C
12
C3
22
03
5F
5B
62
99
DE
6B
19
9A
A4
FB
09
AD
1D
78
35
F5
B7
EC
07
6A
91
F6
EC
BF
19
53
63
DA
BF
05
6A
E9
64
F7
28
32
2E
3B
65
31
67
FA
05
05
49
2E
50
3A
37
97
C1
7C
D8
A5
25
8E
C3
61
75
F4
D0
E3
7C
1D
F2
0B
4A
A9
CF
4A
21
E4
D9
6B
E6
79
08
E2
D5
7C
48
BB
1D
24
56
D2
5E
A9
18
B7
F4
7B
20
F3
5F
64
1F
60
50
22
7C
58
79
56
6C
6E
E3
85
5A
B2
71
C3
76
5A
9A
11
03
AF
FE
FB
17
A3
D3
C8
18
9E
8B
70
49
E8
FB
1C
63
94
16
4C
F0
D4
49
3A
50
5C
9B
AE
F9
0C
F6
7D
3A
CE
26
F3
15
B5
63
90
87
EB
07
6C
E8
B0
62
DF
8E
82
F8
EF
9B
23
57
15
A5
06
C6
43
B0
99
8A
44
6C
E8
FA
A4
0C
76
27
E8
3D
56
7A
30
09
C0
8D
8C
07
42
88
A1
2A
AD
8A
6C
21
18
2B
55
FF
0B
C3
34
53
35
3F
7A
15
6A
D5
56
29
AB
D6
B2
C3
C0
70
82
FB
2E
5B
29
B6
65
4D
61
25
AA
D3
9F
C5
63
42
6C
EC
81
B5
32
DE
D2
31
F9
12
5B
2D
F0
FD
C1
0E
54
01
E8
81
AD
AB
AA
57
7E
41
69
AD
EB
F3
2E
45
14
66
2B
3C
2B
21
67
F7
8A
00
A8
D4
66
01
C6
8E
43
D3
79
8B
F2
25
E7
58
80
4D
4D
2A
5B
86
99
94
BE
77
3E
95
17
65
A2
23
7C
3E
ED
FF
E2
D9
AC
71
8C
93
88
26
6E
E4
50
A0
61
FB
16
D1
8A
68
28
7D
E3
33
12
35
B2
F9
DA
66
FC
99
4A
C8
10
D9
6C
FE
62
4C
0D
BC
FB
4E
5C
E1
51
DF
EC
4C
67
88
97
9F
D5
24
69
53
F8
B6
C2
91
97
AE
E2
CA
F9
9A
E3
9E
12
4B
21
76
A4
30
89
33
E6
E3
16
BB
54
BF
27
65
07
4A
E2
25
1B
05
1A
0A
04
3A
41
DA
90
62
BD
79
64
8A
FC
B5
A3
A8
03
8B
75
67
2D
E8
92
CE
4D
3A
FE
27
E3
21
3F
98
CA
F6
5A
CC
CF
97
74
04
D2
E8
61
F7
5F
99
0A
61
DE
B8
35
67
7C
5A
AC
06
8C
88
2E
0E
5E
75
8B
4C
B6
DE
F5
28
B9
09
94
6E
72
21
F5
AE
F0
BE
8A
D9
5E
CA
E6
65
A0
8C
DB
41
F4
1F
04
1E
C8
0E
D0
63
51
CB
B7
04
46
AE
13
B4
98
46
A8
07
7F
77
2D
02
89
E0
F9
73
D2
08
0B
BE
AC
F1
45
36
38
F8
10
7E
17
26
72
03
F9
F2
92
E8
71
76
99
92
4D
83
2F
FD
21
FB
6B
EA
FA
17
EB
96
C0
7B
33
DB
2E
C1
5F
73
11
DD
45
32
EF
7D
FE
1B
B7
96
B6
32
6D
4D
F9
9E
15
60
E3
94
CD
7D
65
1C
29
49
4A
E6
BE
85
A0
6D
06
34
BD
DF
0D
90
D7
34
05
C3
96
09
F4
70
8E
51
F4
62
9A
C7
12
9B
CA
F2
E2
82
BF
32
32
EB
F8
0A
09
7E
F2
99
BD
5C
F1
8E
C8
93
D0
8D
C8
B9
B2
76
96
DD
B4
D7
FA
E4
CD
BB
11
FB
DA
0E
BB
74
51
70
57
68
5B
52
86
71
B2
47
D8
D3
AE
56
24
9A
FE
17
B8
C3
EE
6E
66
97
03
CB
D2
92
86
A3
7C
CE
6C
81
BF
F4
A2
D0
FA
79
2F
4C
52
33
FE
E9
01
FF
48
BD
F8
1B
47
87
39
0F
73
40
9D
DA
AC
9B
CF
00
50
1F
6C
70
50
09
E4
A3
70
F3
D2
D8
E0
3A
66
4C
5F
8F
A1
E4
47
B3
89
3D
92
38
FD
0F
3E
9E
D8
4F
25
BF
2A
E2
42
55
8C
41
BA
09
C5
72
44
DB
E1
07
0C
B4
AB
82
AE
63
B6
F8
ED
5D
68
A0
BC
C6
82
38
1E
69
27
ED
F6
5F
E9
BB
CF
CA
E4
04
71
84
39
C3
DF
69
12
7A
15
D0
E3
ED
5C
8D
0E
B0
D5
16
D2
07
AA
52
03
B9
42
8F
3E
DF
35
CE
49
B1
89
4B
F8
86
29
57
6A
22
3F
69
EE
A1
7D
30
A5
4C
14
01
FC
A4
CF
C7
D4
5B
CB
44
DE
D1
C1
98
EF
CD
A8
2E
5A
55
97
CE
5C
47
22
3E
A9
BB
B7
C2
F0
35
1D
E5
50
87
38
50
1B
F5
DD
DE
1B
CB
2E
DD
44
02
A2
6C
94
FD
12
30
71
FF
71
DD
5D
33
07
29
44
AD
19
4B
A1
FE
70
90
16
D4
E7
ED
FD
16
46
2D
6C
4B
1D
E2
97
00
86
2A
AA
03
42
32
4E
0B
40
04
E5
BC
23
0D
7F
57
18
80
8A
D5
24
26
06
A2
00
D8
8F
BD
8E
EB
AB
11
24
D6
91
24
8C
50
73
01
E7
A6
E0
C0
87
32
E5
EF
84
1F
D8
C4
BB
C8
69
D2
7F
1C
96
A8
C8
A0
26
CF
7E
2C
20
C4
00
A1
69
E2
A3
4E
8E
D8
22
72
35
B3
C1
28
15
9D
BE
3A
BA
1A
67
CC
AE
16
16
6E
2B
66
08
2D
D5
7C
21
53
20
B9
AD
D3
E0
13
CD
FF
C3
47
7F
BD
54
68
03
DD
F9
AF
9D
21
38
68
DE
87
45
06
65
05
E6
10
4A
04
5F
4E
62
4D
4C
59
47
CE
93
8C
02
5F
6A
1C
8D
A3
D0
A1
BB
80
E8
CE
CC
EF
B8
93
AC
AE
9B
F2
DF
27
A0
B2
21
55
83
12
2C
08
8F
01
3C
6E
82
F4
52
48
D7
19
7A
94
C7
85
65
21
73
DE
0F
56
B0
4C
41
14
87
AE
A7
3B
AD
13
90
16
E9
1C
76
E9
28
80
A1
30
92
D7
E9
5E
65
CB
7B
DD
02
3E
8F
9E
03
B5
65
3D
6F
7A
BB
9C
DB
0C
41
99
2B
25
C1
B1
A9
12
D9
C5
C9
B5
0C
B4
22
67
B7
F8
B6
AA
6E
28
98
4B
9E
77
0B
36
FB
89
7D
3B
21
D5
07
DD
26
E9
EF
47
C2
FD
BB
66
87
0B
B1
CD
D6
44
E2
4A
CD
E3
E1
ED
77
12
FF
26
7D
CF
B4
67
36
96
23
44
1A
E4
F6
E7
75
8E
A3
05
DC
8A
4D
52
E6
5C
50
95
34
C6
F7
79
26
6F
9C
D7
40
09
DD
39
90
FB
89
8C
E8
3C
F6
A3
9D
56
22
38
B4
81
9E
FA
0C
8B
9E
08
14
86
7E
9A
92
DD
F1
36
34
B4
99
5B
12
EF
86
6A
38
5D
D7
A5
18
E5
75
C2
D5
BA
77
1F
1E
78
16
30
50
29
7F
E3
B6
40
44
B8
16
1C
CA
80
1F
5A
EF
DD
BD
95
08
73
49
DC
35
74
09
3C
FB
95
E3
5D
49
D2
C7
D5
F1
9F
35
06
FE
8D
33
E6
5F
12
93
62
18
A3
9F
00
C0
AE
71
2F
BA
86
0D
3C
EF
3D
B1
7C
92
76
9B
99
C5
B6
6D
3F
12
3C
F3
A3
91
D2
34
20
9E
4D
97
39
D0
CD
4E
7B
3B
4A
15
B4
70
8D
1D
B4
33
90
BE
DA
29
85
03
49
B5
1E
CC
84
93
24
3A
DC
B2
EA
D6
15
7D
C6
07
DB
7C
B8
D1
15
7B
45
0B
24
C5
66
76
6E
27
7F
9E
97
9B
28
CD
2F
C6
48
21
3D
CA
E1
51
93
42
22
F7
1E
E3
D2
61
B1
2A
A1
7E
BE
C2
B8
4A
B4
E8
0D
68
1B
84
45
CB
36
A7
BF
30
BE
06
67
4E
5E
4D
51
B8
B5
4D
1A
DE
D3
08
00
F0
E4
64
30
F9
5B
D9
82
5C
C7
73
C8
99
7C
FE
0B
11
C7
0C
B7
5F
0C
B3
46
D5
AE
EE
97
25
69
FC
B4
D0
58
4E
E5
56
6D
0C
10
57
F4
50
95
31
E3
DE
D6
07
37
8B
77
A8
57
FA
00
85
89
22
57
44
D9
2F
3F
AB
3B
C1
F0
78
E3
AB
BD
3F
D7
2C
15
9C
14
F7
50
9B
A2
4E
EE
8A
9E
15
1A
78
92
A3
D3
40
4A
38
5C
6A
16
43
21
92
7E
38
45
88
D0
A2
90
9A
F7
BB
D7
A1
16
D6
DD
AB
91
37
50
C3
15
62
92
63
7A
F7
C9
51
3F
3E
E8
8E
BB
51
E4
32
63
67
F1
8C
A8
0E
6F
52
64
21
6C
B0
08
F2
E8
C5
A0
97
60
6F
EA
97
60
37
BE
B2
EF
CB
D7
CD
F6
B2
FA
D5
AC
A4
AD
DB
16
90
A9
B3
1D
B9
7E
E0
AF
D6
A1
D3
0A
D9
98
6A
7E
9C
87
8B
90
A0
F3
3C
63
3B
AF
1F
EE
DA
67
F9
A1
D8
AE
20
D8
77
FA
2F
B4
B6
5B
04
AD
89
F3
1D
01
AE
18
9D
23
16
70
BD
2A
D4
4E
15
41
94
2F
8A
B6
EA
80
21
E0
0C
3C
98
AA
64
74
CC
2E
A0
E3
4E
F7
17
CE
47
47
6B
5F
D3
C2
0A
82
2D
21
10
D7
65
F3
C3
6D
15
AD
AE
B1
D9
B3
18
D3
A8
F1
5D
26
4D
4C
C8
16
DB
44
14
32
F9
1A
53
3F
B4
79
D2
9B
25
C8
D2
16
64
A2
8B
F6
E6
A4
24
05
DD
FF
29
EB
55
0C
90
B3
D4
1A
64
44
2C
5C
F5
55
A2
7F
2F
D5
F0
F4
66
3B
97
62
1B
4A
1A
80
FF
63
A6
DD
28
56
C7
6E
62
05
D9
79
2E
CD
2B
75
EF
05
69
1C
91
56
79
35
FF
9E
69
A2
CD
97
63
5E
E2
E0
51
C5
EB
14
AC
5E
68
D3
BC
00
7B
23
67
0D
C6
95
E4
DB
E8
4F
7F
C4
0C
34
9F
2F
D1
08
A0
6A
E4
6A
54
8D
8C
61
7A
D2
63
B4
71
6A
1E
68
B0
D9
81
3B
3B
B8
0F
3E
45
36
88
72
04
5F
48
51
48
A8
A5
CC
A8
DE
CA
75
E7
78
35
CF
01
BB
B7
F3
51
E1
D5
87
D0
A5
E0
C7
3A
37
63
6C
D6
CB
6C
2A
85
AD
56
A7
07
C1
AC
A4
95
9B
EC
46
33
09
A1
E0
98
4B
88
4F
0D
65
D7
46
F8
22
07
63
49
EE
06
DD
D1
A6
23
77
2F
20
11
B9
14
BD
02
5C
B2
BC
1B
F4
CC
50
45
D9
7E
F9
EB
BF
13
A5
AB
E3
5C
0D
94
4C
27
65
1B
42
A4
AE
E7
B9
94
B6
35
F3
D8
77
B5
C5
FF
32
40
D4
44
94
63
21
E5
E3
14
EE
D8
15
FB
AC
93
49
EA
80
02
0B
E2
38
27
5E
0C
C6
B7
AA
38
1D
DF
0E
30
68
C4
D2
75
10
8C
1C
35
28
32
C8
89
86
0F
84
34
DA
36
8B
2B
F4
80
44
2E
DF
90
19
34
08
E2
D5
49
AE
23
B0
2D
F2
C2
03
0C
6E
EC
3D
A4
4E
0C
61
65
CC
3B
E9
17
47
5C
56
01
8F
98
D6
D5
A7
F2
04
50
1F
9A
B5
63
9B
D6
1F
8D
91
E7
F2
89
7C
E4
69
A2
42
0B
08
98
5F
2C
7E
82
A1
77
BC
6E
88
7F
67
65
CA
8A
54
10
88
EB
87
0B
EF
F3
E7
B5
8C
5A
98
73
D3
44
44
17
5E
8A
02
1C
32
90
B9
AA
F0
CE
76
98
79
AD
E0
E3
E2
A7
F6
79
05
AA
0A
BB
4C
DF
84
59
3B
CC
65
E5
68
73
AD
40
AF
26
C3
53
4F
D6
4F
76
90
75
74
9B
4C
24
C6
0F
AB
6A
44
AE
2E
DE
C5
D0
29
45
38
67
A8
73
85
5B
2E
AB
21
B9
0A
DC
F9
CB
D7
6C
DB
1A
0F
24
20
F5
7D
4A
93
B4
AE
56
04
A9
F6
8D
13
BA
16
29
C5
AE
C8
F0
61
DD
BE
A1
CE
E8
CA
23
5E
A1
E6
C5
1E
A4
75
86
2E
85
3C
FD
43
86
6D
7D
6F
DF
4F
7E
04
DF
76
04
55
F4
45
16
4B
98
72
80
57
20
A0
EC
C5
36
D8
30
BD
B9
0F
99
84
06
CA
27
39
F3
CA
1C
59
38
EF
50
A4
7D
4E
2A
5F
0B
18
16
92
0F
B6
58
00
CF
82
6E
91
2A
BA
BF
4C
74
D9
BA
A9
E3
51
7E
A5
CC
C3
62
8C
86
CE
64
F9
E3
DC
16
E1
6E
FA
D8
D8
32
D1
F2
AC
C8
51
0A
06
9F
C8
05
8C
4A
11
08
E6
07
5B
6B
D4
E0
B0
7F
C8
D6
6B
2C
9B
D8
BA
C6
C7
F7
6D
88
4A
C7
35
3F
75
2C
2C
04
35
D5
AC
E3
65
3A
F4
FE
26
83
E2
8B
4D
67
B2
42
E6
C2
60
D1
10
9C
6F
CB
B5
E8
A1
6D
3A
9C
08
F8
EF
61
6A
21
3F
E1
54
71
9A
9B
79
EC
7B
CC
CC
30
79
4E
84
58
BF
7B
94
49
0F
D6
99
4B
79
AB
BF
F0
AB
D9
E4
CE
0E
03
A2
0B
95
59
B6
31
F5
67
54
7E
FD
88
61
56
F1
76
82
39
3D
84
2E
02
C9
37
67
DE
87
5F
AA
C7
FD
D3
23
A5
A6
B1
31
63
8B
4A
ED
03
A5
8E
FC
77
F6
1F
EF
B0
8F
1B
DA
5A
13
15
C1
E4
C6
E8
40
9D
5D
10
A6
79
34
3A
96
B2
39
59
B4
C2
B9
EB
1D
22
32
C6
EC
A6
9E
69
A9
0B
24
B8
2D
65
E5
19
80
56
9F
18
BC
E1
D8
89
B5
04
C8
FA
79
AD
50
2C
5D
0B
94
52
7D
B7
46
0A
59
9F
25
CC
A1
4D
FB
B4
CE
A5
CF
C7
D9
FA
86
67
ED
CD
A2
43
34
0B
E8
EE
D3
5E
63
5E
1B
F4
29
9B
CD
93
AC
CA
C7
8F
A4
EA
21
89
42
40
FF
52
CF
30
84
5E
58
AE
7E
88
F2
33
5A
E0
EA
65
EC
5B
56
D7
80
5E
4A
B5
5D
98
B9
BB
26
51
78
38
A6
EF
89
2E
4A
E0
E3
9E
60
85
0F
E8
39
2D
B5
AD
D2
A3
B0
F1
8C
EC
0F
19
2B
AA
B0
F0
A6
B5
25
71
3F
3C
EE
04
E8
01
02
53
DE
4F
7F
33
17
84
A1
68
B9
F1
3A
CA
B9
9A
72
F7
88
68
0B
35
D6
5F
22
A0
86
67
6A
B1
2B
3B
F5
A5
69
4A
4D
9A
C7
97
87
E1
AE
D6
C2
0E
B8
EC
3D
DF
4A
B1
5A
3C
8E
27
80
79
54
F6
F2
14
99
FB
AD
2D
F6
59
F6
C4
69
84
13
85
DD
F3
9E
25
FD
52
46
3D
AE
BC
ED
55
4A
95
CE
BD
59
C7
C2
D1
98
AC
75
4D
FE
FE
8B
C9
7A
EC
8B
2D
A9
28
2E
8C
07
CD
6E
DE
AC
66
75
DD
06
3D
0B
02
78
95
8F
DD
93
6E
2A
05
96
2C
DD
5C
04
0F
72
07
AA
38
7B
AB
2D
8D
35
EC
01
CE
E5
EA
6C
CB
0C
6B
22
A2
AC
A0
6C
F9
D7
D0
5E
12
23
EF
6E
2F
FB
4A
19
B7
FE
4C
69
0B
CB
31
B8
F8
86
0A
A6
91
DA
5E
D3
50
64
9B
36
F2
3D
EB
AD
BB
A8
45
A6
EB
F5
A8
6E
E0
1B
0F
B9
69
32
43
32
F4
A2
62
E7
90
F3
FB
64
8C
7F
2F
7A
AC
FE
B7
CA
1B
68
3F
77
33
B6
BA
1E
F9
F3
59
3C
2C
FB
BD
29
C5
85
F8
5B
CD
91
4B
15
18
38
8A
54
71
42
64
A1
7E
75
58
F6
DE
6F
11
F9
5C
EB
12
9C
F3
97
D6
97
14
2D
36
79
B5
12
65
E3
C5
36
75
E3
51
9F
D1
E7
55
03
99
78
2E
FB
85
F5
A1
03
03
E5
AA
30
6B
02
53
D4
72
83
E7
CA
1C
63
6C
BB
3A
0E
6C
E8
7C
F8
E3
5A
61
6D
96
F1
10
85
C4
B2
6A
72
CB
F5
2A
37
2C
65
F4
60
7E
85
4F
0B
F1
F3
C1
D9
30
FA
A1
C3
90
F7
F6
14
DF
C1
07
22
8E
64
8C
4C
63
29
69
49
AE
DA
07
20
16
7A
DD
29
E9
C5
5F
8D
E4
B7
E3
27
5C
4F
EE
B1
51
3F
5D
F6
66
3B
40
5B
FF
A3
AA
DD
4E
75
26
54
A6
AA
50
7A
06
C8
BA
B0
A6
29
53
8E
CD
F5
57
6E
A9
90
F1
EA
79
C3
55
57
89
C5
5C
D8
EE
DA
55
A0
B7
7F
2B
6C
62
9A
88
30
19
03
A4
49
DD
D5
49
58
50
02
23
CE
CF
C8
64
46
66
5B
DB
1F
82
60
FF
0D
1B
ED
9B
3C
4F
8D
A9
8F
8A
3A
FE
4C
04
CE
AA
A8
65
A2
D4
5F
CA
0B
D7
F6
D9
38
A9
48
DE
CE
FB
F6
58
52
67
13
8A
2D
41
49
19
D9
36
4E
C2
83
C7
A9
96
BA
AF
23
EB
CE
5A
16
6C
18
15
6B
FA
40
64
6A
BF
6D
9A
3C
ED
3E
78
AB
77
07
5C
91
1B
67
C2
9D
1B
7B
6B
4F
07
E5
8C
46
95
A9
AC
04
1D
00
09
30
56
1E
E3
0A
C1
E6
08
5D
F4
49
B5
E5
5F
27
F7
9E
D8
65
F6
4C
76
FD
9A
62
66
EB
21
DA
70
F4
F2
F5
45
FE
80
08
A3
7E
9F
4E
7F
0B
58
A2
41
83
5C
6A
D1
C2
46
D1
46
7B
F0
4E
29
5F
42
6F
AC
A2
D3
23
78
64
93
89
39
17
74
82
17
C1
5D
A6
59
08
A2
FE
1D
EB
62
9E
C5
0E
70
0E
70
F3
66
ED
C1
71
5A
4E
BE
93
59
4F
8A
46
CD
4A
6C
5B
10
FC
3D
9F
11
D1
9C
C9
AC
B2
10
FE
73
A0
41
40
5C
13
E6
62
D3
27
67
90
B4
42
E7
92
5A
CC
CB
5B
51
04
65
6A
43
F9
18
A8
C0
CB
E6
D8
71
C8
8A
3D
00
F7
F8
E6
39
3C
0C
31
99
60
9A
E0
6C
B7
11
EB
93
75
70
F9
73
CE
0F
1A
56
7F
0B
07
09
75
86
81
3A
31
FE
D6
CA
CE
89
38
28
24
74
C0
68
50
F7
09
84
B7
8B
3A
79
87
38
09
C0
64
D1
F4
90
55
DB
2C
15
FD
EE
25
61
A9
E4
DD
F7
FB
F6
AD
EC
86
50
48
A8
67
92
39
DC
4A
51
F3
43
F6
6E
6E
C4
32
E5
94
FF
DC
1A
B8
8A
F2
C5
6F
37
0B
36
90
B2
B3
80
94
94
C2
70
6D
62
58
46
84
4B
EA
8A
53
19
29
3F
C2
72
EF
F3
D6
92
A9
51
48
6C
04
D1
24
BB
82
61
5A
C6
38
1B
6E
2E
5D
E3
E4
F6
A7
5C
E7
46
F9
4A
F2
99
98
89
D8
27
B2
7E
E4
84
1E
A4
66
94
F1
60
6B
CD
11
5B
C3
83
08
C6
C7
16
AB
BA
D2
69
23
F1
79
53
20
8E
E3
8E
C5
5E
7F
F1
BA
64
8B
73
EA
65
34
6C
8C
57
34
DC
50
54
97
87
EF
5B
41
28
9A
A6
2F
6F
A5
B2
4B
92
6C
E1
54
6F
70
03
98
66
42
E3
DA
2D
36
66
08
9B
EB
02
35
ED
AD
D3
A2
F8
6D
37
12
DA
51
46
5D
43
7B
AA
11
79
F7
94
4B
0E
41
D7
F0
E2
AF
26
E1
A4
89
C5
81
80
B7
C2
75
C2
3A
CF
68
6E
65
55
18
17
BD
95
CF
1A
AD
A5
D3
27
B0
F8
D5
BE
37
32
0C
BC
78
0A
55
A3
3C
0C
BA
E1
F3
90
B1
DC
B7
1E
C6
17
4E
68
C5
17
2A
44
5A
E9
2F
97
A7
03
4C
25
D3
42
EF
CE
26
21
41
02
84
B8
DF
39
E0
B0
69
9A
76
D6
19
02
8A
B4
8C
9F
0B
F7
1C
50
48
73
5A
3F
4A
16
C1
DB
6C
6C
AB
56
EE
44
42
9E
09
5E
93
4E
64
FD
E0
BB
20
B4
90
F4
8B
3D
DF
FA
C3
A8
92
32
88
38
C3
00
00
FC
7D
26
97
F8
0E
A4
6A
BB
62
B3
0F
35
3A
C3
85
45
95
B7
5C
64
85
FC
0D
38
EF
1E
B9
89
A6
1B
F9
A7
EA
57
33
86
59
E3
39
66
B6
1D
34
A5
F7
DF
4D
54
4C
95
02
3C
2D
CF
4D
D3
D0
FE
6F
02
96
FC
3A
7F
E1
FA
E1
B2
96
60
00
55
61
49
0D
2E
57
B6
BA
C3
27
ED
30
DB
2F
83
F7
4B
B3
61
4F
25
4C
6B
39
F2
4F
52
BB
FE
75
BD
A9
A3
B1
00
A4
EE
EA
EC
BD
A8
4C
7B
6A
C4
67
32
D9
8C
57
52
C2
56
6D
31
6C
39
C7
10
9C
31
E1
8C
4D
1D
EE
62
E5
BD
8A
46
53
64
33
6A
D1
18
5A
6E
B6
6F
64
B8
40
9A
75
18
D1
B2
FF
7C
45
CD
40
7E
2E
B8
5C
17
20
7D
FD
F5
5E
EF
51
43
56
7A
8D
E5
E6
2E
1C
E2
FF
75
77
83
CE
E3
4E
DF
67
26
AE
1F
FC
0F
EE
71
38
F7
69
16
C1
15
14
32
C3
D4
70
A8
64
35
61
DF
8A
94
0A
34
97
C7
47
4C
26
F0
3A
38
A9
0F
E1
74
61
3A
AE
15
14
F6
AF
1A
6A
1E
27
64
8B
A9
FB
FA
C0
C9
0C
96
B5
1F
B8
4A
05
BA
91
D5
2A
A1
78
DE
44
FE
7A
D7
C7
FD
30
81
84
08
22
72
95
D0
23
D3
44
8A
CE
C4
F3
DF
0D
E1
A0
09
30
DC
0A
D5
AA
5B
7B
F8
69
EC
43
10
0B
99
5C
43
6F
FF
99
2F
56
FF
F2
B3
59
EB
4B
6E
34
D5
A1
98
80
E4
B6
7A
D6
43
21
94
2B
4E
C2
64
2B
62
8F
65
7C
3E
1A
F0
0A
DE
C7
40
F7
8B
83
BE
94
5F
B5
D8
A6
46
82
32
0A
0E
2C
23
2F
89
5E
50
84
F0
F8
E8
29
D4
EE
7E
73
E5
72
57
74
D7
D3
C1
DC
B5
28
67
50
7C
B2
0E
4F
21
2E
5F
1C
DE
B6
A6
ED
25
19
7A
07
33
76
C5
5C
B3
CD
00
4C
C6
EB
EE
63
3D
1F
96
01
D1
B1
79
35
08
20
A6
80
9E
BA
FC
81
B8
D9
7D
C6
97
DC
38
F9
37
58
50
8E
29
46
A1
4D
E6
07
FA
32
9C
CE
A8
02
49
0D
DC
49
FB
31
48
48
65
24
8C
54
68
58
45
F2
A0
36
05
91
EA
55
53
05
47
AA
33
A5
80
FA
F4
88
46
28
02
06
46
DB
50
8D
6E
1E
3E
DE
7F
B3
30
A2
C4
C3
4B
64
20
BA
6F
47
CA
AB
AE
00
E4
8F
6C
68
71
6F
B6
88
74
F2
BF
90
9F
8C
40
D0
0A
7F
50
2F
DE
4F
C2
9B
69
61
D9
25
85
7B
0E
AF
BC
29
63
4C
B5
81
1F
C6
44
C9
5F
FB
21
63
7F
84
04
BC
C3
1D
15
E8
91
17
65
62
70
A1
1C
04
52
13
73
06
2A
60
3C
C8
73
87
C8
D6
A2
8D
D7
1F
E7
49
EC
02
4D
10
2C
CC
39
AB
25
B4
20
67
AC
9D
0D
C5
62
F8
A1
12
E1
D7
BC
92
0A
70
F6
B2
F6
18
83
37
27
3C
D7
5A
19
8F
3A
6D
72
B4
9C
4B
47
80
52
4F
2F
D1
85
13
C9
B4
78
DB
E2
8B
E0
43
C7
88
B0
9F
8F
F7
A7
94
6D
8A
52
29
3A
0D
F4
FF
F9
6D
C0
48
3A
81
C4
C5
0F
4F
1A
99
EC
B7
4F
AD
75
7B
85
01
D6
DC
E7
83
55
1E
0C
B2
E3
2D
EF
BC
25
F6
3F
07
CD
CC
BD
9F
E3
B6
E2
35
7E
8D
92
E2
D4
F3
CB
8A
84
65
4F
CE
0A
3A
7A
13
B8
21
2A
7E
1C
E1
C9
05
84
DD
58
DC
0C
CF
93
0E
43
28
5E
DC
59
AD
C3
41
4E
4F
AB
E9
01
A0
96
6C
40
4A
01
66
09
51
77
FD
14
DF
15
4C
00
D1
72
43
36
AC
38
51
63
80
E4
4F
F3
CB
47
F3
25
12
06
AA
1E
40
CD
CC
17
50
B7
BF
F7
9F
76
A1
6F
EF
C2
F1
5D
92
71
2E
C6
D9
0F
5F
34
D5
F6
2B
5E
FB
52
52
F5
E7
B2
2C
C4
A0
D1
B4
1C
03
F3
D1
5C
3F
CF
91
8C
AC
47
3F
AE
29
7B
1C
45
0D
E0
9F
D9
2F
70
00
82
8C
0B
54
11
05
7D
4C
A2
49
34
BE
03
64
4A
E9
88
4E
84
67
01
31
1A
7D
5B
5A
8B
40
62
69
90
05
0D
9F
85
CB
5B
EF
60
4C
84
55
04
E2
37
6E
38
2A
92
BB
9B
97
C3
E0
4D
1B
8F
67
44
5C
02
9B
75
98
7F
11
77
03
44
3F
3A
7C
A4
C8
20
4C
19
5B
3D
75
27
49
31
C0
7B
15
6F
CF
C9
6E
E8
CD
5D
55
12
40
79
AF
D5
52
73
AD
C4
D8
1B
55
7A
DF
75
12
C1
65
7C
0E
DD
2F
95
34
2E
4A
B9
5F
A6
1E
A6
61
C3
61
C7
F1
20
99
67
FB
8C
B4
48
A4
53
B4
EC
C8
B5
0E
E6
AB
86
C9
C5
BB
4E
3E
DD
A1
D6
B0
BE
1D
0D
26
F1
32
D6
58
EF
C7
92
ED
17
6B
7F
60
07
C9
35
97
3D
C0
DC
DD
E1
99
F7
92
F3
19
93
59
88
FD
1C
5C
21
47
17
D7
43
53
51
D9
BC
46
3E
3B
F7
F0
C9
CA
98
6E
68
D1
2B
EA
38
72
F9
FA
87
65
F0
02
D9
D8
47
11
3D
D6
3A
73
9C
96
C9
84
C9
80
23
FA
10
D8
EA
2D
41
29
66
1A
05
42
7E
F8
39
9E
3B
8C
44
75
01
1D
9B
F5
9C
FA
3D
65
52
67
A8
F2
34
8E
C4
07
E6
BC
51
BC
97
30
D9
AD
5D
B4
D3
F5
09
95
A8
F1
37
6C
B0
37
56
34
DA
CE
B5
58
B0
56
0B
85
CB
EC
C9
65
46
6E
F4
12
FA
9B
A7
43
82
E9
00
9B
09
B3
90
34
61
58
4C
84
58
7D
A8
7B
22
37
7B
BD
CF
A0
BE
44
01
96
75
A1
7B
16
97
49
17
FF
B2
8C
49
2A
21
A8
A5
58
95
B0
15
10
F2
F7
99
60
D9
24
AA
F7
87
9A
B6
7D
69
98
26
ED
B4
13
DA
70
0F
2C
9C
72
59
13
EE
05
EF
EC
E5
78
90
F3
13
58
7E
11
DA
3F
1B
4C
28
0A
2D
6E
B5
B3
91
17
93
C8
1F
B2
6B
FC
5A
99
92
F1
40
75
53
72
A7
9F
E2
8D
93
17
6E
69
04
A6
41
3F
AA
8D
9D
75
74
44
34
FD
41
A4
21
4B
DE
03
95
BB
2B
B4
42
3F
0B
F7
85
F4
8D
5F
CE
86
3A
40
1A
05
4C
90
09
0F
10
AD
48
30
60
73
E0
B1
E5
B4
5F
DD
0B
AC
2F
72
29
9C
45
FD
63
95
E8
B2
1A
50
BA
F5
97
86
63
90
66
45
3A
D4
E0
3F
FB
C9
00
99
01
49
84
00
9C
71
B8
DD
C3
9D
90
2C
40
24
5D
F2
52
0A
F8
1D
99
A4
1C
1B
D8
37
F7
72
09
D9
A2
27
34
F3
BC
9C
4E
3C
DA
F1
3A
BD
8C
36
95
92
8D
BC
B2
0B
66
F0
2F
E2
0B
E2
94
EB
B5
01
7A
BB
DF
33
F7
84
B5
C5
15
07
6C
96
63
6B
0D
A0
61
E2
7D
B3
9D
49
A1
5F
18
D0
1B
AE
EC
D7
EC
0C
1B
A1
7C
68
C0
F5
A2
A0
70
EB
F0
03
2C
91
B7
62
43
A4
3A
95
06
34
AF
EF
30
43
CB
40
88
DC
BF
8A
A3
DC
43
73
52
00
8D
F0
80
07
24
F5
89
9E
71
38
A3
2D
27
66
48
2C
C9
B9
EC
3C
FD
D6
2D
08
04
9E
69
32
44
30
9F
DB
49
BD
1F
5F
26
AC
05
79
F4
36
AF
20
1D
FA
A5
14
3D
AA
90
AA
15
1A
49
93
7F
7F
71
41
21
02
1A
C7
29
BE
35
48
FF
6E
B1
32
B9
53
A2
4D
B6
17
F3
C6
DA
E3
FA
1D
96
BF
54
C5
94
15
7E
DC
1F
EA
98
F5
A3
CE
9B
FF
1B
6F
6E
71
7F
DC
0E
ED
3A
42
83
72
37
D1
5C
0E
35
6F
7A
09
42
83
48
E0
33
B9
9A
FF
39
70
99
5F
51
02
92
0B
0B
FF
F7
74
E6
96
5B
03
AB
3A
10
AF
00
9D
2A
10
00
8C
78
89
3F
A3
28
64
B1
AB
A9
28
F5
3D
B1
0F
6C
B3
D3
28
CC
B6
EC
F5
3A
34
A7
6E
65
17
26
28
6C
A7
70
61
03
33
F4
AA
80
D1
96
E0
A1
E0
6E
04
CE
0C
DF
F5
1C
BD
B3
75
59
E9
2E
D4
84
03
FF
93
8D
07
3E
96
95
3F
E0
EA
20
5B
F8
57
E3
36
6D
55
0C
04
44
90
53
45
2A
C9
BF
13
AF
13
60
3F
21
53
42
E9
27
B9
01
10
CA
28
D8
5A
3C
20
7D
75
B1
D3
BD
6C
C2
6B
94
BB
3D
CF
20
37
39
C5
52
9B
A0
44
DB
98
4A
51
41
AC
0F
06
45
98
51
31
C6
14
5D
86
48
5F
2F
E5
94
F3
F6
C5
41
55
89
66
A7
D6
51
05
8D
E2
25
66
1A
CE
7E
EA
1E
62
12
11
AF
D2
A3
14
56
7E
BA
1D
C6
EE
3E
A9
86
48
4C
3A
54
8B
F7
B9
69
C9
AD
AE
45
33
82
29
BF
65
C9
87
E5
9D
65
03
7C
83
40
7B
2D
BE
F6
03
DC
40
77
27
E8
BC
5A
42
D7
FC
ED
AE
7D
85
07
77
9F
4A
B2
82
86
11
ED
61
4F
C5
E9
41
01
5F
D0
5A
70
6D
48
5C
B7
EB
FC
A9
CA
34
85
71
9E
95
6A
5E
BA
CC
58
1F
D0
89
26
41
67
55
70
95
D3
44
BB
4F
7D
DD
1B
AB
52
5E
60
4B
4E
EA
B5
66
35
E5
24
6A
1D
DC
88
52
9D
AA
51
47
F6
08
37
32
92
C9
BA
4C
91
C9
54
FB
4F
74
01
8B
4D
69
BC
E1
57
A1
39
4E
AC
DF
6A
11
96
3F
7A
F8
50
A3
BB
14
99
B4
E5
A2
69
D5
F9
47
77
6D
A7
C2
DA
7F
A3
A9
4A
71
71
6E
F7
88
FB
FC
39
A6
6A
96
F6
24
24
16
B0
EF
4E
65
B3
C8
5B
B8
62
10
11
1E
5D
6B
61
5F
22
D3
3E
40
05
80
95
9E
D9
4A
FF
29
FC
C8
8A
B4
A4
71
B9
EE
4D
99
B8
1C
9C
05
CC
34
7B
33
03
5B
11
4D
D5
7C
19
97
FF
70
AC
80
86
A0
5A
68
3C
8E
61
0E
6A
D3
32
78
35
73
B8
7D
57
68
3F
07
43
1F
57
ED
DB
7B
C4
35
CE
0C
FB
1A
80
1C
F2
47
36
63
B2
C3
02
8C
84
B6
CD
33
E0
68
A5
2B
F1
02
F1
76
B9
A7
78
A0
A5
68
80
DD
9E
42
65
06
8D
EC
25
7C
D4
28
54
35
A4
1C
EF
13
14
29
9C
63
34
84
84
C2
0B
12
F0
87
59
C9
C9
8A
86
2F
5B
BB
49
F1
14
48
0A
AA
F1
C0
2C
BF
C6
79
B6
E1
C2
FB
76
B8
6C
8A
6A
D0
2E
B9
94
D3
53
F6
64
AF
52
3E
3A
72
22
43
45
1C
C3
D3
4B
CE
44
30
08
4A
80
F4
09
02
C3
80
4F
4F
8B
08
B0
EC
BB
2D
FD
3F
1A
89
7C
71
37
69
D7
83
E9
52
AA
8D
16
0E
1A
89
98
F6
3F
41
14
E1
5C
5B
3C
80
16
BE
3E
ED
91
5A
79
67
9E
13
33
38
1C
D4
57
0F
65
DF
98
18
0F
CA
EC
76
FF
D3
36
B5
CB
4E
2D
B7
4F
37
1F
0A
EE
E9
36
E2
2F
CF
5F
AF
EB
F3
84
BD
4E
C9
23
66
A5
53
6D
F2
D8
A1
E9
97
BB
5A
B0
04
9F
5F
69
3D
71
81
39
F1
80
45
26
4B
ED
F0
4F
2B
56
3B
60
78
56
E0
70
5B
90
51
D4
E4
41
1A
3C
9B
4F
E7
88
00
8A
64
05
44
E0
13
F2
BB
A9
8D
6C
E8
30
D4
22
4A
CD
80
26
DC
50
59
95
02
A1
31
A8
89
87
85
75
6A
DB
DB
04
69
63
CB
A9
FD
4B
AD
56
80
66
E2
D0
29
81
D6
4B
98
43
58
D6
F9
D7
DB
CF
5F
3B
76
C2
3F
94
BF
9D
B9
1D
6A
38
1B
70
70
7E
6B
64
03
D5
CA
4C
9C
C8
E9
C2
4B
1C
B5
0D
29
EE
6C
8D
75
A4
06
74
AC
56
6E
3D
69
8C
8A
E3
2D
9F
5A
D0
B8
2D
AE
A6
B1
73
7D
82
62
EE
F1
C6
3A
6F
C6
47
7D
96
D7
17
1E
2C
D4
FA
6D
90
15
50
2A
F6
AC
99
BD
67
8E
82
00
54
C2
EB
DC
C1
51
FF
B7
E4
E1
29
88
85
A2
7E
BB
6B
3A
18
CA
11
AC
D2
83
5D
36
FA
4B
95
12
4F
29
F5
32
97
8A
20
D1
63
15
9D
FD
60
58
D0
A2
E5
04
7D
12
09
6A
EA
78
6E
2A
9F
79
7F
BB
A9
1B
0F
E4
F2
A1
B4
E1
CD
5B
D5
3D
79
52
1A
1F
89
86
B1
5A
EE
B7
77
A2
FB
EB
F7
1A
72
60
07
95
A3
AB
EC
38
A1
72
50
1E
C8
E6
EB
84
E9
B4
3E
36
1B
AE
95
9B
0A
DC
9D
4F
CD
68
CF
3E
A6
FE
BB
2A
F6
88
C7
0E
2E
0E
65
3E
F5
BA
1A
64
7E
7C
81
44
92
C0
F4
3B
75
B8
EE
55
8E
AF
34
38
7D
0D
D8
BF
9B
91
B9
F5
97
D6
68
92
47
DE
C5
9D
6A
A9
7A
FC
FC
95
8F
8E
88
20
2C
6A
AE
3C
70
6A
20
4D
FD
C0
BD
4B
CF
6D
E0
8D
18
DF
12
C0
78
8A
C2
88
D1
AD
49
39
49
B2
A7
F7
6F
69
AE
D8
BF
B3
E9
93
EB
C0
C0
21
F4
2B
9C
87
23
34
B1
63
07
80
61
75
DA
53
F2
15
76
69
8C
90
F3
8B
F5
DA
DA
DE
80
07
4E
93
A1
AB
A4
A1
5C
10
AB
05
AF
2F
52
88
EE
00
F3
F1
CC
80
8A
1D
2F
2A
56
B2
B0
15
0B
9B
F4
70
E6
7E
3F
13
01
1E
3C
6D
E1
EE
9C
2B
53
56
26
91
68
70
7F
4A
91
24
57
D3
FD
FA
19
BD
2B
B1
10
18
25
83
46
F0
CC
34
0C
D5
41
1D
44
E5
50
64
19
FF
C9
C3
30
F1
4A
E5
C2
3D
CC
AD
06
14
4E
34
39
75
E2
C5
30
83
FF
81
66
B4
91
F3
34
63
55
6B
C0
00
C8
C6
F0
C6
A3
04
3D
8E
80
9C
10
32
F2
CA
AA
98
78
DB
18
FE
AC
11
FA
E0
59
AC
FC
C6
68
79
82
7D
7A
68
CE
9C
88
8F
1C
FA
B7
E2
74
8E
E0
A0
EA
77
CE
38
9F
29
4A
B0
19
BB
F2
B6
7B
75
D6
40
8F
24
AE
E1
18
F8
8D
02
35
8F
37
BB
9B
9A
33
B9
48
A4
80
B2
77
CA
20
89
37
E7
AC
C0
40
CF
0B
D6
5C
DC
0D
77
F8
81
46
D2
55
A6
C9
DF
4F
39
E4
D7
A8
69
14
34
F2
29
2F
7C
6B
65
9C
20
B2
AB
68
55
75
1A
17
49
E8
8E
A3
CA
C6
74
15
88
CD
02
88
73
9C
2D
B4
82
52
11
F6
2E
92
C2
12
D2
C1
93
DF
DA
A8
CF
91
67
AC
71
EF
E1
0E
FF
FD
7B
82
13
60
77
8A
10
6C
03
B4
0E
61
13
AD
AB
E4
68
1D
92
48
63
38
88
D4
A5
E7
A4
B4
CD
91
5A
F8
03
B2
A9
DA
E6
7F
E1
E7
47
2F
CA
16
34
C1
A0
3C
35
DF
2E
25
11
87
8E
BF
0A
15
0A
9A
E0
05
CA
B0
7A
CB
0A
B0
63
EE
6A
85
2E
B8
D8
B0
8A
67
97
3A
BE
23
29
D3
F7
4E
CD
11
D9
DB
62
0A
11
73
78
AB
8B
38
2B
F8
A5
30
2C
51
FB
AC
92
F8
12
51
90
52
73
41
BB
1E
60
4C
19
6C
83
2C
CA
C6
CD
F5
5F
3D
FD
4E
09
F8
6E
13
C2
46
3B
BF
57
47
FF
DC
B0
4A
F1
7A
82
1E
8F
E9
66
F7
0A
DC
AE
37
52
42
69
46
72
52
37
59
38
02
C0
EB
11
B5
B6
BB
59
CD
20
AF
BA
3F
57
5E
5F
27
B0
C0
9B
3A
38
97
11
B6
FB
E5
B4
3D
6A
9C
5E
83
F2
DD
5F
FA
55
D8
76
3B
5E
96
5E
73
57
05
B9
4A
0B
9A
0B
79
6C
1F
A8
DE
FD
95
59
6A
AA
71
B5
5F
D8
E5
ED
5A
1F
24
02
9D
FD
14
61
EA
0C
B9
37
81
83
D4
D4
3D
24
64
A9
FF
A4
A2
D7
30
BA
E6
7B
88
BB
8C
5F
5B
39
5C
01
9E
02
CA
A1
7B
5C
F3
CD
E1
45
6A
18
3C
D9
D6
C5
F7
AD
8A
1A
CE
32
65
8C
2F
D4
74
0C
98
BD
03
11
A3
67
BD
94
87
54
3A
C4
C8
FC
12
6D
F9
40
6E
95
39
D9
4B
8C
64
87
2E
C8
6F
0D
65
85
AC
7D
72
C0
3D
E7
A6
59
26
8B
91
CD
DF
E5
6E
AD
39
2D
9C
84
F3
2D
2D
C2
D0
4E
EC
23
62
AD
BE
03
E4
F9
D0
AB
D2
D4
0D
35
BF
5E
D7
9E
2B
A0
96
B6
1C
4E
04
BE
3A
8A
F9
62
46
52
7D
2B
5B
8C
98
A9
08
E5
E9
31
7E
8B
D2
58
DB
E0
F1
E3
85
87
08
64
9C
8B
FE
BF
B9
2D
9F
28
90
A9
81
E8
8F
6D
1B
42
D6
2A
3B
C2
DE
43
FC
9A
82
2B
DF
98
14
C7
E3
6E
3F
3E
75
A7
59
B3
38
C6
23
E3
9D
E3
E9
01
43
DA
E4
AD
2C
94
F4
56
A9
8A
D5
65
E4
A1
3D
CE
1D
C2
A9
DB
0E
28
4B
4B
91
4E
A9
E6
52
79
BC
8D
3B
6A
0C
CD
65
B7
0A
99
78
B6
35
80
5C
45
0F
CA
DE
62
07
EE
C6
33
67
42
A8
96
3A
F4
56
50
38
97
74
2F
27
FC
D2
3D
EC
9C
8A
99
BA
83
04
37
81
29
8C
DC
5D
06
C3
6C
DD
2A
5F
DE
CB
1A
68
E8
89
A2
6E
B9
2B
A9
CE
81
8A
B1
E9
BE
CE
8C
1B
30
4F
55
D4
8E
50
6A
B4
13
D9
CE
AC
95
01
4A
37
B2
B1
EC
36
22
8B
19
FF
61
72
C1
A0
71
59
83
63
D2
16
13
66
73
91
B2
D5
A8
3D
1D
60
F5
DF
7A
D6
CB
70
B5
5B
6E
7F
41
9E
45
3D
B8
A1
8C
25
6F
3E
B1
F8
29
83
88
EE
90
99
43
C2
D0
02
A3
A5
CA
66
F0
C2
2F
8C
BF
DD
6C
E9
A2
3C
58
9C
39
80
34
13
53
DD
7B
5A
87
AC
BA
FE
44
DF
57
6F
D3
9B
90
E0
30
94
AF
8E
76
79
FD
D3
B1
6D
FE
48
47
0C
BF
FD
37
9A
03
9B
A7
63
CB
65
98
86
6B
E2
D2
15
1F
BF
43
49
F6
29
10
E6
CB
76
A9
B4
BD
DB
C6
CE
E3
9F
D0
CE
84
57
D2
83
A9
2C
C7
DF
5D
26
76
16
27
C7
C2
76
EB
B9
FB
45
93
0E
30
D7
B7
65
C9
53
65
A0
16
F9
BF
0E
C6
64
4F
EE
B2
53
59
72
BF
CB
00
4C
5E
A0
40
8E
26
1B
3E
AE
6E
87
71
9C
37
00
63
F9
07
A4
0E
C8
76
3E
9A
73
42
15
CA
95
43
45
04
9F
08
7C
3B
4D
6A
94
51
12
E1
5F
62
72
E3
A2
3E
4F
3E
4E
16
07
D3
04
A6
AD
8E
3B
4B
4A
A1
77
8C
FA
09
2D
C7
AD
DB
B1
82
B6
AA
AF
4E
A5
C8
85
EB
B1
52
D8
F4
D1
6D
37
08
DE
E5
6D
01
79
33
BA
B6
5B
E3
F7
AD
A2
83
E7
3E
46
53
FE
7E
79
BC
9C
5F
A5
E6
C6
31
B9
6F
67
30
04
FF
4C
90
B1
AA
E5
70
4E
D3
91
D7
25
18
01
7D
49
D8
07
3D
7D
BF
4A
09
BF
3F
E0
FF
0D
D0
B5
C4
A2
93
7C
53
F3
B4
FF
AE
37
11
25
96
9E
F7
AF
8A
4C
18
1A
78
9F
D3
13
6D
B7
FF
8B
26
31
E7
2A
A1
9E
53
BC
83
FE
EE
1E
FB
88
BF
5A
24
25
CD
DF
99
81
CE
3C
3A
9C
AC
C9
69
A7
DB
C2
C5
76
01
6C
91
64
FF
5A
5B
40
77
A2
B6
D2
3D
5E
B1
37
92
8E
6E
54
0A
8F
ED
D4
4D
FC
D8
43
69
0C
4B
6F
51
70
F7
4C
21
22
8B
0E
F6
F3
B3
BD
05
CA
29
47
E4
BA
EE
44
5C
94
CB
63
D9
F2
11
A3
C8
B5
63
F0
67
CA
37
F1
90
9D
BF
81
03
FE
37
12
50
FB
71
89
14
2F
F5
82
A7
F4
19
EC
4F
22
8B
65
3B
55
BA
07
04
A5
80
AE
03
9E
ED
63
04
CD
A9
AC
C3
97
83
A6
EA
71
A0
AD
9F
B0
CD
C6
B4
DF
43
26
C3
63
BD
17
4F
9F
D7
F7
09
B6
FE
F4
21
CE
78
4D
D6
FF
8E
FA
82
EA
44
99
9E
B9
5D
5E
01
62
AD
3A
90
02
E2
3B
F0
CF
B4
E6
9F
C4
52
31
6A
54
7F
4B
DD
7C
6C
FF
66
89
78
41
96
52
F1
FD
63
18
2A
B9
94
43
80
BF
11
3C
26
9D
FD
1C
16
69
A3
7E
11
B9
C1
12
20
A6
BB
AA
2A
3A
71
C1
8D
16
AD
49
F8
17
B5
3C
82
70
23
AA
9B
A4
63
98
DE
2E
94
13
95
97
3A
2F
BC
C9
91
D2
48
CB
98
56
2B
50
DE
97
57
9D
ED
8A
82
0E
61
6D
16
DC
ED
E1
B3
19
5F
B6
1A
87
57
1B
CA
57
9E
C4
DE
15
87
BE
0C
11
A2
3A
C5
2D
36
84
13
23
78
32
AE
E1
FE
94
56
6C
71
0B
8B
2A
FB
31
76
80
7E
83
37
46
A6
F5
76
6D
DC
70
14
EE
CD
A9
08
0F
76
D3
CD
10
B7
A5
5E
9F
F0
98
37
D9
97
0D
64
06
81
CA
36
A8
0D
1F
D1
FE
F2
8A
6F
6B
74
BC
78
34
D5
91
CB
BE
AC
9A
4C
C8
5C
36
B6
72
AD
B5
9A
17
DD
D1
F6
84
5F
77
1B
2D
1C
D6
B9
12
F1
4A
E4
CF
EC
14
E9
D7
2A
AB
63
B3
A1
84
8E
17
80
56
8D
EC
0D
A8
C5
DD
B0
3A
02
EE
A4
FE
7D
77
B2
58
4B
68
F9
E8
33
0D
A6
B5
74
DE
11
C9
49
79
46
95
03
00
8E
52
27
FD
27
40
73
6F
BF
3F
FC
CC
A2
46
1B
6D
CF
03
DD
6B
99
C0
98
F0
69
8E
46
EA
2D
67
42
44
34
CB
FF
83
B4
95
F1
D6
0A
D5
26
86
74
F1
EE
68
94
AE
5B
F2
AA
D0
FA
F1
73
5C
B0
5D
D6
AD
E9
E0
F2
8D
52
73
2B
B1
CD
83
0F
93
AD
E6
04
B1
11
76
AF
6F
44
73
C7
A0
2F
64
06
76
21
15
9C
3A
1C
E3
2B
2A
94
1B
B3
CE
C0
1D
74
0B
53
91
D6
27
85
72
74
75
04
85
CD
13
12
8A
AF
DD
DC
FE
F5
A5
B8
03
E9
82
0A
33
89
9B
9C
97
A3
B7
0C
0E
7D
59
E0
1A
F4
5D
14
E2
66
0C
90
B1
E1
CC
4B
58
27
41
C7
A1
95
24
63
96
92
B0
63
73
D5
E5
4A
EA
46
41
F7
7F
A4
23
CF
DA
EB
B5
5D
1C
14
19
FE
4B
95
4A
A6
95
BD
C7
5F
C4
97
6B
EB
4B
18
A7
57
DC
5A
2A
CF
15
98
95
2C
4F
0D
93
3A
E0
B3
07
5C
20
08
1C
F4
07
11
27
B1
5F
6C
D9
5B
15
3B
9D
13
A6
15
D0
7E
69
EA
7F
52
5A
9B
53
C9
C6
9D
73
72
87
E1
B6
99
0C
3F
8F
B4
06
E2
AD
63
D0
B0
3D
33
B7
A8
EA
56
C6
98
06
4A
13
36
CF
43
67
80
2C
5C
ED
DC
BA
63
E7
F9
EE
04
D7
E2
B7
D3
F6
AE
AF
E3
57
32
9A
E8
1C
60
B4
F4
C7
BC
D6
9C
D1
CC
57
58
59
49
FF
0C
74
E2
FE
D5
79
CD
48
74
0E
20
A2
FB
4A
FF
B2
70
57
33
D3
C8
AF
07
24
A7
5A
37
E9
C4
B9
E5
D0
41
F3
B0
EE
B6
64
9F
DE
CC
60
9A
76
9A
2F
F9
38
3B
76
9E
07
DD
0A
77
CE
84
D6
F0
5E
6A
EE
D8
74
23
A2
C6
DD
0E
F9
0F
6D
79
C0
20
13
D9
D4
55
7B
39
F6
58
E6
FE
27
11
34
F5
75
6F
76
16
B0
F9
0B
BD
5D
65
B0
33
25
D1
10
CF
57
AB
3F
8C
40
DA
29
1B
53
E4
5D
7D
1E
F0
9C
63
59
4E
92
57
C9
15
ED
D1
47
8D
0A
86
B6
62
61
BC
16
CA
B1
57
2F
12
46
44
8D
6A
6B
89
F6
35
39
CA
09
2B
21
B7
B7
3A
FA
62
96
79
13
69
17
78
31
10
23
0E
65
7D
C0
44
D7
0A
40
F1
89
B3
D9
19
9F
7B
27
13
33
B2
E0
2A
0E
B3
3E
70
E4
D9
B3
25
53
4C
A6
87
82
8F
1B
F9
24
DF
3C
FC
7D
FE
60
C2
F8
67
80
2A
27
37
BF
F7
47
62
4B
1D
27
D5
92
70
EB
90
3A
02
37
28
43
47
96
87
D3
27
67
F1
5C
CC
8A
D7
0F
35
6D
60
85
53
BF
C0
6D
A1
87
63
A4
4C
5C
B4
3E
38
5D
83
85
3B
37
DA
40
05
3B
A4
32
21
89
42
9D
D3
26
90
A7
41
1B
AE
97
5D
30
3C
F6
5A
A3
DD
8B
5A
7C
E2
8A
AC
0C
44
6F
4D
DF
3F
04
10
23
10
B2
F9
64
C8
E3
35
19
AF
8C
2B
55
2C
1C
CF
03
EE
F2
E5
DE
AC
9C
25
51
95
DC
C6
BF
97
B7
57
A5
30
94
13
7E
49
5A
DD
57
47
9A
FC
7E
2F
A9
27
77
3D
78
45
D6
3D
2E
15
15
BB
3C
19
81
AE
0A
7C
1E
F0
4D
D4
76
5D
6B
4D
0A
B0
E8
B4
DB
87
3B
90
2D
0D
02
9E
5F
28
C6
CD
BD
5C
EE
27
C4
29
1C
23
BF
B8
7E
7A
E5
B1
A8
94
09
85
D2
C7
A7
05
69
81
7F
4C
BA
4D
ED
58
E2
24
97
E7
CA
4F
62
5D
BE
9F
AB
D7
CD
00
6F
4C
0D
46
3B
37
9B
2C
BD
B5
E2
7C
56
95
1A
E0
90
CC
0F
15
40
4C
16
71
F6
4C
A7
75
DE
CA
F6
FB
DE
63
74
4E
E9
1D
4D
65
38
93
87
D2
B6
75
16
B7
69
28
96
0E
B4
D8
2B
48
B7
D8
29
6B
E1
A0
22
5D
08
C3
5B
75
15
6B
D3
30
8C
FF
99
B9
58
14
D9
58
AF
82
04
93
11
C2
17
8C
72
6D
CE
AA
CB
D3
E4
FD
A7
B3
EC
C6
90
1F
09
AA
8E
55
B9
DC
69
C8
01
33
0E
25
5A
50
CE
97
82
0B
3E
DB
BB
89
F6
E5
58
20
A6
52
11
D7
0C
9E
03
90
50
AB
4C
FD
1F
8C
E1
C3
88
89
B7
E3
27
50
BF
F0
93
7A
18
5F
D9
FC
0C
04
DA
6E
F6
31
D4
9B
D3
85
51
D4
48
7D
4C
C3
8A
78
CF
36
DC
BD
C8
38
F3
A7
BE
01
19
7E
4B
8F
40
8F
AB
BD
B1
7B
25
CC
E1
AF
D2
44
96
D6
BB
19
78
A8
46
F5
84
5C
F8
7A
F4
1D
E2
80
1B
DC
2F
50
BA
CC
11
5C
24
68
8F
2B
8C
1F
B6
15
07
54
26
E7
D2
B2
C3
AE
38
74
BA
80
88
6A
58
B9
2F
C3
DF
B8
8B
83
3D
AB
41
20
E7
89
3E
E7
8C
87
48
32
6C
6B
CF
E3
50
E3
91
F3
F0
07
5F
D1
E4
04
ED
2C
85
15
99
82
D2
93
56
91
4C
36
7A
BC
F8
F3
4D
94
BB
38
4D
83
59
07
58
7D
0D
81
9E
DE
5E
06
0E
A5
35
51
1C
67
83
EC
D5
3A
FB
57
61
F8
26
46
7B
8D
47
B4
AC
EE
18
BF
46
5F
4C
AB
D9
BD
9F
06
63
A9
BA
CC
87
47
E5
39
27
24
BE
0C
B4
21
A5
05
25
92
77
D8
CD
DA
DB
E0
6D
2F
34
40
51
2A
DD
26
55
47
C2
D5
B0
DA
9B
5D
FD
37
82
C6
A2
7D
EC
74
CE
2E
F5
1A
14
68
E1
CA
61
D3
CF
82
37
E7
95
21
24
49
5F
FA
95
9A
FC
FB
57
ED
A5
F9
9C
93
C7
1A
4D
F8
F6
48
0B
8F
47
20
3E
92
3D
F7
04
5F
B8
B8
9B
24
05
E8
1F
C9
CD
64
E2
5F
1F
66
B7
40
62
2E
38
CC
89
6B
5B
F0
82
51
0D
5E
FF
36
DC
E4
BA
C2
46
16
4B
1C
65
56
B0
74
89
8E
3A
23
BE
BA
1E
D7
59
D8
5C
C1
BE
92
FE
D4
C1
CB
44
2F
70
56
BD
DE
D4
2C
33
C1
0F
FD
58
4D
3A
AC
7E
F4
75
06
A8
F7
72
38
1E
69
AD
40
FD
72
DC
37
D4
92
23
85
F9
2A
C3
DF
53
B6
9E
85
E6
4D
EA
3F
7E
51
C4
96
95
2D
64
43
83
D9
6D
C0
0C
D2
2A
00
2C
3E
9C
9F
7E
2A
E4
DE
A9
0B
AC
99
71
7E
E7
CA
B0
1F
B3
0D
13
A1
98
A0
F3
49
64
60
CC
6A
11
C0
50
01
68
3B
B5
A7
EC
26
A3
4B
EF
43
E0
B1
54
75
80
0F
E9
8D
8E
83
E9
59
CC
C7
12
33
10
BD
01
18
97
3F
40
4B
39
0C
73
7C
47
95
B1
3C
F1
97
B5
EB
DA
16
D1
F2
6C
50
41
0A
16
9D
D5
F1
AD
2E
9D
4A
47
21
25
9C
07
67
21
35
3A
81
AD
EC
D9
2D
F7
3C
6E
04
2B
C9
BA
2A
8F
E8
0C
D3
06
97
A6
5F
D3
77
E4
BC
A5
01
F0
65
5F
77
9B
A0
C3
C5
D8
15
B5
C2
BC
46
D6
B3
0F
CD
8C
27
76
43
81
9D
01
6C
BD
7C
F5
2A
AB
C2
D1
82
13
6E
FE
DD
4E
83
90
23
CF
98
1D
CD
3E
B4
66
03
E3
FF
0C
70
67
EF
5F
9A
FA
C4
F1
C1
34
60
DC
86
DA
65
ED
78
47
B5
5D
84
DA
D3
51
AD
C6
79
0C
8B
B3
2B
AA
74
A5
AC
D4
77
CC
07
5D
FA
4C
C3
94
BA
56
34
6F
C6
A2
0B
36
36
25
57
50
9B
87
A5
A7
6B
B5
82
D2
B5
0B
3A
73
1A
79
9D
8E
40
87
AB
C8
74
1D
E9
B3
7C
E4
77
C9
CA
85
82
6B
8D
07
C6
DE
99
53
80
34
32
97
1F
D6
B9
DC
0C
7F
A9
56
A0
B3
F6
EF
08
9D
DB
49
47
A0
D1
18
8D
38
07
5D
DA
33
79
2C
70
88
8A
AA
ED
B5
86
D4
D6
6E
F5
13
FF
00
4C
22
29
2B
24
C7
CB
E2
8A
64
06
4A
B7
F4
C0
61
34
F4
72
CF
0E
2B
37
08
65
CB
3C
1F
8F
04
56
0E
87
B3
0C
8B
F8
36
77
E0
45
7F
B9
EC
4C
FC
C5
CD
5B
91
1C
F8
33
3B
EA
B8
D3
BA
9B
87
6B
6B
30
47
E0
F2
47
9A
46
20
EC
BD
3C
6A
2C
0B
75
14
B2
40
65
37
61
6A
78
5B
9C
E7
8C
2B
CD
29
CC
28
33
BD
3E
60
64
72
E3
36
0E
8A
70
32
C0
66
EA
86
91
AA
DE
1F
20
5E
BB
C9
A6
10
59
D4
C5
E0
C5
F5
35
9F
A9
A7
3C
F9
E9
73
8E
DC
A2
69
AD
D4
26
43
DB
54
0F
D7
90
A7
E1
C6
D5
96
6D
DC
ED
37
26
67
ED
85
91
27
63
55
B1
AA
5D
B1
33
F0
10
65
B2
6B
51
A4
5F
E7
04
EC
61
DA
BF
BF
00
AD
D3
F2
61
5D
6E
35
13
55
86
C7
96
69
16
E8
64
76
C6
B0
A7
65
48
E2
50
03
3C
72
35
28
6B
8A
68
57
58
57
5B
E2
4A
30
E3
B4
07
94
6C
0B
55
72
5C
24
F6
C1
E5
34
4B
3E
64
F9
AA
67
B0
9F
0A
52
87
E6
EE
66
A3
18
A3
9B
92
F7
43
FA
27
E8
98
10
E1
88
9C
05
24
44
A7
92
2C
B2
AD
B7
38
3B
31
E5
EF
4A
51
1B
04
B0
4B
C1
AF
1D
D9
25
26
9F
9E
76
2C
79
F2
24
31
81
99
72
DD
85
E2
F3
DC
9E
81
43
7E
33
BD
D5
AE
B4
59
D9
EC
07
47
B0
D8
B5
E9
2A
FD
17
48
A3
2E
FB
56
39
C8
9E
F6
0C
75
A3
74
33
01
A2
02
39
DE
98
AD
1F
0D
4F
B7
D0
73
03
8B
68
8C
CC
B4
E3
84
CD
58
F6
94
68
9F
BB
6A
86
6F
ED
C5
77
FD
52
18
63
CB
B9
54
D7
4F
FB
78
33
47
62
65
08
57
ED
D6
6A
24
67
5F
35
14
B7
76
2B
50
FA
37
5B
71
1B
13
7B
D9
80
13
D4
42
A9
07
C8
16
D1
30
E8
57
2F
CB
DF
FD
27
7F
A6
D5
60
2A
7F
8A
BE
E9
7B
EF
CB
D9
1E
FC
C7
33
8C
2F
D7
11
62
F0
CF
BE
5C
5F
71
99
EB
73
83
BB
BA
ED
A5
4F
D0
32
EB
AD
D2
0F
9A
E3
35
2A
88
F0
A4
17
6E
F1
6F
3D
8F
AB
AC
29
B7
40
CB
B5
4B
DE
5F
98
1E
0D
E0
45
D7
59
85
26
76
A5
67
57
8D
DA
D3
F7
EC
2A
E3
72
18
E2
5B
72
FE
9D
C9
E9
21
7B
63
80
42
16
7C
30
F9
04
25
3F
97
6B
49
01
FD
D9
90
78
75
7A
62
0F
E9
2B
73
A9
48
C4
9E
E7
19
25
4D
C0
93
A3
C3
A5
BF
7F
FD
C0
67
FD
E5
45
09
AC
F0
93
D2
7C
5C
2D
42
1F
84
E7
97
10
55
4B
04
A4
41
D1
C2
54
63
1D
B9
E7
CD
C1
1A
4D
08
F1
CF
29
3C
0E
70
BC
C1
C8
0E
C1
C2
01
A2
44
5F
76
CB
F1
62
36
68
30
6E
DD
B4
AE
DC
A9
2B
7E
DC
3F
19
3D
44
69
AE
36
95
B7
A1
18
04
67
D6
7F
2B
DB
5E
49
74
E2
B1
31
55
5B
53
9B
43
E5
8B
30
E9
C1
D6
B5
BF
E8
83
DC
89
4B
56
50
5A
50
AF
E6
81
4C
B6
08
E9
B0
6F
19
68
1B
80
C0
89
45
F5
A4
A7
70
58
CE
CB
30
41
66
CE
BA
9D
12
44
2F
82
4F
B2
F0
79
5D
94
57
94
70
92
9A
D8
B3
11
6E
53
73
F6
DC
B0
15
B9
D4
73
02
8F
D2
D5
2E
B1
1E
D4
35
60
2C
BD
19
24
BC
FC
87
5E
7C
E0
6D
0D
88
73
B3
EE
1D
25
C9
B6
49
FC
96
A1
AE
8E
6C
29
7E
F9
9F
2C
F3
F9
00
C9
4C
6D
4B
18
23
B3
D3
98
98
CE
C3
DF
BB
2D
65
10
6F
18
5C
DA
A1
14
7B
16
2A
D7
23
67
95
78
63
D8
1D
79
EB
DE
63
84
3F
F4
8B
45
E8
E9
5A
70
8A
04
E7
6A
73
95
0B
6F
9C
0D
58
6B
DD
C8
37
2E
E5
A5
BB
D6
A1
E2
03
C3
07
9E
A8
5A
C0
D7
94
11
62
7A
EE
94
32
19
1B
DB
CF
2B
D2
E2
32
7E
DF
D5
0A
0D
91
67
B3
EC
85
96
26
33
A8
BF
E0
1E
B3
C2
A7
FC
E5
27
EE
2D
69
F1
DC
46
66
89
28
82
8F
58
D1
A8
53
B3
1C
52
F1
F0
83
C4
02
C7
0E
2E
15
F6
D9
98
D3
CA
10
02
41
3C
12
0D
CD
BF
50
AD
C7
04
88
BD
1A
79
D7
46
19
EC
EC
AC
93
B4
86
5E
13
36
81
C7
76
24
FA
8D
5C
37
B8
63
1E
BA
51
98
17
EC
84
06
FB
65
B3
C7
95
5C
4F
F6
36
C4
2C
ED
39
48
42
36
11
3A
76
4C
E5
EF
EA
47
98
01
76
93
C8
C0
5D
26
BD
67
E1
1F
B3
BB
36
4E
08
32
0B
F0
9D
1D
B8
A1
A8
0A
17
0C
DD
DB
47
44
88
6B
98
1A
39
4B
93
6F
1A
A6
0F
84
DF
59
86
2A
2C
CC
2A
1C
CA
7A
C3
66
91
C7
77
87
BF
BE
17
DE
4B
BF
73
AE
8F
BC
75
35
F0
7C
DB
09
3F
B5
F5
98
D1
DB
A2
6D
6C
79
0F
CB
FB
5D
72
27
CB
C8
C9
79
42
66
A2
22
08
DE
CE
3F
F8
B9
7A
34
C8
D4
57
65
6E
B7
46
75
3D
EE
FD
F6
58
A1
72
F1
24
F6
B4
E3
0C
1E
9A
9E
1D
33
06
82
0D
58
DB
F9
06
4B
A6
27
B1
80
C3
09
86
B6
D5
3A
75
15
E1
DF
37
27
52
FD
39
64
66
4B
FD
6E
28
2D
9D
80
49
0E
93
40
4F
BB
40
F8
72
4C
23
BE
AC
DF
93
E9
BD
52
B0
B5
1A
F5
5B
A9
85
D2
E5
94
51
D4
D2
4E
15
C4
BE
D0
24
19
D2
15
90
91
13
A5
A2
33
7A
62
AA
58
E5
EC
47
CF
59
CF
F4
3E
CB
07
B8
D0
5C
BD
9A
86
28
AE
4E
43
CE
10
D7
41
0D
10
92
03
54
F5
E7
AB
8E
59
EA
84
35
8C
F6
F1
27
90
22
AE
15
A5
C0
A7
D5
50
33
79
77
EF
D1
BB
5B
4D
02
6D
7B
AC
51
B3
E9
05
CB
45
D7
A2
F0
D0
90
6D
19
A3
38
0D
9E
C3
2E
EE
A4
88
61
47
C0
BC
23
BC
AD
F3
CE
8E
B2
93
93
35
FF
D8
D2
FC
CD
0A
C3
1A
DF
75
62
0C
C1
10
C8
F0
26
89
75
9E
09
98
46
F4
24
A4
4D
F7
83
49
34
A2
EA
BB
EE
3B
24
4A
04
05
70
5F
1E
C4
FE
DF
AD
D5
33
0A
EF
39
FA
99
13
30
DF
11
AF
96
01
B7
6B
D8
1C
15
88
A1
D7
07
9A
19
58
5C
08
2E
5F
E6
EF
04
AC
C0
79
D9
43
D2
4F
13
2E
62
68
85
11
F1
3F
C5
A2
45
29
3A
0A
77
A7
BF
75
0A
A8
F1
72
86
9E
91
58
9D
F8
83
25
05
55
10
9B
EB
8F
F8
14
98
ED
0D
12
FA
B6
CD
E5
48
D8
0C
F8
85
11
86
EB
56
39
7F
39
EC
6A
2B
72
38
3D
76
AB
C9
1D
8E
1D
26
83
12
30
E0
9C
3E
D2
08
C6
EA
5D
40
F0
EE
3A
46
0B
EB
43
6A
A9
A2
69
7E
B1
50
5D
A9
13
A2
C9
F2
A5
92
67
CB
5A
93
47
42
3B
63
46
F8
8C
A2
26
6D
AE
9F
9F
38
67
79
D8
AF
F0
AF
B1
69
D5
2B
28
FA
0B
67
47
8E
D0
97
B7
D4
51
3C
F5
A0
9C
7C
59
2C
70
90
F0
9A
5F
46
ED
35
E6
6A
B9
5D
41
31
C4
56
F6
40
94
1A
1B
62
89
B1
71
1F
93
DA
5A
A3
DC
01
C0
8C
AC
C5
69
C5
EF
1A
88
39
BB
02
AD
7F
24
AC
89
8D
29
7D
A8
A4
87
31
47
6F
9B
F2
11
CE
71
8A
37
EE
B6
2F
65
FD
B7
BA
49
43
0F
89
2E
27
83
6B
8E
BA
E0
24
28
CF
B6
76
07
DB
12
CA
D3
8F
77
41
E8
BD
F4
BA
0A
83
35
02
28
AC
91
4F
6B
59
BB
57
38
1B
65
0F
2B
5F
BF
AD
84
EC
C8
1B
E1
C1
14
CA
B5
1E
35
9A
8E
02
B3
81
18
F5
C2
3B
3B
87
70
54
51
17
13
9F
80
0E
0F
FB
F7
AA
B0
42
BB
9E
E8
28
43
C8
38
47
F5
E6
0D
24
50
2C
26
6F
38
C1
C3
24
D6
07
CF
DC
E2
46
DA
DA
0C
F7
8D
2E
EF
6B
E3
F0
76
72
89
9A
EA
66
90
2E
61
E9
83
AA
A2
7C
D4
0B
51
38
ED
3B
A1
CF
9B
23
49
E2
CF
38
67
1D
4B
64
17
C9
25
9D
C0
E5
6C
98
50
91
E2
02
88
71
7B
05
0B
C4
94
6C
AD
74
3F
ED
C7
DC
6A
AF
6D
A6
41
F2
65
3B
5A
43
BB
61
AE
A3
71
AA
90
10
D3
7D
9D
C2
E4
AC
D8
7C
25
96
4A
76
A8
C4
E1
3A
D5
5D
29
10
02
85
DF
50
8A
B7
E7
73
F1
79
06
3C
D8
FC
7F
B5
3C
ED
C9
69
6E
6B
9A
8C
1B
03
CC
08
61
5C
0C
A4
C4
96
6B
41
EA
05
48
1F
80
1F
A1
4C
40
69
96
0B
6F
91
4C
1E
D8
0E
6F
DF
3F
A7
C5
E8
7B
79
17
27
8C
5F
C2
9B
83
C8
11
3E
46
E4
C6
F7
4E
C9
24
CE
E6
D3
E4
B2
92
05
A4
17
37
6F
0A
41
53
77
19
65
E2
7A
8F
0D
0A
BE
31
35
8F
42
B3
A1
45
69
CC
17
D4
8A
0E
A2
01
2A
13
7D
B6
90
75
75
FA
5F
9C
5A
B2
83
35
3B
F7
BE
53
08
53
C3
E5
28
65
50
AB
E0
3B
28
83
76
BA
D2
A3
FC
35
84
BF
86
58
9F
E9
70
DB
D5
C2
CC
AB
F7
7D
07
D2
C5
A9
30
CE
22
6D
C9
70
15
9E
5E
F2
C0
44
E5
21
D3
4F
74
66
95
48
DB
61
6F
37
86
C8
F6
4A
8D
9E
0A
E3
13
44
CC
C3
53
74
FA
6A
86
FD
E9
7B
BA
C7
02
D6
98
06
88
35
64
FF
3B
DD
80
9A
4B
08
EE
30
56
62
D5
A8
0D
AD
AB
75
E0
C0
23
B0
11
F6
54
6E
70
B8
D1
1E
FA
38
F3
4D
E8
7C
43
F0
48
63
B6
32
16
07
62
2E
C9
32
D1
10
52
C4
6C
9F
7C
40
1A
E3
AE
4C
01
39
44
34
7B
6B
2E
BC
A5
4E
73
8B
34
7F
FF
B4
E4
8B
D6
B6
BC
EA
1D
30
CD
6A
18
F9
BA
C6
9B
8B
04
29
E1
87
68
21
EC
7C
C2
2B
F7
5C
BF
90
6F
89
0B
6B
EE
71
37
71
18
4C
DD
C1
49
06
16
CC
CD
02
E1
E5
E9
4D
67
B9
F8
63
89
15
ED
6D
BE
B0
39
75
A2
64
5D
F2
2D
57
76
B1
A9
19
7E
1A
12
CE
A8
67
3F
04
18
84
69
0D
4D
65
66
A9
62
2D
DD
28
73
20
3A
9A
2F
68
EB
55
E1
9E
BB
29
09
A7
A9
13
62
28
DB
3B
CA
95
28
3C
0A
B6
11
06
54
C6
84
D4
94
19
BF
D5
D5
9C
C0
F2
AC
52
85
F9
86
6B
FA
4D
F6
79
AD
22
D0
4E
B7
43
BF
F5
41
3B
7D
0B
A7
47
3F
16
50
DE
01
99
18
47
4B
BB
2C
ED
78
B8
32
09
29
B3
6C
6B
D1
63
4A
ED
35
98
F5
0C
FA
EB
B4
36
4A
95
15
0A
0F
63
85
6B
F0
60
EE
92
F2
D6
7A
02
11
C6
94
64
E2
F1
A2
DB
F4
C3
55
07
BA
20
2D
BB
59
07
50
95
8F
9A
5E
F2
05
B9
E4
02
B8
F3
17
C8
6B
35
91
C9
EA
11
4F
50
AE
61
72
4E
EE
A0
74
3F
2F
59
4E
0A
29
89
9D
B2
4B
40
9E
96
BB
7E
36
5D
4C
A5
CE
65
83
77
F3
90
E6
FB
4A
F9
F5
16
9A
01
81
9A
50
8B
D9
BD
D7
0F
3A
13
76
46
9A
DF
0D
89
1A
C9
9D
B5
4E
12
EA
90
FE
7F
80
45
47
38
5F
C0
06
7D
7C
E7
BE
7A
C8
21
6E
C7
ED
5F
76
F7
5F
83
AD
2F
C4
8C
3E
52
C7
31
E7
5B
F2
0C
7B
B3
DB
17
0B
48
16
6D
8C
40
16
69
FD
C6
15
D5
2A
6E
D0
29
10
00
3F
CE
3E
B4
C6
38
FC
F0
6C
39
D0
41
4B
51
77
51
E0
39
23
47
67
42
D4
EB
3A
D1
07
62
6C
16
44
97
2E
EE
59
C0
04
17
CF
92
69
18
23
CB
78
31
1B
0B
37
73
75
72
F1
0C
5C
67
63
56
AE
7C
5F
A0
4B
70
E5
DE
64
3E
8E
49
9D
E3
61
15
96
6E
9D
47
8F
59
0C
36
0D
D7
FD
54
C9
C3
A1
C0
46
04
AD
A9
EC
97
21
0D
B3
DC
E1
DE
7B
CC
16
7E
7C
85
53
C2
24
ED
2D
71
1C
5B
3F
BA
C2
50
9B
55
8E
0F
01
7C
E3
B0
02
65
AE
3D
9D
B1
AD
2F
AA
87
B3
D5
81
8D
12
5F
4F
29
CC
31
5C
37
69
52
6E
92
14
0C
66
35
3F
D0
30
CE
A4
58
E0
4B
1A
E8
99
C2
36
5D
2A
E9
F3
FB
65
27
1C
61
23
8C
93
36
35
26
18
39
E1
BB
45
13
A7
44
3E
13
B8
58
A3
64
6F
5C
81
0F
60
68
95
8B
90
68
DF
10
25
20
0F
A3
00
AE
91
FC
D9
2B
C4
9B
82
0E
B5
A3
CD
D3
63
4F
E0
08
1D
FC
B7
95
2C
40
54
64
12
87
68
56
D6
51
79
B2
21
A8
87
CD
8C
FA
84
31
AA
ED
1B
3F
3D
A3
39
A4
75
47
DD
F9
DC
18
84
42
63
F7
45
58
15
8A
D6
E2
B3
02
5A
56
B3
EF
4B
E5
6E
75
D9
4F
A3
03
1B
4C
48
B3
42
1F
E6
DE
E0
3A
F2
7B
73
1C
92
37
4B
69
25
36
EA
A5
45
7A
93
3D
73
BC
07
E0
EE
58
21
AC
4E
8D
5F
CA
B8
F9
78
D3
93
A0
1F
24
08
C4
4F
AC
1F
45
AB
8B
83
A1
08
D3
31
0C
08
1B
51
47
A1
65
04
6E
98
0B
93
63
04
28
56
E7
08
A8
7D
5A
EA
BC
4A
BE
FF
88
A4
0E
48
5C
15
81
FF
14
B9
67
D8
AB
43
C7
F1
08
DC
EB
48
45
2B
AD
60
FD
21
77
CB
14
4C
7A
AF
07
29
D7
19
FE
88
9A
CC
71
69
D2
FC
27
5E
B6
2E
81
86
28
09
FD
43
12
06
1E
92
04
2F
FA
E9
A1
47
2B
DD
A9
37
CB
9E
E4
0F
5A
7F
F1
CF
A8
A2
30
FD
C2
B8
29
EB
93
54
27
D0
81
BC
D4
B8
DD
9E
89
4D
A3
52
B5
18
4A
5E
66
34
FC
B4
F4
B9
77
1F
01
9C
C4
41
57
90
9E
BA
50
32
6F
73
C7
43
69
89
04
4A
72
81
C0
6F
6D
C1
D8
67
9E
3B
89
8D
54
D7
5F
55
AA
10
7F
71
90
5F
97
2E
80
8F
40
BF
D9
0F
A0
15
A5
2D
5D
97
33
A6
39
06
06
F4
00
37
EF
9E
C3
FB
6D
6A
0C
68
B0
57
7C
68
47
80
08
C2
D2
8A
93
11
21
76
83
62
8E
54
E1
7B
19
03
68
8E
C7
46
CD
6A
9A
99
B5
25
04
6E
AF
0A
86
31
61
81
D1
8B
E3
EA
40
5E
8A
46
0A
D0
2E
90
78
E0
5C
D1
E3
CA
EF
02
7E
5B
45
F1
FD
DF
1B
EC
31
40
01
48
4B
2E
92
EF
A6
DB
6F
D7
35
B4
54
EA
C7
69
DA
EE
C3
C6
5A
9D
CA
81
55
C6
40
69
76
3B
9A
17
7F
95
DD
03
BF
FA
82
6B
E4
53
1A
12
2A
9E
0F
99
99
3E
20
CA
4F
AF
49
27
AD
A9
FA
31
A3
E0
17
AA
B4
80
AC
4A
1D
BD
F6
EC
99
CD
D8
C2
9C
94
22
0B
40
07
53
C2
C0
DA
26
E9
09
2E
AD
1A
4B
BB
E3
70
3B
20
98
B5
48
A5
F1
C1
0B
68
9A
30
5F
0D
C4
8F
72
BA
AE
81
37
62
01
3B
BD
4A
93
B5
3A
58
00
1D
08
D7
6D
53
36
CB
60
A5
DE
A2
46
1B
8F
B5
24
18
BF
C1
C4
5F
F4
B4
04
7C
FD
EC
39
09
13
CD
76
BB
21
3E
B1
29
81
6C
F1
27
B3
BB
3B
E0
D6
E5
52
4C
A3
15
A0
F7
83
40
A9
68
85
40
BF
75
E5
F8
A6
29
A2
FD
37
2E
C9
46
40
A4
71
58
0F
F5
44
82
A6
CF
7E
87
21
EC
84
5B
36
15
9E
22
9B
B8
E0
3B
1F
D3
51
75
D9
F1
DA
8D
B3
6A
E9
84
0B
1A
75
0A
1D
28
56
F1
BB
4F
71
35
FF
A1
A8
60
57
9F
BC
F6
2E
D9
D5
80
7A
58
AE
19
98
41
BD
C9
ED
0B
D8
4F
69
A7
15
FC
54
48
DC
5A
20
4B
52
20
77
59
C7
20
07
C8
B0
80
03
09
62
6B
9F
5F
A7
E3
14
F8
A9
87
CE
E1
0E
33
42
AF
56
8E
D7
13
53
21
07
26
1C
93
7B
3B
D0
A1
A1
41
52
07
C7
40
71
28
6D
B2
B5
3F
AC
7B
3E
53
8C
A3
BE
68
B9
97
AD
B5
2C
F5
F7
1A
7E
9A
33
C2
4B
81
45
27
A2
9E
66
F0
A9
38
F2
36
CE
4D
14
1E
F7
C1
BC
DB
65
1C
1D
E8
0C
0E
A2
54
CE
0B
3A
F0
E3
64
6A
8E
97
9B
7C
AE
93
53
7D
78
2A
7C
08
5D
90
66
B3
51
06
17
41
12
80
94
6B
DD
5C
89
CF
C3
11
6D
4A
F4
8B
4D
2B
02
17
64
77
FE
D6
91
5E
D5
99
D7
E6
A2
20
8D
0F
49
57
A1
52
DA
CC
7F
14
D2
EA
39
29
EE
DC
4B
51
16
68
95
74
93
26
F7
17
AE
24
C5
15
02
DA
23
D0
F7
B6
AC
E6
CF
FD
A3
35
19
4B
15
1C
12
BA
CD
38
85
86
7E
AA
E6
C8
4F
2B
A5
B2
BC
FF
91
FE
63
B5
77
E6
B7
D1
00
9B
D8
0A
CD
CA
5F
A4
D1
4E
A0
FF
25
AD
AC
6B
68
D6
A3
70
FC
AD
93
F0
4E
9D
11
1E
28
F2
25
39
C9
94
C2
20
BB
4B
96
42
EE
40
DF
E1
48
00
6C
1F
9F
C1
7A
D0
9E
45
8F
25
E8
14
BA
BA
C7
37
C4
13
9E
EC
C3
FD
6D
A9
94
2A
69
53
67
EC
3A
A2
F2
D6
B5
20
CD
15
ED
97
E6
EE
3E
71
DE
87
28
04
CD
4E
DF
0A
C5
32
91
BA
8B
A9
43
AF
8F
E3
D2
52
50
B5
17
E7
EC
1B
41
AA
56
DE
56
D6
8D
EC
7B
8E
3C
49
9B
20
C6
36
BD
57
2D
4E
53
20
1F
97
73
22
0E
3E
3D
D0
2B
D6
2B
18
90
ED
9B
EC
A8
62
DE
D4
35
75
EE
75
EE
19
1C
EB
2B
92
BC
7F
61
82
58
A6
04
9F
79
51
6C
A8
7A
1A
1A
8F
EE
E4
73
41
EB
66
56
5B
18
A5
67
C2
9B
BA
FF
DA
CA
49
7A
57
A2
C7
CD
08
7D
4C
4E
93
43
1E
2A
B0
25
E4
60
03
02
00
F4
84
7D
03
1E
9D
4E
B6
62
35
9E
52
10
E3
49
5B
DB
51
EA
8D
52
B0
25
41
6D
94
F1
25
B5
3F
4D
03
BD
C8
93
17
D6
0F
51
8A
1F
F3
B5
D0
A7
03
E5
D9
8C
AF
F7
E4
FA
58
27
F5
D3
DE
D7
D2
22
A9
D4
90
84
F6
16
E6
C8
BC
B3
83
1C
BF
98
8D
45
41
C6
15
FE
25
F0
CF
98
ED
82
8C
5E
9E
50
62
15
4F
46
61
C1
87
90
AA
AC
37
6D
9B
44
53
24
FD
FB
91
83
63
DA
4A
C9
39
58
3E
84
3D
47
78
D0
63
F6
A4
4F
18
80
62
E4
7A
D3
7E
9E
50
AB
FB
54
23
56
B7
BD
18
5F
F2
BE
14
4A
1E
49
2D
A6
B7
68
D4
EE
0F
C2
FC
35
32
0F
FA
57
C5
B0
71
CA
0F
9C
67
9C
BF
28
88
35
38
70
16
D9
76
A5
DF
0F
0A
D9
10
62
9A
DD
FE
13
6E
2D
E4
2D
C6
2C
95
C2
87
BC
76
C0
48
FE
CF
7E
4F
ED
51
39
68
B2
53
B4
5D
F9
79
6E
3C
45
4E
80
60
7C
51
50
97
17
67
C1
72
31
7D
9C
6F
29
AC
53
E3
0B
DC
45
1D
A4
AE
07
10
A1
97
1C
88
B3
50
6F
D4
D4
B1
B2
0B
1A
22
A0
0E
5B
5D
82
B8
E4
A1
BB
B8
0E
BD
A2
F6
D9
20
C4
6A
A7
AA
DA
15
18
94
6B
9D
9B
1E
CB
1C
84
B1
D3
B8
98
92
6C
46
5B
B3
13
F1
B9
41
48
8C
E3
C0
A6
36
D9
CD
03
B7
73
DF
F2
40
0A
6D
F5
4F
FD
7F
12
9F
A3
FE
65
9C
F1
BA
DA
1B
AE
17
AC
1A
82
9E
AA
E0
C4
C7
8C
A2
C7
2F
8C
B7
77
AC
BB
98
93
06
B8
CD
7A
C4
55
B4
D7
48
DB
45
BA
4E
33
A8
6A
71
6E
48
F7
7D
B4
A7
FA
9D
6C
FB
E7
CB
55
EF
96
D9
2A
D4
87
3B
D2
28
3D
32
C7
4F
DD
39
F3
07
24
20
C7
AC
11
8D
29
9F
A6
F6
59
43
08
86
EF
CE
A8
1B
72
5A
42
48
19
64
7E
7A
96
AF
4E
4C
2A
81
E7
95
4C
DC
20
47
9B
83
97
8A
88
D0
81
C5
13
34
06
16
B7
F9
E2
A6
D2
50
99
0E
EF
4A
19
D5
26
F6
00
1B
B2
99
B8
F9
0B
13
E9
95
CE
D4
62
79
DE
2F
5A
8B
B6
D9
12
11
CD
6F
D6
3B
0A
C7
4F
0C
99
2A
45
A3
29
B4
B0
4B
9A
F1
EF
D1
0A
3E
BB
EE
25
EB
A4
0A
61
4A
F1
85
AA
71
85
7F
12
CD
93
45
BF
A5
76
B0
85
CB
2F
66
AD
83
97
40
73
87
3D
99
E5
12
CA
4E
70
B5
27
A7
A9
5F
17
9D
DB
44
67
27
40
16
DF
E5
62
BF
1E
FA
E7
34
57
CF
47
31
76
8B
BA
05
48
95
33
78
BC
22
75
CF
EF
BA
AE
47
C5
E4
77
01
65
5D
06
81
1B
13
0A
51
16
A4
66
59
61
E8
3C
AD
57
77
43
ED
1E
FF
98
A7
9F
30
8B
7F
4F
B3
99
1E
A5
B3
65
07
3C
C5
6D
77
74
8E
8B
7A
59
56
AA
9F
CE
5B
32
2E
0B
F1
74
86
4D
E9
A4
55
9B
87
2D
F0
5B
05
34
CF
7D
BB
57
82
D6
50
CF
52
92
EC
78
C7
8F
0E
0C
65
A5
F9
58
22
3B
C4
7C
E1
4C
D5
75
50
BD
B3
35
8E
92
4D
B8
7F
D3
54
73
A8
6F
F7
75
3E
F8
AC
03
71
CC
A0
4A
24
5C
65
DF
95
3E
EE
30
D9
99
C1
06
38
15
AD
6D
61
45
74
79
36
A7
4E
0A
2A
8B
69
5B
ED
B9
5E
B5
75
4A
EF
E8
B7
EB
8C
D6
9C
39
40
AC
69
3E
CA
16
A3
D5
1E
F1
4D
67
51
1B
9E
A4
95
EA
42
69
94
6E
79
25
F8
38
E1
7A
58
19
12
BA
60
98
43
D6
D0
35
A4
E1
0F
1C
7E
7B
77
D2
B5
DC
56
60
1B
A4
13
A3
BC
84
81
0D
6B
82
2A
4D
C9
73
29
22
8E
A4
0F
1D
63
79
A8
5B
51
D2
7F
10
81
6C
FF
C2
EB
38
1B
CF
32
A5
73
ED
46
38
1D
9D
7D
CF
5A
F3
89
E8
F0
5C
8C
94
66
AC
52
66
DF
4E
38
7A
1D
6D
F2
BB
73
F7
37
1E
E2
D8
BC
5D
FC
B2
03
32
6A
65
39
0C
00
69
6A
24
63
FA
C1
2D
9D
2E
76
E1
A8
B4
3C
CE
9D
3F
1A
29
71
F5
FC
1A
75
F3
A0
F2
A5
F9
61
9E
65
A5
F1
BA
0F
3F
FD
93
74
56
2C
50
D0
D8
D8
3A
6A
E9
DD
C4
F0
06
8E
01
BB
15
7D
15
A6
50
A7
A6
22
D1
6E
5E
F4
F0
7B
98
32
A8
44
C4
26
49
71
36
2E
89
F2
37
7A
B8
45
31
43
86
01
10
9A
EF
55
77
86
7C
B1
EC
94
31
2D
78
1C
E5
32
C6
66
DA
57
40
DE
33
B3
8C
56
A0
E2
1F
4C
00
8A
77
20
EB
16
9C
29
B4
3B
49
64
BB
84
F5
AC
A1
23
A4
29
03
06
C0
09
90
63
FF
BB
83
42
B6
9E
AA
F1
75
35
F5
21
BD
B2
D9
22
FE
0E
03
C5
04
37
00
DE
67
8D
46
28
BE
0A
DD
F9
60
98
B1
DC
17
5D
C8
B1
35
DF
BC
78
3D
19
22
11
B5
93
07
7E
D1
1D
FC
6E
71
58
97
43
17
41
D2
2F
92
CD
23
C9
A3
4B
B1
B7
4F
8A
F3
22
AC
87
7A
B6
4B
14
2A
17
AB
AD
1A
95
DB
90
1F
D6
BF
97
4D
E7
73
E8
78
F1
FA
25
91
BE
74
65
9B
D4
0D
2C
FB
01
DC
4B
9C
05
F7
E0
0F
6A
BA
24
62
2D
F0
8E
2E
22
C5
26
FA
3E
B4
DE
BA
1C
CA
6E
1E
AC
1D
5F
03
79
7E
98
A4
51
49
9D
10
36
A3
14
26
CE
0E
86
2F
91
87
F0
AD
13
B2
51
D9
6F
50
C1
AF
5F
4C
78
26
FC
2C
96
E8
3D
A3
80
83
8E
14
D4
1D
BA
65
33
9D
1E
87
14
15
85
A4
50
CA
1C
12
7A
41
D4
99
CA
6B
C8
4D
A1
0B
19
71
EA
DD
98
22
D4
23
77
1B
5C
11
76
91
C8
59
BC
95
4E
B4
02
EE
46
FE
70
F8
31
C6
85
DD
F0
FC
98
B1
AD
00
21
D5
1F
7E
A9
B6
52
B9
C1
08
E0
59
27
DD
FC
56
8A
8F
F8
59
14
60
53
EC
EE
59
2D
85
19
E6
64
45
52
D9
B8
2B
1C
74
9A
C7
26
50
0A
97
2E
3B
CD
55
CA
C9
67
12
60
32
78
64
24
2B
84
91
2F
33
6C
5E
2A
A5
94
FD
1E
E2
FE
64
95
99
EF
1D
B6
AF
02
F8
9E
18
AC
A9
FF
22
E5
20
08
35
7B
C9
17
2E
26
E4
DC
46
CF
0B
66
32
C9
75
1E
56
F3
5D
C3
30
9E
9A
20
A6
05
A6
4D
83
57
88
83
86
FB
F5
44
B6
DF
94
C1
0C
16
4B
E3
4D
03
F6
A6
7B
D0
1C
66
08
3A
A0
04
C4
47
EA
E2
1F
91
BD
86
D6
21
74
AC
FE
59
0E
61
9A
70
01
B3
41
9C
B3
56
DA
A4
E6
15
2C
06
74
0F
86
61
AB
40
D0
1D
B5
FF
F7
0D
11
61
89
20
02
49
76
99
86
E4
74
30
AA
E6
03
E7
D1
BE
96
75
EB
66
1A
62
A5
81
8B
C0
A4
95
61
37
B9
64
D1
E7
A0
BF
4C
71
6B
F9
DA
D5
BA
7F
61
0C
5E
3E
67
32
79
79
0B
D2
0A
3E
EF
70
43
12
8B
D3
7A
A3
0C
33
D1
32
87
96
C3
6C
B4
43
70
F3
64
5A
61
74
E8
80
5C
9A
BE
CC
D7
97
6F
11
15
F8
FF
8D
C1
45
DA
37
AB
4C
70
D3
7E
F1
74
EF
85
48
A7
A1
A9
65
53
77
18
CC
CE
C8
F6
D9
04
72
B8
6C
3B
99
54
AC
BA
03
36
26
05
6A
FA
96
55
3F
8F
F0
3B
F5
5E
57
C5
DD
8D
6F
86
8A
A6
16
25
2A
9B
25
E7
9A
DF
A0
45
6A
DB
E0
71
38
B2
30
AB
03
76
A6
2A
A0
B0
31
74
7A
08
E1
54
92
B9
A3
61
05
AC
91
51
2F
95
EE
D1
D1
9F
19
41
0F
C4
9D
29
D3
D6
4A
B7
9A
C4
78
A9
C9
29
56
81
C3
34
8C
8A
48
DF
A1
FD
85
BA
2D
55
D6
49
C5
0D
3A
FA
EC
01
8B
26
2F
A1
AA
79
E3
B1
5F
0E
CF
81
14
C6
9F
15
A0
9C
03
1C
71
7A
C8
28
03
6E
67
D2
29
82
15
99
24
52
B5
38
2F
09
F3
06
BE
5B
89
C9
33
1C
60
81
3E
CE
3B
FF
62
22
20
17
99
05
2E
18
0D
8B
15
96
62
6E
CA
D5
65
25
8D
D4
DA
4C
42
FF
82
5C
7D
D1
F3
92
2C
B9
7B
42
4C
31
E2
87
23
FE
61
07
5A
47
45
F6
4F
D2
D6
79
A8
B4
31
53
21
34
25
AE
90
74
79
83
57
75
81
B2
A6
E0
01
54
F2
E1
0F
C2
71
9B
06
2C
42
37
12
87
74
A4
8D
56
DF
E8
92
0F
2C
3C
85
4C
95
E6
90
C2
EC
9C
FE
EF
CD
C6
E0
08
E8
AB
33
3B
CF
D0
8E
4D
19
13
42
4C
DD
B4
F5
F4
FF
10
1D
F8
43
77
0C
46
19
E4
EA
0E
08
17
19
46
A3
1E
C7
65
E6
47
0B
E1
D0
84
D2
A8
4D
6E
2F
15
87
1B
E7
97
AD
90
8A
70
D8
5F
86
E4
37
44
A5
AB
65
81
73
00
78
AB
0B
09
89
94
54
EA
25
2B
F2
CF
C4
D6
96
6D
26
98
D7
C7
96
4B
74
B7
CB
EE
4B
70
CD
99
73
D8
8F
C2
13
31
81
DA
EF
0B
B8
7D
2B
58
7D
E9
FB
D0
6D
7F
20
BB
66
E6
CB
99
86
8F
1F
ED
E5
BA
C1
6F
75
C0
84
4D
0F
39
AE
A8
DB
EF
3E
A3
E1
83
2A
78
0B
AF
5B
16
8F
21
0F
AA
38
50
FD
85
70
D3
B0
EE
37
2F
AF
C4
BB
91
BA
AA
65
F0
F2
18
6C
06
0C
11
96
7E
24
BD
CC
94
ED
8C
E4
D3
61
2A
FE
54
17
4D
E7
02
8E
1B
C7
30
49
91
6A
A6
13
3A
BD
21
AC
BB
6D
12
01
3E
C5
7C
2B
B8
95
A1
AB
5B
BC
2F
0E
B2
48
4E
A4
37
04
C6
54
9A
74
29
69
9F
B6
16
C4
6E
50
59
7D
88
D8
E6
69
E7
78
5A
6A
DF
3B
29
A7
D3
31
25
06
DB
EA
61
94
E0
E9
DA
55
43
1C
B0
05
2D
43
55
2D
F8
F4
10
FD
E1
53
32
19
EF
07
9B
0A
42
A1
EB
F4
99
EB
C1
F7
87
A3
6F
99
05
E6
C3
8C
CF
37
89
BA
17
97
91
F6
AF
AD
BB
50
E6
7D
60
1D
5D
4A
A5
64
AC
69
8B
7D
0C
0D
A7
3C
C4
9E
64
2B
18
BE
D2
18
93
B0
0C
0D
75
04
D5
2D
51
63
16
9E
6E
E1
29
CC
51
4B
31
35
41
A4
73
AD
C9
4F
73
96
F6
87
03
8C
2C
EB
C3
1C
71
7D
9F
79
AE
10
FD
54
3E
A7
24
EC
4B
12
19
C8
EE
C1
9E
12
CC
9B
E2
6F
71
74
D5
47
6E
EC
B3
A0
F8
86
95
59
B6
CD
BF
A5
CA
0E
4D
C8
92
54
00
D8
22
70
15
FE
E6
23
2E
53
34
95
9C
3D
19
9A
F2
AF
ED
9A
D2
DF
0D
74
2C
F6
75
B1
A3
D4
2C
3A
F1
BA
AB
25
83
39
D7
26
68
7D
E8
A8
3A
66
C0
B2
76
A1
32
52
E0
68
AA
DB
5B
BD
76
AB
6C
FA
D5
1A
BE
9C
96
EE
4E
2E
B7
DD
44
04
F5
9D
95
CC
12
AD
DC
31
51
A7
8D
55
4B
D8
7A
CF
B6
51
1A
BB
DB
6E
CC
45
5B
D7
85
6B
BB
A7
47
BB
BA
62
0F
94
20
45
43
5F
92
0B
26
D5
1B
36
9A
85
7A
CB
DD
CD
B3
B2
66
11
FC
E8
CD
DD
7D
CC
64
2E
B0
14
43
0F
24
DC
0A
F5
99
39
2A
B1
62
16
E0
E3
61
36
D6
23
7E
80
FB
A6
E2
15
73
6A
A7
44
AB
75
4F
4A
70
8C
25
B1
FE
AC
4C
EF
19
67
7D
3E
5D
9E
56
45
05
85
FB
A3
8C
91
35
59
1C
FF
95
3A
26
0F
0F
9A
9D
22
1B
5A
FF
A1
EF
AF
EA
AC
A2
F1
D7
C4
BB
51
60
65
AC
22
7C
FE
2D
EE
0C
22
47
0B
D6
02
EB
F8
A2
28
B6
A5
EC
BA
F6
8F
03
F3
D5
C8
60
92
54
90
2D
E1
19
0B
1E
6F
E7
E6
33
E8
54
70
A8
20
98
17
D5
FD
E8
CD
B9
68
40
28
54
35
85
76
B8
5A
96
12
FE
5A
72
42
86
4D
3F
F0
51
AB
56
ED
1A
BB
AA
7B
DA
7B
6A
BF
62
B3
96
93
1B
6B
5F
05
CA
96
9D
84
99
5B
4C
56
4C
F0
EA
01
02
98
91
0E
90
59
56
17
5A
93
CE
CD
69
3E
E0
4C
55
29
94
47
E9
A7
38
F1
C3
78
66
7A
E5
32
96
53
B0
8D
5A
87
A4
50
2C
53
FE
91
AB
8B
7F
39
D1
95
C9
35
57
0C
B4
11
72
7F
05
BE
2E
F5
D6
D3
A7
72
73
06
B2
91
29
41
A9
42
D6
5A
86
54
18
79
31
04
BC
C7
AF
B5
16
0B
53
49
5B
90
5A
E9
07
B3
85
8A
DB
42
5A
A5
9F
54
88
72
E8
B1
F4
10
A7
BE
6C
88
40
91
38
3F
93
69
1E
9F
D6
CB
14
0A
1D
32
59
9C
2A
BC
27
71
5F
83
6F
08
30
9C
2C
BF
68
21
4C
36
F9
7C
B0
2C
C7
70
56
39
18
22
93
EE
3A
51
64
B8
E6
42
F5
2E
76
E9
74
1A
4A
6B
5B
06
99
0F
90
AD
6B
99
1B
20
AB
B1
A8
5B
82
83
C1
C7
C8
2E
18
76
C6
49
39
F0
AC
51
F1
A5
A7
01
28
21
5F
6A
85
88
09
7F
4A
AD
73
E8
F8
C8
1E
49
FC
9B
19
3E
25
4A
0F
BC
85
03
60
17
AC
57
21
06
4A
A4
95
51
8D
46
B7
95
41
0B
CC
1A
A7
74
04
F1
02
B3
EB
20
F6
15
A6
2C
74
DF
E7
92
62
05
BE
78
E0
44
97
0F
97
6E
67
17
12
16
EB
07
91
B0
2C
A0
BF
D7
E3
B6
F0
A4
EF
8C
73
E7
94
5C
7C
1B
49
68
57
99
18
20
EC
F6
78
85
22
C4
EC
40
BD
EA
85
E5
00
C8
5F
A4
E3
57
40
32
98
90
89
46
AC
C9
C6
05
B0
EF
98
7E
FB
11
96
DC
7D
6C
27
1F
EA
F1
BD
93
E1
4D
8D
96
58
31
02
E4
8F
77
EA
50
E1
66
D1
98
DC
00
81
A0
92
B7
66
CF
96
F7
F2
CE
D2
12
FF
6D
18
DC
94
9C
0F
D2
F6
BF
B5
1C
B6
4B
F2
15
BD
E9
48
6B
78
41
80
A6
76
92
29
DC
D1
53
92
EF
47
2E
E0
91
24
2A
A1
EB
CF
44
4F
47
61
2E
EB
5E
DA
32
67
BB
6A
CA
B6
05
32
3F
91
D5
7D
62
21
3E
71
4E
58
61
9D
6F
7C
3F
1D
8E
2C
A0
13
98
85
9E
86
96
14
88
F3
96
79
16
2F
6D
45
9C
3F
11
5F
37
8C
9D
68
DB
DF
D4
2F
18
E2
14
EA
45
65
2D
26
4A
79
16
1E
39
1B
B9
E9
03
FD
2B
09
C4
CD
C5
1D
BA
A0
84
F8
A7
03
B7
F3
5A
C8
36
11
E1
37
94
BB
53
85
48
57
6A
BD
03
F3
E6
7A
66
7C
91
41
5C
48
75
D6
CF
DE
C1
D6
9A
0E
78
8C
03
03
02
30
63
BE
B0
3D
A6
A7
04
0D
DD
08
7E
3B
AB
6C
AA
0D
4F
88
B4
74
CC
99
18
25
4B
83
E5
C8
EE
D0
6C
18
44
0F
C1
27
05
8E
20
31
55
62
5E
5E
27
78
17
B2
8E
33
1F
DC
E2
44
F4
FE
B4
F6
78
61
75
04
0D
9E
A9
13
03
89
90
4E
98
C6
CE
91
26
BC
A9
6E
42
CB
E2
01
4F
D7
AD
5C
8E
EA
D0
0C
8A
86
EE
03
9B
D9
04
A9
13
38
FF
6C
1E
65
BC
49
3D
5C
B8
BC
AC
59
35
5E
54
87
49
68
92
07
22
07
74
37
E1
42
00
74
A3
EF
BD
99
0C
BE
B0
DA
51
6D
1D
28
3B
FF
3A
9F
0E
08
12
BB
E5
DD
B3
3B
23
74
C4
95
41
0A
E9
3C
00
62
96
7C
38
E4
A9
39
E7
FC
2D
5C
23
29
5D
4D
06
8C
BF
EE
DB
A3
E4
9E
35
77
D1
03
80
8C
32
90
6A
0B
CD
C5
AC
24
42
48
5B
49
74
33
3D
FB
DD
66
E9
F7
EF
0E
C2
48
60
50
0A
33
B9
8F
C2
C6
80
20
83
81
6C
06
50
F5
E6
33
AE
37
7F
22
69
3B
C2
83
EE
16
43
AE
35
66
A6
D0
9E
27
E7
FF
F9
3F
E7
C2
CD
E6
35
46
A5
54
FF
6E
15
96
44
3E
EF
9C
EE
CC
62
CD
AC
AA
4D
D9
FF
BA
5F
B2
00
2A
C8
C4
C8
E3
E2
F6
4F
0F
C4
DE
42
C0
26
58
58
10
B1
1E
03
E2
26
B1
1D
34
F7
13
63
1C
54
EB
0A
C0
64
B6
7C
F1
0D
D0
B0
76
21
EC
91
B5
2E
81
1C
F5
AB
98
FA
17
F7
0C
0C
B4
BA
79
76
9D
6D
66
2B
37
93
DB
02
CC
A1
69
04
F2
34
76
6D
E2
B9
45
06
24
81
C2
2E
F1
5D
B9
AA
EB
4F
62
AC
B0
25
51
72
6E
6D
4A
7E
E2
34
75
0B
2D
A5
53
3B
32
50
BF
64
C6
BE
44
61
D5
A2
D2
13
73
3B
D5
B6
F5
65
3A
67
C3
67
BB
9B
BE
01
D2
C5
E7
44
7D
03
FE
85
6E
85
D9
32
3D
4D
E8
EB
8F
10
8C
C8
7F
51
E4
CF
D7
C8
C4
E8
68
0D
41
D3
43
89
C7
5E
0E
EC
88
CB
D8
D0
53
C0
EB
05
E0
52
B6
7B
A1
E5
22
BE
E3
C3
B6
98
9B
D8
0D
39
A6
24
B0
DB
CC
2E
D2
15
60
A8
65
8B
CF
F4
63
D6
3D
A4
06
DE
6D
60
1D
BE
8B
06
D2
79
D8
56
30
69
B8
C9
D8
7F
FB
0F
8F
44
3B
E7
6E
E0
75
7C
F5
53
75
44
E7
50
E8
1B
B2
D6
F8
CF
47
4E
A0
3F
D1
8E
18
15
DB
26
23
51
4F
7E
97
99
F3
3D
0F
CF
52
5A
53
7C
29
06
20
E0
10
A5
C1
8B
BE
6E
6E
4D
AC
C8
1B
ED
CC
A3
D3
DB
06
84
0E
DF
9A
7C
73
DB
09
3E
FB
C8
21
2A
C0
C3
23
1A
11
46
98
CF
8D
25
05
F2
6C
E9
97
FF
B8
B0
91
43
F6
18
D6
18
ED
F1
85
C8
73
DA
1C
F9
BA
AE
7D
4C
02
54
98
D7
E4
54
B6
05
C4
0D
50
F7
25
80
AD
FA
5A
AB
97
3C
4E
A5
4A
29
35
3B
19
BE
B4
82
7E
AD
5A
3E
72
3C
B5
1E
7D
1B
59
4E
E1
6D
E3
4F
1B
A5
4D
10
82
D3
69
CD
4A
34
58
2D
A5
E4
85
DC
BC
D4
50
01
4D
18
26
23
B2
5B
06
72
59
9E
CF
F3
AF
C2
91
15
14
B8
2D
54
35
52
C2
AE
B7
64
8D
A9
66
C7
51
3C
DD
9C
77
C0
3A
13
8E
F1
47
B5
DB
CF
B2
58
0A
DF
13
A7
1C
F2
6F
CC
18
4A
DF
7E
1B
50
D5
CE
80
C8
3A
14
C7
DB
46
75
A1
CD
88
3B
B6
21
6C
66
8F
FC
80
8F
7D
B4
9C
0A
0C
99
BE
40
F2
BD
C7
B4
FB
14
37
45
7F
AD
F5
1F
97
A5
C3
B2
97
40
22
AC
FE
9F
7A
C1
7F
DF
82
F1
6A
A3
F5
4E
3A
2B
EC
18
A1
4E
67
02
BB
0D
06
F6
13
DC
1A
C9
AB
B7
00
F8
9F
F5
DA
C6
B8
79
CF
01
BC
37
E5
7C
5E
D9
C6
23
91
16
AB
50
26
62
56
0C
CD
31
28
4E
14
2B
7A
B4
0F
D2
4A
13
21
D6
29
95
38
AD
74
57
85
8C
A0
FF
D3
A2
B1
22
6F
30
3E
EA
DB
66
E3
15
6B
B8
A4
88
EC
93
E8
57
D8
82
BA
D6
D0
4E
7E
41
B4
9A
D0
C8
29
7A
E2
6E
FD
75
AF
2D
06
CB
84
45
26
D4
2F
A6
32
FB
DF
38
5E
D4
02
98
B7
EE
73
81
9A
B5
AE
D6
11
EF
BD
95
FB
1A
62
22
F8
66
73
20
BF
D6
0D
9D
02
78
BE
81
C7
AB
6F
85
A4
B4
FC
2C
70
B2
3C
C5
14
EC
9E
71
EC
5C
5E
BC
59
24
10
77
18
E1
7B
CB
E2
4D
17
F4
B1
B9
73
AE
A5
23
96
BA
D2
1C
51
97
AC
9C
31
24
64
68
F5
BD
69
4E
CD
D2
E9
E2
F1
CD
7B
53
4E
15
15
0C
4E
8C
27
12
45
66
1F
F6
1A
3C
8C
59
0E
99
DD
AD
31
92
CC
DC
23
DB
A1
A1
F6
A8
AA
3B
07
5F
43
45
4E
CE
F7
B1
82
D1
B0
3F
BD
52
2F
A1
2E
BA
2A
F1
CC
53
0D
DD
68
95
5B
4C
61
9F
DD
21
D7
83
87
C6
E7
55
43
FA
5F
A1
A3
64
BC
26
27
95
9F
27
A6
23
FF
64
D7
FE
DD
3C
BE
02
73
07
59
E9
F0
72
54
8B
0C
5B
B5
38
00
A4
CC
F9
21
A2
60
0E
BD
B5
7F
5E
4E
90
71
41
EB
F4
70
5B
4D
69
0E
87
78
63
16
58
5C
BD
ED
2B
61
5C
42
85
51
A4
DE
2A
F5
69
CF
70
C6
87
6C
76
DC
15
42
E1
F6
3F
84
08
9E
CF
69
81
BF
0E
34
1F
FC
6A
FC
81
98
E3
75
6A
25
52
6C
23
0D
48
29
10
87
D1
94
FB
5A
BD
91
65
35
39
FE
3F
81
79
58
79
D0
FC
C7
12
64
35
86
73
CD
F3
C3
A9
58
3E
82
DE
37
EE
69
98
5D
2C
B2
87
5C
FC
46
6A
53
91
CD
77
54
CA
14
6C
BC
3D
24
69
F4
F2
F9
C8
15
C4
4F
D1
22
39
1A
32
E4
6D
22
E5
0F
1F
FC
D1
31
19
6E
DA
79
4A
14
A6
7F
8C
6D
AC
70
9A
41
6B
AA
23
2A
23
10
5D
41
75
4F
F3
E0
46
B9
A1
B3
41
F6
C9
CA
0B
81
90
8A
C0
83
7C
4A
EE
54
C2
4B
83
A6
17
2A
A9
E1
85
23
52
5D
A3
11
BF
85
BD
96
98
50
2A
C3
4F
E6
73
E8
FE
D8
BF
7C
D8
44
59
6D
6F
44
5C
75
42
93
6E
B2
EB
BF
B9
6B
00
0F
06
53
58
32
BB
5C
60
68
F6
02
0E
A4
6C
1D
92
E7
35
49
34
C8
66
8C
7A
C4
9A
2F
6B
A9
05
B1
DC
B8
FE
39
38
41
D7
FB
1A
08
E1
0E
00
6A
5F
C7
8D
63
8A
3D
EA
55
9D
52
83
3F
7B
08
D8
D5
5E
09
48
15
DD
06
BE
A1
8A
7D
D2
B6
E5
F5
2A
9C
B0
BA
C0
A5
25
D0
1E
FA
A8
9C
BB
6D
8B
4E
11
60
26
4E
E0
11
FA
59
B9
46
69
08
B9
C0
5B
C6
ED
7E
F3
59
3B
60
98
37
6E
00
C2
9F
B4
D7
00
80
1E
83
9C
C5
4E
03
2D
2C
83
7C
28
FF
3D
51
0C
4D
59
1A
5D
B0
12
AA
86
F4
5F
3A
A8
78
BE
1F
86
0F
9F
A0
28
04
B6
1B
E9
FD
B7
69
28
08
3C
68
84
50
1C
B6
4D
D7
BF
E3
70
1C
09
BB
9E
F7
EA
45
6E
8C
FE
3D
C9
A7
1B
CF
15
94
3B
21
13
8E
3B
56
D6
C7
0D
71
17
11
C0
69
AB
9B
30
D7
11
46
46
37
24
F9
09
70
FA
E9
9F
0C
B8
4D
64
B7
2D
C7
14
11
34
6A
CD
B5
8A
C3
73
CC
CB
5B
57
70
18
35
BD
E4
00
B6
71
AA
60
BF
AF
26
41
F3
AC
BC
90
A8
D0
A9
E1
46
82
D0
B3
A0
E0
4E
B4
87
DC
91
5A
EF
C5
96
83
B4
DD
B5
2C
ED
AB
F2
81
89
02
1D
F7
1E
08
F9
0A
2E
C7
61
93
F3
88
39
A3
F2
75
C3
8E
A6
09
42
A7
24
FD
46
88
DD
CE
F7
18
B5
7B
91
00
1B
52
69
36
A5
FC
06
5F
FB
8F
27
75
2B
C1
45
BA
89
47
D5
91
A4
3F
F9
ED
51
C8
C0
40
D4
89
43
D4
F1
E2
ED
99
FC
FD
30
6F
0D
66
33
20
87
DB
71
7B
E8
DC
6A
09
ED
18
1C
07
5F
44
94
CB
D4
B4
D9
89
DF
88
4D
E7
77
58
08
CA
D7
DB
FA
96
C9
01
AE
F5
6C
53
4B
87
4A
67
29
1D
3C
F4
B2
DD
18
3C
B7
7E
33
1F
B2
6A
A1
D1
C5
AC
AD
04
7F
4C
5B
56
13
6A
75
E7
D7
97
D8
D3
9A
F5
92
11
A5
2F
27
00
47
73
EC
FD
40
3C
CD
4E
B5
BE
8E
F3
F0
00
BD
3D
70
CD
13
23
17
12
CB
3B
7F
25
9F
89
AE
AD
74
11
C6
EF
56
2F
52
60
E7
2F
D5
93
9B
6D
3E
7F
38
8E
B8
8E
B9
0F
B6
A3
96
4A
3B
1F
53
39
62
62
DA
6A
3D
72
FF
5C
1D
59
7A
60
DC
33
4B
70
15
4E
3B
E0
CA
31
3D
FA
D3
AC
C1
E7
7D
48
D0
CE
9C
6D
32
7E
F2
E5
C6
BC
A8
19
85
54
29
8A
7B
89
61
4A
57
1B
C0
17
0A
D7
1E
36
12
F4
9D
DC
DD
56
6F
08
6B
0F
91
69
7A
B5
F6
CE
32
4C
79
A0
68
FE
10
11
4E
4C
25
85
8B
50
8D
D1
05
52
D6
69
8C
AC
D8
B3
0E
2A
CE
04
25
D8
6D
44
7D
C8
B7
5D
72
EA
15
05
5C
1F
C2
6F
CA
B7
37
3E
89
A2
76
87
9A
48
92
5F
B4
1F
38
3A
87
53
AB
9F
0E
12
E1
65
50
05
22
5F
D0
E8
71
6C
C9
C2
7C
47
AC
30
80
FB
F0
0A
33
73
3D
D2
54
DB
59
DD
DC
ED
6C
8B
C5
8A
60
1E
A4
67
EE
13
40
19
00
2C
B2
40
98
F4
80
A3
FD
79
DA
D8
38
3F
14
BB
E5
BC
B4
B7
11
DC
0F
A6
95
23
EB
21
37
2B
7A
7F
A8
70
3C
00
9C
DA
35
24
9C
7B
A7
F6
62
03
19
5A
58
36
4F
0B
04
83
DB
3B
95
1D
40
30
FA
C4
63
AE
1F
D6
49
C2
4E
EF
BF
96
A1
80
AA
78
C1
E8
10
7D
AE
03
78
EF
D2
D1
BA
2E
90
CD
16
82
60
E3
86
4D
15
FB
AB
0F
00
33
B4
FA
1D
9B
46
4D
C0
48
6B
08
F3
80
4E
D7
F9
49
A1
DC
DF
E0
2D
9B
86
60
EC
23
D8
F3
C3
A9
B0
64
CD
54
29
C1
4D
FA
67
8B
0F
34
09
72
46
E1
ED
28
5F
D2
9B
97
92
8A
F5
B0
01
80
70
B3
09
A4
E5
2A
B1
E9
BB
31
7C
60
70
4F
50
C4
7B
72
E4
39
DB
80
8B
2A
6F
D4
45
87
E3
CB
95
14
9C
A7
1F
DB
4D
BD
68
AB
44
69
53
BD
41
A5
80
20
D2
A9
B5
C1
E0
27
EE
D2
43
1E
F4
29
0B
8C
39
8C
C8
66
C5
E4
62
16
D2
78
0A
CB
91
DF
9A
60
85
43
73
38
2C
38
DC
69
60
2C
9B
2F
16
15
31
0A
16
DA
68
F3
99
15
24
46
CC
D9
BB
35
86
71
A5
F4
4E
8F
CB
42
2B
44
21
F4
1A
C0
38
F8
19
1B
32
5A
60
DC
15
BC
CE
9B
08
0B
23
C2
18
B3
6C
2A
D9
2D
36
62
59
DA
BF
62
68
64
DA
94
A6
1D
B8
B0
A1
F2
44
8C
B9
B4
3C
9F
25
24
81
BC
F1
80
36
C6
75
C3
79
37
43
D4
60
9E
D2
1B
4F
93
15
82
56
B2
33
FB
25
23
C8
9E
76
9E
B1
61
CF
4E
4D
7A
4D
C5
75
C6
9C
9F
68
7A
99
0C
B4
57
22
AE
99
C4
4E
E8
AE
A0
42
BA
E9
A0
56
F7
27
31
9C
89
1D
A2
21
A2
61
25
60
B6
45
73
A8
F8
24
F0
A8
CA
F6
87
96
EE
EA
EA
46
5A
E7
BE
02
2A
31
E3
39
DD
70
D3
1F
68
1C
A0
1E
D9
51
B2
51
AA
EA
CE
2A
0C
90
EC
86
67
AC
11
68
C2
00
D2
00
BC
B4
55
3C
4E
D6
8F
0D
D9
4E
50
B3
44
E1
AB
DF
A6
B9
A2
05
8A
22
ED
66
0C
20
5B
09
CC
81
9E
46
8A
04
26
59
8C
26
D3
E1
10
B2
98
9D
E2
55
B0
E3
76
7B
D0
94
B3
4B
8D
7D
D8
D2
61
BB
1B
E9
3D
D0
5C
DC
21
60
2C
0E
6D
49
28
5A
32
72
FE
BD
F7
BE
B4
CB
3C
EE
4F
63
A8
A9
16
C6
4C
32
37
7C
90
BF
37
8E
A4
CB
3E
D6
EE
37
90
D7
99
CF
A2
25
96
28
4A
32
B2
1F
58
AD
86
0E
EE
CC
5C
3D
32
62
C2
9A
82
F1
D2
1B
41
71
B6
D0
16
3F
34
3F
EF
72
31
ED
0D
13
78
BA
A8
A7
78
F1
51
0A
CD
B9
C5
F6
78
81
E0
1E
2E
7E
52
D3
60
23
FD
1F
1C
71
58
6D
84
C6
1C
39
E2
0C
68
C1
69
0E
3D
CA
57
58
4E
08
33
D6
1C
12
AF
BB
D9
90
69
15
3F
7D
06
FF
BD
80
12
BE
E9
A6
B0
D9
B3
66
93
E0
03
EC
50
CA
1A
89
DA
49
08
45
0E
18
6A
AC
B9
64
B0
1C
9C
AF
C8
42
5C
AA
51
A5
3D
74
4C
4A
16
A5
CC
05
63
28
10
C0
33
AC
F1
A0
14
57
41
A5
8B
A7
7D
AC
25
6D
B1
01
35
77
3C
48
4C
60
D2
41
8B
90
7A
FA
16
D7
12
4A
3B
E4
E8
2B
E9
38
13
53
D9
81
4C
8C
01
5F
95
B3
65
78
43
DE
7B
FB
67
DC
3E
3D
25
8D
1F
D7
9B
F4
CF
88
0E
C4
4E
43
4B
C4
57
50
3D
12
ED
10
75
8A
1C
74
D0
64
29
31
5B
06
92
6F
C9
40
F7
5D
64
E1
94
A7
F0
AE
34
B9
4B
F6
B6
CA
46
D7
BD
54
05
7F
3D
94
0A
F3
8B
91
FF
9A
71
B6
32
6D
E2
9C
43
49
48
97
80
D2
8D
49
62
B9
14
6C
DF
D8
88
90
C3
69
E0
11
89
09
32
29
36
97
BA
EF
01
8E
2A
D3
AE
2C
4D
64
08
9F
EA
2C
82
70
99
51
34
ED
53
10
06
86
33
48
C8
40
5F
0D
8C
E6
E3
B0
CD
83
C2
9C
80
6A
1D
DE
22
BD
56
83
78
FB
00
51
5D
BA
F3
FA
9B
83
80
93
D5
E8
BC
77
DD
47
95
77
1F
F1
98
2E
12
37
94
6A
58
82
E1
6B
7E
F4
0D
08
F9
B2
0C
CC
2C
65
50
4E
DC
CE
41
9A
80
CB
7F
0E
9F
0C
77
DB
BB
71
37
E4
43
1B
3A
F6
68
64
DF
12
92
70
BE
59
CB
4C
16
B3
37
51
EB
19
3A
C5
7C
D8
32
7C
6C
99
A4
00
B1
99
00
96
57
AD
1E
02
43
5B
30
28
F6
B0
3D
CE
9F
51
D9
E1
71
DF
95
52
D4
B4
46
32
7D
82
EC
B9
30
C1
B9
05
5A
E0
F7
CE
EA
29
2B
D8
E8
12
03
B6
8D
10
11
A7
91
EB
77
9A
4C
A0
DF
1D
C3
4B
BA
4C
6E
B0
90
D2
CF
B7
CE
EB
4F
3E
6B
83
57
82
E2
A0
B9
6A
97
06
6F
30
5C
DA
CB
36
72
35
D9
99
62
3B
D5
62
4D
FE
5C
C7
4E
5B
FC
33
55
3F
CB
63
9B
91
CA
74
DF
E4
F0
75
4E
F4
99
06
B7
8A
9F
2D
24
D7
56
2D
49
DB
BD
63
9B
6A
8B
8F
DB
1A
CE
97
71
83
0A
BC
84
54
D8
35
DB
AC
BE
3D
37
22
65
80
24
2A
72
30
9A
1F
0D
18
3E
20
05
09
5D
E1
66
75
74
00
10
CF
49
7B
AC
8F
00
31
63
B9
29
4A
73
C7
1C
5B
95
9C
0C
BC
BF
E6
11
D6
76
5B
33
63
5B
85
2C
84
9E
8F
97
7E
A2
93
90
F4
7A
4F
35
B9
2F
46
6C
65
A9
E8
AC
D6
BF
4D
A5
18
38
2A
BB
B2
8B
99
4A
E3
1C
59
90
3D
34
4D
E5
AF
98
C6
B0
BA
4A
A0
9C
14
7C
19
D2
A4
BF
78
CC
E0
06
2C
C1
8B
7B
D3
42
67
61
3E
D6
4D
37
C2
0B
2B
1B
B3
15
9F
F7
43
00
07
88
FC
6E
12
B7
99
AF
51
65
CA
C9
06
F5
01
86
F7
9C
8D
C1
56
6D
6B
F2
3B
CE
1D
2D
A0
79
30
16
B7
4C
8B
64
E0
E5
D9
52
4C
F6
2B
A2
69
86
A0
57
1F
89
0C
3B
10
B5
4D
4E
48
9E
D7
66
8E
40
7D
8B
40
AE
61
AA
5C
72
EB
EA
AE
AA
19
69
9A
1F
94
FA
CE
82
9B
1B
BB
34
2F
7F
C3
6D
E3
D3
3D
00
A7
A7
C4
0D
41
46
0D
0A
E9
6A
A7
05
C8
45
2F
FA
56
58
A3
5B
4E
E4
0A
3E
CC
CC
6A
55
16
BB
CE
A9
50
FD
3F
63
FD
3C
CF
D6
2F
19
6C
23
7B
15
F8
8C
81
98
F8
BC
53
7A
34
27
13
05
62
DB
BA
D6
65
BA
2D
9A
4F
F0
82
13
AA
99
B6
74
0B
7E
0B
3D
33
BB
27
EF
6B
B3
41
1D
0E
C5
FF
65
05
DB
63
7E
B4
F9
4D
20
15
6B
0F
0B
D5
92
52
AD
35
4F
A1
CA
75
57
2B
2E
CD
EF
FC
C5
01
A6
ED
60
03
84
85
54
85
11
CC
07
4C
7F
BF
D4
BB
E5
63
AD
AC
2D
15
C1
8F
1E
11
0C
B0
1B
0B
82
ED
53
B3
50
94
D7
7A
B0
D4
D0
F5
D4
37
9D
DD
76
E9
98
74
3D
69
53
32
4C
C5
64
E7
9F
15
31
46
14
33
79
DF
11
35
8E
2F
9E
C3
DA
12
BC
7B
95
05
87
0A
57
53
88
FD
34
9A
5C
A1
DE
34
BA
F5
D9
6A
FA
8F
16
64
59
92
15
2F
43
DC
C6
86
EA
28
5B
BA
E1
F8
D8
44
AC
2D
AE
0A
9A
8B
2E
8E
C0
2C
46
BF
30
2B
6E
82
85
E2
D3
79
31
5E
2A
44
FA
67
BD
16
02
E4
B4
B4
66
FD
C9
24
8D
0C
89
08
C4
7D
1E
0E
8D
A4
A2
82
E5
FA
23
5C
F8
4C
32
C5
57
56
49
10
FA
34
36
99
B4
A0
84
94
91
9F
0A
47
FB
7D
BF
94
04
73
52
78
E3
26
D6
0A
6D
4B
8F
A5
51
4F
B4
47
9F
A1
DB
69
86
B8
ED
D7
C1
BB
AA
7C
4B
1E
BD
22
22
76
6F
76
92
67
4E
0D
AE
FF
F3
F6
5D
DC
43
0D
74
20
B8
09
AB
39
B2
8B
4E
1F
EE
25
F7
5F
31
6B
01
10
87
76
28
BC
17
ED
8C
47
42
21
C2
3F
88
A8
0C
86
0D
09
1A
57
D2
79
B2
E0
B9
90
07
F4
19
90
B6
0D
1F
C2
63
B9
CA
BD
AB
82
4D
DE
2E
C3
CF
72
03
50
88
00
4F
76
7B
0B
9B
7D
90
66
E3
AB
0E
03
D2
BF
99
A9
EB
B1
2C
8C
B5
8F
2A
61
E3
19
B5
69
78
36
61
54
14
37
B6
D5
70
00
9E
78
9C
FA
E5
83
0C
46
F8
51
EB
2A
95
C4
08
46
BA
12
80
C5
1F
81
C2
2F
EC
0B
0C
15
1F
50
54
20
C3
49
21
9C
B8
61
C3
7A
97
05
83
0C
2F
87
71
28
31
7C
12
11
54
32
E9
AB
AA
0A
ED
B9
7C
BE
CD
95
9F
B8
FD
56
06
7E
6B
3B
9A
8B
9A
B2
3F
48
9B
62
7D
01
74
6B
68
07
0A
56
87
F9
3E
96
47
8A
06
9E
55
7B
2A
E9
22
34
AD
F1
84
E3
02
5F
BA
09
06
93
32
D4
71
2A
D0
D3
E8
1F
CE
6F
24
EA
41
07
14
8F
2F
23
5B
40
C6
DC
59
C0
15
69
A3
B3
62
CB
D1
AD
6F
FC
28
B6
81
0D
D6
86
A8
EF
E2
22
DB
B5
35
0E
70
F1
F6
FC
BF
D4
5B
D9
46
55
23
1C
CE
94
4E
E4
8E
EB
48
08
23
31
25
D5
58
DD
21
D9
11
A6
6A
D0
EE
13
2C
B6
E4
D7
78
32
EC
56
1B
49
63
86
70
9B
80
88
7B
B2
49
80
34
F0
53
99
B1
85
B9
A5
B5
B4
BC
25
55
1F
D6
F5
04
66
09
BC
1E
CC
DC
2B
76
8A
79
55
30
E5
50
2B
4A
19
56
49
97
2A
DA
76
3D
A8
EB
BD
A5
7A
0A
79
A1
12
03
85
9D
B6
0C
90
46
85
8D
32
F4
9E
9F
F1
20
9C
BD
25
BD
27
10
97
23
2A
7C
32
96
19
53
09
F9
DC
15
77
BC
39
AC
C7
3A
F3
F8
94
1F
57
56
F7
54
9C
84
45
40
FA
2D
54
4F
3B
9D
38
98
06
48
7D
75
92
3C
26
A8
23
75
D7
87
C6
7B
20
E3
B2
79
BA
BD
DC
6D
11
B4
72
C8
B7
5F
2C
13
DB
0A
0A
C0
38
53
2D
1B
F3
02
F2
74
5F
99
64
D6
CB
A7
7D
D8
2F
D7
64
3D
29
A5
3E
1D
1A
C9
E8
31
49
D6
5E
41
6D
E0
41
81
F8
43
F6
D3
B3
9C
CC
C4
A9
37
C4
60
1F
BA
DB
0F
E9
B6
2E
FB
19
AF
A9
93
18
60
5C
77
4A
93
84
1E
16
4B
BC
CA
E1
82
55
09
38
98
FD
66
B3
A0
80
0D
E7
C0
C9
6C
7D
C7
8B
D5
56
A1
04
62
DC
71
33
1E
1E
57
15
B8
3F
0A
8F
0B
C6
21
2A
8C
E7
34
1A
70
20
71
9B
F1
D4
F4
0F
D8
01
59
3A
40
11
32
2D
43
AE
7A
BE
19
A0
5B
F5
6B
E4
C8
AC
64
E1
5C
38
0A
53
E2
E0
9D
22
CF
F6
72
B2
51
5D
DC
71
73
DE
93
FC
5B
A0
58
F5
F6
26
92
91
91
5E
A7
6D
EA
19
55
FD
9E
A6
59
57
C8
C6
50
47
1A
02
9E
7C
AF
4B
1B
1D
C6
82
E2
AB
7E
E6
5D
34
41
3A
3B
89
7B
78
19
56
61
7C
67
B3
A1
3F
C4
B0
A0
46
FE
8A
C0
5D
F7
C1
C0
59
DE
B9
CC
56
F8
D9
3C
8C
90
A3
4C
75
DD
A0
B4
41
84
AE
83
CD
99
0C
92
DB
48
27
EF
6B
B3
58
D6
67
84
43
3F
03
49
29
6C
22
D9
92
2B
7A
A1
D1
98
67
AF
E4
72
A5
74
5D
53
40
4A
12
7D
65
7B
B9
23
93
33
16
A5
FD
C1
FA
B4
E4
43
35
CD
2B
48
CF
56
75
2B
40
0B
6B
51
8B
E8
7B
18
17
53
B5
EC
21
82
4C
6B
34
B7
64
0E
F8
33
01
1D
87
87
52
7C
11
76
02
2C
38
50
AD
E9
6F
78
1D
8C
04
C0
40
9C
99
2D
23
2A
9D
55
E1
8B
B5
6C
5A
10
0C
3C
EF
3F
52
65
40
51
1C
E7
E0
57
02
D5
66
38
59
D8
1F
DA
67
0A
EB
83
7A
EB
28
8F
B9
BA
34
1A
F9
24
C6
83
FE
0C
74
C0
4B
0E
7E
19
81
EB
FE
E7
CA
6B
1A
04
6B
C4
51
BE
9B
12
B4
F6
51
5A
67
88
4C
2A
82
60
E4
B9
54
DC
D5
2B
6C
9A
CB
2B
E6
B1
01
35
68
14
7E
7A
B3
02
E4
93
E0
AE
86
17
E3
64
19
B1
BC
EE
D9
FB
D7
D9
57
CC
5E
93
CB
34
8A
58
0F
18
49
20
96
DC
03
09
A7
B3
EB
94
FD
A0
05
BF
BB
54
2F
C4
48
61
52
CD
1F
EA
0A
68
0E
AB
1C
29
E4
0B
3D
E1
8C
25
8F
89
04
16
10
A6
CA
FD
23
31
49
2D
35
E6
33
BF
1F
B8
4C
0B
9E
9F
A8
54
84
45
B4
16
9C
21
6D
79
F3
50
B1
F4
47
4F
8E
02
50
D8
69
D5
A8
33
F7
42
F0
79
7E
DA
A8
E8
06
07
75
AB
27
94
A9
C2
9B
EB
01
67
9F
71
28
AD
62
2D
4A
4C
FE
20
0C
4D
8E
54
1F
A0
EF
8E
1D
2F
E3
BE
A4
27
54
C7
A6
C1
C5
EA
7C
5F
40
6A
62
79
83
73
83
35
0A
58
CD
39
6B
9E
1F
B2
19
F0
DA
9D
BC
AB
B7
F1
A4
51
53
0A
96
CE
D9
FE
DC
E4
7F
53
54
57
45
73
EF
59
F3
77
EC
D4
A5
40
EC
98
E0
25
F0
43
5D
71
DA
50
12
FC
E6
A5
E6
D8
A7
67
87
35
CC
C9
BC
34
96
D2
5E
21
7A
8A
BC
F3
8F
DC
1A
34
DD
83
84
57
BC
30
E1
C4
FE
A0
5D
FC
43
F0
ED
6C
67
12
AF
D6
4F
19
BF
90
9E
7A
FE
CE
34
DB
60
05
69
33
62
51
98
7D
D0
08
2B
39
3F
02
8B
9F
21
72
59
76
D3
61
64
51
10
D1
FF
60
43
4D
EF
03
9F
E2
60
D9
92
09
DB
66
32
16
08
9E
5F
81
0B
2A
D2
89
44
0F
2D
67
B5
6B
C9
E9
F3
4A
72
A2
B5
2E
52
63
1B
11
06
9F
37
6D
5E
D4
62
40
E9
1E
C4
E0
39
22
E1
69
1A
FA
6D
03
76
EF
E1
BC
DA
2F
4C
47
5D
C0
66
7A
FD
71
69
4A
FB
F0
6C
45
F5
7C
6F
C9
36
AD
39
E2
24
D0
4D
0A
08
5D
4A
1C
67
19
29
A4
2C
F0
A5
A1
BB
6D
43
8B
8B
46
B4
84
E5
A0
20
42
09
55
46
70
14
37
37
2E
68
B3
68
BC
A1
A0
C7
C4
EB
C3
64
4C
75
EC
FF
62
ED
ED
32
59
5D
FF
49
EE
6D
34
AA
B6
4E
08
78
99
49
CC
8E
82
4F
3C
A5
5A
11
BD
8E
49
70
4F
04
D7
54
10
DC
20
2D
66
52
0E
21
63
B5
90
04
3E
32
51
63
48
09
CA
17
34
8B
15
F3
4D
F5
A3
5D
F4
03
68
A2
FB
5E
3B
24
EB
91
0F
8D
A4
4F
B3
07
0C
E7
9F
B9
B7
23
73
BC
56
18
9D
03
FA
D6
D0
B7
67
CB
4B
90
60
61
0E
30
3D
A3
65
45
CD
64
D0
FD
A0
C2
6B
3D
6F
08
FE
EF
A3
3C
C2
99
DE
34
A5
BA
D9
91
92
3F
2E
AA
9B
A9
BD
A2
8F
9B
F2
FD
15
E6
8A
3E
6C
01
38
78
76
51
A7
F6
2F
83
53
E1
20
24
46
68
D0
95
C1
CD
87
D2
97
03
23
CD
64
5C
FF
3D
7D
A8
BD
B3
9B
FE
DC
22
22
AC
91
CF
71
B1
61
17
3E
CE
F4
0B
BE
1B
6C
AC
4A
A9
EA
73
3A
4F
8D
9F
EC
4B
1A
F7
0E
73
9E
FA
3A
44
2C
C8
4C
61
E3
0B
4A
E9
4A
6C
79
00
FE
8D
5E
A6
5C
03
2B
5F
0B
EB
A9
D9
FE
D3
5A
10
DF
44
1E
6F
49
65
66
FA
C0
35
F4
5A
3B
B1
0E
57
13
96
DD
A2
9F
53
95
AD
6E
C4
93
A9
54
64
E2
F5
BE
8D
AC
A6
9F
D8
26
59
DC
43
04
30
F2
09
99
BD
15
C5
56
25
59
2C
AA
96
63
B0
CB
95
84
59
6B
83
EC
D5
13
B0
21
7B
B3
3A
B8
45
48
C8
B3
25
69
43
03
D6
95
C6
E8
2F
81
D6
48
A4
41
81
E3
E1
01
30
2E
19
EF
D7
91
14
B1
E7
0E
8D
21
F6
C0
4D
A9
7D
09
22
CC
DE
A3
D4
09
EE
EC
08
82
9E
A3
45
5E
6E
AD
15
C0
A7
D4
A1
FA
2F
0A
8B
4F
32
64
B5
6B
2A
97
B5
83
61
7E
7F
80
B6
8F
59
DB
D7
2E
F1
E8
B0
52
85
77
7B
79
9E
B7
D9
99
16
5C
4F
8C
02
95
B8
7A
41
89
6E
ED
3C
CC
CC
15
A5
B7
8E
1B
47
DD
1A
5E
8D
71
C3
9D
F6
74
CF
3D
5A
F0
BF
B3
A0
79
DD
91
81
4B
EB
3B
D4
62
9D
FB
B7
79
A3
0D
7A
F7
C2
02
C6
C1
D5
7C
79
B2
70
3D
6A
B0
55
1B
4E
15
71
94
17
DD
F8
EB
EA
DC
F1
E2
2E
FF
F6
F9
05
7B
7B
96
46
6D
30
DB
99
11
4B
62
74
1C
36
45
BA
8C
D4
55
C9
07
37
47
CB
6A
C3
9A
14
BA
5E
2F
B4
E0
2B
5C
BF
DF
9E
FD
38
34
B9
9E
80
38
56
2F
93
D3
F5
0C
90
28
B4
AF
C4
8E
53
AC
EC
0F
CE
F0
FA
0D
96
A8
9C
D2
9B
DA
CA
F8
0F
BA
B6
4F
A4
C0
3A
83
94
9B
D5
66
CE
E7
76
4A
90
3C
B4
80
F1
0B
2B
78
24
68
E6
D6
4C
91
9C
DB
92
01
9D
A6
9D
21
0E
4E
2C
E0
74
9D
91
3D
53
31
CD
D8
F8
2C
3D
D0
0A
21
A3
69
60
83
63
83
40
4C
D3
35
23
B7
33
3B
B1
C7
12
A0
27
F9
6C
81
BC
78
2B
5D
8F
33
06
3C
3C
3A
F8
6E
71
02
AB
19
8B
2A
74
F4
46
13
43
C2
2D
55
FA
DD
37
60
21
E2
9E
F0
C1
36
0F
D2
44
99
D0
57
36
10
D4
01
09
B3
F5
FC
DF
4B
EC
74
29
10
38
7C
28
75
48
54
CC
AF
DD
2D
E6
70
6F
0D
C4
C1
21
E4
79
AF
42
73
89
D9
D9
75
09
36
37
41
65
05
AD
B5
DA
1F
15
5A
BB
85
D4
FB
7F
34
A3
B4
B2
4A
D8
0C
94
5D
84
85
87
F9
C0
18
C0
E4
E8
1F
5B
DA
6F
B8
70
43
1F
F6
E6
AE
25
48
4D
0C
CB
A2
54
60
2E
2F
1D
F4
0F
C4
D4
9E
13
0A
30
50
47
14
08
BF
97
05
90
04
0C
0C
44
B0
44
C6
39
8C
FA
04
B8
3A
6A
22
3D
CE
54
30
DE
89
BC
77
33
AB
16
6A
BC
0D
1C
9B
27
4D
92
EF
A5
76
A8
6D
AA
DC
01
75
3E
76
F0
06
92
28
4E
4A
E3
8D
93
C8
31
FD
DA
8F
A0
FE
B0
02
8C
BE
A7
1C
4D
37
0B
C3
F7
93
08
9C
60
9A
AF
E4
BD
C1
84
91
DC
98
CE
6E
2A
0E
C0
CA
B0
4F
19
89
23
8F
97
FC
79
95
1B
7A
6B
3E
39
40
09
2D
A3
63
5E
D8
78
82
05
41
2E
E3
38
67
AB
E8
80
D3
D8
E4
46
34
02
C9
B9
0F
F8
55
DA
A8
C6
7C
14
36
75
9D
5B
E0
03
F2
7E
D0
49
ED
4F
10
A7
0E
37
77
49
F6
ED
EC
55
EE
D6
23
4B
82
73
0D
EE
0C
93
53
EC
73
E5
29
1C
8C
B5
82
58
47
18
F0
F3
E3
9B
A0
78
F5
04
AE
41
43
77
7A
8F
24
14
47
E5
78
11
B6
6F
94
AE
37
07
53
C5
36
55
48
38
B4
BF
F3
5C
16
6D
47
12
70
DA
D2
7F
05
AC
67
60
1F
81
B5
C0
E4
B0
FF
EC
B8
6E
96
82
45
12
0E
A9
4D
12
D2
14
51
1B
94
E2
9C
6B
64
E8
72
23
15
27
C2
92
72
42
AD
8E
27
98
64
E1
BA
7E
32
87
70
EC
D0
95
5B
E5
83
AD
82
EC
CF
5B
10
36
38
40
42
D3
97
07
13
B3
55
03
51
AB
6A
88
1D
6C
78
43
16
61
6F
A3
DE
D4
CF
9F
4D
B7
D4
E3
78
B6
5F
70
F7
6F
75
7F
B6
D6
57
D8
F1
C5
B4
95
64
72
95
BA
55
74
E1
3A
42
CC
7B
23
92
F0
95
E1
58
56
3E
DB
E8
C8
88
4F
CB
50
43
95
01
FC
29
0E
A0
41
F5
88
CF
12
29
09
F0
D2
58
C8
F2
F7
21
01
AE
86
1F
61
17
75
6C
F7
91
BE
A2
54
29
29
CE
35
9C
29
78
F3
F5
3A
41
3F
F1
13
3B
9C
89
48
89
C7
C9
10
64
A2
03
1A
91
27
06
AE
2B
F4
41
01
61
BD
88
3E
82
2F
73
3D
F2
36
B0
63
7A
62
B1
12
B4
AA
BF
10
66
B0
BB
44
7B
90
36
A6
F1
D3
FE
D1
55
FF
DD
74
55
9A
49
F5
22
B2
F4
FA
CA
C8
89
C6
5F
99
3C
50
E4
87
88
26
16
F3
E1
23
5E
D8
67
A7
99
D3
18
AC
31
4E
2B
83
CD
42
0E
E5
97
3A
FA
98
CF
14
21
C4
FE
72
DA
9D
1E
C8
0E
CB
C0
92
7F
C3
B8
52
D8
D7
4A
6E
9A
1C
E9
1D
0F
C8
C7
2D
3A
C3
C8
8B
45
32
A1
35
8B
97
C6
8F
1A
0D
90
E9
B1
44
C7
A0
4B
91
FC
E1
83
A9
E7
2E
17
38
54
83
FD
D2
42
02
AB
0B
E3
80
9C
D1
B4
21
22
10
22
F8
5E
1D
93
12
DA
57
C1
AB
C5
CA
6E
33
D1
62
6E
A3
2B
16
55
7F
03
D0
A0
6F
62
80
52
4E
E5
4E
4D
D2
58
1F
E5
68
07
FB
E8
8A
6E
08
6D
59
3D
0E
B9
22
C8
9B
A7
4A
08
97
C3
F2
7B
BB
D6
F9
55
FC
87
44
CB
A2
C1
8C
83
D5
C6
94
93
1A
EB
F0
CB
D2
DC
91
57
6C
F5
85
56
4B
C4
5A
CF
93
FE
9A
B4
40
8D
00
3D
D4
4A
00
30
B0
29
71
39
6C
38
27
C0
80
1A
27
81
09
46
6A
3C
2E
04
C7
42
7A
59
BF
24
3A
87
53
02
5F
F4
76
2F
BD
D3
F6
A5
66
B0
9B
2E
7B
0B
D7
82
55
FB
4A
83
91
74
0D
72
6F
A7
44
D8
AD
3F
8B
F7
9F
FF
60
14
1A
1C
3A
92
DB
16
FB
B4
11
DA
09
DD
FA
3F
83
A7
A6
02
B3
23
B0
77
5D
DF
DC
83
B7
91
51
74
80
3E
AB
E9
33
DE
47
66
3A
73
35
6B
46
95
DE
05
03
ED
FD
C6
CF
B7
A1
54
F5
A8
46
3F
3E
5F
A3
53
86
63
91
C5
AA
17
FB
3D
A4
21
25
F4
38
75
BA
37
32
43
FE
99
FC
64
88
89
CA
94
FA
A7
F7
DD
C8
DA
D9
B7
ED
79
76
3E
C7
1C
DA
1F
FE
E4
7B
F7
B2
34
7F
99
22
8A
48
F5
51
D2
E3
8C
84
C9
64
3F
8D
95
92
83
DB
EE
19
59
9D
E8
AB
B0
03
24
43
E5
A6
18
63
D6
D3
8D
74
F7
BF
73
AF
52
98
39
85
71
9B
4D
96
E3
CB
DC
2C
52
C1
48
1F
29
EA
18
AE
86
CD
4A
4B
2C
95
A4
11
B0
9E
2C
4B
44
16
6D
02
46
2F
93
99
1E
93
81
89
BC
7C
33
F6
3A
A5
6A
39
0D
36
CD
3D
1B
43
90
9E
0C
CE
5D
5E
D2
57
C0
E3
62
D8
78
93
23
00
38
7D
5A
86
E4
4E
BF
B8
56
CD
50
5E
15
44
0C
8B
78
B3
7D
69
3A
D2
F2
84
98
1B
52
6B
96
0E
B6
B1
D0
37
31
29
6B
BD
01
65
65
39
4F
7B
19
8C
C3
8B
53
93
F9
66
DF
9A
83
91
BA
3E
69
C1
79
84
C7
49
B2
D8
71
CE
59
C2
85
DD
73
98
93
6B
34
1A
A4
79
38
BC
FB
10
08
4D
C9
C3
94
D9
3D
46
29
B5
67
3D
81
68
AE
28
7B
B1
00
DE
C5
4A
B7
F2
17
96
D9
FB
9C
79
9B
FA
07
82
61
F6
11
AD
16
E6
A7
FC
7E
76
80
47
AD
A1
FE
FC
01
C5
82
68
10
F1
BD
F9
7D
E5
CD
9C
98
2C
70
8A
FC
39
31
55
BD
B2
8C
3C
47
7D
1F
02
36
A1
21
3A
65
2B
8A
74
D7
0E
AF
EB
AF
4D
44
C5
07
45
51
96
D0
B1
1E
04
D8
64
2D
DA
6A
F1
1F
D8
75
9F
75
46
4F
C2
D7
B3
37
02
5A
15
F0
D5
48
3F
22
55
5F
59
AD
49
F0
0B
F4
32
2E
78
1E
42
36
9A
12
FC
41
A5
11
4B
C9
F7
32
5C
EC
C9
7B
AF
E2
0A
59
90
D2
57
38
06
B6
C7
9E
0C
25
05
41
77
15
78
8B
41
6F
B0
E0
03
2C
2A
20
89
CC
ED
16
E6
9C
2B
4A
57
1A
22
B7
10
D6
1E
3D
33
94
69
45
85
BE
AA
36
D2
DE
A4
C2
44
C1
40
69
DF
F3
EF
B8
C9
67
3B
B4
88
6F
E4
01
DA
FE
AA
37
CC
B2
56
82
D2
AA
DE
5D
14
71
AA
23
17
2A
13
64
E5
0D
C1
DD
03
0E
F9
F9
97
40
20
DF
BA
03
65
F4
E2
B5
18
6B
02
D1
D5
CC
43
E9
C3
71
F8
5B
DD
3D
64
F3
A3
4D
A7
E4
6A
11
AF
82
73
B7
35
A1
20
51
22
3B
D1
5B
DE
A5
4C
44
37
0C
8E
44
6B
5A
84
81
D8
B1
A6
6E
27
2D
19
C7
CC
B9
6B
17
43
0D
BB
DB
2D
63
21
BF
4D
03
49
D8
8C
84
39
03
9A
B2
13
5C
05
F9
FC
A4
10
97
EE
AF
A3
35
D0
2E
E7
E6
15
50
F0
D4
7E
3B
62
81
97
0F
50
C7
B8
A2
E8
C7
99
B3
01
8B
31
FE
F8
0E
84
02
4C
7E
18
C7
B3
30
C0
68
41
A0
D0
39
33
33
52
54
5B
F5
0F
2D
AA
30
81
B1
FA
6F
C1
DD
D9
A9
28
C4
15
0A
B6
71
6E
25
D9
4D
6A
E4
15
23
B6
C9
C6
CF
42
E3
B9
DC
E2
20
3E
4B
BB
6D
EB
D0
B9
71
42
72
8B
49
E1
FB
D7
E2
1D
BA
44
F6
E4
E8
53
38
63
B1
66
EE
0E
DA
26
2E
C4
FC
0C
84
75
0D
28
27
A4
39
38
F7
BA
1A
B4
AA
8D
A9
EC
E1
A8
91
0B
1D
14
9C
0C
06
0F
88
77
E4
43
EA
C9
13
3D
75
60
59
07
28
38
FC
93
65
27
D8
75
C0
75
CF
63
6E
4F
0D
7A
91
7F
82
BD
91
AC
80
50
46
22
16
88
00
02
91
74
79
77
CF
BD
42
04
62
72
55
D9
FA
AD
84
0A
E2
4D
94
7D
27
E3
B8
46
8B
95
E3
74
88
95
2C
B7
F8
BD
91
89
67
00
8C
69
8F
B8
A1
73
D4
E6
B6
A1
A8
CC
84
42
1E
D3
71
C7
2E
19
0D
1E
CA
EE
06
4A
9E
9C
3B
EC
3C
03
73
46
D3
F3
7D
EC
CF
E3
4B
41
94
6B
4F
45
84
FD
ED
28
0F
88
2E
BE
A9
E6
1F
9F
D9
0E
81
13
AA
08
A7
B8
A9
A3
52
E1
0A
7F
0D
B1
57
13
42
CF
39
38
72
98
BF
C7
76
8B
99
D1
8D
C6
EA
1E
22
26
C6
46
4C
90
BE
80
ED
2C
D6
7F
74
8A
B9
21
DE
45
A9
DE
29
7C
9F
26
B5
96
0F
DB
4D
5A
D4
30
1B
ED
D2
00
9F
45
E4
9F
C6
A5
C4
42
4D
81
4A
D6
CE
FF
8F
55
E6
D5
38
8C
C4
53
47
DF
A0
58
DE
2C
1D
4E
4D
4B
70
FB
26
D7
A4
70
F9
EB
09
5C
4F
96
D5
47
66
E2
7F
A4
6E
CD
93
30
60
C8
C3
33
F4
7A
A5
20
95
FB
43
15
4F
57
75
71
B6
88
CE
EE
5C
59
87
84
68
76
40
E6
EB
CC
08
11
0B
E1
D2
A5
14
93
A3
75
25
D4
15
74
B9
D9
14
24
37
BE
DD
DD
1D
5D
6F
F2
AE
CA
7F
DE
71
EB
4A
3F
E3
E9
4B
89
2A
A1
8B
4E
76
DE
43
A9
92
27
22
7A
3E
98
6E
AF
8A
0F
B1
2B
B5
C1
FF
51
E0
85
CB
56
60
67
38
E0
98
D1
29
0F
68
6C
1A
35
43
B4
1A
65
DD
C4
95
A2
80
40
25
61
1E
11
7D
9B
6E
8B
E0
01
BA
31
86
5D
69
37
87
8C
47
BC
AA
A8
6A
9E
77
CF
8D
63
44
3A
77
51
1B
44
57
21
E9
76
4D
49
A6
5B
34
88
6F
B4
38
35
DE
E6
CA
0B
21
2C
FD
03
D4
93
4A
07
BE
17
1F
45
A0
BC
7C
A2
A4
5A
77
45
13
5D
8F
D4
50
39
0D
C6
1C
EC
D9
1B
9F
9A
83
9F
0C
99
DF
48
38
7F
28
EA
41
06
FE
E0
71
A9
B5
BA
22
2E
E6
3F
E6
34
82
92
42
BA
4C
2F
22
25
2A
93
62
C4
89
FE
62
D6
51
67
F1
DB
63
36
D2
E1
9A
41
9C
34
8E
30
F8
8E
D7
C0
D5
DF
80
34
74
99
98
D9
B5
2F
BA
CA
81
5E
01
CD
1C
92
DC
79
92
88
47
65
BC
3F
5E
AE
EE
5C
E1
6C
46
B5
70
B3
DB
7C
92
9C
A3
F9
83
AC
2B
B2
48
49
57
26
5C
CF
6F
03
73
67
FF
7D
BB
C8
76
02
1C
78
43
F7
33
02
CA
3F
18
75
47
1C
30
57
9A
73
89
40
EE
0A
FE
7A
A7
60
18
4F
06
65
07
8A
FF
B9
35
5A
B2
CA
94
30
13
9A
FD
AE
B9
E0
2B
17
39
14
E8
1C
D6
26
DE
6B
68
DE
DA
74
F9
65
44
08
59
2D
0C
C1
F9
41
90
8A
05
5A
FA
B5
10
A3
BC
7E
17
CA
0F
64
D2
6E
F4
52
AE
51
91
74
A5
7A
68
1B
E1
C0
36
B8
A5
BE
61
A4
83
62
8A
DB
20
22
6D
08
8A
9E
AA
72
A6
9B
CD
4D
41
66
FA
83
FB
80
8B
93
C4
18
F1
6C
E9
2A
9C
75
C0
E5
DD
6A
70
53
22
9F
96
C2
07
3A
0A
BE
2A
71
36
32
44
BF
5C
81
2F
D6
18
D1
50
8E
D3
7D
F0
71
10
EB
71
95
B3
FC
ED
BA
97
BF
8B
97
75
C9
83
35
D3
44
22
1B
0E
08
8B
BB
DB
01
F9
48
6D
A1
EF
AF
76
BB
04
12
78
E5
00
C6
C8
BC
D0
B5
ED
9E
BD
66
F2
09
38
1E
A4
71
8C
71
46
4B
7C
C8
4F
A3
BA
E0
65
F5
41
7B
86
54
68
75
EE
30
00
E9
10
EE
4D
96
56
45
3B
FA
F8
EF
CB
F3
E9
B0
E2
2C
5C
82
C1
25
FB
C9
83
55
7A
84
6D
6C
A9
ED
E3
F3
5A
D9
B8
1F
D1
BC
16
B9
AE
D4
37
E2
BF
EC
0B
88
A9
59
AD
14
B3
E5
5C
1F
B7
FE
08
93
4E
EB
08
A5
44
19
BC
9D
0E
47
A6
CF
50
04
3D
D2
57
FD
76
10
20
0E
51
BC
AA
7A
80
CF
A7
8F
5A
3F
1A
00
25
30
0A
8F
0E
0D
03
A4
B5
01
99
02
E1
C2
23
B3
63
A4
DE
2E
78
3A
B7
5E
93
0D
E4
0C
02
09
F9
77
23
F4
72
CF
20
AA
FB
36
ED
94
75
EA
6A
75
7E
94
40
B4
13
41
DF
8D
DE
B5
41
B7
AB
9A
A8
A0
BC
A5
0E
3E
D2
59
2C
44
80
B9
B6
A1
3E
3D
6F
A0
92
FA
5F
DA
6B
65
51
21
23
AD
2C
BE
D6
D8
94
0A
F0
8A
F7
8A
E0
C7
11
18
5A
07
0B
41
3E
60
D6
36
72
74
32
F2
8C
C6
EC
F1
AB
3F
3B
47
31
E5
A1
7A
55
14
BA
14
1A
C7
20
17
41
72
31
3F
E9
F5
73
8C
A1
BE
C7
0C
D2
54
5B
65
06
BF
A5
91
C2
F7
70
81
B8
13
F3
7B
0C
07
09
97
83
39
9C
FE
D7
2D
AD
12
9B
1E
A8
23
70
F1
E5
C2
A1
F8
34
A7
57
5C
C2
EC
86
EF
DF
E5
8B
08
EF
20
95
0E
ED
62
17
5D
BE
0C
AF
99
96
B3
C1
89
65
CC
C0
1C
77
1A
95
F5
51
3A
BA
4F
5E
C4
2F
23
2F
9F
DE
53
FC
2F
30
6C
5D
7F
30
75
EB
2A
2F
24
A2
B1
66
55
B5
97
0E
46
C3
A2
F2
96
F5
79
96
A8
F5
86
65
E7
0E
21
D7
5C
7C
F7
1F
4F
C3
7A
04
65
92
83
86
9B
91
8B
0C
AF
99
07
1C
A5
12
A1
92
9E
30
EE
33
0D
78
CA
D1
74
D1
91
FF
E0
28
A5
53
F8
BD
96
8A
48
54
80
59
F8
0C
B8
48
FE
29
AA
98
5A
92
A9
FE
D7
D0
32
46
CC
67
70
F7
59
CE
CF
06
1C
46
D4
70
B2
EF
37
BC
30
C7
A9
42
AA
97
2A
A0
DB
5B
A1
D6
DB
6C
AC
94
47
EB
32
B7
D6
02
DF
BD
DC
64
DB
AF
84
ED
DB
AC
29
1A
A3
E4
86
AE
B4
34
29
A4
7D
B0
A3
32
3C
5A
68
FB
A6
48
1A
C1
48
20
39
04
A1
B1
2D
4F
3E
21
41
CB
49
4E
18
2A
1B
AD
48
7C
5D
C2
74
37
CD
DB
9A
CB
A7
9E
80
A4
75
F6
56
3E
D1
13
49
5B
DB
A0
A9
2D
49
83
B3
43
21
2F
98
92
E2
57
B5
E6
0B
1B
7C
34
1D
54
42
00
17
D0
05
78
2D
9A
7C
62
29
94
39
E1
83
52
45
ED
47
9E
34
82
E2
C6
41
E6
0D
C8
39
63
1F
12
F9
F9
09
B4
51
34
0F
A9
56
0E
9F
D5
01
64
27
CF
CB
08
64
0E
95
B2
3E
AC
24
83
5D
BF
93
69
4A
7F
66
7C
D1
D9
17
52
47
F3
6F
25
40
49
D3
C4
C8
4C
40
5A
F4
A3
C0
2F
E8
04
D0
EC
6C
50
FA
DA
96
6E
80
97
3D
F5
74
78
73
08
73
72
8E
08
EC
32
35
F4
DD
4D
6D
94
68
30
BD
35
EE
F9
9F
2A
02
1F
F7
C9
2D
10
54
B6
36
5B
4A
C6
4A
25
07
2D
D7
14
BD
37
D5
13
42
3C
BF
B3
08
9F
EB
15
8F
7E
2C
E7
4E
0C
99
9F
32
EA
4C
8B
CB
7B
C0
E9
32
36
17
EA
BF
03
FE
E9
EC
24
C9
15
D0
EB
22
4E
4C
C2
17
C6
E0
F9
1B
9A
28
80
E3
85
E7
38
CF
BF
6A
E9
E7
6F
46
35
0F
88
88
25
3A
CE
F3
C0
D0
87
5B
A5
F2
78
DD
40
B5
F7
9D
3B
CE
BC
23
E5
8F
73
21
28
0E
05
ED
92
F8
3A
F5
AE
E1
8F
CC
59
0A
B7
FB
97
C0
6A
2B
D5
4E
5F
3C
C1
D9
E6
4F
7E
72
F0
38
4F
43
C6
60
E9
2A
45
AE
72
44
57
92
ED
E2
FD
CC
67
8C
F9
58
2A
89
49
ED
FB
4A
44
98
00
D1
D3
D0
4A
E1
E5
E2
FB
66
24
79
4B
28
A1
F8
E7
E9
AB
C3
5A
B1
A8
31
0E
D6
3C
89
90
C6
BB
41
D5
3A
39
98
40
26
B4
32
75
02
71
50
EA
CB
4E
4B
42
06
F8
03
44
30
88
F5
E0
19
2E
54
E5
A0
C8
58
32
64
57
7D
1A
AF
40
82
F2
4E
7E
14
A8
01
9C
A3
34
E8
33
30
E8
7E
57
1A
9D
C6
29
33
2B
9F
2F
1C
39
83
46
E4
F7
13
F1
B0
8B
F1
29
F0
73
74
FE
18
AF
A3
62
1A
F2
1F
C7
B2
30
1B
14
44
AD
4C
C5
58
85
00
CC
34
4D
BB
4C
14
78
37
98
34
30
22
82
2F
12
6F
94
C1
4D
1D
9F
7C
D1
35
FD
CF
17
23
48
EF
55
F8
87
D4
24
B6
D1
17
93
D8
06
CB
1A
4F
E6
C8
83
39
07
46
6C
52
0A
65
83
40
06
AB
CB
44
ED
72
1B
7F
B6
31
24
32
51
69
6C
15
AE
5C
21
D7
4E
CE
73
6A
C2
B7
A4
6C
04
D0
BB
73
95
7A
32
64
79
0B
D7
B4
F8
FC
18
63
F5
83
8B
A3
96
B6
2A
43
68
37
16
23
A9
79
EC
B3
2A
A2
3C
B4
F0
4B
D2
D1
1D
39
2A
B1
F9
A3
5A
CF
C5
E6
1F
A8
DE
E3
A7
91
93
AB
5D
15
E6
8A
89
41
88
B9
3A
14
04
58
AD
63
B6
E2
37
7F
89
C3
AE
2B
5F
00
0E
66
B6
F4
A0
2E
06
86
04
26
38
1F
44
1C
05
4F
1A
35
53
FC
09
59
22
15
2C
54
06
A0
74
10
F3
54
6E
4F
DD
16
E4
BB
74
B1
82
9E
92
CA
91
F2
D4
FD
23
48
94
17
D5
DE
99
BE
6C
CD
17
DB
FD
30
DA
7C
57
64
C0
E2
29
01
DA
F4
2E
F3
56
18
B1
AF
50
C0
01
ED
80
9E
AC
8D
7B
8E
77
3A
5C
DE
FA
60
DF
86
AF
62
54
50
FC
B9
4F
ED
39
66
2B
CA
AF
B9
17
BE
21
EE
89
5D
3E
B2
3B
15
E3
D3
27
6E
CC
01
06
68
46
F2
42
66
1B
28
AD
3E
39
D2
E8
DB
C7
7A
B4
6A
DB
E4
9C
02
E9
51
EE
2D
D1
8F
5E
01
62
83
D5
C6
72
8B
50
71
A1
1C
C2
3E
7D
86
D5
1D
6E
0D
61
BE
37
F6
5E
11
70
0B
94
0B
14
62
77
74
4F
84
6D
CC
92
50
ED
1A
C3
F9
21
2D
19
69
44
A9
EF
1F
A8
03
73
49
0C
D5
F0
AA
6C
C4
F0
50
77
BE
2C
44
F4
EC
F3
2C
33
EF
DF
69
E1
44
3D
88
4E
C8
BC
B0
E5
C5
9F
A0
F3
B9
40
E3
0F
5D
79
63
90
39
11
91
E6
2C
E0
08
78
9B
44
3D
7E
7C
45
B8
7A
86
E9
1C
A4
F2
00
7C
FF
17
A2
71
9C
9D
29
CD
09
97
B8
98
53
7A
59
8E
BC
D4
41
85
19
D3
50
77
D2
29
B8
A9
C2
96
CA
9C
F8
32
07
4E
39
39
AE
5C
0F
15
60
03
B9
AF
4C
51
E8
72
A0
F1
B2
2E
75
B8
95
66
25
B0
8F
76
18
AB
5C
B0
D2
E6
EC
EC
E5
CF
02
2B
3C
4A
00
78
EF
0D
E5
FB
A6
82
67
D4
FA
F2
FF
BA
67
71
7A
59
DE
3D
50
96
98
69
B3
88
2C
3F
E1
81
1B
65
88
D3
0B
AC
65
54
04
69
73
60
94
D1
36
D9
E8
B9
7B
A0
E9
FE
78
06
45
13
E6
66
2D
39
5A
D6
D1
6F
90
CD
01
D8
6B
D5
FF
38
FD
34
CE
E5
5B
20
36
CC
E1
A8
13
C3
3A
E2
43
76
A3
E8
69
CD
2D
B1
A9
60
8F
CB
AD
5B
A4
27
F7
33
C4
9E
3C
24
CF
72
EA
07
92
7E
15
2B
73
BC
80
61
1C
20
C5
EB
58
8C
CB
84
27
53
A1
75
3D
C0
22
44
B6
0D
FD
9E
63
39
FA
2C
92
24
58
88
DA
DF
F6
E9
A8
CF
0F
1F
24
EA
29
20
5D
FE
BB
7D
FE
A6
4C
42
52
90
85
1D
C2
A3
19
71
88
94
36
CB
48
8F
45
1C
64
1F
C8
82
7A
E2
D0
D9
51
29
34
B8
4A
D9
60
FC
B8
BA
42
1D
2F
A1
16
88
F3
AF
17
99
17
9C
57
81
31
41
66
3D
F0
3B
FB
02
F2
3E
6B
AD
F1
32
A1
43
52
BA
83
18
86
89
6A
B2
AE
7E
B5
8C
44
A2
2A
E6
3A
F6
E7
2B
15
76
FC
A2
8A
42
23
36
29
23
D2
D6
C1
E9
0D
88
E5
0E
48
81
76
BE
04
BC
05
F0
11
F5
5E
C4
24
28
03
7F
0E
AB
60
6F
A8
3F
1A
D1
1E
1E
F0
3B
BA
EB
3F
AD
94
2E
70
58
C9
81
70
C3
ED
5F
A9
63
3E
D1
93
2A
7F
4C
1F
4F
4E
6D
46
CB
D7
44
B6
AE
7B
39
A0
25
72
69
C4
2C
10
2B
BB
65
B5
49
C5
73
9C
FF
02
5C
BB
37
0F
D6
FB
AA
E2
88
2C
7E
CD
5D
5C
D8
A7
78
5C
A1
9C
BA
C0
E4
3B
26
A3
1D
39
02
80
46
2C
19
12
FE
46
B8
20
C5
E5
8D
5C
75
83
0D
95
36
9E
E8
88
42
8F
C4
4C
8C
91
08
FF
02
A6
CE
08
19
08
7B
79
38
C1
8A
A2
7D
18
E9
D0
97
FD
E2
DB
34
F6
9B
6E
C5
D4
42
58
2A
43
E0
CB
BB
68
EA
63
B9
1A
6D
98
30
FF
19
E4
29
EB
F7
E2
CB
AA
48
D0
F0
87
33
69
E3
25
07
B7
C1
B1
B3
9A
0A
2A
B1
3F
66
E7
48
A1
61
F5
03
E9
D9
9B
D9
6A
91
CA
87
27
54
A2
F1
24
63
08
74
A0
67
82
F3
17
B3
83
5F
07
2D
96
44
04
2B
D2
CA
A4
15
F1
9F
DF
B4
EE
F2
46
BA
9E
89
3C
DD
07
1E
73
71
4E
25
36
EA
41
63
58
FE
D0
6C
BC
7C
C9
39
2C
7B
93
EC
51
1D
22
3A
9F
07
25
8C
81
61
26
C9
E1
38
53
9A
29
6E
8B
86
F5
48
E5
B1
F5
72
9C
3D
31
13
3D
01
DA
E7
BD
A5
B7
18
51
21
DD
12
25
12
AA
04
53
22
68
4A
9B
E7
57
CE
1A
2A
C3
7F
AF
E3
04
47
11
D5
24
D2
28
96
B0
D6
DA
34
02
9A
F3
0B
F2
27
F2
1C
05
DF
9F
D2
A1
19
88
2B
96
1A
58
6F
6F
BD
C2
94
74
52
7C
70
86
7F
A7
9C
84
B1
DF
1A
33
A9
1A
E9
01
9C
A9
23
C0
A6
30
35
6C
BB
5E
15
BF
A8
50
D3
B7
20
9F
40
25
D2
5F
54
71
E4
30
C3
E0
D2
B7
72
BB
60
9E
E9
44
6E
21
A7
3B
0F
22
75
FB
16
13
2A
D0
86
EE
05
62
19
6E
A3
96
5F
CF
89
2D
0B
92
F4
35
47
54
0A
5A
84
B6
99
3C
69
A8
AF
70
DB
9A
C6
A0
74
27
BE
11
C4
EB
76
D4
B0
1E
06
94
19
95
66
6A
84
70
FE
98
15
FA
1F
42
CE
8B
2A
BD
0C
79
F4
DD
9B
AD
77
07
A0
2A
55
AB
6A
96
8E
8A
16
BB
B5
72
60
57
8B
0D
EA
06
E7
7C
11
30
7E
B3
F1
26
4A
34
74
30
44
0E
1D
23
76
A0
19
FF
66
E9
8F
8C
D6
5B
CC
AE
BB
B3
26
9A
E2
FE
A0
4B
E4
81
99
4E
ED
7A
AF
66
06
71
C0
FF
62
7C
F0
C2
73
21
A5
A9
DB
90
81
EF
7E
4A
70
85
B0
EA
85
1A
74
DE
2D
6A
02
CD
31
38
8A
E7
A5
42
7D
73
69
00
31
00
D7
AC
FC
B7
91
52
19
98
9A
87
13
96
A8
15
24
B8
47
C4
0B
7E
DB
33
66
9E
49
9B
3B
31
10
F7
E8
14
F6
86
C4
76
BD
D1
BC
37
9C
F7
ED
3E
B9
4C
16
40
45
18
33
EA
CD
E7
EB
D4
95
38
DD
55
F5
3C
94
76
05
93
C7
F3
19
C6
A0
7C
A6
4F
76
88
8B
26
55
EF
62
E4
AC
A1
8D
0F
18
A3
15
25
FE
8A
32
16
0F
E6
96
16
1F
21
AF
C3
DD
74
C6
D1
35
60
67
74
41
26
B1
A3
61
19
58
42
10
EE
8C
EA
79
9F
D4
B2
6D
75
E8
58
66
72
89
65
7F
2E
F4
05
2A
C7
B6
CE
69
4D
FA
C0
70
38
08
66
01
0D
4E
00
21
2A
33
8C
E2
77
81
63
05
68
98
9B
66
DA
0C
B3
34
ED
E1
20
FF
EE
32
34
DE
B5
B9
04
BF
EE
21
94
3E
6B
22
13
0F
20
E5
F2
6B
84
82
48
CE
61
FE
FB
8E
15
E9
FF
39
07
77
2A
0D
FC
BA
1D
EC
DA
45
AB
99
AA
F6
6A
D7
5B
AF
3D
10
49
BF
E2
90
A1
F0
89
F7
95
92
95
03
B7
42
09
07
1C
D1
4C
0A
6E
66
12
41
F7
48
01
73
4E
73
B5
BE
2C
CB
95
53
F6
84
50
E5
A5
42
B3
E8
F6
8A
1A
D6
3E
78
80
18
4A
5D
1A
B2
B7
C3
B5
C8
7A
C4
C3
DD
C6
80
50
0C
F9
5A
3C
65
AC
5B
0E
3F
01
3E
D6
4F
9D
1C
48
A5
69
D1
DA
78
E4
0B
96
B7
19
4C
E1
20
14
28
2D
58
82
81
D4
B6
54
24
C5
50
06
AC
C4
8F
3F
CF
7E
2A
68
AF
7B
EE
FC
17
BC
7F
38
62
0C
AF
63
95
E5
86
88
63
81
8C
BB
8A
70
F9
FE
F6
25
4A
AF
39
EF
EF
CC
AD
F4
4A
36
1C
00
7C
D8
A2
F3
2E
3D
EF
B9
A0
A2
F5
43
02
48
8E
AA
A3
0A
3B
A3
3F
69
5E
B1
F0
34
29
BA
FC
3B
E8
07
D1
EC
2A
E1
07
05
CF
96
B9
5D
49
E7
1F
E1
B0
EF
87
1A
BF
34
32
F7
9F
D6
D0
B3
3F
28
71
57
F2
42
A9
4C
01
63
A8
56
97
CE
D3
44
D6
C4
D0
01
41
73
7B
FF
A5
E8
24
AE
1E
FE
AE
DB
72
07
50
D3
E7
9C
6E
68
19
1F
88
25
1C
66
F2
FA
C2
E4
DF
28
F9
D1
6D
A6
4D
E5
42
CA
FF
2E
F5
BD
18
3B
C5
9D
2F
3D
11
08
40
FB
7B
0B
B4
85
21
1F
42
3D
5F
9F
F5
DD
11
A2
59
3B
15
4F
91
6F
26
E6
88
C5
64
5E
25
AB
AD
9F
56
1E
0D
C5
94
74
4F
22
F8
72
99
CF
40
73
A2
1D
94
C5
7D
66
1A
91
1C
D8
69
9D
78
F2
7A
51
A9
23
C5
F0
0D
68
F6
EB
2D
85
FF
0B
97
C5
2B
42
80
09
63
61
DF
7B
1B
C6
A6
14
AC
AD
C4
E5
10
04
1F
AC
7E
0A
63
E8
7A
31
6E
B0
A7
F2
60
16
F9
89
6A
57
F3
06
BE
EF
82
33
32
37
4B
40
56
D3
E6
50
4F
D0
CB
56
93
CA
C1
13
94
37
F7
EC
6E
33
2D
49
C2
8A
D5
4A
1C
CE
D6
88
DC
F7
9D
4C
A2
D9
44
A8
D9
25
88
C1
05
4A
54
44
DD
F0
0A
51
C7
F3
44
14
D2
2E
62
A2
C3
0C
5A
F5
43
91
F0
73
60
26
C1
93
83
60
D7
EA
9E
89
9E
8F
05
F7
A0
22
67
93
A6
D9
06
46
5D
8E
28
A5
AD
FC
4F
66
A4
16
58
04
72
B8
9C
FB
DB
98
DA
F5
BB
1F
56
89
1E
20
6A
0B
0A
5E
AC
80
56
B5
9F
24
78
C5
FD
41
81
74
96
03
E7
8F
8C
B3
68
A2
1D
91
1A
F2
AD
03
E2
0A
A9
EE
01
DC
AC
0C
66
83
7B
AA
64
90
6F
99
14
AE
99
D2
39
FC
77
57
84
65
66
03
B3
8A
0C
F4
AC
83
C1
8A
54
81
37
E7
5C
EB
A5
75
13
74
B5
B6
FE
5C
BC
7F
3C
FD
71
D1
25
90
7C
12
93
42
D6
AA
F1
27
37
AF
18
26
26
20
81
0D
D3
80
78
A6
FA
C3
9F
CB
E0
C3
19
24
CF
35
C5
01
3C
7C
A8
26
CD
52
F8
DF
3D
26
42
55
B9
D1
E0
2A
F4
A5
00
BE
59
89
32
83
21
2C
04
13
25
DC
0C
40
55
DF
92
7B
89
36
8B
2F
F5
9C
2F
5E
97
9B
98
83
3E
28
38
53
73
15
72
C9
5B
F6
22
A5
9F
A4
4B
99
B3
84
5D
6E
35
C3
04
79
A9
12
E1
07
BE
95
15
1F
78
A0
66
BF
27
44
CC
A4
D1
40
B8
12
06
08
AE
DA
BE
CD
B5
33
94
1E
82
C9
5C
D1
7B
3F
4F
9F
34
4B
9C
FA
D3
29
36
EF
9E
85
7A
80
44
70
DF
34
D7
0D
78
74
67
AC
2A
BC
F5
C6
E3
C0
A0
BC
CF
DD
C7
98
E9
21
D7
88
58
85
B1
A7
02
8C
D3
00
55
AB
FB
E1
D6
8B
0F
D8
A4
D0
F1
B5
E7
16
73
9B
BB
42
4B
01
01
6B
CC
5A
01
4C
6C
DF
70
DA
E9
1F
29
00
26
E2
2C
DB
58
56
8D
F6
AD
A3
67
19
FF
38
E4
EA
DF
7B
39
17
FD
BE
BA
C3
D7
02
40
43
6F
53
3E
14
2E
AB
F0
DF
AB
8C
8F
72
88
C2
FF
20
E7
93
15
1A
F1
B5
51
B8
D6
59
13
04
7F
FD
E5
19
B1
2A
BE
9D
4C
F6
85
9F
BB
EA
F8
F5
FA
39
27
5B
DF
5B
22
E7
F1
43
F6
C9
0E
86
5E
B2
23
23
D3
3B
F0
6F
BD
18
3E
BB
A2
A3
44
9D
2F
46
D5
B0
55
3C
CF
3C
EF
51
A8
70
B2
B6
49
CD
5D
C3
17
5D
A9
DF
D1
33
60
CD
30
15
76
20
91
50
96
62
06
37
D9
DD
03
72
FA
6A
59
8C
F4
97
C4
F1
64
0B
3B
50
8A
20
36
DD
04
4A
0F
62
73
6D
E2
6C
87
73
FF
23
2E
29
D9
99
F2
1D
D1
FF
49
B3
1C
56
09
74
96
2E
45
C2
F4
BA
69
DA
0D
7B
15
1B
4E
74
D1
94
B0
61
92
81
20
BF
34
14
98
44
8B
D0
14
5F
11
31
90
61
A8
EF
16
BD
7B
79
38
E8
75
83
EA
6B
8A
5C
D0
7F
45
F3
B9
88
D5
5B
8D
E9
22
89
5C
12
7E
87
13
AB
E9
64
9D
F8
9A
95
12
D7
23
D9
B4
1E
FF
CB
66
1D
34
7E
B7
95
49
57
4C
9A
CE
78
D1
09
33
CE
96
1E
85
7D
BD
39
AF
56
ED
E6
C6
D8
20
DB
30
0E
E6
1E
FA
D4
E7
3D
DF
8D
11
16
4D
67
48
C4
80
96
A0
23
53
55
9F
07
3E
EF
BC
FE
EE
7D
B5
27
DF
B9
10
38
A1
92
12
26
F3
EA
DA
AA
03
3D
45
71
89
E8
E2
A3
40
CB
77
5E
C5
9A
64
22
8A
7C
21
6A
1B
87
53
02
84
55
98
73
B4
8E
C3
9E
58
1B
49
E3
73
FA
C9
F4
24
3D
57
51
EE
C5
54
17
04
F3
0A
3E
34
1B
5A
03
1B
4E
8F
15
47
C7
D9
5C
3A
2B
BC
61
A8
2B
FC
A6
EE
75
DD
90
85
72
7E
4D
9D
4E
70
AF
E0
35
4F
32
00
09
06
84
88
B0
0F
A5
B9
52
E2
5E
97
E0
F9
B3
4A
8B
0F
28
55
4A
A7
05
3D
8D
FD
A7
FE
14
0B
72
47
5B
22
0B
6A
4C
F0
6E
82
72
14
E8
1F
AC
B1
2E
2C
F7
AA
9F
29
54
E3
E8
99
60
EF
5B
32
47
10
27
1B
42
1F
25
37
2F
28
DB
53
3E
85
3C
5D
7F
D7
0F
30
75
1A
95
A4
46
93
E9
6F
C2
98
7E
23
BB
41
A4
BB
34
88
86
9D
13
5B
6E
94
B5
B4
11
FE
A9
3C
13
6A
05
A5
BB
D0
3C
02
31
3F
6B
D3
67
41
7D
C5
17
9F
C6
66
30
3D
49
E0
33
B7
56
36
5E
07
B9
00
13
51
90
64
A4
FF
F1
C5
84
79
34
2C
8B
C5
EA
E1
68
F3
BD
AE
6B
5B
95
CE
29
62
0D
EC
A0
6D
76
19
3C
40
DA
78
24
7C
D1
8D
FF
BC
32
F9
79
EE
AE
B5
8C
D8
DF
C6
0E
FE
2E
2D
5B
3F
5A
FE
C2
27
D2
79
CA
01
B9
1E
5E
CB
6D
D7
BF
B8
51
3A
5D
61
30
DE
D3
E9
E7
1C
DF
23
48
69
4A
6B
20
DF
A6
7C
44
10
79
B3
2D
8D
BF
EA
84
E7
38
37
7E
A3
AD
FF
3B
FF
EA
F9
14
B9
0D
A2
1F
EF
C1
2B
32
17
34
AA
1F
6C
AC
9A
F1
BE
96
51
95
F5
39
FB
F9
5A
2F
19
BC
18
88
52
60
BA
FC
4F
52
1F
79
5C
EC
73
DE
DE
08
51
A1
79
8B
6D
CF
91
20
91
D7
0D
45
24
6C
29
EA
19
67
D0
B3
88
E0
58
7E
FB
C9
AD
A8
E2
58
1D
74
3F
51
37
FD
47
97
BD
09
93
23
DA
43
B5
F4
87
BA
69
17
0C
AC
55
78
2F
87
D2
6D
51
0D
9D
93
BB
33
34
E8
17
1D
5B
CB
2D
1C
62
CB
00
01
EA
B4
25
62
BE
A7
DC
FF
0A
3F
50
D6
1E
CF
61
CD
B0
F1
83
DD
EF
AD
66
C9
E6
23
54
9A
63
68
7D
82
DD
D3
3F
BA
56
32
D1
4C
92
D9
7A
1D
8B
41
B9
26
0E
6E
8F
96
9E
71
E0
48
AA
43
BE
AA
64
A6
3F
60
A4
EA
61
33
CE
89
9D
C1
1C
D2
51
E1
71
46
27
8A
6A
4E
EB
31
99
F7
D5
13
6B
0D
40
50
81
8C
9D
04
53
D0
DC
9E
0E
71
32
1A
F3
E8
6A
A3
83
71
16
69
D5
E0
0A
B3
31
BB
E5
EE
A5
CC
AC
1C
16
CF
2C
A3
3A
80
76
D9
59
76
44
CD
72
AB
68
88
4A
53
64
77
9B
8B
A8
78
F7
25
96
5C
C1
36
29
FB
7A
20
C0
1B
87
6E
89
BD
9C
25
3D
E0
8A
A4
35
1E
E4
2C
7D
C8
11
8D
AC
C1
B6
C9
09
2B
FD
3B
62
18
31
82
23
83
8D
4F
08
07
75
98
C4
7C
C9
06
54
67
E2
FF
05
A0
88
23
5B
FE
E2
4D
39
F2
8A
31
C5
2C
BE
E6
6B
94
6B
6B
32
AC
CB
AD
4B
8A
42
AF
63
2C
B4
F6
E1
0C
A6
A3
8B
B9
4D
B4
1A
10
B7
DB
5E
81
9B
F5
F5
2F
4A
A0
12
AE
26
01
50
08
18
7F
EF
33
14
60
4C
BE
89
7F
E1
BE
AA
2C
2C
B9
0E
E4
E0
FE
D2
94
D4
22
2F
12
68
AA
55
44
09
D6
94
B4
54
7E
BB
0E
A0
27
73
21
55
EC
EB
D7
19
4D
DF
DD
0E
04
31
F3
BC
3F
96
44
DC
BA
8C
84
4F
5F
44
E4
84
E3
03
A5
31
41
DB
E7
C9
0F
4D
E3
2B
7D
C7
67
37
73
08
E2
4B
68
78
7E
68
34
72
D1
8F
FC
A2
55
07
91
64
30
51
0E
94
72
48
A6
B9
FF
65
24
91
B6
78
4D
60
FF
85
0D
C7
5B
C1
75
F2
20
37
A0
F0
CA
82
47
FF
51
F4
0D
50
6B
90
5E
2A
EA
20
D6
5E
9C
D7
28
E1
68
0E
83
05
06
B4
E2
D5
F8
E9
86
CD
0A
90
02
42
A8
C4
8F
8B
91
E5
E1
63
72
BA
2B
0B
8C
59
92
EC
D4
9B
32
41
87
E7
54
01
03
9E
51
8E
45
1A
B9
96
61
EF
97
9C
0B
FC
81
50
47
CA
35
DF
95
C5
7F
86
EA
C7
1D
DD
48
32
1C
9B
94
59
F8
8D
52
B7
63
AB
99
A0
05
9D
64
B6
3D
D0
93
7D
CD
9F
A5
04
04
ED
AB
BC
C9
45
7D
2F
5C
72
39
16
4C
57
95
FE
16
05
6D
B8
22
1A
9D
BF
41
51
EB
47
25
57
2B
AF
17
E4
E0
8A
B2
77
4F
D7
19
17
F9
8E
A4
65
67
F2
32
21
05
62
C8
A7
1E
F6
FF
2E
C4
FE
EF
CE
23
8F
00
CA
26
22
B1
D5
0C
80
A3
F5
E2
E5
27
17
8C
28
24
40
41
52
3E
11
49
AE
EB
2B
02
9A
D7
4B
53
F8
17
38
15
95
35
6A
05
7F
F4
9B
D2
90
12
E7
AB
65
9C
7B
29
0A
B4
C6
1A
53
00
96
F7
0B
67
D4
A7
DD
E4
A1
BE
87
EB
8A
E7
8E
85
D5
1D
77
A6
E9
52
3E
43
A2
B2
25
17
73
68
6C
C4
5C
BA
A6
F2
29
F4
39
ED
1B
CF
30
42
7A
29
D3
7B
D1
8E
53
56
CD
1C
C8
50
D1
89
FA
66
DB
4E
F8
C9
17
09
1D
0D
87
7E
89
AE
69
A2
1B
7F
75
48
85
E3
EC
CC
91
1F
34
99
48
B1
C7
FD
A5
66
83
DF
57
3E
DA
1D
C8
59
63
38
81
EE
04
D9
D8
C5
E0
83
D6
1A
30
95
9C
CD
61
E5
97
44
1D
11
46
27
47
79
2B
85
66
4C
D6
5D
3E
78
D4
90
AE
12
94
5F
19
65
EB
03
B8
D5
C2
26
24
9D
D3
C7
E1
72
67
CC
06
4C
92
5C
7E
EA
0C
B5
A7
0B
0B
68
5B
DC
BC
30
A6
D7
32
CF
BD
7C
E1
5D
66
B7
18
61
DB
09
16
1B
FE
ED
16
0C
CD
25
D2
A0
34
28
2B
2D
F1
3A
12
1F
E5
11
B6
F4
83
2E
66
FC
E9
15
06
12
D1
C7
DA
C7
6B
C5
DC
5A
6F
AC
E6
63
98
59
D0
80
06
C4
1C
94
E5
A6
47
7E
9B
B2
4D
E9
C4
84
03
01
42
73
D9
8D
6B
33
4C
80
DE
EE
AB
2C
6E
E9
3E
62
E9
B3
F2
60
F9
30
DA
F8
93
57
D8
D7
52
A6
BE
28
EF
24
EB
A4
7B
D9
A9
5A
8A
DF
95
A6
67
23
63
6B
42
03
E8
DD
D6
7D
04
64
06
6B
DB
E4
96
E3
73
AA
BC
86
77
EB
C6
D9
2B
37
6D
09
48
18
21
25
98
38
69
D7
4B
8B
92
91
AD
BA
39
08
92
BD
08
0A
13
80
2F
F5
C5
C1
72
A4
47
6A
D1
C0
51
9B
28
E4
50
2B
2F
93
B2
2A
AC
C8
01
30
E9
C0
23
CC
18
83
B3
02
73
37
59
B8
4D
B6
67
17
6B
FE
0C
16
18
FB
8C
8E
92
3D
BC
76
26
CC
51
E4
76
C8
89
2C
4E
A1
83
49
4F
E5
64
56
1A
3E
E7
53
67
F6
A0
04
49
54
98
1D
BE
04
7C
66
43
51
7D
63
F2
BB
C4
8C
92
5C
87
09
FE
F6
9C
9E
1B
E1
E7
EA
D4
80
DA
A9
7A
06
51
AC
EE
2F
17
D6
CD
B6
A1
FD
A0
93
28
37
EF
B2
00
E2
89
E5
D7
1E
52
E9
15
79
1D
57
FE
D9
15
14
0A
85
02
C7
17
28
64
97
C9
30
68
E0
89
F9
D1
35
48
76
CA
95
B0
D7
AF
D5
2C
E7
01
73
39
80
CB
BA
04
0D
35
6F
3E
FB
05
0F
12
DD
6A
AE
ED
18
FA
5A
48
57
A7
B7
95
4D
EB
77
46
E6
DC
AC
62
A3
7A
81
DD
F0
DD
0C
9A
59
01
CD
BD
AB
C8
D2
A9
ED
6E
AD
17
AA
01
DF
CC
10
5C
B5
E7
73
E0
40
A6
8C
C9
F6
E5
D5
E1
02
43
97
EB
40
2C
F6
B6
30
19
A7
C7
C2
6B
C6
64
57
73
41
F5
3E
37
9F
BB
39
54
5D
60
C7
56
9B
6E
72
FB
D7
05
DC
76
D9
EB
C4
E7
31
7E
54
8C
8A
67
9C
AD
D3
EC
C2
C9
CD
92
2F
0A
90
DF
4D
46
82
9A
B8
1E
C3
00
59
FC
0F
EA
F8
AE
B6
F3
59
4A
62
20
79
1F
35
FD
E1
C6
71
27
B6
9D
91
1F
07
41
24
C4
1A
23
DE
10
33
3D
1A
7D
2B
9F
6E
07
3B
14
89
38
7E
72
F7
29
F9
CB
15
61
5E
C4
73
88
D0
8D
4D
77
99
8D
24
56
E8
9D
BE
A2
FD
B1
63
F1
06
E5
F6
C6
C4
A2
F3
CE
5D
C6
B7
B4
39
D9
51
35
B5
1C
FE
53
AE
3B
DE
F1
46
C6
B2
18
A5
99
E1
42
1D
36
4B
FB
D2
A5
59
BD
A2
0B
AC
B6
5F
50
15
AD
8B
C0
B3
97
A0
7C
B9
E1
7F
29
5F
2D
45
BF
4F
15
E5
88
04
8A
AE
6D
C8
AF
E6
04
B4
07
D4
51
71
26
23
8E
05
EA
70
3A
7C
A2
8A
95
A1
30
12
25
C7
2D
C5
E2
29
25
90
E2
61
87
64
CB
90
35
CB
70
71
A4
71
00
81
DA
04
4E
60
5B
A1
75
03
27
07
0A
5E
21
C6
E4
5C
5F
6F
A4
86
4E
1C
E1
99
EB
7A
0D
CF
7E
47
3E
D9
10
D9
9C
5C
A0
0C
7E
E3
AE
8E
35
86
6D
97
DD
7B
33
C9
B4
AB
75
E5
79
BA
CF
FB
F9
44
DC
2A
03
51
08
BC
0B
47
20
87
99
57
BB
29
F4
EE
70
5C
C8
31
DC
8F
39
B9
CC
D4
DB
8F
94
81
C2
93
B9
46
87
50
54
FB
D0
A5
C4
54
99
15
09
2B
80
07
05
8F
5C
AF
F7
FE
3B
9E
72
50
2F
B5
78
2C
6F
82
8C
76
28
5C
40
40
B6
8B
13
25
A4
13
38
33
03
5C
EE
D8
21
6D
2D
79
DB
14
87
E5
3C
71
09
AE
7E
31
C8
03
2E
AB
70
01
64
F3
E8
20
BF
50
C2
88
A0
68
8A
D3
BE
AE
0B
8C
78
77
89
DF
19
DF
98
63
7E
0D
B0
E2
CB
3C
B0
F0
9D
09
D8
78
9A
FA
0A
34
99
B7
BD
05
E9
62
75
92
C0
89
A3
10
6B
44
26
8E
3A
82
34
28
E8
6B
D9
68
3D
3E
CD
6E
2A
18
E6
FB
A7
BE
37
43
2E
20
67
8D
11
2B
80
59
18
6A
37
90
9F
30
75
90
2F
C3
83
3B
F1
75
FC
DC
7A
E6
1D
A3
49
49
0B
83
31
AA
F7
BB
59
3F
22
AB
EF
1A
4C
4B
2E
A5
B3
7C
09
AC
9E
15
A6
A6
65
67
AB
A2
EA
8C
13
D3
56
8B
46
CE
C3
F2
EE
6A
33
7F
43
D3
4F
B4
B5
12
86
8E
42
DE
15
00
0F
46
DC
85
04
6A
4A
A3
E1
FA
B7
3D
A7
B2
E0
66
A4
98
39
0E
AC
44
5C
54
B1
B5
BF
80
D4
FF
FA
33
E2
01
66
B4
E2
2C
8B
21
A9
84
06
DC
96
02
7F
7A
9B
09
FA
53
18
26
36
12
B9
91
E6
90
9F
C6
69
A3
B7
EB
3D
6A
60
72
EF
50
EA
F7
59
60
8F
72
E7
A8
61
8A
C8
61
7C
F4
E8
E8
4C
75
61
31
6D
EB
EC
A3
EC
F1
4C
75
AA
4F
B6
B1
71
AC
76
D5
84
35
23
3D
9D
10
58
21
36
D9
97
CA
39
77
AB
DD
F0
E7
90
B2
80
3D
81
18
A6
8A
8C
18
45
78
9E
E9
21
A1
5C
64
99
74
71
22
C5
41
1B
71
07
95
BB
67
01
CD
9A
4F
55
5B
8E
C6
D2
A1
DE
A0
0D
2A
E7
42
E6
80
CE
C1
F3
80
20
46
63
0F
13
2D
88
D4
A9
B6
7A
EA
8B
B4
FC
A9
64
39
8E
9D
C8
46
9F
56
16
34
54
31
C7
6F
7E
EF
DF
1E
3C
9B
6F
6F
86
E9
0D
3D
6E
AD
5A
DB
97
35
98
E2
98
86
4C
45
17
0A
F6
83
D5
B7
54
68
C6
BD
6C
2A
DA
94
1E
44
DE
D3
E4
06
A1
F2
EF
F8
C5
F7
79
17
BF
0D
6A
51
CC
E3
35
EB
32
1B
84
A5
BC
99
8C
BE
75
2C
9B
82
B1
87
2A
0D
AF
B0
58
97
20
07
72
C5
45
A5
62
E0
24
3F
2E
F8
5D
E4
E6
4F
A9
75
46
DB
9D
BB
A5
A1
E5
A0
DF
95
23
82
42
0E
A8
8E
3D
B0
E8
FD
6C
64
1D
BE
A6
A6
1F
44
24
CE
9E
47
76
0C
4C
D5
F1
BB
A0
90
55
22
42
6D
7D
7D
90
16
87
81
13
A6
D0
FB
E5
69
33
44
2E
BA
5A
8A
0A
C0
20
B5
3D
A2
ED
B7
82
B1
50
49
F8
23
29
C3
9A
FD
CB
3C
65
71
6F
DF
23
47
ED
6C
BA
8F
7D
55
89
7F
9A
EE
5A
D9
EF
1A
5C
54
87
C4
92
71
96
5D
CB
70
FB
05
33
EB
69
15
61
DB
7C
5D
BC
70
70
53
28
AF
3F
D6
7C
8C
7A
AA
E7
E1
FD
60
D9
CB
DC
4D
19
34
71
EC
43
95
13
98
94
DF
0F
DA
D0
F5
90
94
4C
0F
CF
C4
0B
A9
12
3E
7B
E3
77
49
D0
85
F7
2D
3E
54
87
1F
0A
06
A5
D0
88
50
25
66
EA
69
B4
3C
18
83
5C
8B
9B
4C
68
12
D1
F0
63
DA
83
BF
59
66
3B
0C
9E
AF
51
35
2B
CF
2B
5A
BB
4D
89
34
4B
4D
48
DB
F6
51
84
30
90
D3
63
65
4E
58
28
20
48
F2
FB
32
A6
27
9E
4F
A9
4F
BF
6C
AF
CA
CB
E2
8B
91
B3
62
5F
B6
61
C6
58
B7
58
EA
66
6C
39
BC
91
21
0E
C3
CE
43
1E
CC
DF
40
4F
81
05
92
F8
44
79
DA
05
FD
EB
60
2F
E3
AA
6D
1C
77
73
50
26
23
A2
AC
E8
0E
E1
C0
1A
56
E5
68
24
43
F7
1F
35
96
B5
50
A2
6F
F8
FC
57
1A
3D
C5
2A
28
C4
CF
E9
BA
D1
A0
93
F2
8F
8E
22
63
87
35
50
C4
58
CF
CE
C8
5F
78
AE
44
7D
73
2E
7E
59
F7
3E
97
F3
CA
4D
2E
55
E4
B0
B8
9E
59
19
BC
EA
A7
F7
F0
89
81
8C
40
B7
DA
B2
E1
78
BE
A5
7D
4B
A3
E3
83
F4
25
56
13
5B
A2
4F
C6
45
82
2C
9E
FA
B7
E8
8F
93
A7
75
AA
84
00
7E
8D
16
CB
F0
60
88
BA
5F
1D
39
0D
55
F4
BA
8E
4A
20
DC
88
C9
DF
CF
83
8F
87
B5
9D
3B
B5
2D
1C
D4
44
15
E7
B1
B6
BF
AC
62
05
07
66
9D
40
7A
FD
0B
B9
13
0B
25
A8
B2
0A
51
08
4D
A5
BD
32
26
10
64
98
24
65
DD
24
B1
9A
08
8A
A1
20
DD
FF
4A
3D
04
F8
75
07
54
9F
67
64
F5
7B
A0
38
55
6E
1E
2F
48
10
7A
26
C5
49
35
6C
3B
8D
AB
87
9A
9A
21
14
52
D7
F1
28
B2
0C
C6
83
31
FF
79
03
3D
18
70
F8
2A
6E
F5
4B
69
08
3D
19
FF
51
16
98
C9
7F
2D
6E
1A
E8
37
5B
C1
99
86
3E
F5
30
75
AC
FE
0F
D8
BF
8C
9D
BC
2A
A2
B8
82
E6
DC
67
FA
2B
FB
3A
A5
5F
84
0A
D3
5C
69
AF
A1
E5
E7
58
70
9C
5D
FB
2B
04
E6
43
7F
50
EC
B0
6B
AB
A3
AF
9D
F0
18
E2
10
EF
E3
F2
3A
23
BD
F2
89
BD
9E
44
62
B7
9B
7C
53
3B
BC
CF
FF
91
CB
B3
91
0F
2C
0E
2C
A8
1A
DA
6B
4C
C2
89
DA
B8
4A
5B
BA
91
0F
12
3D
EF
EA
42
3A
C9
1C
EF
B0
48
54
F2
E3
98
2F
C4
BE
06
EF
B9
D6
67
6F
A8
9F
16
3D
38
89
DF
EA
D2
0A
21
F7
72
65
DB
C3
A5
45
43
E4
CB
7A
BD
0C
F8
E8
51
0C
8C
BD
F2
C5
B6
AE
42
63
A6
21
6D
B6
EC
E3
F3
F6
C0
64
C1
62
84
90
FE
3B
9F
E7
EE
F7
1D
67
A3
42
8A
B5
A7
36
87
CB
B8
E6
BF
D4
BC
7A
20
27
92
41
BA
12
A7
AD
97
42
51
3F
A1
51
AA
84
7B
B4
28
1B
5C
F2
19
61
9F
3F
4D
E3
67
52
70
92
02
2E
A9
6E
F8
05
11
E1
31
0F
53
C5
1C
C7
D4
C7
7D
EF
BC
BC
44
91
33
54
F3
B3
0A
0E
7E
AF
33
34
62
AA
EA
33
D6
26
A5
A3
6C
FF
A5
E6
29
B0
52
F6
B6
70
7F
E6
46
8B
29
92
9A
EC
26
D8
10
89
6C
86
4C
46
73
BB
B4
6D
43
2B
69
36
4B
FB
3C
80
2C
BB
37
30
30
80
63
A3
2E
4D
F7
14
6B
96
71
24
41
71
21
73
26
2D
E4
17
B2
30
5F
36
F1
4C
69
18
62
9D
06
86
77
2D
25
7E
8A
C6
38
E9
80
39
86
D0
F4
CC
C7
5C
6A
84
F6
5D
38
80
33
46
49
91
9B
E0
08
7F
14
C6
43
BF
FB
79
C3
75
79
17
CF
52
D7
0A
58
8D
02
48
0D
35
09
0B
3C
B3
15
22
E0
8C
A8
BE
91
C0
CE
C3
8D
69
49
E3
46
7F
C5
DB
0C
43
8F
B8
89
46
EA
8C
2A
83
47
16
86
C1
DA
52
92
4F
59
E9
97
E4
AE
E4
C8
54
EC
A6
AF
65
0D
57
91
E6
34
4F
C4
68
C8
60
9D
C5
DF
8B
65
73
D8
21
15
CC
07
C6
A5
90
CC
4A
AF
43
17
9E
AE
2B
82
DC
FB
CB
DA
7F
74
9F
3B
BD
1E
6C
A1
8C
8B
67
D8
1E
DE
4A
BF
81
57
27
BA
66
65
9C
35
0E
2A
13
FB
38
