AA
D5
31
57
EE
AB
C8
62
DE
B5
5B
12
DA
2D
AE
CA
7D
70
DD
68
8A
B9
92
98
30
F3
AB
4F
70
2B
EC
19
25
C7
57
AD
3F
22
DE
D8
44
59
14
9B
87
35
F5
87
A1
03
56
5D
AF
2E
7B
D7
73
CE
C7
37
B7
65
89
94
CB
EC
EF
FC
E5
BD
47
8F
40
73
39
74
1E
44
F2
1A
83
BD
32
B0
70
16
D8
2A
6C
47
FB
23
B1
A5
D6
F8
15
B4
70
8D
1D
B4
33
90
BE
DA
29
85
03
49
B5
1E
CC
84
93
24
3A
DC
B2
EA
D6
15
7D
C6
07
DB
7C
B8
D1
15
7B
45
0B
24
C5
66
76
6E
27
7F
9E
97
9B
28
CD
2F
C6
48
21
3D
CA
E1
51
93
42
22
F7
1E
E3
D2
61
B1
2A
A1
7E
BE
C2
B8
4A
B4
E8
0D
68
1B
84
45
CB
36
A7
BF
30
BE
06
67
4E
5E
4D
51
B8
B5
4D
1A
0A
A6
91
DA
5E
D3
50
64
9B
36
F2
3D
EB
AD
BB
A8
45
A6
EB
F5
A8
6E
E0
1B
0F
B9
69
32
43
32
F4
A2
62
E7
90
F3
FB
64
8C
7F
2F
7A
AC
FE
B7
CA
1B
68
3F
77
33
B6
BA
1E
F9
F3
59
3C
2C
FB
BD
29
C5
85
F8
5B
CD
91
4B
15
18
38
8A
54
71
42
64
A1
7E
75
58
F6
DE
6F
11
F9
5C
EB
12
9C
F3
97
D6
97
14
2D
73
87
C8
D6
A2
8D
D7
1F
E7
49
EC
02
4D
10
2C
CC
39
AB
25
B4
20
67
AC
9D
0D
C5
62
F8
A1
12
E1
D7
BC
92
0A
70
F6
B2
F6
18
83
37
27
3C
D7
5A
19
8F
3A
6D
72
B4
9C
4B
47
80
52
4F
2F
D1
85
13
C9
B4
78
DB
E2
8B
E0
43
C7
88
B0
9F
8F
F7
A7
94
6D
8A
52
29
3A
0D
F4
FF
F9
6D
C0
48
3A
81
C4
C5
0F
4F
36
63
B2
C3
02
8C
84
B6
CD
33
E0
68
A5
2B
F1
02
F1
76
B9
A7
78
A0
A5
68
80
DD
9E
42
65
06
8D
EC
25
7C
D4
28
54
35
A4
1C
EF
13
14
29
9C
63
34
84
84
C2
0B
12
F0
87
59
C9
C9
8A
86
2F
5B
BB
49
F1
14
48
0A
AA
F1
C0
2C
BF
C6
79
B6
E1
C2
FB
76
B8
6C
8A
6A
D0
2E
B9
94
D3
53
F6
64
AF
52
3E
3A
72
DF
7A
D6
CB
70
B5
5B
6E
7F
41
9E
45
3D
B8
A1
8C
25
6F
3E
B1
F8
29
83
88
EE
90
99
43
C2
D0
02
A3
A5
CA
66
F0
C2
2F
8C
BF
DD
6C
E9
A2
3C
58
9C
39
80
34
13
53
DD
7B
5A
87
AC
BA
FE
44
DF
57
6F
D3
9B
90
E0
30
94
AF
8E
76
79
FD
D3
B1
6D
FE
48
47
0C
BF
FD
37
9A
03
9B
A7
63
CB
65
98
86
6B
E2
D2
E5
B1
A8
94
09
85
D2
C7
A7
05
69
81
7F
4C
BA
4D
ED
58
E2
24
97
E7
CA
4F
62
5D
BE
9F
AB
D7
CD
00
6F
4C
0D
46
3B
37
9B
2C
BD
B5
E2
7C
56
95
1A
E0
90
CC
0F
15
40
4C
16
71
F6
4C
A7
75
DE
CA
F6
FB
DE
63
74
4E
E9
1D
4D
65
38
93
87
D2
B6
75
16
B7
69
28
96
0E
B4
D8
2B
48
B7
D8
29
6B
E1
A0
22
5D
0E
C1
C2
01
A2
44
5F
76
CB
F1
62
36
68
30
6E
DD
B4
AE
DC
A9
2B
7E
DC
3F
19
3D
44
69
AE
36
95
B7
A1
18
04
67
D6
7F
2B
DB
5E
49
74
E2
B1
31
55
5B
53
9B
43
E5
8B
30
E9
C1
D6
B5
BF
E8
83
DC
89
4B
56
50
5A
50
AF
E6
81
4C
B6
08
E9
B0
6F
19
68
1B
80
C0
89
45
F5
A4
A7
70
58
CE
CB
30
41
66
CE
BA
1D
30
CD
6A
18
F9
BA
C6
9B
8B
04
29
E1
87
68
21
EC
7C
C2
2B
F7
5C
BF
90
6F
89
0B
6B
EE
71
37
71
18
4C
DD
C1
49
06
16
CC
CD
02
E1
E5
E9
4D
67
B9
F8
63
89
15
ED
6D
BE
B0
39
75
A2
64
5D
F2
2D
57
76
B1
A9
19
7E
1A
12
CE
A8
67
3F
04
18
84
69
0D
4D
65
66
A9
62
2D
DD
28
73
20
3A
9A
2F
68
EB
55
C2
20
BB
4B
96
42
EE
40
DF
E1
48
00
6C
1F
9F
C1
7A
D0
9E
45
8F
25
E8
14
BA
BA
C7
37
C4
13
9E
EC
C3
FD
6D
A9
94
2A
69
53
67
EC
3A
A2
F2
D6
B5
20
CD
15
ED
97
E6
EE
3E
71
DE
87
28
04
CD
4E
DF
0A
C5
32
91
BA
8B
A9
43
AF
8F
E3
D2
52
50
B5
17
E7
EC
1B
41
AA
56
DE
56
D6
8D
EC
7B
8E
3C
49
9B
20
5E
2A
A5
94
FD
1E
E2
FE
64
95
99
EF
1D
B6
AF
02
F8
9E
18
AC
A9
FF
22
E5
20
08
35
7B
C9
17
2E
26
E4
DC
46
CF
0B
66
32
C9
75
1E
56
F3
5D
C3
30
9E
9A
20
A6
05
A6
4D
83
57
88
83
86
FB
F5
44
B6
DF
94
C1
0C
16
4B
E3
4D
03
F6
A6
7B
D0
1C
66
08
3A
A0
04
C4
47
EA
E2
1F
91
BD
86
D6
21
74
AC
FE
59
97
6E
67
17
12
16
EB
07
91
B0
2C
A0
BF
D7
E3
B6
F0
A4
EF
8C
73
E7
94
5C
7C
1B
49
68
57
99
18
20
EC
F6
78
85
22
C4
EC
40
BD
EA
85
E5
00
C8
5F
A4
E3
57
40
32
98
90
89
46
AC
C9
C6
05
B0
EF
98
7E
FB
11
96
DC
7D
6C
27
1F
EA
F1
BD
93
E1
4D
8D
96
58
31
02
E4
8F
77
EA
50
E1
66
D1
98
DC
00
81
A0
5C
FC
46
6A
53
91
CD
77
54
CA
14
6C
BC
3D
24
69
F4
F2
F9
C8
15
C4
4F
D1
22
39
1A
32
E4
6D
22
E5
0F
1F
FC
D1
31
19
6E
DA
79
4A
14
A6
7F
8C
6D
AC
70
9A
41
6B
AA
23
2A
23
10
5D
41
75
4F
F3
E0
46
B9
A1
B3
41
F6
C9
CA
0B
81
90
8A
C0
83
7C
4A
EE
54
C2
4B
83
A6
17
2A
A9
E1
85
23
52
5D
A3
11
BF
A7
7D
AC
25
6D
B1
01
35
77
3C
48
4C
60
D2
41
8B
90
7A
FA
16
D7
12
4A
3B
E4
E8
2B
E9
38
13
53
D9
81
4C
8C
01
5F
95
B3
65
78
43
DE
7B
FB
67
DC
3E
3D
25
8D
1F
D7
9B
F4
CF
88
0E
C4
4E
43
4B
C4
57
50
3D
12
ED
10
75
8A
1C
74
D0
64
29
31
5B
06
92
6F
C9
40
F7
5D
64
E1
94
A7
F0
AE
34
B9
4B
F6
B6
19
AF
A9
93
18
60
5C
77
4A
93
84
1E
16
4B
BC
CA
E1
82
55
09
38
98
FD
66
B3
A0
80
0D
E7
C0
C9
6C
7D
C7
8B
D5
56
A1
04
62
DC
71
33
1E
1E
57
15
B8
3F
0A
8F
0B
C6
21
2A
8C
E7
34
1A
70
20
71
9B
F1
D4
F4
0F
D8
01
59
3A
40
11
32
2D
43
AE
7A
BE
19
A0
5B
F5
6B
E4
C8
AC
64
E1
5C
38
0A
53
E2
E0
9D
09
B3
F5
FC
DF
4B
EC
74
29
10
38
7C
28
75
48
54
CC
AF
DD
2D
E6
70
6F
0D
C4
C1
21
E4
79
AF
42
73
89
D9
D9
75
09
36
37
41
65
05
AD
B5
DA
1F
15
5A
BB
85
D4
FB
7F
34
A3
B4
B2
4A
D8
0C
94
5D
84
85
87
F9
C0
18
C0
E4
E8
1F
5B
DA
6F
B8
70
43
1F
F6
E6
AE
25
48
4D
0C
CB
A2
54
60
2E
2F
1D
F4
0F
C4
62
81
97
0F
50
C7
B8
A2
E8
C7
99
B3
01
8B
31
FE
F8
0E
84
02
4C
7E
18
C7
B3
30
C0
68
41
A0
D0
39
33
33
52
54
5B
F5
0F
2D
AA
30
81
B1
FA
6F
C1
DD
D9
A9
28
C4
15
0A
B6
71
6E
25
D9
4D
6A
E4
15
23
B6
C9
C6
CF
42
E3
B9
DC
E2
20
3E
4B
BB
6D
EB
D0
B9
71
42
72
8B
49
E1
FB
D7
E2
1D
BA
44
F6
E4
E8
45
ED
47
9E
34
82
E2
C6
41
E6
0D
C8
39
63
1F
12
F9
F9
09
B4
51
34
0F
A9
56
0E
9F
D5
01
64
27
CF
CB
08
64
0E
95
B2
3E
AC
24
83
5D
BF
93
69
4A
7F
66
7C
D1
D9
17
52
47
F3
6F
25
40
49
D3
C4
C8
4C
40
5A
F4
A3
C0
2F
E8
04
D0
EC
6C
50
FA
DA
96
6E
80
97
3D
F5
74
78
73
08
73
72
8E
08
EC
32
35
F4
47
11
D5
24
D2
28
96
B0
D6
DA
34
02
9A
F3
0B
F2
27
F2
1C
05
DF
9F
D2
A1
19
88
2B
96
1A
58
6F
6F
BD
C2
94
74
52
7C
70
86
7F
A7
9C
84
B1
DF
1A
33
A9
1A
E9
01
9C
A9
23
C0
A6
30
35
6C
BB
5E
15
BF
A8
50
D3
B7
20
9F
40
25
D2
5F
54
71
E4
30
C3
E0
D2
B7
72
BB
60
9E
E9
44
6E
21
A7
3B
0F
22
75
FB
98
44
8B
D0
14
5F
11
31
90
61
A8
EF
16
BD
7B
79
38
E8
75
83
EA
6B
8A
5C
D0
7F
45
F3
B9
88
D5
5B
8D
E9
22
89
5C
12
7E
87
13
AB
E9
64
9D
F8
9A
95
12
D7
23
D9
B4
1E
FF
CB
66
1D
34
7E
B7
95
49
57
4C
9A
CE
78
D1
09
33
CE
96
1E
85
7D
BD
39
AF
56
ED
E6
C6
D8
20
DB
30
0E
E6
1E
FA
D4
E7
3D
DF
8D
BC
86
77
EB
C6
D9
2B
37
6D
09
48
18
21
25
98
38
69
D7
4B
8B
92
91
AD
BA
39
08
92
BD
08
0A
13
80
2F
F5
C5
C1
72
A4
47
6A
D1
C0
51
9B
28
E4
50
2B
2F
93
B2
2A
AC
C8
01
30
E9
C0
23
CC
18
83
B3
02
73
37
59
B8
4D
B6
67
17
6B
FE
0C
16
18
FB
8C
8E
92
3D
BC
76
26
CC
51
E4
76
C8
89
2C
4E
A1
83
49
B7
DA
B2
E1
78
BE
A5
7D
4B
A3
E3
83
F4
25
56
13
5B
A2
4F
C6
45
82
2C
9E
FA
B7
E8
8F
93
A7
75
AA
84
00
7E
8D
16
CB
F0
60
88
BA
5F
1D
39
0D
55
F4
BA
8E
4A
20
DC
88
C9
DF
CF
83
8F
87
B5
9D
3B
B5
2D
1C
D4
44
15
E7
B1
B6
BF
AC
62
05
07
66
9D
40
7A
FD
0B
B9
13
0B
25
A8
B2
0A
51
08
4D
A5
BD
32
3B
15
80
D1
2D
21
02
F9
23
1A
F3
2B
B9
E7
2C
49
CB
0A
CE
CE
A5
4F
34
12
0A
7B
60
B1
0B
F9
7C
58
A9
8C
4D
8E
F1
8B
48
BE
26
42
14
B3
C6
15
28
70
8A
FE
79
69
23
95
5A
D1
33
06
6E
23
1E
A7
A0
8C
20
97
6F
AA
8C
D4
06
EE
91
EC
50
86
A8
2D
A7
F2
39
11
AE
A3
B7
F0
BD
11
97
16
87
56
C8
82
D7
74
83
0C
4E
3C
63
99
14
89
35
94
B8
EE
79
43
8D
EF
18
63
08
DC
82
2D
FD
98
08
79
B4
B5
D5
A3
36
CF
D6
1C
73
7B
CB
CD
D6
CC
C9
ED
33
85
21
03
A0
EE
2A
A0
A9
F9
49
B6
2D
C5
5D
BB
3C
F7
15
4D
69
BF
45
DF
1B
37
F1
26
EE
3B
81
8C
A4
CF
5D
41
57
0F
C1
7E
7E
32
1F
66
81
84
69
64
AA
36
8F
EB
DA
1F
