6C
E8
B0
62
DF
8E
82
F8
EF
9B
23
57
15
A5
06
C6
43
B0
99
8A
44
6C
E8
FA
A4
0C
76
27
E8
3D
56
7A
30
09
C0
8D
8C
07
42
88
A1
2A
AD
8A
6C
21
18
2B
55
FF
0B
C3
34
53
35
3F
7A
15
6A
D5
56
29
AB
D6
B2
C3
C0
70
82
FB
2E
5B
29
B6
65
4D
61
25
AA
D3
9F
C5
63
42
6C
EC
81
B5
32
DE
D2
31
F9
12
5B
2D
D9
98
6A
7E
9C
87
8B
90
A0
F3
3C
63
3B
AF
1F
EE
DA
67
F9
A1
D8
AE
20
D8
77
FA
2F
B4
B6
5B
04
AD
89
F3
1D
01
AE
18
9D
23
16
70
BD
2A
D4
4E
15
41
94
2F
8A
B6
EA
80
21
E0
0C
3C
98
AA
64
74
CC
2E
A0
E3
4E
F7
17
CE
47
47
6B
5F
D3
C2
0A
82
2D
21
10
D7
65
F3
C3
6D
15
AD
AE
B1
D9
B3
18
D3
A8
F1
FF
0D
1B
ED
9B
3C
4F
8D
A9
8F
8A
3A
FE
4C
04
CE
AA
A8
65
A2
D4
5F
CA
0B
D7
F6
D9
38
A9
48
DE
CE
FB
F6
58
52
67
13
8A
2D
41
49
19
D9
36
4E
C2
83
C7
A9
96
BA
AF
23
EB
CE
5A
16
6C
18
15
6B
FA
40
64
6A
BF
6D
9A
3C
ED
3E
78
AB
77
07
5C
91
1B
67
C2
9D
1B
7B
6B
4F
07
E5
8C
46
95
A9
AC
04
1D
00
4A
E9
88
4E
84
67
01
31
1A
7D
5B
5A
8B
40
62
69
90
05
0D
9F
85
CB
5B
EF
60
4C
84
55
04
E2
37
6E
38
2A
92
BB
9B
97
C3
E0
4D
1B
8F
67
44
5C
02
9B
75
98
7F
11
77
03
44
3F
3A
7C
A4
C8
20
4C
19
5B
3D
75
27
49
31
C0
7B
15
6F
CF
C9
6E
E8
CD
5D
55
12
40
79
AF
D5
52
73
AD
C4
D8
1B
55
7A
DF
75
12
A9
FD
4B
AD
56
80
66
E2
D0
29
81
D6
4B
98
43
58
D6
F9
D7
DB
CF
5F
3B
76
C2
3F
94
BF
9D
B9
1D
6A
38
1B
70
70
7E
6B
64
03
D5
CA
4C
9C
C8
E9
C2
4B
1C
B5
0D
29
EE
6C
8D
75
A4
06
74
AC
56
6E
3D
69
8C
8A
E3
2D
9F
5A
D0
B8
2D
AE
A6
B1
73
7D
82
62
EE
F1
C6
3A
6F
C6
47
7D
96
D7
17
1E
2C
D4
FA
6D
E5
70
4E
D3
91
D7
25
18
01
7D
49
D8
07
3D
7D
BF
4A
09
BF
3F
E0
FF
0D
D0
B5
C4
A2
93
7C
53
F3
B4
FF
AE
37
11
25
96
9E
F7
AF
8A
4C
18
1A
78
9F
D3
13
6D
B7
FF
8B
26
31
E7
2A
A1
9E
53
BC
83
FE
EE
1E
FB
88
BF
5A
24
25
CD
DF
99
81
CE
3C
3A
9C
AC
C9
69
A7
DB
C2
C5
76
01
6C
91
64
FF
5A
5B
40
77
3D
AB
41
20
E7
89
3E
E7
8C
87
48
32
6C
6B
CF
E3
50
E3
91
F3
F0
07
5F
D1
E4
04
ED
2C
85
15
99
82
D2
93
56
91
4C
36
7A
BC
F8
F3
4D
94
BB
38
4D
83
59
07
58
7D
0D
81
9E
DE
5E
06
0E
A5
35
51
1C
67
83
EC
D5
3A
FB
57
61
F8
26
46
7B
8D
47
B4
AC
EE
18
BF
46
5F
4C
AB
D9
BD
9F
06
63
A9
BA
CC
87
47
F1
DC
46
66
89
28
82
8F
58
D1
A8
53
B3
1C
52
F1
F0
83
C4
02
C7
0E
2E
15
F6
D9
98
D3
CA
10
02
41
3C
12
0D
CD
BF
50
AD
C7
04
88
BD
1A
79
D7
46
19
EC
EC
AC
93
B4
86
5E
13
36
81
C7
76
24
FA
8D
5C
37
B8
63
1E
BA
51
98
17
EC
84
06
FB
65
B3
C7
95
5C
4F
F6
36
C4
2C
ED
39
48
42
36
11
3A
76
4C
E5
3A
13
76
46
9A
DF
0D
89
1A
C9
9D
B5
4E
12
EA
90
FE
7F
80
45
47
38
5F
C0
06
7D
7C
E7
BE
7A
C8
21
6E
C7
ED
5F
76
F7
5F
83
AD
2F
C4
8C
3E
52
C7
31
E7
5B
F2
0C
7B
B3
DB
17
0B
48
16
6D
8C
40
16
69
FD
C6
15
D5
2A
6E
D0
29
10
00
3F
CE
3E
B4
C6
38
FC
F0
6C
39
D0
41
4B
51
77
51
E0
39
23
47
67
42
AC
37
6D
9B
44
53
24
FD
FB
91
83
63
DA
4A
C9
39
58
3E
84
3D
47
78
D0
63
F6
A4
4F
18
80
62
E4
7A
D3
7E
9E
50
AB
FB
54
23
56
B7
BD
18
5F
F2
BE
14
4A
1E
49
2D
A6
B7
68
D4
EE
0F
C2
FC
35
32
0F
FA
57
C5
B0
71
CA
0F
9C
67
9C
BF
28
88
35
38
70
16
D9
76
A5
DF
0F
0A
D9
10
62
9A
DD
FE
13
6E
2D
E4
DB
E0
71
38
B2
30
AB
03
76
A6
2A
A0
B0
31
74
7A
08
E1
54
92
B9
A3
61
05
AC
91
51
2F
95
EE
D1
D1
9F
19
41
0F
C4
9D
29
D3
D6
4A
B7
9A
C4
78
A9
C9
29
56
81
C3
34
8C
8A
48
DF
A1
FD
85
BA
2D
55
D6
49
C5
0D
3A
FA
EC
01
8B
26
2F
A1
AA
79
E3
B1
5F
0E
CF
81
14
C6
9F
15
A0
9C
03
1C
71
7A
C8
28
03
08
7E
3B
AB
6C
AA
0D
4F
88
B4
74
CC
99
18
25
4B
83
E5
C8
EE
D0
6C
18
44
0F
C1
27
05
8E
20
31
55
62
5E
5E
27
78
17
B2
8E
33
1F
DC
E2
44
F4
FE
B4
F6
78
61
75
04
0D
9E
A9
13
03
89
90
4E
98
C6
CE
91
26
BC
A9
6E
42
CB
E2
01
4F
D7
AD
5C
8E
EA
D0
0C
8A
86
EE
03
9B
D9
04
A9
13
38
FF
6C
1E
65
BC
1B
E9
FD
B7
69
28
08
3C
68
84
50
1C
B6
4D
D7
BF
E3
70
1C
09
BB
9E
F7
EA
45
6E
8C
FE
3D
C9
A7
1B
CF
15
94
3B
21
13
8E
3B
56
D6
C7
0D
71
17
11
C0
69
AB
9B
30
D7
11
46
46
37
24
F9
09
70
FA
E9
9F
0C
B8
4D
64
B7
2D
C7
14
11
34
6A
CD
B5
8A
C3
73
CC
CB
5B
57
70
18
35
BD
E4
00
B6
71
AA
60
BF
AF
5B
30
28
F6
B0
3D
CE
9F
51
D9
E1
71
DF
95
52
D4
B4
46
32
7D
82
EC
B9
30
C1
B9
05
5A
E0
F7
CE
EA
29
2B
D8
E8
12
03
B6
8D
10
11
A7
91
EB
77
9A
4C
A0
DF
1D
C3
4B
BA
4C
6E
B0
90
D2
CF
B7
CE
EB
4F
3E
6B
83
57
82
E2
A0
B9
6A
97
06
6F
30
5C
DA
CB
36
72
35
D9
99
62
3B
D5
62
4D
FE
5C
C7
4E
5B
FC
38
50
AD
E9
6F
78
1D
8C
04
C0
40
9C
99
2D
23
2A
9D
55
E1
8B
B5
6C
5A
10
0C
3C
EF
3F
52
65
40
51
1C
E7
E0
57
02
D5
66
38
59
D8
1F
DA
67
0A
EB
83
7A
EB
28
8F
B9
BA
34
1A
F9
24
C6
83
FE
0C
74
C0
4B
0E
7E
19
81
EB
FE
E7
CA
6B
1A
04
6B
C4
51
BE
9B
12
B4
F6
51
5A
67
88
4C
2A
82
60
E4
B9
54
DC
B5
82
58
47
18
F0
F3
E3
9B
A0
78
F5
04
AE
41
43
77
7A
8F
24
14
47
E5
78
11
B6
6F
94
AE
37
07
53
C5
36
55
48
38
B4
BF
F3
5C
16
6D
47
12
70
DA
D2
7F
05
AC
67
60
1F
81
B5
C0
E4
B0
FF
EC
B8
6E
96
82
45
12
0E
A9
4D
12
D2
14
51
1B
94
E2
9C
6B
64
E8
72
23
15
27
C2
92
72
42
AD
8E
27
98
64
E1
BA
B1
57
13
42
CF
39
38
72
98
BF
C7
76
8B
99
D1
8D
C6
EA
1E
22
26
C6
46
4C
90
BE
80
ED
2C
D6
7F
74
8A
B9
21
DE
45
A9
DE
29
7C
9F
26
B5
96
0F
DB
4D
5A
D4
30
1B
ED
D2
00
9F
45
E4
9F
C6
A5
C4
42
4D
81
4A
D6
CE
FF
8F
55
E6
D5
38
8C
C4
53
47
DF
A0
58
DE
2C
1D
4E
4D
4B
70
FB
26
D7
A4
70
F9
EB
09
66
24
79
4B
28
A1
F8
E7
E9
AB
C3
5A
B1
A8
31
0E
D6
3C
89
90
C6
BB
41
D5
3A
39
98
40
26
B4
32
75
02
71
50
EA
CB
4E
4B
42
06
F8
03
44
30
88
F5
E0
19
2E
54
E5
A0
C8
58
32
64
57
7D
1A
AF
40
82
F2
4E
7E
14
A8
01
9C
A3
34
E8
33
30
E8
7E
57
1A
9D
C6
29
33
2B
9F
2F
1C
39
83
46
E4
F7
13
F1
B0
8B
47
C4
0B
7E
DB
33
66
9E
49
9B
3B
31
10
F7
E8
14
F6
86
C4
76
BD
D1
BC
37
9C
F7
ED
3E
B9
4C
16
40
45
18
33
EA
CD
E7
EB
D4
95
38
DD
55
F5
3C
94
76
05
93
C7
F3
19
C6
A0
7C
A6
4F
76
88
8B
26
55
EF
62
E4
AC
A1
8D
0F
18
A3
15
25
FE
8A
32
16
0F
E6
96
16
1F
21
AF
C3
DD
74
C6
D1
35
60
67
74
41
26
28
DB
53
3E
85
3C
5D
7F
D7
0F
30
75
1A
95
A4
46
93
E9
6F
C2
98
7E
23
BB
41
A4
BB
34
88
86
9D
13
5B
6E
94
B5
B4
11
FE
A9
3C
13
6A
05
A5
BB
D0
3C
02
31
3F
6B
D3
67
41
7D
C5
17
9F
C6
66
30
3D
49
E0
33
B7
56
36
5E
07
B9
00
13
51
90
64
A4
FF
F1
C5
84
79
34
2C
8B
C5
EA
E1
68
F3
BD
AE
6B
5B
95
64
57
73
41
F5
3E
37
9F
BB
39
54
5D
60
C7
56
9B
6E
72
FB
D7
05
DC
76
D9
EB
C4
E7
31
7E
54
8C
8A
67
9C
AD
D3
EC
C2
C9
CD
92
2F
0A
90
DF
4D
46
82
9A
B8
1E
C3
00
59
FC
0F
EA
F8
AE
B6
F3
59
4A
62
20
79
1F
35
FD
E1
C6
71
27
B6
9D
91
1F
07
41
24
C4
1A
23
DE
10
33
3D
1A
7D
2B
9F
6E
07
3B
14
89
3A
C9
1C
EF
B0
48
54
F2
E3
98
2F
C4
BE
06
EF
B9
D6
67
6F
A8
9F
16
3D
38
89
DF
EA
D2
0A
21
F7
72
65
DB
C3
A5
45
43
E4
CB
7A
BD
0C
F8
E8
51
0C
8C
BD
F2
C5
B6
AE
42
63
A6
21
6D
B6
EC
E3
F3
F6
C0
64
C1
62
84
90
FE
3B
9F
E7
EE
F7
1D
67
A3
42
8A
B5
A7
36
87
CB
B8
E6
BF
D4
BC
7A
20
27
92
41
BA
21
31
81
92
77
79
E7
5B
00
53
1D
71
D2
89
F0
CE
81
8F
C2
58
D4
CC
57
63
93
7C
17
BF
3C
5E
C4
CB
D6
11
BD
E4
94
08
46
4E
57
F0
BC
C1
43
FD
A5
12
7E
FF
FD
54
8B
79
C1
EE
15
C3
93
BE
93
4D
01
65
51
2C
E8
26
80
E6
ED
CA
1D
85
5C
21
7D
FD
75
47
60
03
7B
58
17
2F
78
A5
0D
95
C5
CE
23
4D
91
DF
90
90
8D
E8
12
49
98
B0
FC
A9
02
C8
B2
94
39
9A
F0
7A
F7
04
45
87
74
1B
3E
B7
B6
53
DC
59
17
82
4A
E7
C1
A0
CF
4F
48
BC
9D
DD
72
46
98
9C
F8
FD
67
AC
DA
E8
4A
C4
0F
A1
7F
94
46
A2
C6
86
CB
5E
99
7A
68
12
37
12
E5
39
15
97
B4
E8
58
CD
71
DF
12
32
30
F5
9E
58
87
D0
19
F6
E4
13
A9
5D
E2
3B
