0D
41
75
2B
4F
2A
B5
54
C9
E7
0F
85
5C
16
E3
72
09
D7
45
56
4B
2B
5D
AB
5D
B3
31
D4
68
4D
50
25
00
A5
4E
6E
84
18
0E
73
13
BD
AB
3F
07
97
7F
96
AA
36
FD
9D
CB
5B
D6
F2
00
5A
EF
B4
38
A9
A5
40
3F
42
C3
2A
75
DB
F7
5B
D3
17
E9
2A
1B
A5
1D
61
78
4C
63
09
6A
8C
04
9B
A4
D7
84
BC
AE
CA
52
5B
E4
17
EF
A9
CB
3C
94
88
A4
68
81
79
30
69
23
C8
F0
8D
1B
D8
77
26
94
B4
2B
66
40
CE
37
37
45
72
9B
C8
D9
95
6E
45
3D
DD
CE
06
47
DE
85
47
E2
8E
6B
02
B2
34
FA
44
37
8A
BC
C3
A6
1C
93
87
C0
08
71
4F
0E
45
4D
E9
97
FC
81
3E
9D
0E
C8
03
7B
1F
FE
B9
FA
87
24
65
2B
3B
13
64
C5
EF
19
01
3C
0D
80
98
29
B0
81
FC
12
CF
3B
C2
06
70
2F
0E
90
13
1C
18
32
41
60
A4
84
47
09
5C
43
D7
F1
60
29
EE
39
4F
D6
09
FF
6F
C8
40
BB
DF
D9
E6
E7
C8
FA
C7
14
63
23
76
1B
DD
3B
D3
CA
A2
1F
A3
F6
F2
D5
7E
21
6B
CB
A8
07
C3
E7
62
BA
6F
26
E5
D5
5A
3B
73
C7
C8
FC
A2
B0
5B
1A
3A
4E
C0
2A
9D
90
1F
AF
E3
BB
1B
10
11
56
CF
5B
73
57
63
B6
84
AC
DC
E8
E1
D2
79
71
26
44
BA
0E
1B
9F
75
C8
BC
AB
9B
FF
FC
C0
F9
20
83
56
58
7A
71
64
68
23
AE
07
A4
3E
0C
4C
13
AB
0A
C7
CC
BB
09
F8
ED
B4
15
56
70
07
BF
2A
F8
60
B7
80
8D
B6
A8
6C
1E
74
12
B2
6D
58
CD
97
E1
3D
12
E2
5D
F9
1A
97
8A
19
03
10
2C
1B
09
B8
9B
B1
A6
16
49
7D
6F
AF
2C
F5
9E
7F
A3
C6
93
95
3E
35
5A
10
19
F2
BC
44
1B
69
D7
6B
DA
62
CE
8A
46
A6
78
5D
2B
FF
D7
0E
9F
A6
FA
5A
7F
04
41
A2
23
57
A2
20
31
F7
07
D3
E2
52
20
7C
6B
42
BD
0F
F9
19
AD
A1
57
39
1B
41
04
3A
53
E2
91
9E
50
A7
23
B3
AF
F7
28
FA
00
9B
00
D4
11
2E
E4
81
AE
A6
07
C5
2C
C5
29
C9
2A
C8
98
11
DB
93
96
C0
A7
7B
70
28
3A
00
D8
E2
FD
C7
53
48
D6
F6
8E
9A
12
56
A3
7E
47
7F
62
BB
13
BE
E8
93
A4
42
26
23
57
03
DA
B3
B1
B9
81
CB
DD
98
57
3D
83
2E
F7
2C
37
25
D7
28
4E
8E
B8
41
5C
BE
DC
6F
36
14
92
89
11
E2
18
7F
08
38
25
5E
C3
74
6E
CF
4D
B4
C3
86
68
67
CC
AE
16
16
6E
2B
66
08
2D
D5
7C
21
53
20
B9
AD
D3
E0
13
CD
FF
C3
47
7F
BD
54
68
03
DD
F9
AF
9D
21
38
68
DE
87
45
06
65
05
E6
10
4A
04
5F
4E
62
4D
4C
59
47
CE
93
8C
02
5F
6A
1C
8D
A3
D0
A1
BB
80
E8
CE
CC
EF
B8
93
AC
AE
9B
F2
DF
27
A0
B2
21
55
83
12
2C
08
8F
01
3C
6E
82
F4
52
48
D7
19
7A
94
C7
85
65
21
73
DE
0F
56
B0
4C
41
14
87
AE
A7
3B
AD
13
90
16
E9
1C
76
E9
28
80
A1
30
92
D7
E9
5E
65
CB
7B
DD
02
3E
8F
9E
03
B5
65
3D
6F
7A
BB
9C
DB
0C
41
99
2B
25
C1
B1
A9
12
D9
C5
C9
B5
0C
B4
22
67
B7
F8
B6
AA
6E
28
98
4B
9E
77
0B
36
FB
89
7D
3B
21
D5
07
DD
26
E9
EF
47
C2
FD
BB
66
F7
69
16
C1
15
14
32
C3
D4
70
A8
64
35
61
DF
8A
94
0A
34
97
C7
47
4C
26
F0
3A
38
A9
0F
E1
74
61
3A
AE
15
14
F6
AF
1A
6A
1E
27
64
8B
A9
FB
FA
C0
C9
0C
96
B5
1F
B8
4A
05
BA
91
D5
2A
A1
78
DE
44
FE
7A
D7
C7
FD
30
81
84
08
22
72
95
D0
23
D3
44
8A
CE
C4
F3
DF
0D
E1
A0
09
30
DC
0A
D5
AA
5B
7B
F8
69
EC
43
10
0B
99
5C
43
6F
FF
99
2F
56
FF
F2
B3
59
EB
4B
6E
34
D5
A1
98
80
E4
B6
7A
D6
43
21
94
2B
4E
C2
64
2B
62
8F
65
7C
3E
1A
F0
0A
DE
C7
40
F7
8B
83
BE
94
5F
B5
D8
A6
46
82
32
0A
0E
2C
23
2F
89
5E
50
84
F0
F8
E8
29
D4
EE
7E
73
E5
72
57
74
D7
D3
C1
DC
B5
28
67
50
7C
B2
0E
4F
21
2E
6A
AA
71
B5
5F
D8
E5
ED
5A
1F
24
02
9D
FD
14
61
EA
0C
B9
37
81
83
D4
D4
3D
24
64
A9
FF
A4
A2
D7
30
BA
E6
7B
88
BB
8C
5F
5B
39
5C
01
9E
02
CA
A1
7B
5C
F3
CD
E1
45
6A
18
3C
D9
D6
C5
F7
AD
8A
1A
CE
32
65
8C
2F
D4
74
0C
98
BD
03
11
A3
67
BD
94
87
54
3A
C4
C8
FC
12
6D
F9
40
6E
95
39
D9
4B
8C
64
87
2E
C8
6F
0D
65
85
AC
7D
72
C0
3D
E7
A6
59
26
8B
91
CD
DF
E5
6E
AD
39
2D
9C
84
F3
2D
2D
C2
D0
4E
EC
23
62
AD
BE
03
E4
F9
D0
AB
D2
D4
0D
35
BF
5E
D7
9E
2B
A0
96
B6
1C
4E
04
BE
3A
8A
F9
62
46
52
7D
2B
5B
8C
98
A9
08
E5
E9
31
7E
8B
D2
58
DB
E0
F1
E3
85
87
08
64
9C
8B
FE
BF
B9
2D
9F
28
72
5C
24
F6
C1
E5
34
4B
3E
64
F9
AA
67
B0
9F
0A
52
87
E6
EE
66
A3
18
A3
9B
92
F7
43
FA
27
E8
98
10
E1
88
9C
05
24
44
A7
92
2C
B2
AD
B7
38
3B
31
E5
EF
4A
51
1B
04
B0
4B
C1
AF
1D
D9
25
26
9F
9E
76
2C
79
F2
24
31
81
99
72
DD
85
E2
F3
DC
9E
81
43
7E
33
BD
D5
AE
B4
59
D9
EC
07
47
B0
D8
B5
E9
2A
FD
17
48
A3
2E
FB
56
39
C8
9E
F6
0C
75
A3
74
33
01
A2
02
39
DE
98
AD
1F
0D
4F
B7
D0
73
03
8B
68
8C
CC
B4
E3
84
CD
58
F6
94
68
9F
BB
6A
86
6F
ED
C5
77
FD
52
18
63
CB
B9
54
D7
4F
FB
78
33
47
62
65
08
57
ED
D6
6A
24
67
5F
35
14
B7
76
2B
50
FA
37
5B
71
1B
13
7B
D9
80
13
D4
42
A9
07
C8
16
BB
21
3E
B1
29
81
6C
F1
27
B3
BB
3B
E0
D6
E5
52
4C
A3
15
A0
F7
83
40
A9
68
85
40
BF
75
E5
F8
A6
29
A2
FD
37
2E
C9
46
40
A4
71
58
0F
F5
44
82
A6
CF
7E
87
21
EC
84
5B
36
15
9E
22
9B
B8
E0
3B
1F
D3
51
75
D9
F1
DA
8D
B3
6A
E9
84
0B
1A
75
0A
1D
28
56
F1
BB
4F
71
35
FF
A1
A8
60
57
9F
BC
F6
2E
D9
D5
80
7A
58
AE
19
98
41
BD
C9
ED
0B
D8
4F
69
A7
15
FC
54
48
DC
5A
20
4B
52
20
77
59
C7
20
07
C8
B0
80
03
09
62
6B
9F
5F
A7
E3
14
F8
A9
87
CE
E1
0E
33
42
AF
56
8E
D7
13
53
21
07
26
1C
93
7B
3B
D0
A1
A1
41
52
07
C7
40
71
28
6D
B2
B5
3F
AC
7B
3E
53
8C
A3
BE
68
B9
97
AD
B5
2C
F5
F7
1A
7E
EF
AF
EA
AC
A2
F1
D7
C4
BB
51
60
65
AC
22
7C
FE
2D
EE
0C
22
47
0B
D6
02
EB
F8
A2
28
B6
A5
EC
BA
F6
8F
03
F3
D5
C8
60
92
54
90
2D
E1
19
0B
1E
6F
E7
E6
33
E8
54
70
A8
20
98
17
D5
FD
E8
CD
B9
68
40
28
54
35
85
76
B8
5A
96
12
FE
5A
72
42
86
4D
3F
F0
51
AB
56
ED
1A
BB
AA
7B
DA
7B
6A
BF
62
B3
96
93
1B
6B
5F
05
CA
96
9D
84
99
5B
4C
56
4C
F0
EA
01
02
98
91
0E
90
59
56
17
5A
93
CE
CD
69
3E
E0
4C
55
29
94
47
E9
A7
38
F1
C3
78
66
7A
E5
32
96
53
B0
8D
5A
87
A4
50
2C
53
FE
91
AB
8B
7F
39
D1
95
C9
35
57
0C
B4
11
72
7F
05
BE
2E
F5
D6
D3
A7
72
73
06
B2
91
29
41
A9
42
D6
5A
86
54
18
79
36
C6
75
C3
79
37
43
D4
60
9E
D2
1B
4F
93
15
82
56
B2
33
FB
25
23
C8
9E
76
9E
B1
61
CF
4E
4D
7A
4D
C5
75
C6
9C
9F
68
7A
99
0C
B4
57
22
AE
99
C4
4E
E8
AE
A0
42
BA
E9
A0
56
F7
27
31
9C
89
1D
A2
21
A2
61
25
60
B6
45
73
A8
F8
24
F0
A8
CA
F6
87
96
EE
EA
EA
46
5A
E7
BE
02
2A
31
E3
39
DD
70
D3
1F
68
1C
A0
1E
D9
51
B2
51
AA
EA
CE
2A
0C
90
EC
86
67
AC
11
68
C2
00
D2
00
BC
B4
55
3C
4E
D6
8F
0D
D9
4E
50
B3
44
E1
AB
DF
A6
B9
A2
05
8A
22
ED
66
0C
20
5B
09
CC
81
9E
46
8A
04
26
59
8C
26
D3
E1
10
B2
98
9D
E2
55
B0
E3
76
7B
D0
94
B3
4B
8D
7D
D8
D2
61
BB
1B
E9
3D
D0
5C
DC
21
60
2C
0E
6D
B0
21
7B
B3
3A
B8
45
48
C8
B3
25
69
43
03
D6
95
C6
E8
2F
81
D6
48
A4
41
81
E3
E1
01
30
2E
19
EF
D7
91
14
B1
E7
0E
8D
21
F6
C0
4D
A9
7D
09
22
CC
DE
A3
D4
09
EE
EC
08
82
9E
A3
45
5E
6E
AD
15
C0
A7
D4
A1
FA
2F
0A
8B
4F
32
64
B5
6B
2A
97
B5
83
61
7E
7F
80
B6
8F
59
DB
D7
2E
F1
E8
B0
52
85
77
7B
79
9E
B7
D9
99
16
5C
4F
8C
02
95
B8
7A
41
89
6E
ED
3C
CC
CC
15
A5
B7
8E
1B
47
DD
1A
5E
8D
71
C3
9D
F6
74
CF
3D
5A
F0
BF
B3
A0
79
DD
91
81
4B
EB
3B
D4
62
9D
FB
B7
79
A3
0D
7A
F7
C2
02
C6
C1
D5
7C
79
B2
70
3D
6A
B0
55
1B
4E
15
71
94
17
DD
F8
EB
EA
DC
F1
E2
2E
FF
F6
F9
05
7B
7B
96
46
6D
8A
F7
8A
E0
C7
11
18
5A
07
0B
41
3E
60
D6
36
72
74
32
F2
8C
C6
EC
F1
AB
3F
3B
47
31
E5
A1
7A
55
14
BA
14
1A
C7
20
17
41
72
31
3F
E9
F5
73
8C
A1
BE
C7
0C
D2
54
5B
65
06
BF
A5
91
C2
F7
70
81
B8
13
F3
7B
0C
07
09
97
83
39
9C
FE
D7
2D
AD
12
9B
1E
A8
23
70
F1
E5
C2
A1
F8
34
A7
57
5C
C2
EC
86
EF
DF
E5
8B
08
EF
20
95
0E
ED
62
17
5D
BE
0C
AF
99
96
B3
C1
89
65
CC
C0
1C
77
1A
95
F5
51
3A
BA
4F
5E
C4
2F
23
2F
9F
DE
53
FC
2F
30
6C
5D
7F
30
75
EB
2A
2F
24
A2
B1
66
55
B5
97
0E
46
C3
A2
F2
96
F5
79
96
A8
F5
86
65
E7
0E
21
D7
5C
7C
F7
1F
4F
C3
7A
04
65
92
83
86
9B
91
8B
0C
AF
99
07
1C
E0
2A
F4
A5
00
BE
59
89
32
83
21
2C
04
13
25
DC
0C
40
55
DF
92
7B
89
36
8B
2F
F5
9C
2F
5E
97
9B
98
83
3E
28
38
53
73
15
72
C9
5B
F6
22
A5
9F
A4
4B
99
B3
84
5D
6E
35
C3
04
79
A9
12
E1
07
BE
95
15
1F
78
A0
66
BF
27
44
CC
A4
D1
40
B8
12
06
08
AE
DA
BE
CD
B5
33
94
1E
82
C9
5C
D1
7B
3F
4F
9F
34
4B
9C
FA
D3
29
36
EF
9E
85
7A
80
44
70
DF
34
D7
0D
78
74
67
AC
2A
BC
F5
C6
E3
C0
A0
BC
CF
DD
C7
98
E9
21
D7
88
58
85
B1
A7
02
8C
D3
00
55
AB
FB
E1
D6
8B
0F
D8
A4
D0
F1
B5
E7
16
73
9B
BB
42
4B
01
01
6B
CC
5A
01
4C
6C
DF
70
DA
E9
1F
29
00
26
E2
2C
DB
58
56
8D
F6
AD
A3
67
19
FF
38
E4
EA
E6
4F
A9
75
46
DB
9D
BB
A5
A1
E5
A0
DF
95
23
82
42
0E
A8
8E
3D
B0
E8
FD
6C
64
1D
BE
A6
A6
1F
44
24
CE
9E
47
76
0C
4C
D5
F1
BB
A0
90
55
22
42
6D
7D
7D
90
16
87
81
13
A6
D0
FB
E5
69
33
44
2E
BA
5A
8A
0A
C0
20
B5
3D
A2
ED
B7
82
B1
50
49
F8
23
29
C3
9A
FD
CB
3C
65
71
6F
DF
23
47
ED
6C
BA
8F
7D
55
89
7F
9A
EE
5A
D9
EF
1A
5C
54
87
C4
92
71
96
5D
CB
70
FB
05
33
EB
69
15
61
DB
7C
5D
BC
70
70
53
28
AF
3F
D6
7C
8C
7A
AA
E7
E1
FD
60
D9
CB
DC
4D
19
34
71
EC
43
95
13
98
94
DF
0F
DA
D0
F5
90
94
4C
0F
CF
C4
0B
A9
12
3E
7B
E3
77
49
D0
85
F7
2D
3E
54
87
1F
0A
06
A5
D0
88
50
25
66
EA
69
4E
B7
9C
E1
07
26
A9
43
99
86
08
54
23
A6
88
49
2F
1E
E3
1C
54
1E
E7
82
1B
F4
B9
DE
C3
F6
82
CE
BD
D1
D7
A2
CF
EC
C3
0C
D5
CD
2B
2A
CB
B2
78
9A
CF
6B
09
6E
32
03
89
CE
67
B8
89
49
E5
BA
2B
28
A9
91
9E
BC
64
84
D8
03
1C
16
13
74
7E
FA
0D
50
51
73
41
FD
09
96
90
96
69
C4
03
0E
A6
86
66
23
D1
47
E2
5A
00
5B
16
6D
26
CF
5D
7B
14
F1
64
8D
40
5C
CD
80
0E
67
50
99
83
2B
E1
50
BB
D8
3F
46
3C
7D
AF
BA
93
57
68
66
89
6C
EF
DF
56
3D
41
C7
68
E8
4F
F0
21
72
F3
F0
7B
99
1A
CE
6D
30
A4
DC
AF
9F
BF
D9
20
E2
74
90
61
89
F0
8C
E6
F2
08
69
3C
69
6D
D3
09
A5
3C
55
B5
6E
B2
4D
53
27
FD
1F
DE
92
5D
F6
D4
AB
D0
47
75
80
E5
E3
E1
41
0A
D2
BF
90
35
45
4E
FA
95
95
4D
6A
A0
D2
92
DA
2E
82
6A
E0
B0
84
7D
11
86
51
0E
F3
38
76
85
19
1E
BB
F3
C0
7E
50
48
EA
A7
49
64
5B
BA
94
D3
31
B0
BC
61
03
DA
BA
A5
2B
F2
11
19
E6
32
69
D1
94
52
DD
5B
82
14
A1
7C
96
E3
7F
F6
2B
06
B3
B2
0F
42
70
48
14
0C
B6
DF
07
6C
9C
7A
A6
4D
0D
34
0D
CB
9F
B7
6E
18
DC
BA
0E
CD
21
C5
16
50
75
4D
86
98
C1
5B
B3
2D
43
B9
3C
A3
46
57
47
E4
3D
FC
94
AB
E7
0C
D0
A6
7B
2A
A9
5E
D1
4B
64
07
E3
32
E4
A4
58
12
63
DB
60
94
00
C8
CE
DA
06
EE
BF
79
68
3C
5B
D2
1C
C9
18
17
B5
D7
19
19
DA
DE
79
AC
4E
3E
F6
A6
90
FE
C9
7F
69
1C
32
D3
89
D9
59
47
64
A5
D3
29
63
97
67
E4
2B
AD
D4
08
56
C8
64
18
B7
DB
4A
D8
99
1E
31
E0
43
F9
DF
01
E5
AB
0F
12
91
93
C5
ED
46
46
97
13
FC
FB
6A
E9
4D
3D
FD
E8
8E
97
BF
E9
59
B5
2A
DC
06
1A
F6
45
89
F3
0B
10
0A
7F
75
7B
63
8F
C7
58
90
09
3D
E5
79
A9
40
C3
E2
1A
F1
5D
89
63
D4
53
FC
8E
9A
82
31
35
B4
56
A8
F2
1A
32
A9
17
F2
51
57
9B
92
99
74
AF
68
B7
11
26
80
E3
DA
76
A9
BF
DF
07
DB
07
B9
00
77
D0
A3
DB
87
DE
42
6E
A1
A4
E9
56
41
EC
E9
18
73
78
02
F7
AC
E0
33
4A
30
9A
39
E6
8A
AC
90
05
82
03
D0
A8
3B
55
4B
51
87
7F
46
D9
92
D9
BB
83
CF
DF
27
50
D2
E0
A5
D8
A5
46
B7
AD
6F
8B
59
4A
B6
5E
C5
D1
F8
9F
F1
AE
2D
75
07
9D
09
93
E3
5F
14
76
AF
E5
50
32
DC
BD
F0
50
80
69
50
23
08
BB
42
42
B4
2A
A2
80
EA
74
DA
71
BB
15
1B
9A
C6
0D
DD
F4
42
E8
A0
6E
0A
C4
C5
A7
8E
54
18
E0
AD
38
2B
D3
E1
4E
18
8D
94
61
D2
63
39
6A
BA
C4
9A
ED
C4
D6
85
FA
52
6C
D6
C2
98
FB
63
38
FA
77
DF
52
56
4E
F6
8F
09
85
C3
33
43
A0
82
F2
71
B6
21
34
1F
12
7A
F6
1C
7E
70
7F
82
CC
F8
F3
59
1C
A8
D3
95
BC
81
8B
FF
C5
A3
FD
5B
CE
2E
8B
E3
CF
21
B1
79
17
FD
5E
0C
96
48
0F
5D
EF
88
31
90
09
F9
18
A4
B5
AE
D7
A5
68
EC
B8
E6
A8
0F
A4
35
B0
AD
F6
29
90
A3
25
25
CB
13
53
0A
00
BD
11
96
2B
AF
7D
33
95
42
A6
C3
25
9F
BA
2D
F2
58
3F
FE
12
A7
76
56
CF
1E
20
C2
9E
81
1F
6B
72
7E
2B
CB
C2
9A
2F
82
56
61
D0
9D
A9
8A
0C
7A
7A
6D
65
FC
51
EE
4A
45
99
2E
D4
A3
8C
BA
77
07
39
8F
39
DC
91
F0
E7
9A
42
F1
1E
F2
79
88
4F
65
FB
34
0B
EE
56
C7
75
4C
82
6F
A4
61
36
D9
EF
DD
58
32
23
14
DA
91
2A
BF
39
EA
FF
2B
EB
85
96
DB
3E
42
29
0F
5A
31
B7
7E
33
4B
FB
1A
E6
B5
84
21
D8
4D
45
2F
7D
91
3B
B2
17
F5
51
57
47
40
C1
34
08
6A
25
8B
6D
6D
F4
70
A4
CB
30
B6
5D
E4
A3
10
74
55
FF
35
52
69
47
D3
B4
6D
2A
AC
4F
A5
3D
20
97
52
4A
B4
EB
65
31
E7
94
DF
01
8F
64
40
13
39
26
12
30
9B
21
9B
24
30
60
09
15
86
2B
AD
92
6D
A9
56
44
06
27
49
85
A8
60
81
6B
CA
8B
CB
88
43
81
BC
0B
03
FA
03
17
03
9B
44
0C
4B
49
14
D9
84
55
3D
84
01
D0
0D
13
9B
59
BC
4E
60
42
AE
7E
F6
C6
49
2B
10
EB
8E
E7
96
C7
DA
DB
E9
D3
C3
9E
78
4B
F5
69
6A
E2
72
CA
92
D0
83
A1
75
5B
E5
8A
ED
E8
C8
8F
59
09
97
10
D4
55
3E
A4
A0
FF
BB
AE
52
65
F8
CE
C8
B8
B3
BC
3C
E0
F1
EC
A5
D5
F4
3B
43
6B
80
8A
BF
A4
BC
21
81
CC
E3
ED
E7
5A
06
7A
BE
BF
62
11
DD
4E
F9
D2
80
55
18
8F
AC
DD
1A
5B
11
6A
83
F2
36
A7
95
3C
B9
64
7E
40
A3
E1
0E
54
CE
6B
A9
8E
81
3B
88
1C
4A
E1
AD
9B
B7
A4
1A
41
6C
AA
D5
5C
1B
55
F7
63
84
72
8D
FD
A8
3F
3F
B8
5E
97
4A
09
D6
C6
BF
A3
BD
21
29
EC
B7
AF
7D
C0
C8
0B
45
F4
85
96
A8
66
C3
CE
B6
8C
0B
FE
14
FD
B8
60
FD
F5
EE
78
65
5A
34
8C
F6
9A
B4
56
33
85
56
65
F5
F0
BE
5F
CA
47
78
AC
2F
70
CB
71
D9
AE
54
E2
1C
6C
BF
C0
C2
43
C1
2E
FD
EC
70
39
83
50
54
EC
A3
CE
BB
84
2D
63
23
78
C1
01
A0
CC
83
27
66
75
D0
A0
DA
04
AC
DB
FA
BB
01
6E
CD
5F
5D
D3
39
F2
82
97
0A
14
6E
B6
9C
97
BE
FE
60
7F
52
D7
6E
7B
28
E3
08
91
AA
2E
12
14
95
21
1A
35
7B
E5
7C
89
0D
F6
99
97
0A
C1
B3
67
C9
B2
DF
6E
62
62
83
D4
D5
AC
1E
D8
57
42
DF
73
96
7A
73
98
75
54
61
1E
D8
3F
D3
14
AC
0B
DF
DA
92
0C
4E
50
0E
C4
A9
20
29
7C
FD
1E
6E
7A
57
F1
01
6B
13
E9
EE
06
AF
D9
1D
6B
A9
94
F5
09
05
23
12
BF
72
C0
13
53
BC
83
80
54
72
43
15
AD
7C
59
43
28
75
83
B4
2C
D0
F0
F7
38
42
08
22
63
F4
1D
20
2F
B7
72
7A
00
ED
2C
3D
B9
B8
03
98
C5
E8
44
2D
4B
48
FC
91
1D
83
EC
A4
D6
D5
16
46
32
5C
0F
C0
1C
51
15
8E
0C
77
E4
B3
9F
B9
47
06
9D
B0
2F
D7
F9
1E
BD
AD
4D
E2
E0
07
30
2B
F6
0D
FD
34
BB
FB
D7
50
E5
B4
0E
EB
6A
1C
08
98
CF
A6
AF
D0
84
3D
40
A5
CF
4E
96
FA
06
99
77
65
32
2E
58
E1
40
44
ED
13
08
F9
A9
47
51
85
A6
5F
2C
ED
1F
1B
79
11
53
B0
32
88
E6
DB
4E
3C
89
C9
B9
1E
D9
FD
AD
40
A3
68
B3
2F
46
4B
69
E6
C6
D2
F4
81
D2
B5
3E
0E
3C
AE
4B
D8
8A
1D
3B
C9
3B
CA
40
A7
24
68
74
5D
B1
D0
50
AC
14
D9
68
C7
B0
15
7F
D6
1E
5E
B6
26
7B
9F
F2
06
52
97
B8
B2
BC
01
F1
4B
F7
80
DB
F2
1F
0B
46
14
5D
A5
C8
3B
6B
E7
55
9B
0F
F9
99
6A
0E
87
F4
AE
44
0E
8B
12
64
BC
46
24
EF
92
2D
00
A8
D6
2E
74
EF
DC
4E
1E
18
F3
A5
E5
3B
7B
94
E8
8D
DE
8D
5B
1A
14
81
4C
BA
7B
C7
81
7F
8F
7E
26
02
56
6C
CB
02
55
76
DE
8C
27
C5
43
AA
27
E4
77
7B
66
64
53
5A
D9
F8
85
D2
5D
A0
8B
87
85
FF
4B
40
8F
E8
33
EB
EE
05
D3
5E
AA
F3
18
57
CE
D9
89
73
FA
55
8F
B9
04
74
47
87
A1
1C
FF
AC
8B
01
48
15
79
E8
38
F0
B4
70
B1
0F
AC
FA
24
58
CA
B1
63
73
9B
EC
DF
98
31
40
8F
6D
6A
6B
3C
02
43
13
7D
2F
61
B3
28
39
83
D4
CE
FE
61
24
41
A2
54
47
72
D1
96
1A
7B
4A
DC
AE
A8
CD
A5
7A
58
48
79
E2
58
A5
73
85
2F
B1
CC
BB
29
FC
F7
2C
7F
A3
94
AB
E9
76
15
52
3C
E9
C5
FC
12
D8
58
91
0E
2A
55
77
7A
48
6B
40
B8
D7
D4
18
F5
54
04
1A
5F
4A
46
86
D5
6D
5D
AB
21
CD
8B
69
DA
11
46
9C
2B
C9
36
DE
97
8B
81
2B
1B
BC
79
6A
00
1F
56
23
EE
73
51
92
12
E7
B9
05
AD
46
44
98
EF
8A
82
9E
54
8C
F7
08
19
38
21
D3
9D
FA
28
C9
04
04
C0
A4
2F
8E
C9
9A
10
67
19
2E
D2
91
BF
0D
99
6C
4E
AF
DF
66
DE
36
9F
8B
AA
9C
A5
5B
89
AE
33
0F
E4
3E
F6
7A
C0
12
CC
A3
41
5A
45
DB
23
88
C7
33
EE
64
86
28
59
24
58
18
98
6A
7E
B9
63
5B
E0
0E
CD
33
47
E4
82
B8
60
AF
65
D7
F2
D7
ED
1B
74
51
36
23
E6
D1
DF
73
B9
46
E9
3F
43
70
22
11
FE
E1
EE
58
F1
3B
2C
A2
15
61
7F
C3
54
8E
5B
4D
A8
A9
01
A6
30
6E
4A
59
BC
1A
1C
07
A1
61
9D
D7
F5
B1
92
CF
54
1C
E7
D3
3A
16
06
0E
BD
58
F6
06
05
9C
65
F9
85
52
A7
10
A7
A9
4D
FF
99
91
D6
55
87
DF
B6
D5
A6
73
86
75
67
3A
0E
3F
EA
54
35
0B
7E
1D
7D
D1
FA
51
86
37
D5
40
94
AD
E4
19
8E
AE
C9
06
9E
FF
B2
11
BE
CE
69
B8
67
08
6D
66
D9
0E
43
C9
2C
E3
C5
F2
7A
F8
B6
AC
98
68
3E
D3
DE
06
F3
EF
D5
DF
96
04
5C
47
F7
4C
C1
EE
B3
3C
ED
72
DD
C0
C0
0E
2F
DB
B2
A4
82
91
84
52
5C
D6
41
26
E7
07
E4
85
DE
67
90
FA
0F
8E
96
D2
B0
74
88
38
75
E2
EA
5B
56
4D
23
50
E5
E8
8B
E9
B1
5B
97
92
F5
86
81
7E
CA
95
50
BE
20
EC
38
9E
BA
66
0D
4A
23
77
8B
4E
21
DB
F2
09
5E
FD
23
6A
B6
38
A4
56
04
A4
DE
42
C2
7D
E0
3D
40
07
AD
82
01
12
AD
91
E4
5E
FE
98
48
63
5B
6A
B2
93
17
93
86
3F
83
B9
BA
9C
3D
5C
BD
FD
AC
55
77
8D
E0
B1
18
D3
F5
78
5F
2F
65
4E
7B
F0
40
E6
A1
5F
77
09
7F
FE
DF
94
AE
53
DC
F6
5C
90
EC
FD
34
96
85
2D
B0
8A
BE
A2
AE
0A
E2
1C
2D
8B
77
0B
3B
40
B5
73
26
51
3A
51
90
53
DE
2B
9C
08
33
C1
9E
2A
62
01
0F
E9
6C
BA
DB
3B
50
10
19
68
C1
89
29
6E
61
11
F7
E5
9A
15
93
BF
04
52
02
4A
B0
39
38
86
B9
34
8A
46
48
00
B0
8A
59
D7
58
3F
7B
3C
FD
35
50
E3
7C
5D
0B
D8
C5
1F
99
E3
CD
49
D1
FD
12
AE
6F
9E
92
69
FD
1E
8D
18
FB
FE
39
29
68
41
66
33
5B
92
83
CE
02
34
47
28
9D
CB
87
77
2B
C9
5D
C8
4F
5E
00
0C
A7
EC
A1
97
FD
FC
3A
B1
9C
FD
CB
F2
71
95
80
B1
C9
16
44
56
A2
F3
8A
FE
40
D6
D4
70
20
8E
61
7D
C3
99
79
A7
BB
82
B8
1F
B0
56
F3
EA
44
93
F8
A3
52
7C
51
D8
72
6C
1C
A5
8B
27
02
15
E2
6C
FD
BB
B1
16
B9
0B
13
F5
F2
9E
1C
6A
19
0B
D1
EC
C6
B6
90
AA
70
56
DE
32
44
AA
3F
47
55
B1
A3
66
FF
84
6E
98
F2
8F
72
4F
22
51
A2
A2
2B
84
A9
90
D4
C9
41
11
39
E9
B4
FB
FF
5B
0D
9A
9C
9D
E4
8E
AF
9E
02
FB
59
B3
F4
50
3F
AC
05
6A
89
AA
83
44
35
23
02
4F
23
6A
CC
8E
3A
40
1C
29
19
EA
F6
ED
21
4F
3D
21
E2
B7
26
2F
F9
A1
38
D2
35
AD
04
87
B3
9E
FC
EE
68
74
DE
89
6A
56
4E
FD
6E
FD
31
04
A6
9E
20
73
E3
DF
0A
AF
FC
A9
8B
74
0F
FC
28
99
19
A3
DB
D5
5A
55
62
6B
5D
95
AD
16
CC
21
38
3D
09
CC
4B
0C
1A
25
4E
88
13
C6
8F
F0
DE
AC
F9
13
CD
00
B7
FF
EB
53
B4
5B
0E
65
BA
6B
32
52
B6
C0
DD
49
79
82
14
02
74
44
F0
03
A6
58
9D
FF
27
F9
5A
3C
07
3F
81
20
F5
B0
28
D1
03
47
62
5B
C7
10
8E
20
21
48
D7
99
BC
9F
14
6D
40
45
62
B1
B0
70
EE
F6
6D
E7
C6
5F
6C
14
E6
C8
7C
86
3C
5C
EC
06
C7
55
23
6E
B0
AA
12
E6
63
63
AC
F5
62
A2
CD
1A
81
9C
98
07
7E
19
37
C8
FF
61
4B
1B
7F
F3
52
CE
36
7F
03
C1
58
F9
84
C6
BB
E0
13
2E
14
5C
C8
D1
1B
46
64
55
39
AA
D6
F1
DC
6A
27
09
7A
6F
95
F5
3F
77
60
71
55
2D
67
20
93
D0
A0
86
FB
4D
F2
82
C0
17
8C
0D
05
1C
3F
AB
57
2E
3B
2D
9B
97
CD
3C
C0
04
58
A3
48
AF
9C
0C
26
31
9D
0F
31
7C
60
CF
FE
60
DC
F5
A6
59
00
84
98
D2
C0
F3
54
54
72
AE
A2
B8
9D
1D
52
5A
3C
36
6C
63
30
68
B1
B3
54
C3
8A
1F
31
C4
ED
63
F4
28
CE
3C
A7
AC
4A
44
55
49
19
BF
0D
DA
B8
B1
90
CF
58
3B
50
9D
86
57
67
4C
2B
41
26
E3
AE
6E
65
54
70
86
94
AC
42
81
31
F4
70
69
A9
67
0B
7E
89
FE
5B
9C
B8
AC
8E
72
D9
4E
D5
56
41
D3
0C
AB
0C
53
12
D9
16
AC
5A
A4
E3
B6
9C
24
14
BA
6F
5C
AA
84
44
18
6D
F5
8B
E2
9D
F5
DB
22
F2
7B
FF
3A
A0
1F
17
BD
37
05
57
D8
4B
5D
D1
B9
41
19
E9
46
6A
24
D9
D3
19
0C
45
9E
CC
5C
A7
06
9B
C4
FC
6E
4E
18
26
0C
AE
8C
3E
53
78
D7
23
97
A4
DE
9E
06
05
13
08
73
DC
F6
7A
CA
BB
47
67
86
7C
BB
87
EE
6A
C8
C6
6B
22
94
E9
7D
86
89
7A
03
FF
EF
59
FB
66
09
DE
D5
1D
C8
EC
C0
C3
3D
B3
7B
D9
59
5D
72
3E
E2
59
F4
7F
DA
9C
BE
D6
3B
8C
37
63
DE
DB
39
60
92
4E
F2
9C
6A
4A
3C
88
25
C2
53
0E
85
52
24
F1
8E
6F
A7
81
DC
C4
66
AE
2E
AF
F2
DE
AC
4F
46
A5
F5
69
A5
36
84
EC
2B
B6
4D
E3
27
6D
34
58
09
EB
C1
D1
81
F0
3D
98
9E
3F
16
5C
B6
6D
2B
60
FD
9C
33
FB
BD
5B
2D
36
80
66
92
02
C7
70
D7
F2
08
03
53
DB
FA
84
2E
B8
13
20
5A
2F
CA
A1
33
AB
32
53
17
34
FA
CC
90
D6
A3
90
58
F8
BC
73
AD
54
A8
E1
3F
6E
46
D1
76
74
86
CA
DE
EA
A1
88
9B
46
A7
8D
B1
A8
A6
56
FA
2B
E9
12
3F
77
6F
A8
9B
27
31
49
55
A5
BC
B7
37
9E
E0
5D
70
CB
A1
F8
36
55
23
61
76
8D
2C
BA
77
DA
8F
D6
4F
E2
82
59
29
54
2B
50
14
B2
C4
17
09
4A
F2
91
38
0B
4D
84
98
24
FF
A5
37
85
A4
36
25
15
91
AD
55
72
53
89
70
C0
EE
E1
BC
4E
DA
D5
6F
34
10
3C
AE
94
A4
9D
35
A7
2A
43
2D
F5
3F
A2
C3
07
3C
B4
03
F6
80
8A
DD
92
5C
2D
C1
47
61
ED
DC
6C
DA
76
AA
2C
91
EE
3D
F9
20
05
E3
D3
41
83
D4
38
17
24
FC
40
46
4E
7B
E0
C8
AD
7F
7E
A7
75
D4
A4
59
BF
6F
42
C2
2F
54
8C
85
1D
03
76
E7
A2
40
2C
4B
3A
3D
0D
06
80
59
CD
51
19
77
E6
71
1A
F2
24
F4
6E
81
0B
99
32
88
24
49
20
F6
28
C9
7A
B8
A1
F2
6F
2C
08
39
E3
91
CA
6A
BB
6F
FB
FE
90
AF
8E
F2
AE
4A
C3
F3
F0
50
94
8D
B2
7F
FD
79
D9
21
D7
5F
0D
92
A6
FA
D7
26
81
C4
88
D1
17
25
83
0C
99
1F
4D
84
A2
18
CA
31
AE
F3
48
16
1A
EA
2D
79
7D
C0
63
77
BD
BE
92
57
E8
29
00
9C
53
DD
FB
6F
16
77
77
6E
40
7C
4A
47
A2
8F
7C
99
AC
5A
CB
CE
25
F6
DC
38
FE
8F
7D
00
93
D2
72
9B
B4
30
0A
70
06
12
5D
3D
3D
55
C3
2E
BE
A7
FE
ED
58
27
2B
4D
09
3B
92
69
40
A8
A1
E1
2D
FD
78
BA
16
EE
15
9E
A6
F5
7E
C5
E6
65
F2
7D
81
26
CF
B0
6A
AE
4A
04
91
36
57
1E
97
F9
39
24
05
A0
63
4E
15
0F
21
8E
EA
80
C1
33
33
2D
F2
EA
0F
AF
12
C4
52
3F
B6
DB
B9
7B
DD
E0
7C
DD
BD
8A
C3
21
6E
2A
FA
D8
7F
C5
9D
CF
94
A7
6B
65
C1
AC
5A
86
E5
BA
C4
5A
E1
F1
19
C7
4C
57
42
D2
F6
CA
36
8C
2E
68
D5
15
53
36
C7
1C
72
3F
E7
77
CC
C0
D9
8E
3E
B5
DE
EC
35
5F
C7
20
87
A7
C2
AA
8B
B4
4C
77
46
2B
87
0A
2E
BE
2F
4F
DD
81
08
EF
58
CE
9F
79
9B
94
80
6D
EE
D7
C5
0F
00
31
33
66
25
D0
86
33
CE
6E
06
E5
A1
B3
CB
88
54
F3
D9
CB
97
88
26
F9
51
62
B5
E8
1E
93
67
10
62
D2
5C
73
53
91
E2
58
A1
53
8E
1F
90
1D
E4
2A
71
E7
EF
EA
2F
40
42
EE
A0
17
AC
F5
CC
D7
6B
93
25
AE
3F
DF
F8
D2
B2
5C
F8
DD
78
FA
36
59
7A
C7
BA
69
76
D9
2F
AB
92
0D
40
FB
9F
76
74
E5
32
63
B9
9C
8B
6D
BF
4C
DE
34
93
43
FA
16
48
6C
CF
F3
1B
66
39
54
8B
12
8D
0E
2B
AD
0F
DD
F4
8E
DF
D2
24
1F
80
00
E3
B0
60
DD
80
94
2B
62
2B
40
28
7E
A3
C5
9E
24
79
1A
98
CA
2B
96
DE
A6
F8
2E
2F
45
DC
DE
65
53
5F
0B
09
32
88
54
6A
1F
5F
F3
7B
33
69
41
80
ED
31
84
30
20
9A
88
47
44
1D
93
53
8C
A2
6D
9D
84
BD
51
D8
F3
0A
7C
B7
20
C5
3E
F7
F8
FF
D5
3B
11
F8
47
D5
29
5D
61
BC
FE
C5
48
42
C1
0F
46
59
4C
3E
1D
DA
31
DA
7C
14
45
0A
D1
78
36
FE
DA
9F
45
FC
0F
DF
FC
D0
D4
C6
27
57
84
F8
14
DA
F6
5D
DD
4F
9C
48
3D
A0
2E
AE
EC
E7
64
87
1D
EC
6A
1B
C9
95
7D
29
26
09
15
CC
01
37
CD
03
48
C4
B8
CF
9B
E3
52
AA
B3
AB
A2
E5
4C
FE
D7
99
B1
0C
76
80
76
CF
06
86
D5
44
FE
D2
7D
6D
E3
4B
09
69
CC
03
9C
B3
93
83
B5
B5
DD
19
42
6F
9D
65
43
83
4A
C2
F0
6A
5E
E1
42
EE
F9
D5
9C
C2
C2
38
B4
BC
BA
1C
C2
2C
C1
B5
7C
90
EF
91
AD
56
02
CA
FC
E2
B7
5A
63
39
4E
E7
61
AA
10
A1
EE
5B
6F
CB
B6
A5
33
D8
F9
3A
06
31
12
3F
6F
ED
53
94
84
58
15
65
E1
EB
54
CC
E0
FC
EC
AE
35
79
5F
C9
3C
76
4C
E4
6C
EF
4F
5D
0F
B8
C7
50
E4
66
1F
FD
C2
10
2A
37
FA
D6
06
98
BA
75
FC
97
2E
19
3F
66
2F
D4
33
11
EA
E6
E5
D5
78
34
EC
B6
F2
05
D9
BA
3F
E3
00
B4
31
82
D0
BF
D4
0D
DF
5A
28
30
36
32
C7
85
86
E4
15
1A
E4
77
72
F1
8E
80
B5
C4
A0
DC
04
DA
50
A5
F7
F7
56
DC
89
3F
F4
4A
1E
F8
FC
18
DE
10
46
31
23
D7
8D
3D
09
89
A6
43
19
E5
12
68
13
C3
B9
D5
7C
C9
A7
DD
2B
A2
97
A3
3D
A8
5A
F0
C8
BA
E7
67
4E
33
23
FE
08
9A
B5
F8
46
B4
8D
F5
59
2A
01
77
17
66
85
01
8B
30
42
F8
3B
9D
36
0C
53
85
53
32
77
8F
C9
25
4D
62
96
E7
D5
06
4F
59
0F
DA
89
03
1C
82
75
D4
9F
FD
98
8B
D2
1D
85
E4
76
29
4D
6C
22
61
D4
2F
2A
28
6C
86
5F
4F
A2
9E
76
8F
AE
8D
34
3C
D8
EA
13
8F
97
63
72
1F
B7
76
E7
E4
89
FF
D3
D4
81
1A
07
60
FC
F9
79
46
33
75
E2
F1
34
F6
29
18
34
60
4C
51
A5
FA
E8
64
E1
93
45
DC
02
CB
6E
EF
4B
70
0F
44
14
FD
44
C8
70
04
34
B8
71
E4
DD
0A
60
57
B2
43
D0
CD
89
14
74
F7
12
E5
C8
1C
E9
D3
1A
98
CF
C9
A4
15
8C
88
18
CD
AF
97
53
0B
FF
3C
BC
43
71
03
2C
89
37
07
C6
35
C7
99
CB
B4
B7
C7
AE
C8
B1
D9
69
21
5E
56
95
AF
AC
F0
91
A3
D8
91
54
AE
BA
3F
19
7A
A6
75
79
8D
FB
9B
C2
FC
94
AB
46
90
B6
59
AC
B7
F7
AB
56
BC
38
2C
50
A8
F1
E1
1E
45
65
FE
08
92
A8
08
4F
5A
DC
63
53
FF
45
96
23
DF
51
5F
FF
FA
30
CA
11
4F
AB
E9
C1
89
A2
F1
DA
8B
5A
E5
86
74
04
2E
E0
B3
C6
29
4D
76
C9
12
FB
FF
C9
D8
A7
6D
B2
40
6F
6F
38
B8
09
88
B9
7E
97
6D
5B
9E
09
46
23
DF
B3
D7
89
07
42
ED
B1
73
35
CE
E2
B7
7F
7D
F4
C9
27
BB
E2
D2
8D
D7
4C
76
86
86
9F
A1
31
91
7E
2D
D6
54
55
4A
37
4E
BE
4E
E1
FA
06
38
86
38
95
93
D7
51
54
00
3B
B7
05
FB
82
BE
BC
F3
93
85
8D
F5
2F
88
8F
07
46
85
02
77
C7
9B
88
A5
DE
12
2E
24
BB
64
54
2D
1F
83
F1
A5
FE
F6
5D
5A
9F
D2
DD
C5
59
92
FB
6F
61
F2
A9
D9
12
F0
A9
89
4F
1B
DF
82
F1
01
16
0B
94
A1
02
8A
9A
92
80
34
7F
91
42
8F
99
B7
F8
84
EB
E3
E4
92
BD
BE
46
87
51
C0
82
90
AC
E7
E3
66
1B
F7
B0
76
20
01
42
B1
C4
F5
36
A3
15
00
83
7F
C6
39
1E
42
E6
78
41
98
B0
B9
CD
CA
7F
07
64
5C
D0
87
3F
F7
7A
F9
1E
28
F0
36
74
43
D9
38
BE
F0
E2
31
41
8E
00
79
9E
F1
C1
14
2E
B7
A6
0F
EA
DA
A8
CB
35
BD
96
6E
22
5C
F3
2D
33
E2
84
0E
A0
D8
E1
00
D4
3F
8D
96
53
BE
86
54
47
8B
9C
C1
B2
BD
E3
60
19
DA
CE
69
E0
38
F3
F1
BD
5D
94
6B
3C
05
C1
34
99
AE
99
16
24
DF
D9
61
9D
65
B2
33
5E
80
70
06
E0
CC
98
27
0A
57
77
C3
B4
E3
4F
7B
28
B2
46
EA
84
4A
7D
87
41
D0
E1
3C
8C
BD
ED
F2
BE
9F
D2
6D
D1
4C
BF
12
D9
C5
42
1F
98
F2
90
99
AB
2A
F3
74
8D
9B
C8
86
44
BB
22
22
3A
DA
27
84
B7
2A
FA
85
E9
5D
87
DF
B3
30
10
BC
41
2B
9E
34
43
DF
A7
8D
0B
1E
70
0A
CA
B5
C6
3E
43
FC
19
AC
AA
5F
92
5A
48
3D
5C
58
C9
80
79
A3
DA
C5
80
04
05
36
FA
96
0E
0C
5A
40
29
AC
03
23
1E
0A
30
4F
D5
9B
4E
D8
FA
E9
77
31
2A
7C
B3
BE
49
BD
2D
79
16
3F
46
7D
4E
56
91
AE
AC
2D
61
27
16
2F
44
A2
E7
06
28
3E
64
12
60
6D
A1
A0
FB
F8
8F
E2
3C
E6
BE
CB
A8
26
6C
72
EE
84
B2
6D
E0
B9
E8
84
80
81
6E
68
5F
7A
9F
A7
EF
0F
A5
5B
A4
BF
E7
14
10
EC
B7
B7
3E
A9
ED
82
57
2D
C4
42
6D
70
10
99
41
87
55
E6
99
5A
26
9B
B6
CD
28
B0
1D
C1
2F
F2
27
37
D1
61
B9
52
9B
EF
01
87
4C
64
AB
C9
B1
86
9D
3D
E9
31
0A
AE
00
5F
7B
C2
74
20
E2
93
B1
A9
78
90
12
BC
69
5E
E1
3B
21
DB
3A
36
80
34
C3
C0
01
E5
6A
12
DE
B5
C2
65
13
A6
A8
A9
62
17
89
3D
B3
B9
1B
75
75
F8
21
B0
99
8C
26
39
8F
FA
EE
EB
69
62
FA
44
56
21
F5
1D
32
90
95
5E
03
0D
68
47
EB
B2
F9
4B
01
4B
BC
8A
2A
CD
14
F4
DA
0C
24
5A
93
B8
F5
F8
7B
D4
1A
F9
27
B3
65
0A
03
E8
A2
CB
63
F5
25
5B
BE
1C
E7
58
B1
98
3B
D9
B6
70
45
BB
E4
A2
1F
E7
8F
EE
4F
AD
69
D9
DB
97
2C
25
CF
F7
7D
AB
9A
31
BA
4A
F4
78
A1
BB
82
F1
E4
4D
B0
7A
F2
3B
D4
E6
B1
07
65
59
0B
5F
FD
33
49
09
65
8A
B5
25
1D
3B
EA
F3
15
D8
79
81
12
20
33
92
1E
8D
AA
74
13
81
80
4E
EE
0F
46
FF
92
D2
F0
60
81
2B
78
9C
27
F2
FF
B6
A6
72
54
C9
5A
12
D4
5D
47
FC
81
55
6C
81
4E
3A
B5
27
E0
D4
1A
03
12
1A
4E
35
76
9D
8B
5A
9B
BA
EE
16
6E
B2
4D
82
39
2E
C6
D0
5F
4B
10
78
D4
11
6B
2C
AB
8F
2D
A6
1E
B3
D9
E9
99
98
51
64
4B
0C
7D
6E
F4
68
53
94
A5
55
21
CD
A6
D6
46
3C
F0
B1
AE
B0
67
2F
3B
D7
C3
CA
49
23
0A
8E
CE
4D
B2
30
50
47
E4
B8
8A
BD
42
BB
61
FB
6A
E7
5A
DC
95
F4
D4
79
48
E2
5E
D7
24
E8
B1
CD
3C
82
F8
8C
14
CA
83
3A
A6
A4
A8
0A
5B
B6
BA
C3
EC
64
3B
06
32
3C
70
7F
DA
77
50
7B
47
A2
F0
08
01
E8
BD
9A
AD
A4
EF
9D
42
EE
53
71
25
68
18
DB
39
E5
E7
42
36
7E
D6
45
6C
23
CE
D9
AB
B1
20
1B
9F
D9
12
ED
BC
F3
38
F7
C7
F2
0E
30
99
4B
28
DC
7A
5C
C4
A7
11
3F
CF
00
C6
84
3B
04
10
9A
6C
C9
72
C7
EF
0C
7C
21
5F
5A
E4
8F
15
DF
20
95
AA
EF
54
FE
9F
F8
BE
16
A1
8A
82
79
94
6A
3C
56
7A
60
60
EE
8C
AA
CE
65
B5
4C
14
65
98
BB
E2
E8
F5
EB
9C
6D
79
EF
BC
F4
14
83
1C
94
00
41
D1
1E
B9
0F
83
76
44
D7
7D
1E
F4
7A
29
2B
55
1A
53
EF
46
0E
C0
04
0C
B5
B7
4B
EC
9D
1C
9C
B3
8C
E7
3D
16
FB
B9
EB
94
94
1E
09
05
AE
3A
1B
93
74
8D
46
4B
FF
00
36
A7
F2
8A
B1
08
5C
C7
5E
B1
B4
10
6D
1B
BB
09
CF
8A
9D
51
84
73
3E
EE
44
5F
E2
D3
EA
4A
51
CE
E1
57
4F
5C
1D
37
B8
11
0E
CE
D4
3C
12
68
88
E2
F0
22
22
18
DA
D0
1E
8D
8F
18
F3
5C
C6
70
A7
A5
A8
62
15
84
43
92
E6
20
5E
E8
01
01
53
1E
C7
30
C8
50
5E
6E
4F
F6
15
A4
2A
31
CC
D6
A5
56
7C
85
0C
BE
8E
AB
0F
95
66
22
D4
EA
51
FB
38
43
26
B0
21
FD
B0
44
0A
10
F0
FA
EB
04
81
AB
8D
D4
4E
60
73
38
F7
FE
21
FF
B4
34
5F
D7
6A
BD
57
5E
97
07
76
A7
F5
9B
82
F4
81
A6
D5
F7
03
5B
E7
1D
A9
D3
A8
A9
5F
F2
14
06
E8
2A
0F
F0
DD
29
AB
7B
8F
25
F5
C6
D4
9A
03
5A
2E
D5
25
D7
AF
41
A1
92
8A
DD
BE
A8
3B
31
8D
F7
D7
D9
A2
A1
7D
D6
CF
95
D6
01
30
33
08
1B
88
F2
18
B5
2B
DA
14
45
5A
05
CA
CD
DE
C9
EB
24
3E
6C
20
71
6B
5E
ED
D2
15
98
53
92
A7
41
60
DC
88
09
CC
0A
81
C9
10
69
E3
19
D7
33
BA
84
4B
C6
83
D5
A0
AF
7A
43
D8
35
BD
F6
BA
91
49
61
3B
66
4C
46
B1
06
5D
31
B4
B8
72
10
84
EC
DB
0A
32
19
53
4B
37
9A
74
EA
F3
25
A9
FE
F0
11
DA
7D
52
6F
47
D0
BE
60
37
FA
07
44
C3
85
48
7E
81
F2
B9
DA
1E
8C
91
4C
F7
E6
8D
44
C3
55
A6
70
F2
4A
0E
92
70
BF
3F
09
AF
86
4A
05
DB
2C
8F
3D
CC
AC
92
2A
BD
D4
4C
2A
2D
40
97
63
60
5D
9D
BE
B8
12
58
4E
E7
F2
93
38
9E
76
C8
88
48
2E
EF
6F
17
2D
91
8C
F7
1C
FD
F7
1C
E2
70
67
C4
FA
F5
C2
1B
F4
DD
9C
FD
D3
74
6F
B9
63
B1
CC
0D
BC
72
47
24
E6
39
27
46
40
4D
BD
77
96
7E
C3
BD
DE
28
63
5B
7F
8E
18
EC
F7
D6
ED
8C
32
86
5D
07
BE
A4
DB
B4
E2
9B
00
00
F3
F9
49
AF
EE
1D
99
41
EC
1C
F9
83
15
B4
4F
DA
6D
A6
DE
76
46
25
64
C4
20
3E
D7
65
7E
6C
1C
57
26
9C
74
AC
FC
E3
25
BC
D0
A5
A0
11
02
1F
DC
40
A9
C7
22
1E
46
97
A1
39
9A
3D
86
EA
9B
CD
72
0F
EB
19
4B
A1
B5
21
0B
18
DE
E1
DA
D7
0E
C3
20
A8
F6
FF
F4
E5
B4
7B
55
81
EF
53
AC
72
47
D0
B2
07
45
32
6C
0C
DB
C0
3B
F8
03
24
33
30
5D
9F
F2
A7
EA
DB
0A
11
90
BF
F5
83
21
41
51
30
7B
41
D1
45
85
AF
18
69
23
2B
79
A8
62
25
42
1E
E6
1A
3A
5D
A6
07
AF
2A
4F
A8
D6
B3
41
60
21
72
87
08
BD
AE
8E
71
15
57
BE
0E
BE
17
5A
71
B8
77
4F
4F
C5
E8
C0
37
DE
6D
3A
58
AA
7C
09
83
FC
A4
06
0A
98
64
6F
A7
EB
EF
C9
2A
99
F4
4B
FF
9C
1B
D0
7B
2E
70
EC
1C
69
19
0B
EF
A1
B8
4E
80
51
DA
2D
06
B7
A7
4F
42
8F
83
7B
FC
49
ED
38
87
C3
94
47
D4
F9
80
D5
33
B6
29
E1
0B
97
A5
A7
40
7C
38
1B
11
21
63
ED
1D
34
3C
23
FC
42
30
37
1B
45
6E
AE
74
09
39
C6
EC
9A
ED
73
DC
7B
CD
A7
AF
93
85
3A
3D
BB
E4
AA
4F
2D
31
DB
34
3A
7E
7A
53
1E
44
41
FE
63
5B
08
CF
4E
62
85
48
CE
CE
76
E6
8D
9F
79
F0
4F
AC
40
03
A6
70
82
B7
76
0A
FD
43
77
64
C9
27
CA
59
A4
0D
92
90
7E
E3
A2
AE
EB
E5
E8
3D
56
AE
DC
92
20
01
33
14
88
9E
62
FA
34
04
40
06
CC
BC
B9
DD
5B
85
52
40
32
04
4B
0F
46
93
72
17
99
FF
CB
B9
8F
6B
1A
56
27
80
19
56
F9
F8
DE
C5
D9
F8
9C
AE
B2
10
5F
B7
26
6E
02
9E
B6
C0
65
9C
DF
E6
C7
80
FB
36
A8
77
25
70
4D
63
33
A9
24
AC
4D
93
11
A9
8A
3E
E0
42
81
03
C3
EF
34
A0
25
53
5D
02
14
30
5D
8E
9A
EE
C3
91
24
88
CC
21
B4
AD
06
C3
17
3C
E5
7D
9E
D3
42
77
AE
DA
88
94
67
45
CD
BF
96
B8
73
D5
35
8B
BE
4F
13
CD
FF
6C
AD
F8
8A
39
69
F1
24
94
96
51
8D
96
78
3B
92
FC
14
29
07
DC
78
0C
FA
6C
C9
82
86
AA
78
4A
3A
3E
48
63
7A
FE
2D
66
BE
0D
DA
28
06
79
0A
A0
77
1A
78
E3
B6
5D
36
CC
02
15
A0
FD
42
B5
8C
59
11
9A
8E
91
2C
19
37
79
60
37
51
C6
E4
61
14
C9
5B
F0
E9
DB
A3
24
AF
39
8F
8E
73
B3
4E
F5
95
37
9C
CF
4D
0B
3A
F9
D7
96
91
B7
5A
28
B0
6B
A1
6F
ED
58
2C
12
AD
E6
EA
F2
FF
87
19
99
52
D4
0A
88
16
46
30
31
0A
EE
7E
9A
BA
06
80
38
D4
8F
06
17
73
06
1F
0C
A1
FA
3B
4F
66
54
9F
3D
F2
86
3E
6D
06
FE
6E
58
69
F9
F5
69
AB
02
49
D5
FF
A4
3D
C7
F6
E8
CB
5D
DA
47
46
48
BF
E4
2E
C1
71
B6
9E
2E
16
4A
7F
70
65
67
26
95
39
21
ED
C8
13
9D
71
9D
9A
EF
EC
F9
74
15
20
1F
BB
41
66
3D
87
C6
A1
00
64
6B
C2
DC
C2
0C
EB
EA
01
DD
2F
9F
15
17
63
14
45
32
3A
D1
66
9B
DA
E5
67
55
CE
A6
23
F2
32
66
6B
F4
87
6C
17
AC
2E
A7
8B
1E
63
3A
D0
71
84
2F
15
D4
ED
11
F5
39
EC
D2
52
BB
17
89
48
27
21
2E
CB
02
86
FD
7B
43
F2
62
DF
4E
F0
BC
F4
41
EF
3C
DE
EA
CC
53
50
CA
66
D6
13
29
93
7D
71
39
B4
2A
E9
8D
7A
AE
58
E9
9A
CC
04
CF
EC
15
6F
29
0C
78
DC
CE
BA
2D
36
75
44
AF
DA
32
85
67
58
26
DB
EA
E4
C5
AD
7E
0E
50
8E
68
F5
52
3A
F7
AF
1A
A3
3B
03
A0
7C
F8
4D
77
FE
DD
77
0D
E8
D9
70
B5
5F
29
D0
15
CB
50
14
6A
A8
A1
CF
8E
CA
F6
D9
53
5A
EC
88
A4
78
B0
41
43
A5
AC
6A
B9
97
64
CE
27
18
32
A2
F7
A0
B3
D7
14
FC
26
6F
D5
3A
04
74
18
97
40
B2
64
6A
25
F5
3C
33
64
7F
48
66
D4
65
A5
BE
28
4D
50
44
A5
E4
8A
3D
CC
24
DD
3B
5D
05
AB
66
5B
51
B0
2B
80
55
61
A3
EF
51
65
B7
E7
32
7B
AD
D7
41
1A
AF
A1
5F
50
A8
E8
90
1C
ED
65
FB
DF
63
4B
40
BA
CD
1E
08
12
E0
92
5B
C7
24
1A
27
AD
25
B9
B2
34
64
E6
9C
17
28
90
29
A3
3E
49
75
6B
0C
B6
C4
6C
48
42
04
F3
FC
6A
64
54
96
EB
A8
6B
F6
10
3C
02
37
CE
B6
04
A2
50
9B
BF
1D
24
28
33
A5
50
6E
73
F2
C4
08
CC
38
02
9C
89
BC
E9
CD
E6
73
02
A5
4F
19
14
3D
93
AC
54
35
4A
41
D3
B3
86
45
BA
67
B8
23
8C
7D
54
C1
9F
21
86
50
AB
A4
42
30
3D
B0
B3
2B
7E
29
A7
4E
9A
0D
39
A3
B2
D1
89
BA
A5
20
A3
BA
08
75
24
C7
85
61
BF
40
C3
5B
74
77
85
63
36
89
08
EC
CB
A7
5E
EF
87
8E
74
E4
C5
96
1F
56
A4
A5
26
E9
10
AF
62
90
C3
D5
D2
7B
D4
67
58
CA
14
4C
50
1F
84
8B
97
64
79
3F
74
CE
DD
33
DB
C3
9B
C2
6D
26
96
18
60
02
96
C3
8E
17
B1
C3
04
74
98
C2
54
61
3A
45
A0
A1
44
0F
58
53
5B
81
84
76
E7
4D
4A
DD
97
C0
52
29
59
9A
74
93
03
39
E3
28
5D
48
56
51
C6
8F
AB
65
35
46
8C
93
26
94
FF
05
3A
05
C6
79
09
2D
2B
B8
7E
A9
AC
A9
81
7E
16
FB
86
61
4B
18
8A
AF
23
28
92
5B
87
A8
40
F0
44
02
82
12
D7
6B
8D
B2
6A
AA
F6
75
11
AD
91
D3
DC
38
4A
0B
14
52
78
99
48
49
29
61
8E
B2
62
4D
EA
84
0C
9D
A3
55
1E
81
76
C8
29
1F
36
60
61
A6
A5
0E
BF
C6
BE
57
39
B0
43
5D
84
71
A5
7D
85
F0
27
63
AF
5C
EC
F9
BA
94
DE
26
95
40
2B
C5
98
08
1C
4E
10
5A
C0
A5
42
26
C6
26
A2
69
15
33
63
BB
94
D5
00
B7
90
82
86
73
DC
05
A7
F1
4A
00
0A
B4
68
13
54
EB
FB
E8
4D
B0
05
A3
CF
AF
4A
81
08
E5
A2
45
C3
E3
70
01
EB
BE
BD
82
4E
70
1A
06
8C
53
4B
53
6B
B8
42
F0
A6
06
7A
BF
7E
5F
0C
A8
53
EA
FD
35
F5
3B
8F
28
37
8B
93
72
C6
45
C0
84
0B
E0
59
D8
09
1A
32
65
1C
A3
A0
51
69
2F
5E
3E
F1
15
2E
00
F6
40
04
18
34
02
33
D0
EA
EA
D6
AD
DD
C7
EC
8E
B0
AB
C7
C4
36
3C
3D
90
6A
31
10
94
E4
8F
4F
B4
F6
67
5D
36
FC
34
8B
D6
A9
8D
F4
6A
41
52
E6
89
E2
5B
64
D0
08
0D
C8
B8
9C
B5
86
40
6C
35
0B
24
32
F1
5A
6F
64
6A
B1
06
11
9C
98
4B
2C
0A
81
27
7D
68
FA
B1
D4
BD
79
FD
52
5C
FF
00
F8
09
B1
93
B8
53
C6
6B
43
3C
32
63
5F
2C
80
82
F6
2B
71
F7
05
DA
65
74
3B
3E
46
96
5C
06
D7
79
A7
C5
21
F5
F0
5B
16
6D
6C
E8
F1
48
B6
BC
6A
1D
33
B3
21
12
ED
2D
60
65
3B
CC
59
42
DC
8F
59
31
D4
0B
4E
2F
EB
C4
4E
02
52
C8
DD
E1
78
C7
35
41
DA
F9
68
F9
E1
43
2C
9A
50
C1
1F
D6
A7
F1
A3
69
77
A0
02
DF
75
5D
EB
6E
B0
D1
B8
E2
19
44
82
27
8B
E9
B6
7C
0F
48
4C
FF
DE
F3
6A
11
B9
BE
28
9A
B8
55
20
8A
46
84
D4
A6
64
23
5F
12
B4
B3
F8
58
89
02
97
86
3F
62
59
DE
9A
35
B4
38
BA
7B
4A
81
87
07
14
25
71
FB
99
84
2A
6A
8E
CD
F5
7B
C6
51
11
B0
46
23
47
95
74
C3
29
05
9E
57
79
4C
A1
CC
82
EC
A5
76
C2
6F
B7
FC
52
1D
E9
7C
AD
9F
FB
D0
D8
98
31
32
AE
BE
D5
1F
E1
30
9F
57
C0
CC
7A
EA
DB
5A
5B
AF
BF
17
E1
87
98
85
4B
9D
C8
FF
58
19
7B
D3
C1
97
0B
2C
C9
9A
90
08
3B
CE
CD
42
39
DB
60
3E
96
CA
E5
B6
C5
A6
0C
D1
31
41
21
DA
74
B2
0A
FD
B6
48
13
85
1B
31
F6
07
A0
2C
87
F4
45
FF
C9
53
CC
56
78
FB
66
20
06
89
11
12
A9
D1
BF
8C
78
C9
35
CD
FE
AE
12
DF
B6
8A
27
70
12
D8
A8
15
9F
C8
30
93
AB
4C
B7
60
21
5F
1A
04
64
67
A7
7D
99
E4
8F
D3
3E
BB
C2
FF
1E
EB
97
4D
75
9C
2D
DA
F1
EE
D7
D9
67
4C
96
9F
E3
F0
6A
1D
E0
EE
F0
5A
5D
4A
88
99
5B
5C
9C
51
1A
C6
FD
EC
89
80
9C
D6
FF
26
88
EB
4E
87
BC
EE
E1
D5
92
1F
3A
19
AF
52
13
D7
00
77
A8
84
4B
CE
5B
C6
1E
35
73
4D
02
01
1A
03
8C
75
BE
23
A2
24
C6
B2
F4
D2
33
FF
1C
60
18
86
FE
66
53
C7
A8
71
A5
41
91
A0
BD
F4
EC
00
41
7E
2C
7F
80
20
F8
66
A5
BD
29
9B
74
65
3C
90
2E
8C
C3
38
38
2B
CF
45
3A
89
97
B3
77
82
5A
2B
72
7C
8C
D3
5A
84
E6
AE
5E
3C
77
8C
EA
98
C9
4B
6C
A2
B9
9D
88
EC
12
54
70
A9
DB
41
21
3A
68
34
A9
8E
4D
11
76
5A
56
1B
11
8E
38
83
9F
01
C9
29
2C
92
AB
EA
7B
08
69
7D
E7
2B
EA
74
2F
41
AF
85
D8
20
59
65
32
39
9A
88
2A
BF
45
93
75
C3
F9
EC
A5
E2
39
DD
AC
12
F0
E4
50
26
41
25
B7
7D
6D
C3
FD
8A
22
E5
6B
3C
B9
31
75
C6
98
10
EA
DD
3F
4B
AF
9F
A3
10
75
0D
55
6E
0B
F5
F8
77
3D
44
F7
8F
37
4E
F2
76
9D
99
3D
4D
91
29
3B
02
3C
D2
E6
F2
DC
BF
2B
6B
B6
9D
94
32
9C
8C
8F
71
5B
90
1F
5D
09
37
96
AD
C8
A1
77
73
38
89
A9
B6
16
D4
F2
68
59
D2
BD
62
1D
27
6B
99
56
D8
99
F6
E6
06
DD
4B
D8
9B
1C
9E
4F
A5
41
F3
CA
47
CA
50
F4
27
92
E4
3C
5B
14
47
B0
06
D8
92
3D
1E
05
D9
3C
B2
EB
C3
51
08
C5
8E
EB
5E
7C
F2
26
61
8C
6E
99
C2
A3
39
E3
D6
B2
4D
4E
C3
00
9D
BA
FB
61
2F
3E
D3
40
37
F5
D6
02
29
AD
59
47
17
6C
BD
54
6D
28
EF
17
33
C0
AE
9B
AA
17
9A
47
21
AD
C7
39
BB
0D
35
52
D2
F1
13
B0
02
0D
01
F8
43
DD
5D
CB
2F
21
CB
9E
9D
26
18
1F
0C
49
46
DB
AA
3A
46
94
EE
F7
51
84
DC
76
F1
E8
8F
71
4F
3B
E5
DE
CA
CC
5A
7A
B2
03
99
C3
00
6B
CA
1B
45
A7
AE
19
7F
F4
A4
61
3C
7E
82
68
C1
44
99
95
37
C8
E1
0E
07
60
E0
B4
D6
B1
8E
44
ED
BF
41
72
EA
FC
1B
A2
9F
3B
7C
D8
A3
82
D3
94
EF
83
A5
53
5B
6D
AB
ED
91
BA
B4
C5
67
49
4F
12
DB
A4
ED
94
13
7A
83
52
C6
27
47
81
74
DF
2B
6B
31
A1
76
54
DD
0A
2D
28
9D
92
53
A8
57
FA
19
EB
CE
8E
5F
61
49
FE
0C
D4
77
D3
7C
D2
0A
99
44
CF
13
2F
AB
14
E0
54
E9
A0
66
C0
B4
BC
19
39
32
0C
CC
C2
0C
13
C8
46
A8
4A
FF
B8
8A
B5
D3
0C
A4
23
87
81
3B
DF
A0
79
1F
07
42
65
8D
CD
58
70
C1
7D
55
CD
2C
D7
52
45
2F
3B
C8
6D
AB
27
19
29
75
68
36
AD
A4
59
AD
4F
F2
94
5E
D1
1C
12
39
82
E2
94
83
83
F4
ED
EE
0E
53
E7
DA
45
D4
C4
5B
27
A1
7B
C9
35
BA
AA
99
F2
70
90
97
4B
74
91
F8
8A
2A
09
1B
D9
A0
36
3E
10
12
04
64
61
07
33
6E
B1
9E
D2
62
49
0A
50
D2
0F
07
A0
4E
CE
98
DC
26
BD
70
EE
2B
08
93
8E
FD
BF
25
A6
0D
98
86
1C
AD
A6
74
55
A6
DF
CC
C1
71
BB
A6
3F
FB
68
EA
EC
84
16
FE
08
F2
44
49
4A
0E
BA
47
A5
E0
7D
69
01
FE
22
75
95
AC
B7
EA
DB
E9
56
13
43
40
84
D0
C0
57
F1
0A
A1
F4
01
8F
72
BC
80
E4
13
0D
14
29
42
A9
F7
DF
FA
A8
B8
59
9F
C3
16
F9
35
63
66
06
A0
9D
28
77
98
A9
72
82
C9
27
88
5D
45
AC
D6
80
A2
11
48
B2
2E
BE
FA
61
74
A3
18
A5
EF
82
AD
2A
94
8A
77
B6
68
C9
E6
B8
5A
11
97
34
72
A7
22
E3
0E
02
0C
A0
76
7A
D4
EA
8C
EF
66
CF
7F
6E
45
BD
21
F6
41
65
2F
FC
78
8A
B7
D8
07
C7
70
86
A5
B3
6B
2B
20
00
A2
4E
E7
0D
BE
97
23
DD
E3
36
E9
D4
D8
D0
2E
79
05
94
17
14
27
AA
CD
21
82
53
5D
E5
89
82
70
D9
87
0D
CB
68
6D
A7
25
0D
17
02
B4
F5
0F
AD
19
A7
08
BF
06
79
D3
45
4C
A2
F3
2B
73
A9
BE
4A
CC
51
EE
49
D4
93
3D
4D
5D
3B
E3
D8
BC
88
08
EF
28
E8
FC
6E
69
72
28
74
67
FB
84
33
BC
EC
E5
28
8E
20
25
1C
8D
30
D4
92
07
C3
0D
A2
E9
FD
BB
4D
99
72
74
57
14
6C
02
DE
45
DF
4F
82
A0
C5
81
B7
79
AE
4A
88
8B
6F
EA
85
68
63
F2
FA
AB
07
B6
86
5A
BE
03
9B
75
D8
27
50
1A
86
72
3B
D3
FA
82
09
8B
50
E5
90
EB
EF
D0
44
4D
DD
BA
3D
0A
81
B5
2A
A9
90
74
7C
BE
78
59
B7
51
03
48
00
09
19
BB
60
6E
4D
DB
F1
71
47
7D
67
0D
C4
A0
2B
76
84
F9
16
FE
7F
5E
3B
B2
04
C1
F2
81
5A
1A
37
5A
44
6F
34
06
02
97
26
D2
A5
17
8E
8A
5D
F0
C5
57
00
85
CF
DE
87
40
AF
57
0C
FA
C5
C5
D3
D7
06
39
C5
9E
6E
B3
F1
09
12
AF
B1
F4
B3
23
6F
38
9B
13
07
75
61
A8
9D
2D
F1
5C
70
21
2C
C4
A7
F3
52
44
4E
0E
8A
92
79
BD
B5
3A
FF
32
8B
E4
49
9A
9C
0F
88
AF
A3
7E
7C
76
DF
BF
10
DE
FA
78
6D
B7
39
B9
84
99
5A
94
FE
A1
5A
48
19
62
2A
38
D4
A8
C3
05
80
CB
AA
86
00
56
68
29
22
EF
D3
02
08
15
77
59
56
45
BE
79
25
44
C0
F8
E8
70
07
56
03
89
76
EB
33
41
C4
AC
92
71
5D
33
E4
23
6B
A3
04
65
C2
B9
DB
75
7E
61
ED
72
3A
94
69
A4
DC
01
F6
7C
C2
0C
2F
01
95
40
56
19
28
5F
BE
15
23
A2
25
54
6F
7C
33
0F
87
12
56
23
E6
AA
2D
74
8E
1B
D1
E6
7E
4B
5C
16
A4
A5
DB
BC
0E
EF
FF
F8
79
C1
88
58
AE
73
E6
14
51
52
31
A3
9F
3F
C9
36
5B
7D
41
6E
01
51
CC
23
1A
F2
25
90
7B
C0
9A
24
0F
F2
F6
BD
E9
A3
68
80
B8
4E
FE
60
FF
BD
93
5D
5B
CF
E7
E9
D6
4A
05
FA
A5
A4
B7
71
7F
3A
1C
75
18
E7
E0
C8
79
04
34
8A
2B
1D
00
5D
3E
62
EE
F7
C0
50
3A
1C
35
8C
AF
57
3D
17
F5
90
E5
2E
06
46
4A
68
D5
44
20
6A
9F
2B
5E
E9
4D
16
7D
9D
BC
E6
11
C8
B8
33
05
B7
32
FB
0F
B9
D7
88
80
0D
92
7D
74
88
1A
C1
07
AA
3E
1F
2C
E2
BB
BF
81
0E
3C
9E
0E
73
3C
2A
37
07
D6
CC
51
26
7D
79
04
27
2C
FC
6B
D6
94
37
55
A7
AB
60
96
47
DC
B4
85
0D
80
ED
BA
0D
5E
74
59
05
5A
07
44
20
2B
98
32
1E
E3
48
EB
9B
3D
EA
20
F3
3C
B9
69
9B
DA
5A
43
E8
4E
5D
9B
42
58
A2
22
16
6F
7A
28
BA
CE
CE
D3
4D
E7
47
0D
C6
D2
C1
81
F2
6E
0F
A6
EB
31
0F
02
19
CA
76
BE
95
28
71
37
18
B3
B4
CB
60
7D
A6
34
90
F2
4B
E3
F2
1A
65
61
EC
A1
09
6B
6B
63
11
FB
E9
BD
3E
0D
D1
0F
00
AC
95
3A
11
5C
48
14
4A
98
61
0F
14
91
4C
D0
BD
51
19
CE
F5
73
98
0C
1F
7D
2C
20
CA
7B
FF
B5
12
FF
AD
44
A0
7F
84
9A
21
42
04
33
EC
B1
EF
40
1C
2C
E2
2B
AB
47
C9
9D
DF
82
96
96
C3
BD
CB
4E
BB
8E
0B
E3
12
9B
6F
D2
65
61
3D
DD
6E
F4
62
0F
8D
1D
98
B6
C9
21
31
11
2A
1D
09
D9
DA
C4
F6
10
41
AD
C7
CA
D1
9A
F5
33
03
80
EB
AC
D4
3F
BF
37
8A
12
F6
5C
33
D7
4B
B5
17
D1
BB
08
16
C4
3E
F0
E9
58
DB
90
8F
15
FD
1A
53
57
9C
24
F3
08
11
15
1E
63
75
47
D4
F3
D7
C2
FF
8F
B6
A5
4B
FF
5A
62
E7
63
39
36
EE
FA
63
F5
C6
B0
D1
FA
EE
B6
A1
3B
EC
18
B1
A2
B2
86
F2
C9
5A
D0
1E
E2
D2
95
2B
80
1C
35
8A
CD
3F
D3
1E
2C
A2
82
BA
C4
48
8C
08
A7
4B
A4
8D
EB
2D
24
5D
A5
8A
F3
F2
F7
D1
6E
56
F6
54
FB
19
E1
32
4A
6E
17
13
EA
B8
03
ED
D8
80
5A
35
0F
D3
C4
C0
00
C2
6A
14
E1
B3
0C
8B
61
64
E7
B2
B5
62
94
0F
A3
54
64
D6
AE
62
9F
54
AE
D3
A5
49
29
96
5E
46
8C
D9
9F
37
A8
65
CE
8C
96
3B
F6
47
18
E2
38
55
8E
50
AF
69
24
1C
9D
D3
3A
D3
EA
D0
9F
A3
46
19
54
14
A5
5B
55
22
DE
B1
6A
53
AB
E9
47
8A
99
12
C7
72
63
54
30
B7
ED
EC
E3
2F
6A
EC
5E
2A
59
DB
0E
2E
6B
85
3B
B4
81
C2
C3
6C
2A
BB
D5
23
EC
37
B0
F8
FC
6B
8F
5E
93
2A
4F
9E
8F
B3
CF
EC
CD
5F
5A
61
02
15
FC
05
1D
BE
FA
B0
11
0A
26
A7
BA
54
D2
A8
C5
9F
75
F8
D3
84
8B
03
22
C4
03
2D
92
E4
A2
77
19
3D
43
71
22
EE
2E
BE
4B
0E
AF
B3
47
2E
C1
7F
F8
54
15
A2
38
40
95
C7
64
27
E7
90
30
1D
6D
73
09
4A
A6
53
D4
F6
BA
FB
F0
4F
6B
BA
68
F1
FA
4A
EC
BC
3B
A7
E9
58
95
17
9C
47
AD
29
DE
40
15
6E
67
A6
CE
F6
46
71
AD
8A
61
94
40
8E
E1
34
5E
59
DD
A6
84
86
43
23
06
3E
E8
09
26
D9
DD
09
0C
AC
D8
23
F2
A3
4D
45
8B
60
17
13
11
13
2A
5E
A1
A1
5E
D7
AF
81
FF
39
71
C7
F4
2B
D5
C7
7D
11
D1
C2
A6
E5
31
B3
5B
45
14
60
98
4C
84
F8
E8
E1
16
68
F5
39
A4
AE
32
29
AE
28
A0
61
93
31
FC
29
7E
55
98
63
53
66
11
06
6D
C4
7D
EA
D6
7D
99
62
9E
3B
05
F0
FE
36
A5
09
70
7A
AB
BF
24
E8
C2
05
BE
90
AA
BD
58
B7
85
79
96
9A
4D
59
A4
48
BF
B5
8B
EF
51
81
8C
22
4F
9B
57
A9
57
AC
B1
49
0C
E1
4A
C9
40
F8
7B
9F
A5
FA
F5
94
3F
84
8F
D3
0D
85
65
D5
90
A2
CF
80
78
75
7F
43
4C
17
3D
1A
0C
8B
BA
35
48
19
D3
3F
85
4F
23
ED
05
5A
5B
58
78
F6
87
B1
5D
D3
D9
A2
A4
19
E9
AB
38
05
24
3F
34
A9
A0
77
2D
BB
E2
3B
4D
3B
6F
60
83
86
44
49
21
C7
41
8E
C1
FB
AF
97
BE
6F
DD
1E
BC
04
1D
7E
D0
0A
68
74
29
74
75
D7
4D
FA
92
74
3F
B1
AB
B2
54
79
3D
03
38
41
10
F1
A2
20
2C
64
F8
45
36
A0
24
B1
5A
82
B1
72
C3
9F
78
55
B4
1B
1D
A6
D9
5F
90
3D
A5
89
A0
12
21
22
8F
5D
C8
D1
8E
81
6A
72
8C
BB
AD
60
E6
D9
42
99
02
EE
46
5A
17
44
5A
B9
96
47
BC
56
3A
6C
7A
D3
EC
EA
4F
EC
EF
80
84
41
36
69
7B
0C
40
99
C0
3D
9F
82
F0
71
E0
7D
B7
90
3B
CA
BC
43
EF
5E
E6
90
9D
89
D0
E4
41
6D
CB
37
91
E1
96
18
3A
C8
64
96
34
50
54
69
3F
84
8B
58
78
1A
25
68
76
24
AA
A3
1D
D1
6D
E3
11
E8
81
4A
04
94
2A
37
44
6F
A0
97
87
DD
17
A5
88
F7
AF
C4
9F
70
68
22
77
AF
EB
FA
8D
C0
37
F4
8C
C1
3B
E9
11
D4
CF
97
43
EA
E7
80
71
5C
52
A0
15
72
04
7D
5C
42
B6
17
76
76
51
2B
1F
DF
DB
7F
6C
02
43
5C
E7
3B
56
B5
2A
0A
4C
A5
87
68
4D
C0
49
D9
14
D0
D8
4E
3D
0F
BA
9B
4B
4D
8A
59
07
57
9B
80
1F
48
E0
9F
C5
49
26
3C
9D
C7
19
6D
B3
1A
47
EF
8A
61
65
EB
CA
5C
19
9A
87
D1
1F
3E
A0
4C
2D
2C
4E
FE
9B
8A
6E
A2
F3
90
CB
FA
86
1F
20
E2
22
DA
A5
A9
C1
81
70
74
15
F9
0D
60
F1
72
25
BF
95
F1
C3
10
79
EF
60
25
02
3B
F0
BC
2D
84
1C
E5
B1
0F
5C
FA
EC
72
10
27
07
6E
67
11
03
8B
2D
31
0E
35
94
01
2B
36
41
1B
ED
48
EF
D4
F3
27
47
4F
A6
A4
2D
1A
77
C5
6A
8D
4B
3E
E5
14
9C
2E
ED
FC
C8
C8
0B
E9
E9
2A
1A
CB
E7
18
5E
14
BD
3D
64
61
D3
42
30
1D
9B
DE
72
AE
09
8D
C2
32
16
8D
F5
31
DB
43
D2
66
E1
89
CC
A3
04
52
CB
9F
51
70
2C
18
76
B0
DD
50
05
4F
C1
9E
7C
16
86
A8
A9
9F
6E
83
2E
C5
F7
60
D6
EC
28
1D
1B
60
D2
59
E8
A7
2B
A6
0C
5B
AA
1B
F1
91
51
72
18
7A
0C
0A
06
DA
94
37
C1
80
D4
D5
4F
62
77
5A
B9
C9
52
7D
41
67
FA
7D
23
74
18
90
01
19
70
17
70
E0
49
5F
25
E5
25
F5
C9
86
01
23
0D
48
62
AA
9A
26
17
73
8E
BB
3F
1A
54
EE
9C
3A
8B
18
A7
D2
72
65
72
D6
AA
F5
92
52
60
2C
9E
FC
B8
DA
C7
98
E7
CD
9B
E3
55
D5
F2
46
65
FB
3C
87
EB
7D
C0
BB
F3
3D
CD
A0
AF
1D
17
B9
BC
28
B8
F2
51
B8
52
8D
2B
0F
E7
89
B3
4C
AD
3D
BD
93
7A
A3
0C
32
3A
38
BC
58
60
31
13
F0
6D
D3
52
D3
FB
D3
1A
9D
40
1F
81
8B
E7
F6
09
68
48
9F
BB
2A
BC
88
58
27
FC
E1
12
AE
AF
86
8E
22
E3
19
66
0E
0F
5E
2E
75
85
D9
F0
C8
F3
6C
97
68
72
CC
0F
4B
69
7B
50
6D
F7
80
BB
A8
EF
26
CF
E9
13
4F
D1
62
5F
5D
B0
CC
CA
67
83
7B
EC
D0
C1
FA
F9
F7
B0
A4
B1
2E
70
73
A2
33
9E
A9
D7
BA
41
F2
60
94
35
61
CE
A6
01
44
4F
15
3C
11
AB
0E
0E
D7
C7
37
FC
E5
BD
05
FB
B3
68
C3
3B
4E
3F
5A
6F
21
77
4D
2A
12
32
B1
5C
2A
5B
FC
E1
44
96
54
A7
8B
35
80
DF
91
F0
AA
D4
EB
3B
84
1D
77
5B
AA
3E
EC
4B
09
17
5D
7A
CE
FF
EF
DE
F4
AB
E3
77
19
0D
90
9A
2C
1B
B8
BE
93
