44
9B
4F
7C
9D
1B
7E
3A
77
A5
0C
07
57
4D
3A
FA
BA
81
65
81
42
6E
2B
88
4A
D8
C9
F6
2C
12
C3
22
03
5F
5B
62
99
DE
6B
19
9A
A4
FB
09
AD
1D
78
35
F5
B7
EC
07
6A
91
F6
EC
BF
19
53
63
DA
BF
05
6A
E9
64
F7
28
32
2E
3B
65
31
67
FA
05
05
49
2E
50
3A
37
97
C1
7C
D8
A5
25
8E
C3
61
75
F4
D0
E3
7C
DE
D3
08
00
F0
E4
64
30
F9
5B
D9
82
5C
C7
73
C8
99
7C
FE
0B
11
C7
0C
B7
5F
0C
B3
46
D5
AE
EE
97
25
69
FC
B4
D0
58
4E
E5
56
6D
0C
10
57
F4
50
95
31
E3
DE
D6
07
37
8B
77
A8
57
FA
00
85
89
22
57
44
D9
2F
3F
AB
3B
C1
F0
78
E3
AB
BD
3F
D7
2C
15
9C
14
F7
50
9B
A2
4E
EE
8A
9E
15
1A
78
92
A3
D3
36
79
B5
12
65
E3
C5
36
75
E3
51
9F
D1
E7
55
03
99
78
2E
FB
85
F5
A1
03
03
E5
AA
30
6B
02
53
D4
72
83
E7
CA
1C
63
6C
BB
3A
0E
6C
E8
7C
F8
E3
5A
61
6D
96
F1
10
85
C4
B2
6A
72
CB
F5
2A
37
2C
65
F4
60
7E
85
4F
0B
F1
F3
C1
D9
30
FA
A1
C3
90
F7
F6
14
DF
C1
07
22
8E
64
8C
4C
63
29
69
49
AE
DA
1A
99
EC
B7
4F
AD
75
7B
85
01
D6
DC
E7
83
55
1E
0C
B2
E3
2D
EF
BC
25
F6
3F
07
CD
CC
BD
9F
E3
B6
E2
35
7E
8D
92
E2
D4
F3
CB
8A
84
65
4F
CE
0A
3A
7A
13
B8
21
2A
7E
1C
E1
C9
05
84
DD
58
DC
0C
CF
93
0E
43
28
5E
DC
59
AD
C3
41
4E
4F
AB
E9
01
A0
96
6C
40
4A
01
66
09
51
77
FD
14
DF
15
4C
00
D1
22
43
45
1C
C3
D3
4B
CE
44
30
08
4A
80
F4
09
02
C3
80
4F
4F
8B
08
B0
EC
BB
2D
FD
3F
1A
89
7C
71
37
69
D7
83
E9
52
AA
8D
16
0E
1A
89
98
F6
3F
41
14
E1
5C
5B
3C
80
16
BE
3E
ED
91
5A
79
67
9E
13
33
38
1C
D4
57
0F
65
DF
98
18
0F
CA
EC
76
FF
D3
36
B5
CB
4E
2D
B7
4F
37
1F
0A
EE
E9
36
E2
2F
CF
15
1F
BF
43
49
F6
29
10
E6
CB
76
A9
B4
BD
DB
C6
CE
E3
9F
D0
CE
84
57
D2
83
A9
2C
C7
DF
5D
26
76
16
27
C7
C2
76
EB
B9
FB
45
93
0E
30
D7
B7
65
C9
53
65
A0
16
F9
BF
0E
C6
64
4F
EE
B2
53
59
72
BF
CB
00
4C
5E
A0
40
8E
26
1B
3E
AE
6E
87
71
9C
37
00
63
F9
07
A4
0E
C8
76
3E
9A
73
42
15
CA
95
43
08
C3
5B
75
15
6B
D3
30
8C
FF
99
B9
58
14
D9
58
AF
82
04
93
11
C2
17
8C
72
6D
CE
AA
CB
D3
E4
FD
A7
B3
EC
C6
90
1F
09
AA
8E
55
B9
DC
69
C8
01
33
0E
25
5A
50
CE
97
82
0B
3E
DB
BB
89
F6
E5
58
20
A6
52
11
D7
0C
9E
03
90
50
AB
4C
FD
1F
8C
E1
C3
88
89
B7
E3
27
50
BF
F0
93
7A
18
5F
D9
FC
0C
04
9D
12
44
2F
82
4F
B2
F0
79
5D
94
57
94
70
92
9A
D8
B3
11
6E
53
73
F6
DC
B0
15
B9
D4
73
02
8F
D2
D5
2E
B1
1E
D4
35
60
2C
BD
19
24
BC
FC
87
5E
7C
E0
6D
0D
88
73
B3
EE
1D
25
C9
B6
49
FC
96
A1
AE
8E
6C
29
7E
F9
9F
2C
F3
F9
00
C9
4C
6D
4B
18
23
B3
D3
98
98
CE
C3
DF
BB
2D
65
10
6F
18
5C
DA
A1
E1
9E
BB
29
09
A7
A9
13
62
28
DB
3B
CA
95
28
3C
0A
B6
11
06
54
C6
84
D4
94
19
BF
D5
D5
9C
C0
F2
AC
52
85
F9
86
6B
FA
4D
F6
79
AD
22
D0
4E
B7
43
BF
F5
41
3B
7D
0B
A7
47
3F
16
50
DE
01
99
18
47
4B
BB
2C
ED
78
B8
32
09
29
B3
6C
6B
D1
63
4A
ED
35
98
F5
0C
FA
EB
B4
36
4A
95
15
0A
0F
63
85
6B
C6
36
BD
57
2D
4E
53
20
1F
97
73
22
0E
3E
3D
D0
2B
D6
2B
18
90
ED
9B
EC
A8
62
DE
D4
35
75
EE
75
EE
19
1C
EB
2B
92
BC
7F
61
82
58
A6
04
9F
79
51
6C
A8
7A
1A
1A
8F
EE
E4
73
41
EB
66
56
5B
18
A5
67
C2
9B
BA
FF
DA
CA
49
7A
57
A2
C7
CD
08
7D
4C
4E
93
43
1E
2A
B0
25
E4
60
03
02
00
F4
84
7D
03
0E
61
9A
70
01
B3
41
9C
B3
56
DA
A4
E6
15
2C
06
74
0F
86
61
AB
40
D0
1D
B5
FF
F7
0D
11
61
89
20
02
49
76
99
86
E4
74
30
AA
E6
03
E7
D1
BE
96
75
EB
66
1A
62
A5
81
8B
C0
A4
95
61
37
B9
64
D1
E7
A0
BF
4C
71
6B
F9
DA
D5
BA
7F
61
0C
5E
3E
67
32
79
79
0B
D2
0A
3E
EF
70
43
12
8B
D3
7A
A3
0C
33
92
B7
66
CF
96
F7
F2
CE
D2
12
FF
6D
18
DC
94
9C
0F
D2
F6
BF
B5
1C
B6
4B
F2
15
BD
E9
48
6B
78
41
80
A6
76
92
29
DC
D1
53
92
EF
47
2E
E0
91
24
2A
A1
EB
CF
44
4F
47
61
2E
EB
5E
DA
32
67
BB
6A
CA
B6
05
32
3F
91
D5
7D
62
21
3E
71
4E
58
61
9D
6F
7C
3F
1D
8E
2C
A0
13
98
85
9E
86
96
14
88
F3
96
85
BD
96
98
50
2A
C3
4F
E6
73
E8
FE
D8
BF
7C
D8
44
59
6D
6F
44
5C
75
42
93
6E
B2
EB
BF
B9
6B
00
0F
06
53
58
32
BB
5C
60
68
F6
02
0E
A4
6C
1D
92
E7
35
49
34
C8
66
8C
7A
C4
9A
2F
6B
A9
05
B1
DC
B8
FE
39
38
41
D7
FB
1A
08
E1
0E
00
6A
5F
C7
8D
63
8A
3D
EA
55
9D
52
83
3F
7B
08
D8
D5
5E
09
48
CA
46
D7
BD
54
05
7F
3D
94
0A
F3
8B
91
FF
9A
71
B6
32
6D
E2
9C
43
49
48
97
80
D2
8D
49
62
B9
14
6C
DF
D8
88
90
C3
69
E0
11
89
09
32
29
36
97
BA
EF
01
8E
2A
D3
AE
2C
4D
64
08
9F
EA
2C
82
70
99
51
34
ED
53
10
06
86
33
48
C8
40
5F
0D
8C
E6
E3
B0
CD
83
C2
9C
80
6A
1D
DE
22
BD
56
83
78
FB
00
22
CF
F6
72
B2
51
5D
DC
71
73
DE
93
FC
5B
A0
58
F5
F6
26
92
91
91
5E
A7
6D
EA
19
55
FD
9E
A6
59
57
C8
C6
50
47
1A
02
9E
7C
AF
4B
1B
1D
C6
82
E2
AB
7E
E6
5D
34
41
3A
3B
89
7B
78
19
56
61
7C
67
B3
A1
3F
C4
B0
A0
46
FE
8A
C0
5D
F7
C1
C0
59
DE
B9
CC
56
F8
D9
3C
8C
90
A3
4C
75
DD
A0
B4
41
84
D4
9E
13
0A
30
50
47
14
08
BF
97
05
90
04
0C
0C
44
B0
44
C6
39
8C
FA
04
B8
3A
6A
22
3D
CE
54
30
DE
89
BC
77
33
AB
16
6A
BC
0D
1C
9B
27
4D
92
EF
A5
76
A8
6D
AA
DC
01
75
3E
76
F0
06
92
28
4E
4A
E3
8D
93
C8
31
FD
DA
8F
A0
FE
B0
02
8C
BE
A7
1C
4D
37
0B
C3
F7
93
08
9C
60
9A
AF
E4
BD
C1
84
91
53
38
63
B1
66
EE
0E
DA
26
2E
C4
FC
0C
84
75
0D
28
27
A4
39
38
F7
BA
1A
B4
AA
8D
A9
EC
E1
A8
91
0B
1D
14
9C
0C
06
0F
88
77
E4
43
EA
C9
13
3D
75
60
59
07
28
38
FC
93
65
27
D8
75
C0
75
CF
63
6E
4F
0D
7A
91
7F
82
BD
91
AC
80
50
46
22
16
88
00
02
91
74
79
77
CF
BD
42
04
62
72
55
D9
FA
AD
84
DD
4D
6D
94
68
30
BD
35
EE
F9
9F
2A
02
1F
F7
C9
2D
10
54
B6
36
5B
4A
C6
4A
25
07
2D
D7
14
BD
37
D5
13
42
3C
BF
B3
08
9F
EB
15
8F
7E
2C
E7
4E
0C
99
9F
32
EA
4C
8B
CB
7B
C0
E9
32
36
17
EA
BF
03
FE
E9
EC
24
C9
15
D0
EB
22
4E
4C
C2
17
C6
E0
F9
1B
9A
28
80
E3
85
E7
38
CF
BF
6A
E9
E7
6F
46
35
16
13
2A
D0
86
EE
05
62
19
6E
A3
96
5F
CF
89
2D
0B
92
F4
35
47
54
0A
5A
84
B6
99
3C
69
A8
AF
70
DB
9A
C6
A0
74
27
BE
11
C4
EB
76
D4
B0
1E
06
94
19
95
66
6A
84
70
FE
98
15
FA
1F
42
CE
8B
2A
BD
0C
79
F4
DD
9B
AD
77
07
A0
2A
55
AB
6A
96
8E
8A
16
BB
B5
72
60
57
8B
0D
EA
06
E7
7C
11
30
7E
B3
11
16
4D
67
48
C4
80
96
A0
23
53
55
9F
07
3E
EF
BC
FE
EE
7D
B5
27
DF
B9
10
38
A1
92
12
26
F3
EA
DA
AA
03
3D
45
71
89
E8
E2
A3
40
CB
77
5E
C5
9A
64
22
8A
7C
21
6A
1B
87
53
02
84
55
98
73
B4
8E
C3
9E
58
1B
49
E3
73
FA
C9
F4
24
3D
57
51
EE
C5
54
17
04
F3
0A
3E
34
1B
5A
03
1B
4E
8F
15
47
C7
4F
E5
64
56
1A
3E
E7
53
67
F6
A0
04
49
54
98
1D
BE
04
7C
66
43
51
7D
63
F2
BB
C4
8C
92
5C
87
09
FE
F6
9C
9E
1B
E1
E7
EA
D4
80
DA
A9
7A
06
51
AC
EE
2F
17
D6
CD
B6
A1
FD
A0
93
28
37
EF
B2
00
E2
89
E5
D7
1E
52
E9
15
79
1D
57
FE
D9
15
14
0A
85
02
C7
17
28
64
97
C9
30
68
E0
89
F9
D1
35
48
76
26
10
64
98
24
65
DD
24
B1
9A
08
8A
A1
20
DD
FF
4A
3D
04
F8
75
07
54
9F
67
64
F5
7B
A0
38
55
6E
1E
2F
48
10
7A
26
C5
49
35
6C
3B
8D
AB
87
9A
9A
21
14
52
D7
F1
28
B2
0C
C6
83
31
FF
79
03
3D
18
70
F8
2A
6E
F5
4B
69
08
3D
19
FF
51
16
98
C9
7F
2D
6E
1A
E8
37
5B
C1
99
86
3E
F5
30
75
AC
FE
0F
7F
68
28
E8
1E
95
14
9C
36
DF
5D
96
FC
DC
80
41
E8
EF
DC
15
09
2F
36
68
BB
5A
26
73
81
89
7C
AD
E5
8C
A0
C1
0E
41
0B
3A
02
67
4C
CB
2A
73
1B
9A
9E
E9
9D
7E
C5
F0
8B
B2
42
2D
0E
E5
37
C4
2A
17
3E
EB
85
44
CA
14
5E
7F
0E
FF
1C
69
6C
36
59
43
73
72
0A
E6
5B
62
71
B9
89
14
71
E5
A5
B5
86
30
CB
6E
14
AD
00
78
52
F6
F4
26
AE
67
47
82
38
4A
AF
B1
79
EE
31
8D
5A
DA
8C
57
C9
16
0E
5E
3B
63
34
58
F3
82
AB
DB
BC
52
07
3A
24
EB
49
8D
66
EF
2D
FE
73
E7
44
B5
02
5D
71
4C
12
28
92
E8
E9
63
EE
F7
DB
5D
A5
D4
28
1B
7A
BD
7E
9E
8A
64
A2
AB
74
1A
CE
28
2A
61
F1
49
13
4D
D0
F7
93
27
EA
95
