<<<<<<< HEAD
BC
03
22
BE
17
88
A3
D8
93
21
ED
6C
24
BB
F6
A0
03
32
8F
58
DB
EA
3F
BC
6B
65
FC
5E
7D
8D
89
C4
13
9A
D6
FC
BB
83
3D
81
97
98
44
0A
31
BE
15
8B
B0
C6
F5
DD
B2
3B
95
83
5F
12
24
94
68
FE
8A
96
A3
19
49
70
F9
64
86
07
74
7C
AA
B9
61
7B
40
65
FF
55
96
7C
E3
2E
2F
9B
41
AA
98
DF
4E
69
04
99
A1
65
94
E6
A3
2B
FF
CA
05
E7
F5
6B
26
B1
AE
A7
A9
2F
DE
46
F2
72
FC
FD
72
45
A4
97
B9
B0
AA
48
F5
A4
90
E9
7C
52
F1
5B
0B
F5
ED
35
82
CE
43
62
EC
BC
7A
9F
11
82
3F
77
27
EE
AD
A1
14
F8
03
D6
8E
4B
AD
BB
E0
DE
5C
3C
62
6B
AE
21
19
F3
A7
C6
07
4E
40
B7
63
68
C2
67
EF
5A
B6
E8
DD
31
13
9A
10
5B
60
D0
64
A8
8E
3B
66
05
7F
9D
7B
85
86
38
33
A3
66
4E
DC
0C
7B
2C
33
A3
B7
9F
A3
81
DD
A7
7B
30
EC
86
A5
91
17
D9
E6
CC
13
6D
B1
DE
6C
B9
3E
3C
76
21
E4
A5
C6
CA
73
7E
F8
E2
BE
DE
A0
67
3D
16
25
73
FF
82
71
A7
FC
C7
D2
31
E2
39
AF
5A
06
7A
25
5E
9A
78
87
86
5B
68
04
6A
D5
6B
4C
7B
0D
86
D9
D3
C6
79
48
2D
E4
26
CE
BB
FC
97
17
63
55
2A
F1
C4
84
0E
BD
F6
FD
F1
D2
02
B6
F4
A2
3F
81
11
89
6A
3D
F6
40
22
DA
5E
39
7B
94
19
28
6B
F5
C8
E9
04
E5
92
53
CA
4E
1E
83
42
94
AA
07
95
89
5A
A2
C2
D6
5D
54
AE
39
9F
19
23
77
D7
8F
30
A6
15
0A
89
84
63
73
9E
40
78
17
37
0C
EC
D0
52
FF
5B
29
2F
07
FE
1A
5D
64
82
DC
E4
9F
FB
8D
BB
7B
B7
7F
A7
AF
42
04
D2
6A
4E
F0
26
64
62
2B
50
03
09
B9
70
DD
9B
70
CC
C5
2B
84
9D
6D
D9
BE
F7
F5
E6
5D
15
12
17
5C
DB
1F
0A
E6
E1
88
EA
1D
1E
0B
F6
B8
CD
8A
F7
5E
BD
2D
3B
55
81
76
AF
D5
51
0F
9C
95
F7
80
D4
08
FD
3E
62
F2
6A
6C
7C
40
7C
76
A7
EE
FB
F4
D3
57
1F
14
CE
FC
AA
9D
C2
A5
B9
0C
D1
79
A2
A1
DC
B0
52
03
05
7C
2A
9B
83
40
FF
65
04
C6
E1
F9
05
D3
FA
DE
F6
6F
6D
3A
66
F8
A7
F6
20
88
29
7F
4E
3C
21
1A
3F
3A
03
44
1F
D6
AF
18
26
4C
8F
82
D8
D0
17
60
A9
03
87
C3
68
84
07
18
8F
27
B8
93
67
AD
D2
A1
F3
E7
E3
99
5E
B2
35
F1
8E
C8
93
D0
8D
C8
B9
B2
76
96
DD
B4
D7
FA
E4
CD
BB
11
FB
DA
0E
BB
74
51
70
57
68
5B
52
86
71
B2
47
D8
D3
AE
56
24
9A
FE
17
B8
C3
EE
6E
66
97
03
CB
D2
92
86
A3
7C
CE
6C
81
BF
F4
A2
D0
FA
79
2F
4C
52
33
FE
E9
01
FF
48
BD
F8
1B
47
87
39
0F
73
40
9D
DA
AC
9B
CF
00
50
1F
6C
70
50
09
E4
A3
70
F3
D2
D8
E0
3A
66
4C
5F
8F
A1
E4
47
B3
89
3D
92
38
FD
0F
3E
9E
D8
4F
25
BF
2A
E2
42
55
8C
41
BA
09
C5
72
44
DB
E1
07
0C
B4
AB
82
AE
63
B6
F8
ED
5D
68
A0
BC
C6
82
38
1E
69
27
ED
F6
5F
E9
BB
CF
CA
E4
04
71
84
39
C3
DF
69
12
7A
15
D0
E3
ED
5C
8D
0E
B0
D5
16
D2
07
AA
52
03
B9
42
8F
3E
DF
92
6C
E1
54
6F
70
03
98
66
42
E3
DA
2D
36
66
08
9B
EB
02
35
ED
AD
D3
A2
F8
6D
37
12
DA
51
46
5D
43
7B
AA
11
79
F7
94
4B
0E
41
D7
F0
E2
AF
26
E1
A4
89
C5
81
80
B7
C2
75
C2
3A
CF
68
6E
65
55
18
17
BD
95
CF
1A
AD
A5
D3
27
B0
F8
D5
BE
37
32
0C
BC
78
0A
55
A3
3C
0C
BA
E1
F3
90
B1
DC
B7
1E
C6
17
4E
68
C5
17
2A
44
5A
E9
2F
97
A7
03
4C
25
D3
42
EF
CE
26
21
41
02
84
B8
DF
39
E0
B0
69
9A
76
D6
19
02
8A
B4
8C
9F
0B
F7
1C
50
48
73
5A
3F
4A
16
C1
DB
6C
6C
AB
56
EE
44
42
9E
09
5E
93
4E
64
FD
E0
BB
20
B4
90
F4
8B
3D
DF
FA
C3
A8
92
32
88
38
C3
00
00
FC
7D
26
97
F8
0E
A4
6A
BB
62
B3
0F
10
32
F2
CA
AA
98
78
DB
18
FE
AC
11
FA
E0
59
AC
FC
C6
68
79
82
7D
7A
68
CE
9C
88
8F
1C
FA
B7
E2
74
8E
E0
A0
EA
77
CE
38
9F
29
4A
B0
19
BB
F2
B6
7B
75
D6
40
8F
24
AE
E1
18
F8
8D
02
35
8F
37
BB
9B
9A
33
B9
48
A4
80
B2
77
CA
20
89
37
E7
AC
C0
40
CF
0B
D6
5C
DC
0D
77
F8
81
46
D2
55
A6
C9
DF
4F
39
E4
D7
A8
69
14
34
F2
29
2F
7C
6B
65
9C
20
B2
AB
68
55
75
1A
17
49
E8
8E
A3
CA
C6
74
15
88
CD
02
88
73
9C
2D
B4
82
52
11
F6
2E
92
C2
12
D2
C1
93
DF
DA
A8
CF
91
67
AC
71
EF
E1
0E
FF
FD
7B
82
13
60
77
8A
10
6C
03
B4
0E
61
13
AD
AB
E4
68
1D
92
48
63
38
88
D4
A5
E7
A4
B4
CD
91
5A
F8
03
90
23
CF
98
1D
CD
3E
B4
66
03
E3
FF
0C
70
67
EF
5F
9A
FA
C4
F1
C1
34
60
DC
86
DA
65
ED
78
47
B5
5D
84
DA
D3
51
AD
C6
79
0C
8B
B3
2B
AA
74
A5
AC
D4
77
CC
07
5D
FA
4C
C3
94
BA
56
34
6F
C6
A2
0B
36
36
25
57
50
9B
87
A5
A7
6B
B5
82
D2
B5
0B
3A
73
1A
79
9D
8E
40
87
AB
C8
74
1D
E9
B3
7C
E4
77
C9
CA
85
82
6B
8D
07
C6
DE
99
53
80
34
32
97
1F
D6
B9
DC
0C
7F
A9
56
A0
B3
F6
EF
08
9D
DB
49
47
A0
D1
18
8D
38
07
5D
DA
33
79
2C
70
88
8A
AA
ED
B5
86
D4
D6
6E
F5
13
FF
00
4C
22
29
2B
24
C7
CB
E2
8A
64
06
4A
B7
F4
C0
61
34
F4
72
CF
0E
2B
37
08
65
CB
3C
1F
8F
04
56
0E
87
B3
0C
8B
F8
36
77
21
77
CB
14
4C
7A
AF
07
29
D7
19
FE
88
9A
CC
71
69
D2
FC
27
5E
B6
2E
81
86
28
09
FD
43
12
06
1E
92
04
2F
FA
E9
A1
47
2B
DD
A9
37
CB
9E
E4
0F
5A
7F
F1
CF
A8
A2
30
FD
C2
B8
29
EB
93
54
27
D0
81
BC
D4
B8
DD
9E
89
4D
A3
52
B5
18
4A
5E
66
34
FC
B4
F4
B9
77
1F
01
9C
C4
41
57
90
9E
BA
50
32
6F
73
C7
43
69
89
04
4A
72
81
C0
6F
6D
C1
D8
67
9E
3B
89
8D
54
D7
5F
55
AA
10
7F
71
90
5F
97
2E
80
8F
40
BF
D9
0F
A0
15
A5
2D
5D
97
33
A6
39
06
06
F4
00
37
EF
9E
C3
FB
6D
6A
0C
68
B0
57
7C
68
47
80
08
C2
D2
8A
93
11
21
76
83
62
8E
54
E1
7B
19
03
68
8E
C7
46
CD
6A
9A
99
B5
25
04
6E
AF
0A
86
E7
78
5A
6A
DF
3B
29
A7
D3
31
25
06
DB
EA
61
94
E0
E9
DA
55
43
1C
B0
05
2D
43
55
2D
F8
F4
10
FD
E1
53
32
19
EF
07
9B
0A
42
A1
EB
F4
99
EB
C1
F7
87
A3
6F
99
05
E6
C3
8C
CF
37
89
BA
17
97
91
F6
AF
AD
BB
50
E6
7D
60
1D
5D
4A
A5
64
AC
69
8B
7D
0C
0D
A7
3C
C4
9E
64
2B
18
BE
D2
18
93
B0
0C
0D
75
04
D5
2D
51
63
16
9E
6E
E1
29
CC
51
4B
31
35
41
A4
73
AD
C9
4F
73
96
F6
87
03
8C
2C
EB
C3
1C
71
7D
9F
79
AE
10
FD
54
3E
A7
24
EC
4B
12
19
C8
EE
C1
9E
12
CC
9B
E2
6F
71
74
D5
47
6E
EC
B3
A0
F8
86
95
59
B6
CD
BF
A5
CA
0E
4D
C8
92
54
00
D8
22
70
15
FE
E6
23
2E
53
34
95
9C
3D
19
9A
F2
AF
92
5F
B4
1F
38
3A
87
53
AB
9F
0E
12
E1
65
50
05
22
5F
D0
E8
71
6C
C9
C2
7C
47
AC
30
80
FB
F0
0A
33
73
3D
D2
54
DB
59
DD
DC
ED
6C
8B
C5
8A
60
1E
A4
67
EE
13
40
19
00
2C
B2
40
98
F4
80
A3
FD
79
DA
D8
38
3F
14
BB
E5
BC
B4
B7
11
DC
0F
A6
95
23
EB
21
37
2B
7A
7F
A8
70
3C
00
9C
DA
35
24
9C
7B
A7
F6
62
03
19
5A
58
36
4F
0B
04
83
DB
3B
95
1D
40
30
FA
C4
63
AE
1F
D6
49
C2
4E
EF
BF
96
A1
80
AA
78
C1
E8
10
7D
AE
03
78
EF
D2
D1
BA
2E
90
CD
16
82
60
E3
86
4D
15
FB
AB
0F
00
33
B4
FA
1D
9B
46
4D
C0
48
6B
08
F3
80
4E
D7
F9
49
A1
DC
DF
E0
2D
9B
86
60
EC
23
D8
F3
C3
A9
B0
64
CD
54
29
C1
4C
47
5D
C0
66
7A
FD
71
69
4A
FB
F0
6C
45
F5
7C
6F
C9
36
AD
39
E2
24
D0
4D
0A
08
5D
4A
1C
67
19
29
A4
2C
F0
A5
A1
BB
6D
43
8B
8B
46
B4
84
E5
A0
20
42
09
55
46
70
14
37
37
2E
68
B3
68
BC
A1
A0
C7
C4
EB
C3
64
4C
75
EC
FF
62
ED
ED
32
59
5D
FF
49
EE
6D
34
AA
B6
4E
08
78
99
49
CC
8E
82
4F
3C
A5
5A
11
BD
8E
49
70
4F
04
D7
54
10
DC
20
2D
66
52
0E
21
63
B5
90
04
3E
32
51
63
48
09
CA
17
34
8B
15
F3
4D
F5
A3
5D
F4
03
68
A2
FB
5E
3B
24
EB
91
0F
8D
A4
4F
B3
07
0C
E7
9F
B9
B7
23
73
BC
56
18
9D
03
FA
D6
D0
B7
67
CB
4B
90
60
61
0E
30
3D
A3
65
45
CD
64
D0
FD
A0
C2
6B
3D
6F
08
FE
EF
A3
14
E8
1C
D6
26
DE
6B
68
DE
DA
74
F9
65
44
08
59
2D
0C
C1
F9
41
90
8A
05
5A
FA
B5
10
A3
BC
7E
17
CA
0F
64
D2
6E
F4
52
AE
51
91
74
A5
7A
68
1B
E1
C0
36
B8
A5
BE
61
A4
83
62
8A
DB
20
22
6D
08
8A
9E
AA
72
A6
9B
CD
4D
41
66
FA
83
FB
80
8B
93
C4
18
F1
6C
E9
2A
9C
75
C0
E5
DD
6A
70
53
22
9F
96
C2
07
3A
0A
BE
2A
71
36
32
44
BF
5C
81
2F
D6
18
D1
50
8E
D3
7D
F0
71
10
EB
71
95
B3
FC
ED
BA
97
BF
8B
97
75
C9
83
35
D3
44
22
1B
0E
08
8B
BB
DB
01
F9
48
6D
A1
EF
AF
76
BB
04
12
78
E5
00
C6
C8
BC
D0
B5
ED
9E
BD
66
F2
09
38
1E
A4
71
8C
71
46
4B
7C
C8
4F
A3
BA
E0
65
F5
41
7B
86
54
68
75
EE
4D
E5
42
CA
FF
2E
F5
BD
18
3B
C5
9D
2F
3D
11
08
40
FB
7B
0B
B4
85
21
1F
42
3D
5F
9F
F5
DD
11
A2
59
3B
15
4F
91
6F
26
E6
88
C5
64
5E
25
AB
AD
9F
56
1E
0D
C5
94
74
4F
22
F8
72
99
CF
40
73
A2
1D
94
C5
7D
66
1A
91
1C
D8
69
9D
78
F2
7A
51
A9
23
C5
F0
0D
68
F6
EB
2D
85
FF
0B
97
C5
2B
42
80
09
63
61
DF
7B
1B
C6
A6
14
AC
AD
C4
E5
10
04
1F
AC
7E
0A
63
E8
7A
31
6E
B0
A7
F2
60
16
F9
89
6A
57
F3
06
BE
EF
82
33
32
37
4B
40
56
D3
E6
50
4F
D0
CB
56
93
CA
C1
13
94
37
F7
EC
6E
33
2D
49
C2
8A
D5
4A
1C
CE
D6
88
DC
F7
9D
4C
A2
D9
44
A8
D9
25
88
C1
05
4A
54
44
DD
F0
0A
51
C7
F3
44
14
D2
2E
67
8D
11
2B
80
59
18
6A
37
90
9F
30
75
90
2F
C3
83
3B
F1
75
FC
DC
7A
E6
1D
A3
49
49
0B
83
31
AA
F7
BB
59
3F
22
AB
EF
1A
4C
4B
2E
A5
B3
7C
09
AC
9E
15
A6
A6
65
67
AB
A2
EA
8C
13
D3
56
8B
46
CE
C3
F2
EE
6A
33
7F
43
D3
4F
B4
B5
12
86
8E
42
DE
15
00
0F
46
DC
85
04
6A
4A
A3
E1
FA
B7
3D
A7
B2
E0
66
A4
98
39
0E
AC
44
5C
54
B1
B5
BF
80
D4
FF
FA
33
E2
01
66
B4
E2
2C
8B
21
A9
84
06
DC
96
02
7F
7A
9B
09
FA
53
18
26
36
12
B9
91
E6
90
9F
C6
69
A3
B7
EB
3D
6A
60
72
EF
50
EA
F7
59
60
8F
72
E7
A8
61
8A
C8
61
7C
F4
E8
E8
4C
75
61
31
6D
EB
EC
A3
EC
F1
4C
75
AA
4F
B6
B1
71
AC
76
D5
84
35
80
53
B3
C5
72
01
08
E3
24
BE
55
13
E6
01
8C
E3
D2
5C
DC
D3
F5
67
E8
BE
A4
B8
7B
6D
7C
0C
00
09
50
A5
97
98
BF
D0
37
93
D9
72
F3
16
D5
88
5D
C9
3D
2A
5D
56
47
FD
6C
04
BC
A3
F6
16
7C
21
B8
8C
A0
BA
27
F6
41
6E
96
DB
1D
B3
A8
CE
EE
C0
5E
79
13
7E
AA
75
BB
1A
0D
01
51
04
3E
39
6A
C5
D1
02
F8
E9
F6
EE
C9
A8
A8
6A
97
7B
37
58
F7
A5
AE
27
83
46
36
29
24
70
19
AA
83
8A
2B
90
4C
DE
73
B5
58
2E
9B
F1
CC
87
89
2D
91
05
FB
00
FC
EA
76
E3
FA
BF
F5
3C
57
DF
20
71
C1
1A
3E
F0
AF
8C
91
24
20
4A
CC
2B
39
FE
A5
C3
D2
85
FD
1C
C8
C4
3B
CA
1B
CA
F7
91
22
DE
A8
A3
F8
CB
A1
DC
E6
B7
7C
DA
13
E5
FC
42
4E
CD
0F
50
1E
54
26
11
86
64
6D
7C
39
8C
37
07
68
80
02
AA
09
9D
A7
3E
09
1E
2E
87
EF
0D
A9
E1
FC
50
2D
F8
26
51
79
6A
9B
5A
57
B9
9D
C4
67
B8
24
92
48
36
76
BA
14
EB
42
AC
E7
1A
F1
56
75
68
2A
11
3B
B0
CE
8D
F7
30
D4
56
90
28
33
D7
61
84
64
30
A5
C9
37
2C
78
E8
4B
19
A0
4F
43
7B
EB
CD
EE
46
AF
53
88
39
DA
10
E6
AE
C3
02
69
73
4C
B1
7C
79
75
B3
5B
E0
67
92
16
3F
FF
1C
BE
81
4F
E8
6C
80
DB
C5
3C
F1
5A
1F
A7
0C
EB
7D
2B
97
B6
88
D5
8F
C6
C8
97
77
24
E1
B2
35
7C
95
B9
51
F7
68
D9
58
1A
15
DD
04
64
7B
A0
CA
01
C4
0F
B6
09
12
15
61
DE
11
F0
6B
34
47
38
32
8C
7A
42
40
6A
99
3C
3A
3E
E2
BB
DF
B6
CE
46
AD
EE
EE
97
BF
FE
1B
BE
8A
D6
DB
D5
E1
B4
65
EC
79
81
B1
BC
A6
3B
56
96
1A
96
2B
1D
99
C9
91
BB
9F
8E
45
91
EF
71
DC
5F
46
75
36
37
F9
0D
14
34
99
84
9A
06
43
94
12
60
3C
ED
80
C4
6B
AE
D9
70
F4
F8
DD
DB
57
7D
36
7C
5E
E2
F3
C7
69
33
AB
CE
E5
A4
67
B3
0F
FA
8A
83
30
A0
81
A1
83
38
D5
C4
4B
B5
F8
A0
D3
05
20
78
98
B7
46
C4
74
39
21
25
1F
DA
CA
E1
A5
8B
8E
79
52
A9
39
19
DF
45
F2
80
2B
74
AE
03
4B
3D
6A
26
F4
EC
40
35
7A
B2
53
FF
59
3C
E2
D9
FD
4F
9B
A0
04
BD
8F
20
E1
31
EE
C7
58
99
2F
13
E7
40
D6
0F
42
70
39
94
03
D8
FE
AC
E6
6C
7E
28
A0
AF
F0
27
8D
2A
54
02
FC
5E
E4
90
53
61
9C
C1
F6
17
89
CE
33
0B
DF
6D
14
29
8B
DC
5C
F4
03
71
FD
5D
A7
6F
49
8C
6F
B3
B5
15
63
95
FB
69
39
03
5C
B0
A5
F8
67
7D
63
F3
F0
75
0B
85
4B
7E
6A
A5
10
D6
0D
19
D4
25
BF
8A
0D
0D
75
D9
B5
04
18
10
0C
B4
8C
D7
B2
38
83
5B
04
48
E3
E2
11
6F
90
1E
0A
CB
1A
CC
1C
81
7E
F5
0D
99
D2
A2
0B
5C
BB
8F
A9
C5
35
CE
24
40
62
6A
AA
E2
64
91
5C
E9
F1
6E
DB
0C
51
64
78
57
7B
6F
93
70
66
3D
13
3B
92
6F
DF
86
26
F0
FC
55
D3
E8
F7
E9
80
9A
DF
75
46
F6
72
38
CD
A2
70
40
13
73
5F
08
71
AC
54
31
B5
F5
D9
98
7D
22
AA
A6
7B
1B
D5
48
D9
66
4D
81
E5
A7
ED
76
40
10
E9
3F
2E
A7
BF
24
FB
86
66
49
21
38
F7
1B
9D
07
32
E1
53
7F
44
25
CB
74
15
CE
35
37
DA
E9
15
7D
7A
68
7F
9E
18
F7
2E
3A
7E
DC
79
39
BE
26
C2
8B
12
C9
E6
AF
E8
A0
05
9E
B7
E4
08
6B
EA
1E
D1
D2
A0
E3
51
BE
29
92
03
49
92
BE
98
A6
F0
38
A8
CB
49
D4
9A
93
CB
76
5D
64
8D
E9
7A
2F
ED
8A
9C
E8
74
CF
D0
46
1D
2F
B2
73
8F
0E
10
B5
74
AC
57
79
CE
C3
D0
4D
6D
A3
1B
CA
36
A8
7E
C6
4F
D4
11
1C
24
3E
22
C9
82
C4
96
5C
5C
BD
E2
48
AB
49
85
63
DB
33
A6
AF
E2
00
BE
49
21
DE
29
D2
06
7E
82
B7
44
9D
08
5E
68
25
6C
10
C3
1F
24
88
0A
E9
65
EC
2E
DA
9B
60
39
C5
06
A1
5B
E6
2D
FA
A2
C0
D3
17
B5
EE
60
4C
F5
CC
6C
DF
9C
0A
6B
64
AC
83
46
83
A8
EF
8B
0C
54
D9
43
C8
89
B1
8D
B8
E5
43
89
F0
FF
13
7F
61
60
FB
72
77
14
56
4E
24
C1
AB
70
2F
67
5D
ED
C6
C6
54
17
00
94
AD
96
3B
6A
F6
B7
F9
98
61
68
8B
72
B7
36
94
88
B3
A6
8A
8D
6B
32
2B
78
99
C4
72
87
AA
69
B9
46
F2
F5
6B
AE
4F
3A
2B
74
E2
7F
4D
BC
77
95
E1
7C
B2
1C
A1
38
18
5F
18
07
D6
70
FC
E0
EB
72
83
D0
9D
7A
BF
ED
83
89
73
67
A1
E5
76
E7
1A
34
D9
A9
11
65
8F
56
DF
27
09
0F
0D
F4
6C
54
63
E1
C1
9A
31
7C
22
84
08
6F
D2
AD
49
F9
85
F7
7E
69
12
49
19
02
BA
E0
1D
09
B4
C3
18
E6
F3
5F
7B
7F
F2
E8
5D
EE
29
FC
83
84
DA
02
61
DF
38
00
C8
61
E1
7A
F4
81
C3
08
76
90
F7
D6
D6
CE
A5
06
52
1D
3D
DC
3A
5E
06
C5
3A
FF
6F
20
05
20
FC
3A
F1
6C
C6
B2
9F
0A
B1
A4
25
59
B3
03
11
48
19
50
D0
B5
99
19
86
3E
F5
82
28
5D
12
3A
73
8F
08
77
51
D5
3C
AD
90
05
13
16
4B
74
69
1C
44
85
EC
FA
34
B8
31
27
4B
64
CF
0D
82
1B
F5
48
BE
93
50
44
9B
D8
95
A2
D1
B3
8C
03
58
BC
8B
D9
53
A2
09
12
33
36
40
A7
11
FC
DF
76
31
25
9D
5B
65
23
07
89
F8
50
94
3E
03
6E
15
C3
DF
F9
11
B5
C1
6C
C1
B6
BF
41
AF
FF
C3
6A
AB
C0
C4
74
08
B1
EE
A9
C2
67
AF
07
35
5F
65
7D
19
B4
B0
65
D4
75
76
84
5D
07
42
92
DB
E1
AE
6E
34
6D
E6
32
56
C7
BC
98
E5
E4
26
82
CB
A5
3C
16
58
F5
49
28
35
81
A3
B3
B8
FF
C4
AB
13
F4
79
0D
70
0F
02
C1
30
DE
2E
0F
E9
CB
42
1C
86
D6
29
4E
1C
E6
C1
77
2F
B6
85
E5
DC
A5
24
12
0C
59
32
A4
02
7C
22
99
01
53
27
C5
0F
00
B0
43
5D
C2
3C
24
65
65
12
87
85
3E
89
D5
2C
53
78
84
46
DF
15
02
84
7C
A2
EC
37
ED
8A
36
C6
B7
90
8C
E1
39
B8
9D
7E
63
3F
95
1F
26
10
60
30
BD
D2
66
0C
19
F4
FB
9D
E1
F6
F2
18
50
C4
07
D4
A7
F5
C6
3B
21
A4
FF
3A
52
10
49
D4
12
A6
9F
9B
1E
1E
D8
EF
6B
07
8F
39
87
B1
6E
13
35
3C
0F
A1
87
23
D4
84
E1
F8
45
D1
CA
A8
D2
BB
B1
B6
EC
E6
CB
59
30
AA
DD
AF
5A
41
7F
D4
03
1F
1E
C2
09
2C
4E
B9
43
08
ED
F3
7C
1D
86
97
83
53
8E
47
B6
A5
E8
B9
92
3B
99
73
DE
00
10
FE
EC
FB
03
1D
EF
F8
5E
35
A5
04
25
D3
53
3E
20
2C
6A
E2
E9
C5
22
A3
7E
2B
EE
40
2D
A7
3C
4D
17
EE
C8
C8
2C
B3
C6
DD
C8
33
33
97
30
B3
F8
83
E2
7E
21
71
92
65
77
CD
FD
01
AD
D8
A0
2B
4E
C3
80
54
8F
18
6F
DF
6D
C9
0C
28
CA
E2
3B
08
4E
F6
53
22
BD
86
2A
A9
41
E9
DC
0D
A0
8C
0C
00
98
C3
8A
83
FC
F1
45
07
04
2A
56
99
88
38
04
72
42
A3
7F
F4
1C
F7
55
50
A9
8D
BC
09
D4
D1
42
35
08
47
76
79
40
DF
B6
4C
15
1A
46
FD
C6
7F
02
1C
4B
69
F8
04
F5
A4
D0
B7
E0
D6
30
61
B2
46
94
CF
C3
B1
32
3D
C3
C6
F7
8B
B0
79
D5
6C
6D
4A
92
25
78
67
B8
6B
A0
25
47
8D
70
A7
8E
43
BA
C1
D7
3F
72
72
B2
E7
AD
EF
27
32
69
26
BC
72
78
C9
99
E0
89
6B
51
4D
63
10
0F
1D
40
86
E8
3E
60
75
31
1C
E4
E7
3C
DA
A3
26
18
45
55
C3
D7
AA
7E
22
1F
C4
25
32
BB
60
D9
2E
88
B7
18
23
78
EC
DF
3F
AF
6F
03
5E
D8
A9
2B
D8
4B
40
6C
68
35
E0
22
0C
46
07
30
91
F4
61
A1
94
B7
8A
05
6F
21
1D
4D
40
00
20
85
E3
0C
C1
04
F1
12
13
AE
07
16
7E
E3
F3
C7
F3
15
2F
2B
16
3A
54
E7
FE
75
2A
56
E5
ED
F3
72
5E
BE
B4
C8
A9
B7
F4
D5
5D
FC
54
42
3D
C3
9A
FC
CC
AA
12
FB
92
33
16
CE
AD
3E
72
2A
F4
3B
31
0F
70
B7
93
14
2C
1E
A7
CD
42
02
E2
F2
4F
F5
5E
F5
BC
30
B9
8C
4C
17
9E
D9
E1
F0
25
2F
25
3B
D5
03
6A
85
AC
A9
EC
0B
28
48
4A
FF
88
4B
82
B4
F3
63
5A
86
88
2D
AD
D9
BE
6A
3F
8B
4E
48
1F
6F
CC
D2
4F
64
7F
9F
B3
ED
15
CF
5E
4F
0F
D7
1D
97
1F
4A
65
40
C1
25
48
A1
D9
69
EA
57
8D
64
6D
D8
FA
CC
B8
75
25
19
FB
4B
61
62
26
31
87
28
B1
5A
E3
69
91
39
14
77
EC
E7
37
F5
83
45
2D
8B
A5
E6
2A
B2
02
73
77
C6
FA
F9
DB
C6
1E
A7
2D
E0
DE
E6
EB
64
2C
DB
2F
74
9B
20
C5
78
81
49
53
98
DF
D2
1E
D2
08
2F
A0
2C
EB
68
AB
25
FC
60
46
28
A5
FD
07
4A
F6
E4
C8
67
E7
78
81
3B
86
02
90
33
C8
8D
33
CC
88
AD
B0
12
E9
56
81
D6
FC
F2
C2
DE
1E
AE
0A
E8
64
D3
31
DB
E1
0E
FA
95
05
5A
A2
91
DA
ED
79
84
E7
E7
8E
23
F7
38
EA
AC
4F
FB
4A
95
EA
FF
1E
46
9E
59
5B
E9
E8
2B
BD
CB
B3
42
9B
11
84
C5
DF
B4
02
8C
98
90
31
39
D3
34
E9
2F
5B
60
B2
14
98
0F
5A
08
4A
A1
FB
DF
D2
FD
21
F2
5B
1F
D7
DB
80
56
FD
EC
BA
63
50
67
C4
AE
A3
29
C9
3B
D0
B3
29
AA
61
68
6D
DF
9B
8E
A1
CB
BE
D4
E3
54
5B
DA
C1
50
37
A9
11
82
A7
50
4C
CB
10
65
F2
64
0F
86
84
FD
81
BE
13
5D
41
7C
C1
E5
A4
E5
7E
92
99
5A
4A
B6
18
ED
3D
66
36
E4
DD
49
FC
60
DF
F9
76
2A
1F
79
6E
2C
B9
32
46
26
B1
CE
AF
E9
FD
57
B0
93
A5
B6
B1
17
4D
AC
40
D6
CD
3A
7F
11
2D
E1
12
07
A5
DE
8E
D3
22
6B
80
D5
80
CB
0D
43
FD
B7
E9
23
6F
98
58
B0
9C
DD
F5
E2
83
E7
76
EC
3C
61
D2
BA
60
E7
FE
56
90
D4
27
2A
9B
AA
BD
80
B1
72
D9
90
59
E7
8E
76
87
3E
0A
50
A1
37
59
28
3A
AF
A0
2D
11
B0
1E
97
5E
5D
F3
DB
BA
5F
35
BE
9A
44
4D
67
0F
4F
B8
EA
F9
F5
06
66
09
33
CE
D9
67
B1
7D
2B
4B
A1
90
82
95
97
10
62
0F
82
11
B8
0B
48
22
DF
4A
24
00
CD
D3
00
F6
5C
B2
46
55
7E
80
4A
9C
F3
1A
A9
8C
1D
C2
4C
41
F2
0B
3B
1C
70
1D
14
18
25
08
A4
AC
D7
34
45
64
2D
BC
7D
BD
98
35
35
D8
DC
A4
1A
76
B9
C0
FA
8B
64
A9
B9
6D
2F
30
A7
1E
01
03
D7
DE
F6
0D
4B
87
B0
A1
28
A1
8F
6F
FA
A9
68
4A
D7
49
62
B8
FE
C5
34
CC
52
CB
44
60
DC
1A
67
78
65
ED
A6
36
22
72
13
C1
05
79
22
E1
33
06
B2
74
F4
C3
84
5C
BE
B3
40
24
7F
A0
C4
C3
47
B8
4F
CB
6E
0F
2A
19
2F
FF
1E
F9
9D
D5
C0
BC
4C
5A
DD
DB
6D
C3
C2
42
5D
52
7E
53
5A
57
0F
C9
37
78
92
B3
0C
CF
04
11
57
C6
91
B4
D4
53
F9
BE
13
16
69
B4
86
81
31
F4
A3
49
31
1A
B7
77
D2
1E
05
C1
BE
DA
71
D5
8F
69
C2
86
20
80
72
B4
43
05
79
97
1A
0A
BE
45
21
A1
10
CC
B5
E6
3D
26
7F
D3
57
76
35
BE
67
48
68
B4
A8
88
4E
D4
32
EA
B2
D4
81
A8
79
11
97
77
E7
14
B0
08
73
12
BD
24
CE
03
71
65
B5
4C
7D
42
46
18
98
5D
2D
8A
69
03
57
C9
42
7F
DF
10
37
63
E6
23
9C
23
BE
D9
0D
BF
0C
DE
60
CE
A8
5F
03
A6
59
14
3F
28
68
11
52
61
1E
BB
D4
10
43
91
45
6B
07
00
49
BD
FA
8D
02
E5
1C
87
E4
17
CC
C1
1F
66
6E
32
67
41
4D
4E
5A
DC
AF
BB
01
FA
D8
A1
69
0E
4A
23
5D
49
C2
3D
52
84
D9
80
78
0D
4C
F2
93
07
70
54
91
32
6D
29
CB
DD
F7
00
A5
9A
2F
DF
8B
43
F4
D3
EE
6D
1C
35
6E
F5
C5
AE
EE
06
B9
63
20
B2
EE
26
A8
7B
44
9D
3F
04
B5
06
69
EF
D1
95
F0
44
E5
78
36
E0
FE
B1
8A
89
3C
2C
5B
9D
13
49
75
6D
58
77
D4
18
79
47
06
C0
C0
DA
F8
53
CD
89
0B
B0
6C
8D
AF
F8
C9
2D
17
5B
D6
7A
2C
8F
C2
F3
F0
AC
E0
B1
FB
83
D4
E6
14
53
63
15
82
65
DA
91
61
32
62
4F
8E
41
38
81
00
06
04
23
E9
94
10
13
B1
34
75
8F
CB
23
BD
42
87
7C
06
77
BD
26
36
9D
6B
02
92
36
30
B8
64
41
8E
BC
81
E2
2A
6B
10
19
CC
0A
D7
B8
CD
EC
39
FC
92
EF
94
C4
A4
FB
CA
81
22
CC
52
F2
EC
EC
CD
37
B7
27
84
D3
82
03
35
BD
F4
1F
B3
21
73
FE
55
E1
02
0E
18
F5
72
5D
22
37
B6
FE
9E
36
FA
FC
12
13
05
A8
EA
31
F7
FE
FD
98
CD
93
4C
53
01
D5
A7
98
80
6A
A0
34
D6
C6
8A
8D
A5
42
D2
BB
B5
F7
C3
6E
BE
05
83
EB
4B
0F
D7
AA
81
CD
B7
EA
DB
84
CE
BD
5F
9E
4F
E6
ED
3B
04
CB
D8
59
4E
6F
A4
D2
2F
44
C9
E6
AA
BE
DF
A7
A7
01
AD
95
B4
27
EA
7B
85
57
89
65
DA
73
CA
6B
C7
87
C8
63
66
14
61
11
57
DC
77
DB
BA
2A
AF
BF
2D
14
2E
01
88
82
5F
BE
95
1E
88
1F
D4
F6
D0
4A
AA
9A
F1
ED
6C
ED
AF
74
B6
1A
B8
D1
0F
48
F0
C9
E1
B8
FF
8B
8E
60
44
05
5F
A0
B2
D9
2B
59
75
4A
13
DB
29
2C
F7
2B
55
56
F5
2A
0D
E7
86
1E
F1
5C
6F
74
07
B6
8D
C0
CD
8D
9F
D3
90
42
E8
4B
FC
92
AA
90
D1
E4
9F
8E
52
E8
8B
21
AC
7F
4D
F1
C1
8B
34
4F
DB
CC
4B
03
0E
51
C1
47
75
67
80
61
B0
C2
CD
6D
09
DA
DD
D8
CE
8F
8D
CE
61
73
CB
1B
58
12
7D
C8
2A
76
F6
81
0D
2B
1D
10
21
67
12
39
DB
7D
15
7E
04
B1
44
C9
B8
ED
56
08
7E
88
14
1E
9D
93
4F
C1
B9
46
C0
50
C2
AC
94
F5
1C
CB
45
5A
7B
D2
7B
86
39
F5
81
F3
DF
94
BA
87
69
C9
50
47
F9
FC
70
D6
C4
B7
FD
5F
17
B1
56
EA
4A
72
6E
6E
69
21
4B
51
28
AB
DE
25
EB
22
36
35
AB
81
E5
4B
F4
07
44
0E
8E
04
D6
DB
CE
46
18
F6
85
01
0C
E5
9E
CB
58
B1
87
9F
F2
B7
A3
5C
09
DE
45
F5
20
73
D1
B8
2F
08
AD
CE
08
07
59
2C
BF
6D
20
14
6A
92
EF
51
53
32
89
D3
31
C7
94
11
AB
E1
80
27
2F
B8
B8
85
B7
C3
8B
AE
49
1E
90
C8
94
65
82
97
3F
02
37
6D
F5
62
C0
4E
AF
52
15
7D
05
2A
A3
D0
2F
1C
57
18
BD
09
CD
09
8B
8B
0A
73
F5
2D
73
86
FC
1D
D7
BD
DC
5D
9D
B0
6E
FB
03
FB
2A
D1
CB
51
A4
D7
7E
AA
53
1F
BE
28
F8
14
7E
C1
24
5E
83
A2
EF
AF
11
39
A9
AE
FF
19
E7
D7
2F
54
A9
C3
44
14
8B
D3
8E
11
D9
FC
B1
CA
93
BE
B1
77
C0
0F
02
7C
B4
C9
DC
1E
73
6A
0B
C3
43
D9
16
E4
9C
5C
76
CF
38
84
6C
33
B0
8A
C4
8C
AC
9C
B2
42
83
EC
6D
BB
1A
4E
43
C4
79
45
68
3D
74
2F
1B
25
A5
0E
8C
25
7E
EA
A6
B6
8E
D3
4C
9F
61
21
67
D9
A4
3B
BC
6D
2F
FB
0C
E4
9C
BD
01
F6
5A
01
44
1D
B8
EB
26
6A
56
4F
C5
8E
A4
12
E0
CF
7F
E1
D7
0D
85
30
E2
B7
AC
4D
3C
8A
AE
D7
41
DE
F7
1B
40
11
73
2F
E2
E7
24
5F
2A
DE
3D
A4
0C
7E
DF
C9
F1
5C
00
B0
E3
BF
48
6C
CF
59
8F
AF
34
64
97
48
2E
35
97
D7
F3
F6
8B
63
33
D8
F8
F7
2B
94
8E
4D
6D
BB
F1
0A
56
85
93
46
22
F1
04
9E
D2
C5
F3
D7
B6
23
F7
19
52
4C
71
1D
07
36
26
A1
C4
D8
B0
AD
B1
C6
D1
65
46
31
93
44
DC
A2
46
84
28
40
2D
BC
A0
C7
59
D2
86
91
97
F2
6E
7D
37
A5
16
45
8A
9B
3F
E4
95
99
9F
70
7E
3C
CA
1C
59
69
AF
6F
83
16
E9
4A
A8
AD
1D
FB
29
70
76
01
04
1D
7A
A6
76
42
DF
7A
10
DB
17
0C
9B
A0
64
83
19
E9
8A
4C
7D
82
2B
43
6B
C4
89
1A
7D
78
7B
96
D0
52
33
D8
13
A9
A0
5F
E3
3D
93
D6
30
B9
EA
AB
3E
38
44
2B
52
EF
E4
09
93
00
53
5A
6B
65
91
B3
C4
C8
48
0C
98
BB
B9
F0
49
44
2F
04
DD
3A
BB
B4
68
2D
05
BF
28
69
2C
23
86
21
CF
DC
03
64
28
87
22
60
34
01
73
4B
6F
C4
09
D0
3E
BC
4D
40
88
08
6E
3D
EA
12
E6
D0
B1
25
10
01
B9
F0
97
85
56
05
CA
EB
3B
1D
35
79
72
91
87
4A
05
1B
43
F4
15
6F
07
AA
0E
B7
6E
D1
40
5E
0A
27
3F
3E
1F
58
D8
D7
9C
A6
DE
27
14
1B
58
5D
CE
ED
80
18
AE
4F
A1
13
70
3E
F8
3B
68
BF
FF
F8
8D
FE
EE
E9
B9
8B
9F
C1
CC
28
C6
2C
1C
F3
21
4A
9C
1C
26
20
9C
16
E3
89
39
D4
8D
7C
71
4F
FA
F0
9C
F4
FF
D8
0E
32
EC
D6
A0
6F
24
78
8B
68
6F
EE
BB
2C
A9
32
15
59
9C
F1
9E
E4
70
E5
D3
95
40
20
F8
F2
F6
C7
A1
89
7C
81
32
86
6C
95
8E
C8
AD
7A
F3
58
06
2B
22
ED
9D
D0
89
0E
CA
96
49
4C
51
05
AC
69
1D
2D
7E
AD
50
76
19
59
DE
1E
A2
22
AC
D1
71
01
46
B3
62
20
8F
5C
C6
4B
87
65
F1
55
F3
64
BD
CC
BD
C9
E3
89
C4
C3
89
50
8F
0E
86
3D
16
5B
16
2A
4F
79
89
C4
AA
13
ED
78
67
15
4F
3A
5E
A2
74
08
A1
5A
74
4C
71
03
5D
BB
18
E6
B6
3E
54
2B
A1
33
B3
05
67
16
A5
80
AC
1D
B6
1F
30
AA
A4
EF
35
F6
C5
75
8A
C3
9F
41
D6
14
AE
AF
39
2A
51
39
4A
C8
E8
6A
F9
86
84
CA
2F
0F
51
ED
63
16
D2
09
68
B9
CD
DF
E8
56
FC
05
BB
1E
E8
BD
39
78
44
28
F7
44
00
70
30
85
0E
2D
CF
72
3B
ED
9D
C0
AB
BA
F0
3A
63
85
C7
EF
BD
FE
23
9B
7B
17
91
91
A4
38
12
D7
E3
D3
3A
4C
BD
C5
8E
E0
71
B3
09
89
EF
50
4A
06
2D
48
9E
24
69
FB
D3
DF
A7
8B
21
31
42
FA
94
18
55
0F
63
A5
DC
3E
C9
F2
0C
8F
59
78
CF
53
2B
DE
E9
8C
FF
A3
48
CA
1B
43
49
83
7B
37
7E
D1
BF
26
FA
22
CE
3E
DB
1E
4E
7F
B2
13
CE
86
77
95
F3
79
8A
26
ED
F6
8A
DD
B6
B9
AE
BB
15
CF
48
A6
53
3A
B1
6E
45
2F
79
1F
4A
84
23
8B
C4
EE
18
11
86
D6
A6
06
90
23
D3
42
14
DF
EC
42
8F
57
0C
20
1E
18
16
8D
2A
AC
05
05
2D
DB
A4
F9
47
12
49
54
C6
86
26
76
85
EB
27
8C
83
B9
5B
F5
46
E8
86
B4
02
D0
17
D5
35
41
94
6B
AC
4F
2E
77
16
A6
F5
76
6C
FE
A8
DD
27
7C
38
C7
82
91
84
D4
C4
66
52
D0
36
80
E9
01
B8
BE
99
41
8D
82
C1
BB
0B
7E
C9
A9
FA
14
6D
0A
34
7D
45
CD
12
7B
00
7A
8F
92
35
18
1A
CE
ED
54
F0
A0
85
0E
10
C9
7C
65
6D
40
54
4F
59
BB
23
2F
C6
8B
3F
03
CE
2A
A2
6C
78
DC
7A
31
EB
10
14
94
4B
43
7F
91
E5
1C
7B
40
BD
B6
2C
85
EB
86
F9
56
CC
2B
B0
60
E8
CC
5F
ED
33
84
33
F8
86
BB
96
1F
4E
85
9F
2B
38
E1
B1
A9
7E
F4
C7
4C
CC
06
E5
BF
2F
AD
E4
B5
36
B8
15
C8
ED
35
B2
67
44
DB
A8
61
97
2D
8E
B6
3B
89
2D
07
1F
03
E3
D5
83
C2
94
1C
2F
98
49
63
52
D6
A1
50
F4
5A
C5
76
27
CD
9D
F8
BC
3C
2C
03
74
A5
F8
01
BC
9F
62
B8
DF
96
44
8F
12
6E
C0
0F
92
E7
4D
32
E5
24
9A
DA
E0
02
A4
98
71
E2
AD
24
32
0C
3C
E3
A8
A1
CC
BE
2A
57
31
AE
F5
C0
05
59
93
4B
69
9A
19
68
D6
F4
5E
B4
56
4F
61
53
2D
32
2C
B8
09
E5
90
68
62
91
40
E1
70
4C
B4
72
49
AA
E0
1B
40
02
BE
EF
EB
A0
6F
E2
73
23
B0
0F
A0
17
46
14
ED
40
56
4C
E1
DE
96
E2
31
9A
1C
29
1F
61
24
35
92
1E
48
1F
7D
67
42
71
E8
D5
35
25
E8
D6
8B
C5
11
E3
22
71
4F
CE
3C
E5
6A
45
06
A5
50
DB
AD
B5
BA
8B
EF
BB
5F
D2
7D
CC
E8
C8
EB
6D
13
A1
C5
F4
20
E8
0C
66
27
C0
F2
4C
45
4F
2C
AE
63
A5
1D
8B
4D
B6
23
34
9B
AC
55
FA
39
FE
47
A0
F7
CD
51
9B
DB
3D
34
78
EC
B3
26
02
75
23
F2
D1
06
70
CF
99
31
8C
15
35
69
87
C2
27
0F
30
36
C1
4E
03
7C
43
48
AA
14
71
58
AB
89
DB
88
FA
FA
DB
48
3E
0F
D8
25
1D
EB
23
78
44
E2
99
75
F3
CB
20
2D
22
E9
7A
8D
27
31
63
E8
72
F5
43
4D
9E
49
48
71
F4
C5
87
4E
9B
FB
C1
D2
EE
E7
DC
E0
A0
5F
16
37
0A
3C
45
07
A2
C8
36
AA
94
32
AA
7F
62
72
E3
33
A9
01
FD
63
35
DD
6D
C0
F3
B4
94
30
29
B4
95
D9
FD
EF
08
6F
DD
05
A1
FE
DA
2F
BA
22
5D
4B
F8
BB
0E
A3
99
95
D8
8E
80
FC
17
BF
E3
BD
19
ED
6B
20
78
ED
84
A1
1E
1A
A8
A1
98
A5
BE
C9
E5
99
95
2B
65
F8
43
74
5B
4D
AF
7F
3C
58
41
FC
AA
E3
8F
EA
94
59
CF
27
E2
C3
34
DE
02
8B
7F
D6
A4
5E
F7
2D
2D
62
F7
45
C7
2A
D5
6F
5D
00
EA
87
F1
02
40
69
55
BB
CE
AA
02
9F
3F
87
70
C0
D7
BA
F7
67
43
BA
39
BF
BE
E1
93
50
B5
11
4A
BD
12
44
CB
9B
E0
38
85
13
69
86
16
B9
35
3E
B7
EB
DD
FB
B3
5F
CB
59
3E
F9
89
29
E0
95
E1
8C
1F
9B
8F
DB
96
80
67
C5
32
7B
AD
75
0F
32
9C
0F
CC
BD
0E
00
E2
BA
2F
3A
0F
54
8A
06
2C
CD
EB
93
46
7E
21
4E
17
A6
A3
DF
88
EA
9D
D9
EA
52
62
D5
A5
F4
C8
45
42
ED
D1
66
54
ED
12
5E
92
74
E6
CB
2F
43
C3
9C
10
44
45
17
83
3B
72
10
82
68
A0
BD
33
4C
5F
D5
2B
B1
CF
C3
F9
70
4A
FC
8E
D8
95
46
6D
50
23
88
48
5B
F1
68
CC
5F
96
46
8D
3B
3E
10
E2
9E
99
DA
61
A0
FC
E1
34
C3
BB
C0
D4
EB
DE
8A
4D
BC
5C
50
EC
2E
04
10
7E
D0
B5
AD
92
CD
A5
3C
3D
08
BD
ED
02
7A
18
48
38
0C
FB
D9
AC
CC
1B
FA
77
87
E4
99
5B
D2
4C
00
E2
F5
78
96
65
0B
02
4A
F2
16
24
46
C7
F4
AF
5B
DC
AE
92
BA
95
6C
5B
F0
56
F6
52
97
36
4A
10
9F
F2
4C
D1
71
25
88
D1
D9
87
DC
78
5F
1C
CD
56
2E
04
EF
27
8C
89
79
B1
0A
41
BF
48
A5
25
A5
1C
55
38
3B
B2
63
FA
7F
29
12
81
55
1C
0F
9B
A1
41
CC
2A
09
7B
FE
55
23
90
1E
DA
D4
F8
D7
E5
09
77
1E
80
D9
6C
F8
0B
23
9E
4D
F9
A1
5B
B0
2C
49
EA
43
3F
5A
6F
F1
DB
40
33
E3
A9
13
A6
21
7C
9D
3B
62
C8
C0
5D
2B
B5
74
E2
9E
FD
B9
EF
94
EF
09
B2
51
A0
E9
D3
F8
EC
08
8F
25
04
BB
61
C6
30
17
0D
5A
25
D4
D9
86
63
5A
D3
E1
F6
BE
A9
34
95
01
32
B7
74
A1
17
F3
75
7E
AD
B2
9A
79
4F
AF
B5
E2
6C
5A
72
63
CA
16
98
85
B8
A6
B0
57
22
F7
B9
22
47
0D
98
05
5B
FA
D6
33
02
55
2A
5C
41
C7
AE
4F
B4
9D
B5
E3
CD
2A
15
97
33
9E
BD
B0
5C
C9
16
55
B4
6E
3A
25
B5
EF
3E
BF
2E
EF
55
97
02
6A
C5
9D
C0
3D
69
E4
8E
E9
B2
DF
53
6E
35
B3
D5
08
3F
80
21
2E
10
26
31
FA
C7
54
20
45
2A
DE
48
A7
0B
FF
02
FD
31
4D
01
C9
0A
5B
83
55
3E
74
0F
E7
B8
6D
B5
4A
B1
86
20
F6
22
CF
08
CD
BA
D9
38
DD
B0
16
27
D4
7D
EE
E5
03
F1
62
33
BB
FD
ED
D1
18
F1
15
0F
49
09
02
87
8C
A9
23
56
E2
00
EC
3B
24
30
01
FD
4D
EC
0D
A3
7E
71
02
02
BE
09
44
0E
8C
5A
61
65
3E
D6
83
FE
5B
25
CF
ED
1C
31
8D
CD
79
AF
28
CD
7D
52
B3
58
5F
3B
7F
ED
44
20
68
15
B8
11
17
B3
18
37
8C
31
17
15
F1
2E
C6
4C
F1
16
AB
57
A3
DF
76
9A
2A
D9
F2
AD
DA
F2
ED
D8
4A
DA
45
90
FF
EC
62
ED
26
CB
32
C3
2E
52
A9
CE
CA
12
62
B3
B1
B3
32
E2
0F
A1
88
11
E3
DF
CF
E5
14
1C
AF
70
93
3C
1C
6A
4C
54
24
C3
A3
22
D6
A1
83
E9
21
5D
68
04
A0
01
68
4B
20
BD
AC
FC
14
79
0B
06
98
44
65
A8
2A
1E
F5
81
BE
03
7A
D8
41
EF
F3
89
6C
58
1A
65
E5
83
47
2B
BB
FF
01
45
43
45
BB
5A
62
1E
0E
A2
84
1D
94
3D
19
49
31
C9
45
CB
3C
FC
FC
E3
74
C8
AC
1D
43
13
DE
5F
05
E4
36
BC
7D
A2
76
EB
27
A4
1C
53
6B
E7
C0
0C
C8
FF
BF
B9
97
5C
A1
3F
71
C8
3F
C0
5B
1E
68
06
30
46
18
4A
05
8C
E1
F2
C6
B5
FD
CE
18
01
98
2E
ED
A0
6B
5E
4A
31
8A
CC
D0
86
64
E2
A8
91
60
C5
BE
B2
48
38
19
07
E1
AE
55
36
35
87
8F
CB
70
82
10
2A
D7
B0
1E
BA
5A
88
33
1D
6C
2C
36
3A
28
62
72
08
8C
14
2C
DB
83
C9
F4
43
E5
35
11
A6
F8
0C
B9
50
45
DC
AB
8A
5B
0A
D4
7A
9D
A1
76
81
BB
FC
46
16
EB
BF
D4
BE
06
0F
AF
F1
E8
50
19
15
BF
C8
DC
BC
37
0D
25
99
B6
BA
7A
8B
03
74
4E
9F
64
0D
6E
08
CB
0F
C4
EA
E4
2A
B8
C4
35
46
4E
59
5F
56
8F
C6
20
8E
68
DC
75
40
FE
20
E4
35
4D
97
89
D3
6C
58
94
89
14
5E
9E
0A
2D
DC
B8
7E
F0
44
BC
D0
78
F8
4A
A5
F5
4B
36
77
29
02
4A
91
BB
50
0C
5F
D6
68
65
50
1C
1F
E1
FB
CB
07
28
4E
36
56
78
19
27
E5
63
BF
F9
1D
C9
23
5D
8E
A5
F9
B9
49
C0
B5
19
B6
65
40
EA
7A
6C
3E
D9
78
DD
C9
4D
25
1B
C5
52
8E
FC
EA
BD
9D
08
77
70
AD
E1
C8
B6
BF
45
E9
52
99
CD
70
4B
72
DD
5D
4F
6C
4C
02
8D
4D
33
4F
BF
C2
46
9E
A0
23
80
60
BF
59
74
2B
7B
FC
C3
8D
84
CD
FB
C1
D3
9E
95
59
A8
CD
E7
36
D5
F9
5B
FC
82
27
F5
C0
D9
49
9F
51
07
C8
2A
AD
CD
2D
CC
E5
10
E7
09
F3
7C
6A
D2
3C
62
A9
F0
A5
61
91
60
EF
BF
63
13
D5
D4
A3
31
C9
E9
CB
D7
7D
7D
B1
F6
9A
07
3C
32
12
3F
A7
37
37
5E
02
44
E1
81
51
CE
49
39
46
1D
A7
22
26
4D
EE
12
AF
4D
94
24
5A
51
CA
E2
24
18
5E
C1
BB
B6
AC
2C
FF
09
A5
B8
50
F3
4A
A1
C9
9F
C6
60
83
0F
DB
A4
16
F2
D1
13
8D
8B
F9
47
04
DB
18
03
C1
46
54
FC
6D
A7
C4
49
97
32
6D
10
11
64
5C
02
1A
80
9D
9B
17
0A
E6
3A
1C
64
C3
7A
8A
66
64
6B
EF
0B
D8
3E
91
1A
15
1F
7A
86
DE
29
7F
F2
B1
1A
6F
8F
B1
BC
74
EC
7C
E5
83
9C
93
EA
20
5D
E1
95
CD
26
88
1B
EB
7C
38
EF
F7
AF
A8
31
29
10
88
58
9F
2C
7C
FC
FB
5E
59
AD
B2
86
D8
03
7C
AC
66
34
03
CD
1C
82
13
8D
4B
9E
D4
F8
1F
84
C2
87
2C
21
D8
8D
5E
43
43
5B
88
00
BD
42
BC
A9
39
DE
78
EE
AE
A5
E7
F1
CA
8E
0D
8E
4F
38
41
73
98
FC
63
20
86
9A
09
CF
69
21
3D
9C
07
15
AC
D1
D7
BC
F3
FE
D0
EA
A0
92
CB
02
76
98
6D
26
3A
07
1E
E2
2E
C9
0B
C6
36
16
7E
36
E1
C4
38
1F
49
A6
C1
68
AE
59
8B
C2
B2
66
1A
84
31
5F
2D
34
3B
91
86
12
5D
B9
3C
E7
27
3B
B9
EB
FE
7F
39
34
40
A6
0C
EC
10
92
B4
13
2A
3E
63
FE
80
B6
C0
D3
F7
75
30
28
0F
C7
22
63
8D
7A
5D
1C
82
45
5E
AA
7B
2D
90
46
94
25
47
26
4F
E0
C2
0D
B3
4A
7A
35
9C
86
09
08
EE
81
A1
8A
E5
DD
D5
92
96
57
03
8A
35
43
DF
38
80
91
7C
35
1E
2C
1C
EE
AF
0D
2D
BD
9C
04
CA
00
7F
82
AD
83
07
18
4C
42
34
5E
3A
A2
C0
25
BC
EB
DF
88
C3
E0
2F
14
41
25
2B
6C
A1
E1
99
E5
D6
14
B8
63
F9
2F
CB
96
AE
9A
BD
84
4A
9E
88
AF
1C
9B
1A
53
7E
FE
AE
E7
E9
77
68
9F
E2
29
8E
9B
30
8E
CD
17
C8
FF
06
74
1F
E4
01
9F
9D
3E
80
92
0E
00
7D
46
3D
AD
BB
33
4D
B7
83
04
F2
2C
67
B0
10
20
7E
8D
15
6A
D7
2F
F3
26
15
94
9D
C7
A7
8E
50
A0
33
6D
8F
5A
C9
A5
B3
59
81
12
07
8C
09
E6
BF
1F
B2
E4
FA
A3
3F
73
A6
BA
86
9C
1E
3D
7C
C6
0B
63
9F
1D
20
47
E3
2A
B9
58
CC
82
0B
7E
FC
27
18
0F
4C
7F
A5
29
59
86
2F
7F
76
0F
D1
C9
A9
98
52
28
5B
9B
36
1A
E1
A1
82
7A
EE
CE
7C
7E
E4
BE
E2
FD
BE
BF
44
A1
80
4B
A2
CD
F5
33
32
38
63
9F
1A
34
BF
DC
A4
E2
29
30
ED
D7
B0
57
D4
3B
10
38
E7
38
12
9D
65
59
93
E2
DD
E9
1B
F2
3E
6E
1F
48
B2
DF
BB
AC
AC
BD
BE
A4
EE
67
6C
C8
EC
E0
C9
64
20
44
E7
5D
D4
08
8A
86
3B
76
B2
45
7A
69
FF
8D
01
E4
4A
74
8C
C3
76
65
C1
41
A0
CE
38
C2
C1
76
AA
0D
D0
74
2C
EB
55
35
1E
FF
C2
D8
89
B6
8E
9B
16
29
20
FD
D5
30
4B
C2
EE
56
70
12
1C
85
03
6E
E0
FF
9F
0B
1E
3E
49
FA
CD
82
4B
26
C9
63
A6
0E
11
0D
66
62
0A
3C
D3
96
66
FB
8B
21
2E
DC
66
95
02
DE
E3
DE
81
B6
4A
09
B5
E9
EC
05
47
6E
7D
39
9E
CA
D7
50
87
A3
D1
E7
AA
25
48
2F
AF
45
65
8B
81
5C
79
EE
15
FC
B6
6F
7B
1B
63
AB
84
F9
5D
6A
86
D0
7A
E9
13
82
5E
E3
DB
88
EA
F8
4C
C1
F5
5D
36
A9
07
97
CF
A4
55
94
99
04
C0
C6
F9
02
D8
D0
AA
92
B3
C9
3A
19
54
09
32
E9
C6
08
F7
D5
E4
00
6A
D2
0A
E8
8E
4E
52
BA
07
A6
1F
EB
5D
6E
11
AF
8D
47
B7
8F
60
EC
E5
67
E9
CD
69
7B
06
F0
5E
A9
11
6F
7C
0B
0B
1C
11
F4
01
3A
DC
8F
B1
EF
73
3F
5C
11
CD
68
94
0B
F5
3E
06
A4
D6
C5
F3
E9
AC
2F
DA
E9
64
67
0B
32
57
B9
53
27
FF
AE
38
9C
6A
5A
4D
E2
F5
19
49
FE
1A
FD
E8
28
09
22
16
3B
F3
B6
1D
0C
C4
23
6E
69
0C
5E
39
8F
A7
0B
5E
0E
31
26
33
87
94
8A
37
F0
8E
97
09
78
41
CB
92
C7
7E
4B
92
E8
43
9C
6B
71
CF
E7
56
3E
30
93
FC
E0
FF
70
BA
5E
3D
AE
AB
1B
EB
4A
E8
FE
F2
56
FC
54
AB
96
DF
52
6A
0C
D5
6A
BB
AA
77
DE
AE
48
A7
76
D8
F1
5C
27
0E
A1
D8
C8
FB
E9
84
C7
8D
95
CD
AF
15
AA
B1
89
42
A2
62
27
C3
81
41
DB
9F
B7
D8
9E
68
D3
35
4C
DF
04
CF
FA
FF
D5
AD
E3
E6
1A
4F
E6
5E
D4
8A
1B
07
5C
7B
97
68
28
B0
E7
A4
27
E2
BB
82
06
96
2C
48
13
36
90
B2
FB
04
3E
16
A4
BF
E5
AB
F5
22
E4
B9
D0
5C
1B
7B
90
EE
23
AC
C0
76
6C
39
FE
C4
84
29
D1
35
92
42
C5
02
93
75
AA
05
07
73
84
56
97
3F
BC
6D
33
AB
63
37
4B
93
45
01
E2
C5
97
51
C6
35
FE
5D
9B
0B
84
A5
F1
E3
2E
B7
D7
69
FE
04
12
E9
36
AD
CE
8E
7D
F0
C7
F6
49
8A
EC
FE
D5
C0
62
AF
F9
89
A6
49
D0
28
7B
00
FD
73
AE
47
12
49
00
47
FD
FA
C0
A1
7C
C1
09
53
9C
89
73
F6
CD
62
E9
E6
9C
14
52
D7
B4
27
21
22
C1
29
C1
AE
CB
47
75
6D
3B
2D
61
4B
C4
FF
B1
C8
2A
51
FD
92
34
48
E2
73
C2
75
19
E3
7F
28
AE
4B
58
5D
B4
DD
F5
83
F8
93
22
62
C6
F1
57
8D
D3
9B
50
8D
D7
71
F8
34
A0
CF
5B
EF
15
4A
95
E4
28
19
F7
7F
2A
2C
76
D3
7C
AD
B2
1C
CB
62
A8
16
33
E6
87
F7
D5
DA
D0
EE
11
08
F8
54
D3
EA
64
9E
2A
34
E7
5F
AF
6F
08
E8
7C
12
83
46
54
74
B5
CC
9E
DA
E7
BC
58
C7
F4
96
82
80
67
07
20
FF
9F
4B
D9
FC
3A
63
EE
3B
30
0F
CC
90
3B
99
D2
8C
3F
9C
82
8D
A9
5C
6C
E5
E8
05
25
46
80
24
CE
78
03
A0
00
B1
A8
5E
A9
7A
8C
03
8B
6D
84
97
52
77
61
82
F8
63
E5
71
D6
53
C1
80
35
B4
58
DD
F6
B5
04
8C
1D
60
DC
35
0E
B8
22
51
87
CB
0D
27
F5
6E
5D
7E
45
6A
FB
FF
6D
E1
1B
8A
15
7B
E9
29
86
E3
99
5C
DE
FA
5C
03
55
03
0D
18
31
54
C6
63
6D
19
DC
A3
F9
93
C0
BF
14
E5
C2
7C
A2
B8
E6
AB
95
5C
37
27
43
A8
4E
5B
C9
D9
7B
AC
51
2C
77
87
05
AA
73
54
9D
70
DD
22
BA
90
B9
AB
FB
50
C7
91
49
C9
66
2E
3C
BA
64
98
72
6E
08
ED
72
81
D8
A8
8D
13
46
04
2E
05
0C
BF
9B
58
77
BD
2F
34
C8
7C
52
78
F9
6E
9B
EE
34
47
9D
93
E1
56
38
3F
49
02
A2
70
2E
EB
53
43
7E
A4
9C
28
B9
DE
CC
21
73
5C
CB
D3
EF
28
15
44
85
93
3B
40
02
73
74
6C
E4
36
C0
0E
05
23
B9
EF
9D
32
74
4F
6C
49
43
FC
86
10
9B
B7
1A
FD
78
5B
53
EB
91
B9
59
D8
E3
63
3E
3C
6A
71
29
5A
4B
C2
9F
E0
D3
2B
54
CA
A7
67
72
8C
27
BB
D1
C0
93
17
E9
5E
97
23
29
E0
08
DC
7D
FD
17
42
79
D4
FD
04
83
4F
DF
EC
EB
66
60
AE
6A
D6
FF
AF
FF
C9
23
0D
CA
2F
04
2A
40
E0
42
C2
6C
55
65
81
EF
E8
98
F3
44
45
5E
EA
42
2E
0E
AE
DC
E3
00
DD
69
EE
BB
C9
98
09
9A
BF
E0
B8
36
6D
97
4F
D6
42
C9
0C
D8
5E
9C
F2
4D
84
DB
BC
E1
05
B8
39
9F
DD
CC
53
39
25
50
43
F5
2C
3C
53
06
AA
08
55
32
0D
8F
9C
08
83
CF
8F
CA
9F
62
EA
EB
FF
20
3E
9E
AF
75
AE
2D
C9
B8
2A
AE
69
27
E5
0F
CA
F6
84
FC
23
2E
A7
F4
9D
05
91
EF
0F
EE
F4
3C
CA
C4
14
39
E0
A9
CE
BF
2E
F7
02
99
38
4E
2D
B0
C2
56
59
01
99
0B
4E
93
EA
A5
7E
4B
07
96
EC
DC
ED
8F
34
C4
0D
39
93
24
F2
C2
BA
0E
CE
F5
14
D6
BD
DD
59
AC
DC
AF
E8
20
61
9A
D6
2E
60
F9
70
1F
DF
D0
32
70
51
D9
98
F2
F1
4F
43
AF
A7
7B
73
AE
84
3A
89
7D
68
AB
D5
3C
40
6E
C2
41
E6
CF
52
25
80
AD
5E
81
03
94
88
6A
EF
2F
1C
A5
BD
0F
A4
8F
2B
AE
6D
2B
6F
78
46
52
E3
64
F4
40
6D
21
25
D2
AA
CB
D7
32
00
B7
7E
12
6E
09
47
B2
3D
AE
E1
E8
00
AB
3A
3B
2F
FE
B8
C1
5A
A6
D9
AD
F9
A0
BB
25
E1
F0
1B
D7
D5
CC
9B
41
9F
B6
2D
83
AE
44
68
CC
D0
69
2E
0D
97
94
75
1A
EA
8E
7D
37
1E
57
E4
8E
C1
B6
93
D8
80
1A
61
57
B7
07
95
48
03
2F
2F
D3
5E
4A
FF
F8
7F
58
51
E8
C7
9B
0F
B8
70
CE
84
83
7C
5B
C0
40
7B
2C
D2
0A
68
C6
49
F4
12
1C
14
AD
D2
A6
3C
94
14
84
CC
BB
01
3C
B6
C3
06
8F
17
9A
5B
25
16
0E
1A
17
56
39
09
A1
8A
F9
D3
48
AE
D3
51
73
01
81
44
43
C5
C4
40
2B
34
38
AC
2F
8A
42
8D
53
0E
A9
CD
50
C8
78
94
4D
8B
F1
7F
09
79
89
AE
1B
7A
F7
CB
A6
A3
3A
02
8C
5B
7E
0D
FD
16
7A
7E
C3
9A
E3
50
A2
57
CC
51
93
8D
81
6F
5C
B5
D4
87
D3
62
2B
FC
AA
1A
55
A8
20
14
DE
4E
92
30
42
84
6F
BD
20
C5
D8
CC
A0
02
9C
C7
2B
33
9F
20
79
A1
7F
1A
04
73
C1
30
63
BC
5E
B1
7D
22
4C
8E
D7
CA
CD
6B
F0
E3
EE
CC
9B
0B
52
B3
D3
17
F6
E1
E2
50
75
43
59
3D
DE
62
2B
A6
B8
12
CE
70
92
DE
1A
F0
6E
18
03
98
6B
67
2C
10
CB
4B
97
D8
0E
4B
25
64
A9
69
85
7D
F2
98
6F
18
69
20
F1
A7
F3
BB
F5
04
81
24
C4
C8
04
5B
A5
9A
F7
7B
FB
5C
5B
F3
5E
5F
A9
2A
10
4A
E1
7D
C4
AD
E7
08
B8
B2
14
0D
1E
C3
2D
82
2C
52
32
44
5D
B5
7B
B7
98
8A
FA
19
0D
9E
E8
7E
EB
E7
D8
34
B4
96
52
28
FE
7C
E9
51
D7
B8
F7
65
3B
64
24
14
12
DA
18
78
CD
18
36
26
75
15
E7
CF
94
FC
9A
E7
6B
F9
71
96
EA
71
80
DC
E5
E0
12
C9
B7
6A
4C
B9
53
28
E1
44
C0
43
E2
80
70
80
34
12
64
CD
31
64
91
0A
76
A2
E5
09
3B
BE
DB
0A
76
5D
2E
24
E4
50
10
8E
CF
66
8E
68
34
70
67
17
D3
99
EA
15
E1
0C
7B
5F
C2
75
14
75
72
55
67
8E
5D
ED
DD
34
EF
16
03
71
12
EB
B9
78
68
6A
B7
77
59
E0
A0
7C
2D
DA
CB
06
AE
A2
39
8D
8C
0B
33
E7
B3
88
F0
73
96
E1
40
0A
F7
4D
6D
AF
A2
E4
D4
21
74
42
D9
57
69
6B
4C
E7
A1
2B
23
71
0C
BC
69
08
8A
94
B7
70
A0
06
F0
8E
26
7F
10
DB
EE
60
5D
11
76
E2
8F
22
F5
0A
51
7A
8B
AC
7A
CD
98
9F
53
64
F3
D5
50
17
05
F6
80
D5
5D
69
56
25
1B
52
C6
E7
FA
23
67
80
D5
75
2D
D4
8A
A4
21
6A
D4
CA
76
12
3E
28
14
2E
F2
CC
EA
10
31
5B
85
53
90
81
C3
7E
AF
73
EB
B4
A7
09
BB
B2
77
EB
91
77
3B
81
CE
42
0E
3B
CC
51
F9
2C
7B
23
EB
FC
C5
02
92
87
D9
F6
FA
B9
27
29
E8
76
DC
58
6E
06
87
ED
DB
E2
DF
18
9D
D6
B5
47
55
47
C5
46
73
14
78
34
89
60
B4
66
52
2E
27
6E
6E
00
2A
CB
13
8B
1B
86
B5
CA
DA
C0
74
AF
EB
89
96
7F
A6
81
D1
5D
29
EC
C8
83
2C
5C
04
21
32
02
03
56
02
05
95
1F
38
13
B0
FC
47
7A
E1
02
41
AE
51
DB
51
B1
37
43
9F
66
39
38
DB
E9
2E
71
27
1E
CD
CB
EB
B3
C5
97
33
D7
16
20
58
4D
41
82
5B
7C
3A
83
E1
25
31
1D
EF
27
34
45
E7
C3
60
30
AE
79
6B
1D
03
7B
64
C7
A9
84
52
51
16
C5
DF
8F
9C
70
B8
B4
4F
52
9E
85
E7
09
B3
48
FC
01
C1
7A
00
11
07
BC
C3
88
C7
E8
53
22
50
DA
C3
84
A4
E3
24
A0
B6
51
11
3D
F0
DE
03
CA
25
10
E9
77
FB
F5
DE
43
57
B4
15
67
F2
85
E3
2D
05
26
68
FD
D2
98
EF
C4
B8
A9
DA
A3
B4
A9
71
74
E1
3A
B9
CF
A9
65
12
8B
91
25
5F
8F
1A
FC
8D
9F
06
9E
FF
7F
45
F2
4A
B6
37
9C
C8
74
01
67
83
3F
70
08
4B
2D
23
00
B9
6B
96
CF
57
71
70
65
F7
0B
7F
56
6B
83
25
7A
32
76
EA
C7
69
D3
E6
2E
78
4A
F0
4B
4D
42
CE
09
58
6E
1B
8F
28
55
12
AE
95
6D
23
2A
CF
B8
3F
97
7C
A9
5B
E6
B1
AE
D1
87
0C
D6
6B
4A
6E
94
CD
68
77
08
96
19
0C
09
F2
06
CC
ED
C5
4E
4A
5F
FF
0E
AC
C1
22
AF
D5
EC
F9
82
CB
79
CD
34
83
41
5A
14
D4
E9
B5
12
D4
03
FB
C4
2F
69
C5
57
F7
85
4C
5D
F3
2E
6A
C7
65
D7
01
41
C9
85
36
3A
FB
00
84
B0
79
67
C7
E1
4F
96
26
3A
6C
A5
AB
96
FC
63
0B
02
77
50
E0
B7
C5
C1
B2
73
C7
25
D8
39
58
75
BB
F9
AB
87
34
D7
5E
F0
75
3D
2E
14
D5
91
5E
48
AD
BC
2F
D8
2C
7D
0F
CA
89
EE
B2
1B
DD
24
A5
3A
A1
B5
C0
33
C5
70
97
C1
98
5E
6A
E2
91
4D
5C
73
AA
C0
A3
68
A4
8D
FE
1A
33
68
F0
A4
1A
04
F5
C9
44
5E
EA
35
0A
DE
6C
A1
70
DD
43
A5
54
E3
71
35
72
BD
A6
47
D2
80
D8
3F
C6
3E
B9
3D
77
C2
82
0D
5E
FC
59
30
39
13
F0
99
29
2A
FF
A4
D5
EF
12
60
40
EA
50
87
3A
54
C6
F8
36
5D
32
C4
D0
5D
76
13
D8
CA
1B
58
04
56
77
E8
F2
7B
B0
0F
70
2D
1D
DE
89
9B
BA
36
AB
5C
19
14
EE
F8
90
B3
37
B3
07
A4
B9
0E
B5
D2
B9
AC
25
BA
43
39
66
CB
14
C2
FA
AC
ED
C8
42
77
73
47
8E
DD
AA
EE
BB
1D
AD
F6
30
02
6A
E0
31
4A
44
61
58
24
AE
48
99
E7
12
F4
6F
BC
66
50
5E
FF
F4
A8
25
3B
1D
40
4E
F0
E9
A7
FD
0E
B8
04
94
26
ED
DD
67
F7
D2
CA
21
7F
FA
1B
0B
93
BA
25
5F
48
2F
50
42
A7
3A
F1
01
64
28
56
08
E6
F4
91
49
C2
08
24
15
77
06
9A
7F
4E
E4
18
DD
2A
55
C4
10
B5
C0
FB
6A
95
42
52
7C
1D
A2
1A
00
52
0C
4C
2F
7C
ED
B5
E6
DD
67
86
38
38
93
59
74
84
9F
CD
08
36
21
1A
FC
EE
E1
79
FD
46
2D
A2
58
26
AE
8C
42
94
56
F0
AF
14
A3
84
DB
26
0B
27
BB
0E
80
12
AE
22
96
51
28
FC
84
E0
71
A0
64
7C
4F
B9
A2
03
52
35
5D
7F
D6
B4
B0
BA
60
AD
43
91
00
A6
A7
ED
13
89
01
97
10
42
96
6A
25
AF
2E
5C
10
E5
27
1E
7C
67
79
39
F7
EA
35
1B
AA
96
46
88
0A
9E
42
AC
EF
D7
DF
59
F2
6E
EB
30
A0
9B
24
6E
B7
67
C2
01
4D
16
E0
05
AE
88
8D
1C
AA
A2
67
99
CD
86
40
9B
78
9D
46
06
63
63
1C
21
12
E6
4D
B7
15
15
E6
EC
84
7F
54
89
C2
85
E4
6F
2D
AE
81
E8
8B
56
1C
E7
07
98
5A
38
64
16
CC
AE
50
AF
A5
D5
54
57
72
1A
88
D8
6C
26
7F
EF
52
95
D7
F0
AB
76
F4
35
BD
92
B0
BB
9A
63
B3
44
9D
08
89
94
3E
A5
C1
8C
6B
62
C2
99
12
BD
A1
D8
E8
C0
23
68
80
82
80
F3
3B
57
8A
F6
1F
87
76
F7
18
EF
AF
AD
D6
75
B9
53
A2
26
BA
6D
C2
11
9A
89
18
68
7C
F6
12
82
A9
86
5F
91
0E
1B
D6
4F
91
6F
6C
DF
7A
30
53
74
74
2B
8C
00
04
55
5A
74
66
DD
FD
7F
9B
07
2E
19
42
92
38
B3
7D
D6
D5
EF
91
31
60
0B
CC
9A
67
25
7D
DA
21
FB
81
80
0C
54
8F
8C
9B
A8
22
5C
F7
34
CA
48
BA
0C
D3
81
41
F7
62
69
7B
7F
50
A9
EF
4B
CC
EE
3E
0C
F5
1D
4D
91
88
F2
9E
92
5F
D8
D4
92
3D
06
8A
F2
49
0A
AA
C5
D3
D2
2B
2F
12
7D
DC
C6
C4
DA
67
46
DE
E2
F9
9B
13
69
6F
F6
8D
19
DF
5B
D6
8C
FB
92
99
56
67
CF
CB
6A
D9
D0
4C
83
D0
AD
4C
14
1F
4A
69
8E
EB
43
1C
0C
09
BA
26
71
B6
89
C4
92
46
61
A7
38
4A
F8
C7
0C
FD
83
6F
33
84
33
BD
2D
45
49
2D
D0
AA
E0
9F
E8
A9
ED
6C
80
31
11
D6
48
1E
4B
24
06
3F
B2
AF
12
9A
96
DC
D2
81
6B
FA
06
FC
98
E6
C5
EC
3B
DD
B5
4A
24
10
11
58
C3
7B
1B
D9
4C
03
F2
66
91
D6
60
FF
7D
7C
CC
30
1C
7B
AB
96
6B
86
DC
97
1D
E9
34
4F
EF
84
7A
BD
76
8B
6C
AC
65
EE
CD
70
DB
F8
47
D8
FB
57
10
C0
06
9C
DD
2B
D7
80
77
4D
A8
12
D8
73
49
EE
FC
B4
24
49
B6
51
1A
DE
22
42
14
37
8A
48
E3
A5
D8
C7
2A
C8
5E
DC
32
ED
A4
D4
5C
84
F1
6B
46
9E
37
CC
0C
B5
CD
56
6C
36
29
37
B4
AA
7F
9A
D6
54
BA
B1
2D
EA
1E
77
10
CD
E3
C9
4A
08
FB
CD
1A
E9
0F
6F
C3
0E
10
94
16
16
ED
6E
56
B0
89
09
70
E3
8D
2B
78
FE
D3
D7
A1
2B
CF
83
94
04
2F
0D
95
1C
B0
15
40
DE
BA
2B
9F
00
D8
9D
BD
E9
21
1A
1B
DF
D8
3D
51
08
F3
13
06
4C
90
B9
B5
48
93
06
65
0B
7C
9B
C5
4B
16
0E
0D
66
14
BF
DD
B1
43
71
B6
18
EF
BF
39
ED
BA
40
2B
86
5B
32
AD
B8
64
20
0D
38
2C
00
2B
ED
A0
A8
A8
87
A2
5D
48
78
E2
39
DE
1E
48
EB
01
DA
D9
04
D1
36
F1
93
04
8F
1D
6B
59
92
3D
BA
56
89
78
4F
8B
85
2B
E1
4D
0F
90
51
FB
6E
F3
E7
7E
37
FD
71
4C
31
6E
87
62
F1
3D
AB
2E
2E
7B
8A
4E
93
D1
9D
A2
20
D7
D9
73
60
F0
EF
92
5D
B7
CE
1C
61
B4
7D
98
E8
83
D4
1F
3E
83
AB
10
D6
4A
46
72
71
A3
38
2C
99
80
8D
30
47
CC
62
56
07
71
9D
91
98
F5
9F
4A
26
C7
21
7A
6F
64
07
7B
BE
03
41
33
5C
DD
6F
93
BD
F3
05
BD
3A
4E
99
8C
F0
2B
DD
57
EC
A5
F7
AA
2D
60
06
53
28
84
E0
F2
0C
96
51
69
B4
DE
47
5B
F6
07
14
62
85
D8
81
14
38
0A
C8
05
2C
71
0E
C6
AB
CB
EC
DC
14
A2
3D
34
AF
14
90
56
F4
5C
C6
B3
A6
BA
23
C4
81
91
1F
55
A1
E3
8E
88
01
F8
41
5F
15
35
C5
F5
C4
AC
F1
C9
1F
EA
B7
AD
36
E8
D2
EA
4B
E1
BD
70
DC
25
C8
DB
EF
77
47
CA
A3
53
DD
46
76
E0
12
9D
28
E6
BF
2A
7B
22
26
EC
BC
DE
1E
BA
12
9C
F4
F2
5C
3D
84
A5
40
0F
9D
95
8D
14
81
D4
9B
1F
D7
EA
43
41
83
0E
F3
26
F6
40
62
B3
5C
46
61
5E
36
96
7F
57
DD
F2
D8
F9
13
F7
E5
7D
51
6E
39
E0
7B
05
8B
19
18
D3
FA
A2
CA
B9
A5
7F
4D
99
AC
48
C5
E9
68
21
B7
8B
B2
62
B2
4C
49
57
A8
EE
21
19
D2
72
E4
21
30
70
09
CC
2C
4C
E5
9D
1C
81
64
E5
A6
9F
7F
2E
A9
B1
CC
0D
9B
5E
08
27
AD
3C
4D
47
27
8A
FB
BB
5D
64
E4
17
6A
C3
D4
C1
D7
21
63
3F
DA
FA
A7
6B
FA
CF
00
C8
F8
5E
2A
A5
34
D8
A1
59
AA
66
C6
BA
93
07
54
04
EC
87
60
5E
01
61
FA
CD
21
8E
BB
8A
B6
04
91
9D
F9
92
64
0E
6A
C9
E1
93
08
88
17
7A
31
B8
76
FA
86
B5
9D
91
C0
9C
85
7F
4A
F3
AD
86
CF
E7
58
5C
D0
F9
17
14
CD
3C
8B
54
28
2A
80
21
EA
37
F7
A1
6A
C5
96
A6
5A
71
CD
6B
4D
93
21
B2
B4
2E
65
82
16
B5
B4
F0
25
A8
A8
8D
F7
CA
58
D9
B0
C1
9A
D5
43
1E
1A
7E
05
65
A8
C2
B0
3F
F6
98
26
59
E9
60
17
5A
CA
BA
B5
B9
71
C5
E9
F9
D0
3B
B6
B6
7C
3B
97
2D
3D
23
A4
6D
C3
28
A8
5E
87
34
7A
17
05
23
C8
CC
C6
C6
AC
58
44
1D
9B
24
CF
17
C6
A8
FD
26
12
98
57
6B
F7
1C
1D
F9
6D
9E
FA
7D
E3
6A
67
14
43
E6
97
66
CB
81
7C
99
7C
F7
A0
DB
B1
8B
DA
81
67
84
DB
FB
92
BC
AC
97
D3
5A
38
E0
1E
37
82
3E
3F
E1
EE
61
2A
4D
77
88
33
46
D7
FD
D1
A4
24
45
F5
23
EA
A5
CD
49
85
13
F3
1C
2E
4D
9D
4F
B8
53
FE
90
38
88
3D
80
DE
BA
78
0D
C8
C2
9A
76
F6
A8
02
01
B0
AA
96
03
8A
7B
29
F3
8A
75
A1
41
98
31
1A
F5
88
AC
28
59
46
45
0B
AD
3D
24
49
B1
D6
C9
B6
3B
82
AD
35
E7
9C
3B
31
B3
71
5E
8A
60
C9
AF
D6
AF
66
08
76
A6
3A
B4
43
7E
21
8E
54
C5
96
46
08
3B
44
38
C9
9D
C7
17
D2
D5
A9
0E
18
9A
55
55
77
52
D4
92
F9
49
30
79
99
36
D5
D5
1D
C5
FD
12
56
19
F8
E7
C5
A9
4D
C9
0B
78
55
44
5E
F2
EC
C3
5E
42
D3
81
DD
73
6A
AE
84
42
CD
FC
12
B3
E4
FD
02
05
C3
ED
5F
F0
AB
04
93
71
9E
DF
55
09
69
9E
E4
25
8A
3F
FE
7B
65
C4
37
4C
F0
4C
FC
65
BE
40
ED
0B
FE
96
30
2D
DF
FC
18
30
34
44
A1
F5
CB
4F
D3
DE
17
E9
92
0C
71
61
76
19
87
24
08
D5
19
F9
8A
DF
90
FC
8A
FB
C4
67
FB
3F
1C
52
CE
CE
2B
EA
CA
8A
FB
AF
46
3D
0B
25
A1
CF
7D
B9
E5
AE
CF
1B
5D
F7
8F
7B
3C
7B
04
EE
06
45
BE
93
13
ED
C0
D4
1D
4A
C8
F1
28
B9
1D
1A
BB
F3
D1
45
D6
09
26
84
5E
8F
8F
D4
6A
0B
B1
9D
55
C6
9F
04
CC
E6
15
94
E3
DA
E3
FE
87
57
C6
08
7C
31
EC
05
7B
8E
AE
4A
E6
3A
DC
91
CE
C5
BD
FA
E2
3D
AF
69
6C
D2
C2
86
14
47
04
52
CD
F3
4E
03
F2
EE
FE
C4
19
BD
50
B3
13
E3
43
E5
A2
31
56
A8
F6
CC
BE
DC
B3
35
92
DE
73
35
3F
2B
E6
E0
C3
C7
C2
DF
4A
6D
39
9B
E0
C5
B4
67
27
AE
9A
32
16
BC
84
F0
E6
E9
6E
49
97
94
9E
=======
6C
E8
B0
62
DF
8E
82
F8
EF
9B
23
57
15
A5
06
C6
43
B0
99
8A
44
6C
E8
FA
A4
0C
76
27
E8
3D
56
7A
30
09
C0
8D
8C
07
42
88
A1
2A
AD
8A
6C
21
18
2B
55
FF
0B
C3
34
53
35
3F
7A
15
6A
D5
56
29
AB
D6
B2
C3
C0
70
82
FB
2E
5B
29
B6
65
4D
61
25
AA
D3
9F
C5
63
42
6C
EC
81
B5
32
DE
D2
31
F9
12
5B
2D
D9
98
6A
7E
9C
87
8B
90
A0
F3
3C
63
3B
AF
1F
EE
DA
67
F9
A1
D8
AE
20
D8
77
FA
2F
B4
B6
5B
04
AD
89
F3
1D
01
AE
18
9D
23
16
70
BD
2A
D4
4E
15
41
94
2F
8A
B6
EA
80
21
E0
0C
3C
98
AA
64
74
CC
2E
A0
E3
4E
F7
17
CE
47
47
6B
5F
D3
C2
0A
82
2D
21
10
D7
65
F3
C3
6D
15
AD
AE
B1
D9
B3
18
D3
A8
F1
FF
0D
1B
ED
9B
3C
4F
8D
A9
8F
8A
3A
FE
4C
04
CE
AA
A8
65
A2
D4
5F
CA
0B
D7
F6
D9
38
A9
48
DE
CE
FB
F6
58
52
67
13
8A
2D
41
49
19
D9
36
4E
C2
83
C7
A9
96
BA
AF
23
EB
CE
5A
16
6C
18
15
6B
FA
40
64
6A
BF
6D
9A
3C
ED
3E
78
AB
77
07
5C
91
1B
67
C2
9D
1B
7B
6B
4F
07
E5
8C
46
95
A9
AC
04
1D
00
4A
E9
88
4E
84
67
01
31
1A
7D
5B
5A
8B
40
62
69
90
05
0D
9F
85
CB
5B
EF
60
4C
84
55
04
E2
37
6E
38
2A
92
BB
9B
97
C3
E0
4D
1B
8F
67
44
5C
02
9B
75
98
7F
11
77
03
44
3F
3A
7C
A4
C8
20
4C
19
5B
3D
75
27
49
31
C0
7B
15
6F
CF
C9
6E
E8
CD
5D
55
12
40
79
AF
D5
52
73
AD
C4
D8
1B
55
7A
DF
75
12
A9
FD
4B
AD
56
80
66
E2
D0
29
81
D6
4B
98
43
58
D6
F9
D7
DB
CF
5F
3B
76
C2
3F
94
BF
9D
B9
1D
6A
38
1B
70
70
7E
6B
64
03
D5
CA
4C
9C
C8
E9
C2
4B
1C
B5
0D
29
EE
6C
8D
75
A4
06
74
AC
56
6E
3D
69
8C
8A
E3
2D
9F
5A
D0
B8
2D
AE
A6
B1
73
7D
82
62
EE
F1
C6
3A
6F
C6
47
7D
96
D7
17
1E
2C
D4
FA
6D
E5
70
4E
D3
91
D7
25
18
01
7D
49
D8
07
3D
7D
BF
4A
09
BF
3F
E0
FF
0D
D0
B5
C4
A2
93
7C
53
F3
B4
FF
AE
37
11
25
96
9E
F7
AF
8A
4C
18
1A
78
9F
D3
13
6D
B7
FF
8B
26
31
E7
2A
A1
9E
53
BC
83
FE
EE
1E
FB
88
BF
5A
24
25
CD
DF
99
81
CE
3C
3A
9C
AC
C9
69
A7
DB
C2
C5
76
01
6C
91
64
FF
5A
5B
40
77
3D
AB
41
20
E7
89
3E
E7
8C
87
48
32
6C
6B
CF
E3
50
E3
91
F3
F0
07
5F
D1
E4
04
ED
2C
85
15
99
82
D2
93
56
91
4C
36
7A
BC
F8
F3
4D
94
BB
38
4D
83
59
07
58
7D
0D
81
9E
DE
5E
06
0E
A5
35
51
1C
67
83
EC
D5
3A
FB
57
61
F8
26
46
7B
8D
47
B4
AC
EE
18
BF
46
5F
4C
AB
D9
BD
9F
06
63
A9
BA
CC
87
47
F1
DC
46
66
89
28
82
8F
58
D1
A8
53
B3
1C
52
F1
F0
83
C4
02
C7
0E
2E
15
F6
D9
98
D3
CA
10
02
41
3C
12
0D
CD
BF
50
AD
C7
04
88
BD
1A
79
D7
46
19
EC
EC
AC
93
B4
86
5E
13
36
81
C7
76
24
FA
8D
5C
37
B8
63
1E
BA
51
98
17
EC
84
06
FB
65
B3
C7
95
5C
4F
F6
36
C4
2C
ED
39
48
42
36
11
3A
76
4C
E5
3A
13
76
46
9A
DF
0D
89
1A
C9
9D
B5
4E
12
EA
90
FE
7F
80
45
47
38
5F
C0
06
7D
7C
E7
BE
7A
C8
21
6E
C7
ED
5F
76
F7
5F
83
AD
2F
C4
8C
3E
52
C7
31
E7
5B
F2
0C
7B
B3
DB
17
0B
48
16
6D
8C
40
16
69
FD
C6
15
D5
2A
6E
D0
29
10
00
3F
CE
3E
B4
C6
38
FC
F0
6C
39
D0
41
4B
51
77
51
E0
39
23
47
67
42
AC
37
6D
9B
44
53
24
FD
FB
91
83
63
DA
4A
C9
39
58
3E
84
3D
47
78
D0
63
F6
A4
4F
18
80
62
E4
7A
D3
7E
9E
50
AB
FB
54
23
56
B7
BD
18
5F
F2
BE
14
4A
1E
49
2D
A6
B7
68
D4
EE
0F
C2
FC
35
32
0F
FA
57
C5
B0
71
CA
0F
9C
67
9C
BF
28
88
35
38
70
16
D9
76
A5
DF
0F
0A
D9
10
62
9A
DD
FE
13
6E
2D
E4
DB
E0
71
38
B2
30
AB
03
76
A6
2A
A0
B0
31
74
7A
08
E1
54
92
B9
A3
61
05
AC
91
51
2F
95
EE
D1
D1
9F
19
41
0F
C4
9D
29
D3
D6
4A
B7
9A
C4
78
A9
C9
29
56
81
C3
34
8C
8A
48
DF
A1
FD
85
BA
2D
55
D6
49
C5
0D
3A
FA
EC
01
8B
26
2F
A1
AA
79
E3
B1
5F
0E
CF
81
14
C6
9F
15
A0
9C
03
1C
71
7A
C8
28
03
08
7E
3B
AB
6C
AA
0D
4F
88
B4
74
CC
99
18
25
4B
83
E5
C8
EE
D0
6C
18
44
0F
C1
27
05
8E
20
31
55
62
5E
5E
27
78
17
B2
8E
33
1F
DC
E2
44
F4
FE
B4
F6
78
61
75
04
0D
9E
A9
13
03
89
90
4E
98
C6
CE
91
26
BC
A9
6E
42
CB
E2
01
4F
D7
AD
5C
8E
EA
D0
0C
8A
86
EE
03
9B
D9
04
A9
13
38
FF
6C
1E
65
BC
1B
E9
FD
B7
69
28
08
3C
68
84
50
1C
B6
4D
D7
BF
E3
70
1C
09
BB
9E
F7
EA
45
6E
8C
FE
3D
C9
A7
1B
CF
15
94
3B
21
13
8E
3B
56
D6
C7
0D
71
17
11
C0
69
AB
9B
30
D7
11
46
46
37
24
F9
09
70
FA
E9
9F
0C
B8
4D
64
B7
2D
C7
14
11
34
6A
CD
B5
8A
C3
73
CC
CB
5B
57
70
18
35
BD
E4
00
B6
71
AA
60
BF
AF
5B
30
28
F6
B0
3D
CE
9F
51
D9
E1
71
DF
95
52
D4
B4
46
32
7D
82
EC
B9
30
C1
B9
05
5A
E0
F7
CE
EA
29
2B
D8
E8
12
03
B6
8D
10
11
A7
91
EB
77
9A
4C
A0
DF
1D
C3
4B
BA
4C
6E
B0
90
D2
CF
B7
CE
EB
4F
3E
6B
83
57
82
E2
A0
B9
6A
97
06
6F
30
5C
DA
CB
36
72
35
D9
99
62
3B
D5
62
4D
FE
5C
C7
4E
5B
FC
38
50
AD
E9
6F
78
1D
8C
04
C0
40
9C
99
2D
23
2A
9D
55
E1
8B
B5
6C
5A
10
0C
3C
EF
3F
52
65
40
51
1C
E7
E0
57
02
D5
66
38
59
D8
1F
DA
67
0A
EB
83
7A
EB
28
8F
B9
BA
34
1A
F9
24
C6
83
FE
0C
74
C0
4B
0E
7E
19
81
EB
FE
E7
CA
6B
1A
04
6B
C4
51
BE
9B
12
B4
F6
51
5A
67
88
4C
2A
82
60
E4
B9
54
DC
B5
82
58
47
18
F0
F3
E3
9B
A0
78
F5
04
AE
41
43
77
7A
8F
24
14
47
E5
78
11
B6
6F
94
AE
37
07
53
C5
36
55
48
38
B4
BF
F3
5C
16
6D
47
12
70
DA
D2
7F
05
AC
67
60
1F
81
B5
C0
E4
B0
FF
EC
B8
6E
96
82
45
12
0E
A9
4D
12
D2
14
51
1B
94
E2
9C
6B
64
E8
72
23
15
27
C2
92
72
42
AD
8E
27
98
64
E1
BA
B1
57
13
42
CF
39
38
72
98
BF
C7
76
8B
99
D1
8D
C6
EA
1E
22
26
C6
46
4C
90
BE
80
ED
2C
D6
7F
74
8A
B9
21
DE
45
A9
DE
29
7C
9F
26
B5
96
0F
DB
4D
5A
D4
30
1B
ED
D2
00
9F
45
E4
9F
C6
A5
C4
42
4D
81
4A
D6
CE
FF
8F
55
E6
D5
38
8C
C4
53
47
DF
A0
58
DE
2C
1D
4E
4D
4B
70
FB
26
D7
A4
70
F9
EB
09
66
24
79
4B
28
A1
F8
E7
E9
AB
C3
5A
B1
A8
31
0E
D6
3C
89
90
C6
BB
41
D5
3A
39
98
40
26
B4
32
75
02
71
50
EA
CB
4E
4B
42
06
F8
03
44
30
88
F5
E0
19
2E
54
E5
A0
C8
58
32
64
57
7D
1A
AF
40
82
F2
4E
7E
14
A8
01
9C
A3
34
E8
33
30
E8
7E
57
1A
9D
C6
29
33
2B
9F
2F
1C
39
83
46
E4
F7
13
F1
B0
8B
47
C4
0B
7E
DB
33
66
9E
49
9B
3B
31
10
F7
E8
14
F6
86
C4
76
BD
D1
BC
37
9C
F7
ED
3E
B9
4C
16
40
45
18
33
EA
CD
E7
EB
D4
95
38
DD
55
F5
3C
94
76
05
93
C7
F3
19
C6
A0
7C
A6
4F
76
88
8B
26
55
EF
62
E4
AC
A1
8D
0F
18
A3
15
25
FE
8A
32
16
0F
E6
96
16
1F
21
AF
C3
DD
74
C6
D1
35
60
67
74
41
26
28
DB
53
3E
85
3C
5D
7F
D7
0F
30
75
1A
95
A4
46
93
E9
6F
C2
98
7E
23
BB
41
A4
BB
34
88
86
9D
13
5B
6E
94
B5
B4
11
FE
A9
3C
13
6A
05
A5
BB
D0
3C
02
31
3F
6B
D3
67
41
7D
C5
17
9F
C6
66
30
3D
49
E0
33
B7
56
36
5E
07
B9
00
13
51
90
64
A4
FF
F1
C5
84
79
34
2C
8B
C5
EA
E1
68
F3
BD
AE
6B
5B
95
64
57
73
41
F5
3E
37
9F
BB
39
54
5D
60
C7
56
9B
6E
72
FB
D7
05
DC
76
D9
EB
C4
E7
31
7E
54
8C
8A
67
9C
AD
D3
EC
C2
C9
CD
92
2F
0A
90
DF
4D
46
82
9A
B8
1E
C3
00
59
FC
0F
EA
F8
AE
B6
F3
59
4A
62
20
79
1F
35
FD
E1
C6
71
27
B6
9D
91
1F
07
41
24
C4
1A
23
DE
10
33
3D
1A
7D
2B
9F
6E
07
3B
14
89
3A
C9
1C
EF
B0
48
54
F2
E3
98
2F
C4
BE
06
EF
B9
D6
67
6F
A8
9F
16
3D
38
89
DF
EA
D2
0A
21
F7
72
65
DB
C3
A5
45
43
E4
CB
7A
BD
0C
F8
E8
51
0C
8C
BD
F2
C5
B6
AE
42
63
A6
21
6D
B6
EC
E3
F3
F6
C0
64
C1
62
84
90
FE
3B
9F
E7
EE
F7
1D
67
A3
42
8A
B5
A7
36
87
CB
B8
E6
BF
D4
BC
7A
20
27
92
41
BA
21
31
81
92
77
79
E7
5B
00
53
1D
71
D2
89
F0
CE
81
8F
C2
58
D4
CC
57
63
93
7C
17
BF
3C
5E
C4
CB
D6
11
BD
E4
94
08
46
4E
57
F0
BC
C1
43
FD
A5
12
7E
FF
FD
54
8B
79
C1
EE
15
C3
93
BE
93
4D
01
65
51
2C
E8
26
80
E6
ED
CA
1D
85
5C
21
7D
FD
75
47
60
03
7B
58
17
2F
78
A5
0D
95
C5
CE
23
4D
91
DF
90
90
8D
E8
12
49
98
B0
FC
A9
02
C8
B2
94
39
9A
F0
7A
F7
04
45
87
74
1B
3E
B7
B6
53
DC
59
17
82
4A
E7
C1
A0
CF
4F
48
BC
9D
DD
72
46
98
9C
F8
FD
67
AC
DA
E8
4A
C4
0F
A1
7F
94
46
A2
C6
86
CB
5E
99
7A
68
12
37
12
E5
39
15
97
B4
E8
58
CD
71
DF
12
32
30
F5
9E
58
87
D0
19
F6
E4
13
A9
5D
E2
3B
>>>>>>> 3c744f089472803f0ea1f05f1e58404e4e422e63
