10
D9
6C
FE
62
4C
0D
BC
FB
4E
5C
E1
51
DF
EC
4C
67
88
97
9F
D5
24
69
53
F8
B6
C2
91
97
AE
E2
CA
F9
9A
E3
9E
12
4B
21
76
A4
30
89
33
E6
E3
16
BB
54
BF
27
65
07
4A
E2
25
1B
05
1A
0A
04
3A
41
DA
90
62
BD
79
64
8A
FC
B5
A3
A8
03
8B
75
67
2D
E8
92
CE
4D
3A
FE
27
E3
21
3F
98
CA
F6
5A
CC
CF
97
EB
14
AC
5E
68
D3
BC
00
7B
23
67
0D
C6
95
E4
DB
E8
4F
7F
C4
0C
34
9F
2F
D1
08
A0
6A
E4
6A
54
8D
8C
61
7A
D2
63
B4
71
6A
1E
68
B0
D9
81
3B
3B
B8
0F
3E
45
36
88
72
04
5F
48
51
48
A8
A5
CC
A8
DE
CA
75
E7
78
35
CF
01
BB
B7
F3
51
E1
D5
87
D0
A5
E0
C7
3A
37
63
6C
D6
CB
6C
2A
85
AD
56
A7
07
C1
5A
4E
BE
93
59
4F
8A
46
CD
4A
6C
5B
10
FC
3D
9F
11
D1
9C
C9
AC
B2
10
FE
73
A0
41
40
5C
13
E6
62
D3
27
67
90
B4
42
E7
92
5A
CC
CB
5B
51
04
65
6A
43
F9
18
A8
C0
CB
E6
D8
71
C8
8A
3D
00
F7
F8
E6
39
3C
0C
31
99
60
9A
E0
6C
B7
11
EB
93
75
70
F9
73
CE
0F
1A
56
7F
0B
07
09
75
86
81
3A
31
FE
D6
C9
CA
98
6E
68
D1
2B
EA
38
72
F9
FA
87
65
F0
02
D9
D8
47
11
3D
D6
3A
73
9C
96
C9
84
C9
80
23
FA
10
D8
EA
2D
41
29
66
1A
05
42
7E
F8
39
9E
3B
8C
44
75
01
1D
9B
F5
9C
FA
3D
65
52
67
A8
F2
34
8E
C4
07
E6
BC
51
BC
97
30
D9
AD
5D
B4
D3
F5
09
95
A8
F1
37
6C
B0
37
56
34
DA
CE
B5
58
B0
56
0B
85
FB
EB
F7
1A
72
60
07
95
A3
AB
EC
38
A1
72
50
1E
C8
E6
EB
84
E9
B4
3E
36
1B
AE
95
9B
0A
DC
9D
4F
CD
68
CF
3E
A6
FE
BB
2A
F6
88
C7
0E
2E
0E
65
3E
F5
BA
1A
64
7E
7C
81
44
92
C0
F4
3B
75
B8
EE
55
8E
AF
34
38
7D
0D
D8
BF
9B
91
B9
F5
97
D6
68
92
47
DE
C5
9D
6A
A9
7A
FC
FC
95
8F
8E
88
20
2C
6A
CD
A9
AC
C3
97
83
A6
EA
71
A0
AD
9F
B0
CD
C6
B4
DF
43
26
C3
63
BD
17
4F
9F
D7
F7
09
B6
FE
F4
21
CE
78
4D
D6
FF
8E
FA
82
EA
44
99
9E
B9
5D
5E
01
62
AD
3A
90
02
E2
3B
F0
CF
B4
E6
9F
C4
52
31
6A
54
7F
4B
DD
7C
6C
FF
66
89
78
41
96
52
F1
FD
63
18
2A
B9
94
43
80
BF
11
3C
26
9D
FD
1C
16
69
A3
CD
64
E2
5F
1F
66
B7
40
62
2E
38
CC
89
6B
5B
F0
82
51
0D
5E
FF
36
DC
E4
BA
C2
46
16
4B
1C
65
56
B0
74
89
8E
3A
23
BE
BA
1E
D7
59
D8
5C
C1
BE
92
FE
D4
C1
CB
44
2F
70
56
BD
DE
D4
2C
33
C1
0F
FD
58
4D
3A
AC
7E
F4
75
06
A8
F7
72
38
1E
69
AD
40
FD
72
DC
37
D4
92
23
85
F9
2A
C3
DF
53
B6
9E
85
C8
C9
79
42
66
A2
22
08
DE
CE
3F
F8
B9
7A
34
C8
D4
57
65
6E
B7
46
75
3D
EE
FD
F6
58
A1
72
F1
24
F6
B4
E3
0C
1E
9A
9E
1D
33
06
82
0D
58
DB
F9
06
4B
A6
27
B1
80
C3
09
86
B6
D5
3A
75
15
E1
DF
37
27
52
FD
39
64
66
4B
FD
6E
28
2D
9D
80
49
0E
93
40
4F
BB
40
F8
72
4C
23
BE
AC
DF
93
E9
BD
52
B0
C2
50
9B
55
8E
0F
01
7C
E3
B0
02
65
AE
3D
9D
B1
AD
2F
AA
87
B3
D5
81
8D
12
5F
4F
29
CC
31
5C
37
69
52
6E
92
14
0C
66
35
3F
D0
30
CE
A4
58
E0
4B
1A
E8
99
C2
36
5D
2A
E9
F3
FB
65
27
1C
61
23
8C
93
36
35
26
18
39
E1
BB
45
13
A7
44
3E
13
B8
58
A3
64
6F
5C
81
0F
60
68
95
8B
90
68
DF
10
25
20
CB
1C
84
B1
D3
B8
98
92
6C
46
5B
B3
13
F1
B9
41
48
8C
E3
C0
A6
36
D9
CD
03
B7
73
DF
F2
40
0A
6D
F5
4F
FD
7F
12
9F
A3
FE
65
9C
F1
BA
DA
1B
AE
17
AC
1A
82
9E
AA
E0
C4
C7
8C
A2
C7
2F
8C
B7
77
AC
BB
98
93
06
B8
CD
7A
C4
55
B4
D7
48
DB
45
BA
4E
33
A8
6A
71
6E
48
F7
7D
B4
A7
FA
9D
6C
FB
E7
CB
54
F2
E1
0F
C2
71
9B
06
2C
42
37
12
87
74
A4
8D
56
DF
E8
92
0F
2C
3C
85
4C
95
E6
90
C2
EC
9C
FE
EF
CD
C6
E0
08
E8
AB
33
3B
CF
D0
8E
4D
19
13
42
4C
DD
B4
F5
F4
FF
10
1D
F8
43
77
0C
46
19
E4
EA
0E
08
17
19
46
A3
1E
C7
65
E6
47
0B
E1
D0
84
D2
A8
4D
6E
2F
15
87
1B
E7
97
AD
90
8A
70
D8
5F
86
49
74
33
3D
FB
DD
66
E9
F7
EF
0E
C2
48
60
50
0A
33
B9
8F
C2
C6
80
20
83
81
6C
06
50
F5
E6
33
AE
37
7F
22
69
3B
C2
83
EE
16
43
AE
35
66
A6
D0
9E
27
E7
FF
F9
3F
E7
C2
CD
E6
35
46
A5
54
FF
6E
15
96
44
3E
EF
9C
EE
CC
62
CD
AC
AA
4D
D9
FF
BA
5F
B2
00
2A
C8
C4
C8
E3
E2
F6
4F
0F
C4
DE
42
C0
26
C0
40
D4
89
43
D4
F1
E2
ED
99
FC
FD
30
6F
0D
66
33
20
87
DB
71
7B
E8
DC
6A
09
ED
18
1C
07
5F
44
94
CB
D4
B4
D9
89
DF
88
4D
E7
77
58
08
CA
D7
DB
FA
96
C9
01
AE
F5
6C
53
4B
87
4A
67
29
1D
3C
F4
B2
DD
18
3C
B7
7E
33
1F
B2
6A
A1
D1
C5
AC
AD
04
7F
4C
5B
56
13
6A
75
E7
D7
97
D8
D3
9A
F5
92
11
5B
33
63
5B
85
2C
84
9E
8F
97
7E
A2
93
90
F4
7A
4F
35
B9
2F
46
6C
65
A9
E8
AC
D6
BF
4D
A5
18
38
2A
BB
B2
8B
99
4A
E3
1C
59
90
3D
34
4D
E5
AF
98
C6
B0
BA
4A
A0
9C
14
7C
19
D2
A4
BF
78
CC
E0
06
2C
C1
8B
7B
D3
42
67
61
3E
D6
4D
37
C2
0B
2B
1B
B3
15
9F
F7
43
00
07
88
FC
6E
12
B7
99
AF
51
65
4C
0B
9E
9F
A8
54
84
45
B4
16
9C
21
6D
79
F3
50
B1
F4
47
4F
8E
02
50
D8
69
D5
A8
33
F7
42
F0
79
7E
DA
A8
E8
06
07
75
AB
27
94
A9
C2
9B
EB
01
67
9F
71
28
AD
62
2D
4A
4C
FE
20
0C
4D
8E
54
1F
A0
EF
8E
1D
2F
E3
BE
A4
27
54
C7
A6
C1
C5
EA
7C
5F
40
6A
62
79
83
73
83
35
0A
58
CD
39
6B
9E
1F
B2
41
F5
88
CF
12
29
09
F0
D2
58
C8
F2
F7
21
01
AE
86
1F
61
17
75
6C
F7
91
BE
A2
54
29
29
CE
35
9C
29
78
F3
F5
3A
41
3F
F1
13
3B
9C
89
48
89
C7
C9
10
64
A2
03
1A
91
27
06
AE
2B
F4
41
01
61
BD
88
3E
82
2F
73
3D
F2
36
B0
63
7A
62
B1
12
B4
AA
BF
10
66
B0
BB
44
7B
90
36
A6
F1
D3
FE
D1
55
FF
DD
AF
8A
0F
B1
2B
B5
C1
FF
51
E0
85
CB
56
60
67
38
E0
98
D1
29
0F
68
6C
1A
35
43
B4
1A
65
DD
C4
95
A2
80
40
25
61
1E
11
7D
9B
6E
8B
E0
01
BA
31
86
5D
69
37
87
8C
47
BC
AA
A8
6A
9E
77
CF
8D
63
44
3A
77
51
1B
44
57
21
E9
76
4D
49
A6
5B
34
88
6F
B4
38
35
DE
E6
CA
0B
21
2C
FD
03
D4
93
4A
07
BE
15
AE
5C
21
D7
4E
CE
73
6A
C2
B7
A4
6C
04
D0
BB
73
95
7A
32
64
79
0B
D7
B4
F8
FC
18
63
F5
83
8B
A3
96
B6
2A
43
68
37
16
23
A9
79
EC
B3
2A
A2
3C
B4
F0
4B
D2
D1
1D
39
2A
B1
F9
A3
5A
CF
C5
E6
1F
A8
DE
E3
A7
91
93
AB
5D
15
E6
8A
89
41
88
B9
3A
14
04
58
AD
63
B6
E2
37
7F
89
C3
AE
2B
5F
00
0E
77
2A
0D
FC
BA
1D
EC
DA
45
AB
99
AA
F6
6A
D7
5B
AF
3D
10
49
BF
E2
90
A1
F0
89
F7
95
92
95
03
B7
42
09
07
1C
D1
4C
0A
6E
66
12
41
F7
48
01
73
4E
73
B5
BE
2C
CB
95
53
F6
84
50
E5
A5
42
B3
E8
F6
8A
1A
D6
3E
78
80
18
4A
5D
1A
B2
B7
C3
B5
C8
7A
C4
C3
DD
C6
80
50
0C
F9
5A
3C
65
AC
5B
0E
3F
01
EF
C1
2B
32
17
34
AA
1F
6C
AC
9A
F1
BE
96
51
95
F5
39
FB
F9
5A
2F
19
BC
18
88
52
60
BA
FC
4F
52
1F
79
5C
EC
73
DE
DE
08
51
A1
79
8B
6D
CF
91
20
91
D7
0D
45
24
6C
29
EA
19
67
D0
B3
88
E0
58
7E
FB
C9
AD
A8
E2
58
1D
74
3F
51
37
FD
47
97
BD
09
93
23
DA
43
B5
F4
87
BA
69
17
0C
AC
55
78
2F
87
8A
AE
6D
C8
AF
E6
04
B4
07
D4
51
71
26
23
8E
05
EA
70
3A
7C
A2
8A
95
A1
30
12
25
C7
2D
C5
E2
29
25
90
E2
61
87
64
CB
90
35
CB
70
71
A4
71
00
81
DA
04
4E
60
5B
A1
75
03
27
07
0A
5E
21
C6
E4
5C
5F
6F
A4
86
4E
1C
E1
99
EB
7A
0D
CF
7E
47
3E
D9
10
D9
9C
5C
A0
0C
7E
E3
AE
8E
35
86
6D
97
DD
7B
6D
43
2B
69
36
4B
FB
3C
80
2C
BB
37
30
30
80
63
A3
2E
4D
F7
14
6B
96
71
24
41
71
21
73
26
2D
E4
17
B2
30
5F
36
F1
4C
69
18
62
9D
06
86
77
2D
25
7E
8A
C6
38
E9
80
39
86
D0
F4
CC
C7
5C
6A
84
F6
5D
38
80
33
46
49
91
9B
E0
08
7F
14
C6
43
BF
FB
79
C3
75
79
17
CF
52
D7
0A
58
8D
02
48
0D
35
09
A4
9C
B2
B1
50
13
92
87
B9
BE
20
04
35
36
A0
66
26
75
66
5F
29
F8
21
4C
9B
A7
09
5A
1C
85
85
AE
AA
CB
21
8B
82
C1
31
35
F3
D7
9E
12
89
E4
87
CC
BA
0C
46
CA
E9
D7
93
CD
8D
7B
C0
37
CB
92
4E
6A
AE
59
52
AD
29
9A
96
48
5D
4F
9F
CD
9F
3D
AC
48
1F
2B
D7
8F
A9
71
77
7B
9F
85
AA
BD
19
58
36
B8
C1
EF
5D
31
E5
34
3E
2E
5F
4C
EC
30
B5
4B
52
7C
A7
BA
CD
C4
79
D9
44
B4
9B
8C
FD
43
A4
59
A0
07
68
68
69
C4
C0
E6
80
02
E8
07
B5
34
49
41
3B
13
B6
09
5A
52
83
04
21
89
62
27
2A
77
7D
91
BD
DA
89
48
75
F1
AE
1B
40
01
4A
F3
85
EE
0D
09
C9
EF
25
8E
F5
34
8B
11
35
1B
2C
3E
B4
5B
90
3B
8C
D7
