<<<<<<< HEAD
7A
33
9D
F4
AA
99
6F
85
EC
E3
AA
04
14
60
88
D2
96
81
1E
32
6A
FA
4C
6E
F6
A3
EF
01
4F
11
8F
E5
2E
E7
C0
A5
74
6C
3F
12
7B
54
E5
E5
8E
99
64
F4
18
DB
54
3E
23
F7
99
A7
CA
22
52
ED
32
90
4C
61
0E
AF
6D
0F
43
B1
78
32
14
33
37
EF
8C
C0
AB
7A
D5
F1
03
5A
12
93
CE
31
21
B7
F6
19
4D
B5
94
2A
7C
17
62
7C
C3
C3
0A
9E
EF
1B
BC
41
74
E1
E8
85
33
6E
ED
48
ED
69
8B
AB
1A
8E
AA
4E
9C
A6
FA
ED
EE
1A
93
CD
9B
34
42
88
22
79
06
8A
87
F6
B7
94
8F
DC
B1
4F
69
C0
F1
16
A3
D5
3E
9C
9D
FA
B6
B7
91
A6
55
B7
01
30
60
66
B0
AF
CA
45
4C
AA
0A
FA
83
5A
DE
69
59
88
BB
D2
58
ED
33
1F
5D
51
C1
85
E6
38
B1
9D
DA
36
6F
9D
9A
63
22
30
41
2C
19
B0
A8
7B
FA
5A
6F
08
11
60
0C
94
A6
C8
88
F5
E7
89
F3
C9
E1
8D
A3
4B
2F
86
55
BA
56
01
E9
A8
19
D9
59
4A
D0
C2
39
E1
07
D7
35
2A
0A
09
0B
8C
2A
D5
D0
68
E8
BE
CD
F7
D2
02
0D
C4
D5
33
78
36
E2
BF
A1
4D
44
F5
B4
9D
38
C2
78
5D
31
5E
13
3C
AA
AD
4A
CA
B1
53
8F
8F
9A
C1
F2
86
1D
26
DE
5E
8B
D7
F6
13
3C
4E
45
D4
66
78
37
2F
6C
E0
D2
5C
86
80
64
C4
0F
FF
B9
42
ED
1F
83
88
49
5E
6E
FE
A7
62
7C
25
D8
72
83
94
B3
A4
13
A4
D9
B8
89
47
C8
C7
17
BA
DD
E2
F5
03
9B
37
E2
C0
D1
97
99
5C
48
23
24
07
3B
64
E5
1E
BD
A9
D4
95
A1
69
35
33
7B
00
98
CE
1F
41
D1
6E
BF
00
90
67
A2
5C
3C
1A
2E
0A
0B
53
F5
78
05
71
A4
9A
D9
A2
AF
0B
1A
11
4A
E8
87
9E
D8
23
D2
B5
25
3D
7B
4D
DD
46
69
71
3A
78
C0
5D
B6
F8
B8
B1
51
73
5C
28
D3
54
6C
A6
14
79
F0
0A
67
7B
62
73
5D
9F
A7
75
33
32
8D
20
41
78
22
15
5C
9C
AF
45
8D
72
EC
DA
DA
47
53
F7
6A
79
37
77
FD
34
B0
16
43
97
8C
1A
3E
84
BC
52
79
89
E5
D3
68
01
30
A8
A8
DA
2D
45
F6
01
70
D3
AB
0C
BD
E4
14
38
87
44
54
D5
2A
92
66
09
93
71
0B
D8
7B
93
A7
1B
60
BB
EF
48
59
92
BF
56
26
77
7D
76
54
41
76
CD
F4
0E
44
70
B0
C7
71
92
BF
42
F0
37
3D
31
3E
83
69
7A
94
65
6A
15
22
4B
35
FF
5C
0B
AC
A4
95
9B
EC
46
33
09
A1
E0
98
4B
88
4F
0D
65
D7
46
F8
22
07
63
49
EE
06
DD
D1
A6
23
77
2F
20
11
B9
14
BD
02
5C
B2
BC
1B
F4
CC
50
45
D9
7E
F9
EB
BF
13
A5
AB
E3
5C
0D
94
4C
27
65
1B
42
A4
AE
E7
B9
94
B6
35
F3
D8
77
B5
C5
FF
32
40
D4
44
94
63
21
E5
E3
14
EE
D8
15
FB
AC
93
49
EA
80
02
0B
E2
38
27
5E
0C
C6
B7
AA
38
1D
DF
0E
30
68
C4
D2
75
10
8C
1C
35
28
32
C8
89
86
0F
84
34
DA
36
8B
2B
F4
80
44
2E
DF
90
19
34
08
E2
D5
49
AE
23
B0
2D
F2
C2
03
0C
6E
EC
3D
A4
4E
0C
61
65
CC
3B
E9
17
47
5C
56
01
8F
98
D6
D5
A7
F2
04
50
1F
9A
B5
63
9B
D6
1F
8D
91
E7
F2
89
7C
E4
69
A2
42
0B
08
CB
EC
C9
65
46
6E
F4
12
FA
9B
A7
43
82
E9
00
9B
09
B3
90
34
61
58
4C
84
58
7D
A8
7B
22
37
7B
BD
CF
A0
BE
44
01
96
75
A1
7B
16
97
49
17
FF
B2
8C
49
2A
21
A8
A5
58
95
B0
15
10
F2
F7
99
60
D9
24
AA
F7
87
9A
B6
7D
69
98
26
ED
B4
13
DA
70
0F
2C
9C
72
59
13
EE
05
EF
EC
E5
78
90
F3
13
58
7E
11
DA
3F
1B
4C
28
0A
2D
6E
B5
B3
91
17
93
C8
1F
B2
6B
FC
5A
99
92
F1
40
75
53
72
A7
9F
E2
8D
93
17
6E
69
04
A6
41
3F
AA
8D
9D
75
74
44
34
FD
41
A4
21
4B
DE
03
95
BB
2B
B4
42
3F
0B
F7
85
F4
8D
5F
CE
86
3A
40
1A
05
4C
90
09
0F
10
AD
48
30
60
73
E0
B1
E5
B4
5F
DD
0B
AC
2F
72
29
9C
45
FD
63
95
7E
11
B9
C1
12
20
A6
BB
AA
2A
3A
71
C1
8D
16
AD
49
F8
17
B5
3C
82
70
23
AA
9B
A4
63
98
DE
2E
94
13
95
97
3A
2F
BC
C9
91
D2
48
CB
98
56
2B
50
DE
97
57
9D
ED
8A
82
0E
61
6D
16
DC
ED
E1
B3
19
5F
B6
1A
87
57
1B
CA
57
9E
C4
DE
15
87
BE
0C
11
A2
3A
C5
2D
36
84
13
23
78
32
AE
E1
FE
94
56
6C
71
0B
8B
2A
FB
31
76
80
7E
83
37
46
A6
F5
76
6D
DC
70
14
EE
CD
A9
08
0F
76
D3
CD
10
B7
A5
5E
9F
F0
98
37
D9
97
0D
64
06
81
CA
36
A8
0D
1F
D1
FE
F2
8A
6F
6B
74
BC
78
34
D5
91
CB
BE
AC
9A
4C
C8
5C
36
B6
72
AD
B5
9A
17
DD
D1
F6
84
5F
77
1B
2D
1C
D6
B9
12
F1
4A
E4
CF
EC
14
E9
D7
2A
AB
63
B3
A1
B5
1A
F5
5B
A9
85
D2
E5
94
51
D4
D2
4E
15
C4
BE
D0
24
19
D2
15
90
91
13
A5
A2
33
7A
62
AA
58
E5
EC
47
CF
59
CF
F4
3E
CB
07
B8
D0
5C
BD
9A
86
28
AE
4E
43
CE
10
D7
41
0D
10
92
03
54
F5
E7
AB
8E
59
EA
84
35
8C
F6
F1
27
90
22
AE
15
A5
C0
A7
D5
50
33
79
77
EF
D1
BB
5B
4D
02
6D
7B
AC
51
B3
E9
05
CB
45
D7
A2
F0
D0
90
6D
19
A3
38
0D
9E
C3
2E
EE
A4
88
61
47
C0
BC
23
BC
AD
F3
CE
8E
B2
93
93
35
FF
D8
D2
FC
CD
0A
C3
1A
DF
75
62
0C
C1
10
C8
F0
26
89
75
9E
09
98
46
F4
24
A4
4D
F7
83
49
34
A2
EA
BB
EE
3B
24
4A
04
05
70
5F
1E
C4
FE
DF
AD
D5
33
0A
EF
39
FA
99
13
30
DF
11
AF
96
01
B7
6B
55
EF
96
D9
2A
D4
87
3B
D2
28
3D
32
C7
4F
DD
39
F3
07
24
20
C7
AC
11
8D
29
9F
A6
F6
59
43
08
86
EF
CE
A8
1B
72
5A
42
48
19
64
7E
7A
96
AF
4E
4C
2A
81
E7
95
4C
DC
20
47
9B
83
97
8A
88
D0
81
C5
13
34
06
16
B7
F9
E2
A6
D2
50
99
0E
EF
4A
19
D5
26
F6
00
1B
B2
99
B8
F9
0B
13
E9
95
CE
D4
62
79
DE
2F
5A
8B
B6
D9
12
11
CD
6F
D6
3B
0A
C7
4F
0C
99
2A
45
A3
29
B4
B0
4B
9A
F1
EF
D1
0A
3E
BB
EE
25
EB
A4
0A
61
4A
F1
85
AA
71
85
7F
12
CD
93
45
BF
A5
76
B0
85
CB
2F
66
AD
83
97
40
73
87
3D
99
E5
12
CA
4E
70
B5
27
A7
A9
5F
17
9D
DB
44
67
27
40
16
DF
E5
62
BF
1E
FA
E7
34
57
CF
47
31
76
8B
58
58
10
B1
1E
03
E2
26
B1
1D
34
F7
13
63
1C
54
EB
0A
C0
64
B6
7C
F1
0D
D0
B0
76
21
EC
91
B5
2E
81
1C
F5
AB
98
FA
17
F7
0C
0C
B4
BA
79
76
9D
6D
66
2B
37
93
DB
02
CC
A1
69
04
F2
34
76
6D
E2
B9
45
06
24
81
C2
2E
F1
5D
B9
AA
EB
4F
62
AC
B0
25
51
72
6E
6D
4A
7E
E2
34
75
0B
2D
A5
53
3B
32
50
BF
64
C6
BE
44
61
D5
A2
D2
13
73
3B
D5
B6
F5
65
3A
67
C3
67
BB
9B
BE
01
D2
C5
E7
44
7D
03
FE
85
6E
85
D9
32
3D
4D
E8
EB
8F
10
8C
C8
7F
51
E4
CF
D7
C8
C4
E8
68
0D
41
D3
43
89
C7
5E
0E
EC
88
CB
D8
D0
53
C0
EB
05
E0
52
B6
7B
A1
E5
22
BE
E3
C3
B6
98
9B
D8
0D
39
A6
24
B0
DB
CC
2E
D2
15
60
A8
CA
C9
06
F5
01
86
F7
9C
8D
C1
56
6D
6B
F2
3B
CE
1D
2D
A0
79
30
16
B7
4C
8B
64
E0
E5
D9
52
4C
F6
2B
A2
69
86
A0
57
1F
89
0C
3B
10
B5
4D
4E
48
9E
D7
66
8E
40
7D
8B
40
AE
61
AA
5C
72
EB
EA
AE
AA
19
69
9A
1F
94
FA
CE
82
9B
1B
BB
34
2F
7F
C3
6D
E3
D3
3D
00
A7
A7
C4
0D
41
46
0D
0A
E9
6A
A7
05
C8
45
2F
FA
56
58
A3
5B
4E
E4
0A
3E
CC
CC
6A
55
16
BB
CE
A9
50
FD
3F
63
FD
3C
CF
D6
2F
19
6C
23
7B
15
F8
8C
81
98
F8
BC
53
7A
34
27
13
05
62
DB
BA
D6
65
BA
2D
9A
4F
F0
82
13
AA
99
B6
74
0B
7E
0B
3D
33
BB
27
EF
6B
B3
41
1D
0E
C5
FF
65
05
DB
63
7E
B4
F9
4D
20
15
6B
0F
0B
D5
92
52
AD
35
4F
74
55
9A
49
F5
22
B2
F4
FA
CA
C8
89
C6
5F
99
3C
50
E4
87
88
26
16
F3
E1
23
5E
D8
67
A7
99
D3
18
AC
31
4E
2B
83
CD
42
0E
E5
97
3A
FA
98
CF
14
21
C4
FE
72
DA
9D
1E
C8
0E
CB
C0
92
7F
C3
B8
52
D8
D7
4A
6E
9A
1C
E9
1D
0F
C8
C7
2D
3A
C3
C8
8B
45
32
A1
35
8B
97
C6
8F
1A
0D
90
E9
B1
44
C7
A0
4B
91
FC
E1
83
A9
E7
2E
17
38
54
83
FD
D2
42
02
AB
0B
E3
80
9C
D1
B4
21
22
10
22
F8
5E
1D
93
12
DA
57
C1
AB
C5
CA
6E
33
D1
62
6E
A3
2B
16
55
7F
03
D0
A0
6F
62
80
52
4E
E5
4E
4D
D2
58
1F
E5
68
07
FB
E8
8A
6E
08
6D
59
3D
0E
B9
22
C8
9B
A7
4A
08
97
C3
F2
7B
BB
D6
F9
55
FC
87
44
CB
A2
C1
8C
83
66
B6
F4
A0
2E
06
86
04
26
38
1F
44
1C
05
4F
1A
35
53
FC
09
59
22
15
2C
54
06
A0
74
10
F3
54
6E
4F
DD
16
E4
BB
74
B1
82
9E
92
CA
91
F2
D4
FD
23
48
94
17
D5
DE
99
BE
6C
CD
17
DB
FD
30
DA
7C
57
64
C0
E2
29
01
DA
F4
2E
F3
56
18
B1
AF
50
C0
01
ED
80
9E
AC
8D
7B
8E
77
3A
5C
DE
FA
60
DF
86
AF
62
54
50
FC
B9
4F
ED
39
66
2B
CA
AF
B9
17
BE
21
EE
89
5D
3E
B2
3B
15
E3
D3
27
6E
CC
01
06
68
46
F2
42
66
1B
28
AD
3E
39
D2
E8
DB
C7
7A
B4
6A
DB
E4
9C
02
E9
51
EE
2D
D1
8F
5E
01
62
83
D5
C6
72
8B
50
71
A1
1C
C2
3E
7D
86
D5
1D
6E
0D
61
BE
37
F6
5E
11
70
0B
94
0B
14
62
77
74
4F
84
6D
CC
92
D2
6D
51
0D
9D
93
BB
33
34
E8
17
1D
5B
CB
2D
1C
62
CB
00
01
EA
B4
25
62
BE
A7
DC
FF
0A
3F
50
D6
1E
CF
61
CD
B0
F1
83
DD
EF
AD
66
C9
E6
23
54
9A
63
68
7D
82
DD
D3
3F
BA
56
32
D1
4C
92
D9
7A
1D
8B
41
B9
26
0E
6E
8F
96
9E
71
E0
48
AA
43
BE
AA
64
A6
3F
60
A4
EA
61
33
CE
89
9D
C1
1C
D2
51
E1
71
46
27
8A
6A
4E
EB
31
99
F7
D5
13
6B
0D
40
50
81
8C
9D
04
53
D0
DC
9E
0E
71
32
1A
F3
E8
6A
A3
83
71
16
69
D5
E0
0A
B3
31
BB
E5
EE
A5
CC
AC
1C
16
CF
2C
A3
3A
80
76
D9
59
76
44
CD
72
AB
68
88
4A
53
64
77
9B
8B
A8
78
F7
25
96
5C
C1
36
29
FB
7A
20
C0
1B
87
6E
89
BD
9C
25
3D
E0
8A
A4
35
1E
0B
3C
B3
15
22
E0
8C
A8
BE
91
C0
CE
C3
8D
69
49
E3
46
7F
C5
DB
0C
43
8F
B8
89
46
EA
8C
2A
83
47
16
86
C1
DA
52
92
4F
59
E9
97
E4
AE
E4
C8
54
EC
A6
AF
65
0D
57
91
E6
34
4F
C4
68
C8
60
9D
C5
DF
8B
65
73
D8
21
15
CC
07
C6
A5
90
CC
4A
AF
43
17
9E
AE
2B
82
DC
FB
CB
DA
7F
74
9F
3B
BD
1E
6C
A1
8C
8B
67
D8
1E
DE
4A
BF
81
57
27
BA
66
65
9C
35
0E
2A
13
FB
38
4D
7E
89
4A
78
DB
27
21
66
BA
BC
66
27
C5
39
C3
A8
97
A0
4A
67
38
36
1C
40
C1
78
C1
E2
E3
CA
FC
63
B4
F5
0F
28
D9
2F
A6
A5
18
AD
4C
9E
10
11
24
5B
62
E8
50
AE
A1
FF
94
3D
D2
BA
AB
6B
5A
06
7B
56
47
BC
12
8E
D2
D5
C6
13
7C
14
CF
09
3F
26
A2
5E
9C
7B
C1
61
8E
82
4A
A5
CB
A8
FC
BC
E8
75
A8
1E
BC
82
C2
37
98
E6
1C
D5
1F
7A
11
D5
14
EE
13
F8
BB
D5
EE
78
31
62
0D
C5
81
C1
A1
89
E2
7D
B0
3F
C0
7B
35
BD
6F
E5
1E
2C
94
1C
39
67
84
CE
67
0C
8B
1D
A9
9E
EF
00
B9
B0
31
CD
7F
6C
EF
51
D1
24
86
87
9D
65
F9
6B
18
6D
49
7B
BE
AF
CE
3A
FC
A0
39
AE
12
20
17
33
C7
0A
DD
DB
DB
3E
AC
09
87
D4
FD
A0
DE
E0
B3
A4
02
00
4A
C3
C2
DF
33
43
EB
C4
E8
C3
FE
9F
66
0D
55
F3
33
5B
D0
75
21
3B
E3
50
2A
46
90
3B
4A
CD
8D
16
19
CD
F2
31
FB
D9
08
CA
8E
60
BD
3A
AA
7B
5D
07
41
E7
94
9B
83
6A
CB
3F
D7
11
A4
9E
54
FA
DF
57
E7
0E
E1
90
3E
A4
3F
74
BF
25
C6
B3
FF
05
A9
CB
9C
07
2F
02
20
6E
C9
02
5D
12
F1
91
00
E0
50
3B
ED
A8
9D
3B
2C
4D
94
4F
7C
6E
3B
D8
34
18
8C
7D
7B
C3
00
81
25
C2
40
E2
1A
FE
EE
B8
23
9B
20
7F
B6
A8
25
00
00
92
18
A8
EA
0C
99
31
B7
0D
CC
A1
C4
1A
3A
BE
F7
23
DB
7B
89
E1
A0
65
5F
9F
64
F9
09
87
7E
F1
33
35
28
87
28
D3
9D
BC
0A
81
38
F2
4A
DB
B0
5D
7D
8B
2F
14
7C
ED
47
ED
93
48
B0
01
28
F3
AE
FD
CB
F2
37
10
09
8E
40
BA
AB
D7
0B
19
4D
57
44
78
ED
B8
D7
C6
3C
F6
FF
67
F7
13
85
D3
22
8C
58
56
2B
1B
C0
DD
72
10
18
EB
26
7E
00
01
8D
A4
9F
82
24
29
E9
81
72
96
E9
9A
6F
FA
82
AE
52
E5
03
19
61
B7
74
3D
34
1C
CC
D7
5C
AB
5E
48
A6
B8
7C
24
1C
7A
28
98
0B
28
7A
57
6C
A4
FD
80
95
D9
06
10
D2
09
D6
8D
E7
B9
D7
4A
18
9F
FE
DD
81
D7
44
FE
22
C7
44
18
8C
4C
50
7C
17
80
1D
92
0C
51
48
FE
85
5B
05
2D
D5
AB
58
70
05
47
92
D7
0C
08
CF
AC
8E
A4
D4
B0
FB
B9
41
6B
5B
B1
09
E1
F5
D5
8F
BB
F7
DE
24
29
48
6A
CE
34
A3
57
4C
19
CF
C3
4C
CC
0F
C5
1F
4D
B3
2C
EC
03
B5
8F
2E
A8
7F
52
6D
92
01
E2
C7
0C
6C
F9
AA
B1
1E
87
D1
00
80
FC
77
63
83
84
A3
15
3A
83
99
C0
EF
93
09
4E
2C
EF
9E
21
D3
BF
60
AD
D1
85
9C
F4
F5
F6
04
85
A5
4A
4C
0C
D5
12
00
83
53
44
D6
E3
AD
0D
E7
15
F4
ED
90
DE
CF
FA
C0
F1
F9
74
BF
BC
AD
44
F9
42
31
F1
71
8C
7D
0A
19
C0
4A
E3
0E
07
7F
B4
F2
FD
2D
1A
FB
D9
73
73
20
16
7F
BE
3D
F0
CA
19
E4
70
48
CE
2E
37
20
B5
5E
B2
79
45
22
14
FB
07
C0
56
BB
78
C7
35
C5
DE
4B
4E
03
B6
7A
BB
7E
23
F5
05
65
70
F8
82
97
20
52
42
E0
1C
18
DC
F8
2C
38
B6
B4
B4
1F
04
D4
F5
3E
27
61
E9
0B
8C
73
B1
3E
3D
09
A7
4C
AF
26
CD
5B
CE
17
C6
00
68
CB
65
B2
A5
BD
5B
45
97
18
56
87
14
E6
2E
C3
24
07
3C
84
D0
8C
A4
D8
BF
0B
7B
55
D0
E8
53
DB
A5
44
8D
26
C7
2D
DC
16
FF
BB
A1
43
8D
64
1F
B3
84
D2
41
03
7A
F7
6E
7D
FE
DA
F2
AE
F0
8F
65
FA
4A
75
2B
14
4C
24
F0
7A
02
5E
21
B9
74
87
C8
E3
31
2C
4F
A7
EA
B1
44
32
C4
EB
1D
7A
47
AE
B2
04
38
61
FC
4C
82
67
00
9F
8C
02
4F
CF
18
1B
DF
00
E9
5C
21
CC
F4
C6
07
FE
0E
F7
32
B5
07
77
B6
0A
B8
73
96
B4
93
D7
0B
07
28
65
10
98
AD
28
44
A7
7B
C8
DC
1F
A8
48
7F
D7
D7
24
F6
1B
1A
81
6B
CD
D6
2A
3F
EC
2B
1C
31
82
71
39
73
E3
E4
74
55
7F
9A
AA
05
FE
F6
4A
BA
DA
95
05
A4
D3
6E
54
AB
EE
0E
F7
69
CE
70
62
12
3D
8D
22
45
1A
17
50
BF
F4
46
F3
34
2C
6A
94
0D
68
0E
6E
A7
5B
39
FD
8A
18
33
8D
6A
E9
78
93
42
BC
26
FE
2D
2B
DC
72
96
ED
73
69
B0
E0
6A
E6
42
AD
93
A8
90
8D
34
26
FC
87
EE
D1
DB
AF
58
4A
4F
27
CF
5E
0A
21
94
C4
27
7B
1B
77
1F
CF
2C
A7
AA
2C
6F
FC
33
C6
CC
F7
9A
4F
52
E6
66
46
02
4B
16
9A
BC
82
D8
4D
66
59
09
4D
E4
A4
58
AB
3C
CB
9E
20
41
95
A7
20
D6
56
4B
2B
9F
95
B5
13
4F
21
16
F4
0B
10
96
6E
EB
69
C2
A3
35
74
5B
06
30
65
50
9F
C4
B9
93
EF
50
A8
75
C2
B7
9E
57
A6
C5
9F
3C
DC
BF
78
15
17
DA
97
A0
D5
66
28
FE
45
58
2E
4D
6F
07
8F
20
D7
38
D0
F7
67
6C
85
12
D6
5E
F4
B3
35
64
E7
E0
25
3B
00
23
49
09
45
4D
4F
83
AC
6A
CA
DC
79
A6
1F
F5
AA
62
2C
B8
39
54
3C
6B
C4
88
C5
58
36
64
D7
C4
88
D7
E0
D5
19
43
34
25
5B
95
7F
BB
D1
57
B2
2D
C2
0F
4B
A9
23
69
B7
52
C9
A7
B3
5E
11
EF
09
82
DA
D7
1B
4D
4E
CF
78
85
21
7B
7D
FE
53
D6
85
F8
BD
34
9A
AE
E1
17
F7
F0
14
D4
8B
8E
20
BD
3D
75
AB
89
B3
19
BD
F5
AF
CC
2D
27
42
47
B5
AD
AD
12
6E
81
E0
4F
10
92
49
B2
C7
69
5E
C9
14
F2
8E
C0
78
E0
C6
53
64
71
23
2B
45
20
8D
4D
6B
99
F7
BF
0D
E0
6F
4E
F1
79
CD
42
20
83
82
02
CF
EE
70
6D
84
67
F4
49
7A
13
6D
AE
76
29
71
61
49
80
42
CE
68
B3
7D
1D
DC
AF
55
34
43
ED
12
63
BA
CA
E2
BA
18
60
CB
B5
40
95
B5
83
D8
3D
44
D5
AE
E8
09
C2
0B
8E
E8
59
26
F1
A0
D7
D2
CB
8C
39
77
10
7F
EB
F6
00
62
C1
01
67
B2
F3
A1
A1
1F
69
01
06
CA
45
B5
98
6F
A6
54
54
E5
6B
72
51
91
B8
CA
B7
AE
43
5F
28
D0
8C
29
BE
1D
B5
94
40
09
C4
04
0D
E2
0A
1A
28
B9
88
9B
38
3D
EE
F1
F3
54
06
36
46
CF
8D
C8
67
85
4C
30
8C
42
0B
54
56
28
F3
FE
24
AA
C0
A2
03
D4
F8
49
22
CC
5F
46
27
11
26
9C
F1
39
8F
CF
6B
F5
3D
E0
CD
3B
66
89
11
57
66
3F
2E
1A
D0
BF
82
F5
D3
14
68
43
E4
7B
74
15
0B
0A
5B
97
21
65
C4
27
3E
7F
CA
6C
D4
E8
A8
49
50
9D
82
41
9A
29
72
A7
C2
BA
20
05
5D
83
39
6F
95
2E
BD
11
BB
13
BA
50
73
9A
65
65
73
36
B5
EC
00
4F
43
D6
6A
3E
27
6D
AD
20
60
1D
2D
2D
EA
79
F9
6C
7F
94
DA
7C
10
3D
6B
D6
57
89
F3
16
0E
77
89
ED
3D
6A
32
F6
2F
8C
3A
04
66
4B
6C
D2
E8
EC
D1
8C
96
51
01
63
C9
B0
B7
18
92
9A
5B
1A
C5
85
DE
F8
7B
49
27
84
DB
41
6C
CB
8C
17
23
0C
00
A5
FD
E5
7D
1B
4E
C8
5C
9B
BF
C1
90
74
8E
D3
BC
EC
65
2B
B7
71
2F
87
99
E6
97
10
1C
C1
5B
75
2D
3C
79
E7
BF
AD
73
C1
4D
44
6F
C9
22
71
0A
38
56
4A
88
0E
11
C9
2E
5D
91
AA
5B
E0
F9
3A
A0
E3
D4
81
69
FD
F4
0E
C8
B7
EE
E6
C4
78
0F
68
0E
06
C0
A4
0E
79
71
C6
98
CB
D7
93
BF
AD
2F
61
35
58
78
22
90
3F
7C
A1
50
C8
63
F4
7E
86
D4
D5
8B
88
64
1E
4B
5B
F3
7E
B3
B4
9D
D6
61
5E
A2
12
FA
CD
1F
C3
8F
99
5A
17
BB
59
94
53
8B
73
9A
A6
25
46
AA
5B
51
DF
4F
B5
52
5C
70
A6
33
EA
E8
90
C3
02
F4
3F
33
B3
E7
F0
1D
9E
F9
61
72
42
6F
0F
F0
9B
DF
57
9D
F3
7C
4D
7C
26
3A
59
95
6B
ED
47
60
0E
02
0D
B1
5F
85
1E
11
F9
7D
41
40
D3
7C
6F
43
07
88
43
60
0D
94
C0
24
85
33
36
5C
71
B0
D3
6B
E0
48
7A
B5
5C
1B
CD
13
E1
C3
A7
4C
34
D2
98
AD
68
78
FB
41
7D
6F
18
1E
3E
51
82
6E
85
12
44
6B
64
9F
65
44
43
C9
75
43
1B
A7
19
CB
7F
60
27
1F
F7
C4
25
AF
B1
19
A5
19
1E
28
C3
57
3F
A2
06
13
D4
BD
DD
49
50
E1
9D
23
74
99
77
D0
43
E3
92
07
BD
0E
E6
6E
29
F5
22
AD
06
C7
E7
F1
21
DE
A0
8C
11
62
A0
4E
8C
00
4D
D8
93
54
25
7C
57
61
89
0D
B5
72
B8
01
8C
D1
1B
EE
9E
58
CD
C1
C2
5D
63
E2
99
56
7E
96
52
2D
20
B1
1C
FB
C3
DF
4D
A2
46
4A
86
8D
88
1E
39
5D
8F
64
67
06
84
9D
34
DA
61
BF
97
9A
7B
6F
AD
C1
96
75
33
25
2A
97
4A
9C
71
2D
6D
CC
58
5B
3C
5D
B8
0D
48
DB
B2
17
BE
35
0C
7B
6A
7B
7F
E3
B1
C6
97
33
81
C8
8A
4E
85
7C
33
FA
25
25
F2
37
89
39
10
D6
F8
7D
A4
F6
F6
31
0C
88
D9
64
BD
B6
57
2A
DA
4B
7F
9C
53
09
F4
C6
60
DB
62
0B
69
E7
9E
3A
5F
1F
8B
C0
07
07
D2
86
37
D1
41
14
DC
8A
98
73
67
84
0E
A8
52
61
61
94
C5
9C
B9
04
2B
39
8D
E0
BB
9D
F6
D4
66
B1
24
DE
6F
1D
B9
2C
A8
B8
79
73
94
A4
F7
83
F8
0A
EF
03
FF
32
F1
42
D5
6B
2B
6D
29
68
FF
B8
FF
7F
2F
9B
C9
10
44
52
E3
1F
C8
07
C2
D3
FC
F3
C4
E3
01
6F
8B
98
65
6C
B8
87
CB
91
2B
19
25
2C
0C
34
69
E0
97
52
D2
D0
AB
9D
9F
ED
38
13
3C
67
5F
C7
5F
87
8F
E9
7F
EF
DF
43
F9
C0
6C
94
2C
F3
E4
2D
76
70
77
6F
65
1D
63
3D
FF
BE
94
B8
E0
F4
6E
DF
6D
34
CB
F6
46
5E
32
19
FE
5E
14
CE
70
A5
3B
C4
5C
A2
B2
61
E5
08
14
00
A6
04
6A
EB
8D
E3
7D
39
F3
B8
F4
B8
3F
A4
85
A7
E5
D5
48
FC
BF
A4
C0
25
2E
66
4B
04
F5
E6
B9
5A
AC
72
4D
0A
23
82
85
A1
ED
D9
40
9E
17
69
55
4D
91
C6
21
9D
BA
DD
37
2A
C4
49
4A
45
0F
BE
02
19
F0
52
A9
11
F0
F2
BD
F6
CA
AD
05
D4
AB
F0
05
C0
2D
90
BE
20
E0
61
93
E0
87
29
94
B1
6D
72
7C
B3
A7
0D
32
55
5D
7D
A0
A0
0A
66
91
45
94
1C
4D
CE
4E
45
15
21
67
75
3F
6D
D4
FF
14
26
6E
B2
80
5B
F0
4E
F0
51
5F
FF
6A
5D
6E
E2
73
75
EB
52
7B
A7
1D
AD
8E
32
9B
83
23
4C
46
57
2E
C1
32
E1
B5
11
25
8B
D5
CA
F2
5A
1F
5C
2D
D7
B9
90
F8
1B
AD
6C
24
E2
35
76
ED
F2
A0
92
0F
29
F9
74
0A
7D
E8
43
EE
56
FA
6E
B6
80
A6
2F
D1
55
16
F9
06
9F
AA
72
C3
0A
B6
C6
E7
00
01
1C
26
99
C1
9C
5E
EE
A5
7C
D5
DA
F6
0E
88
5C
F2
DB
AE
61
9C
53
9D
65
F3
FE
72
BD
6D
6C
92
2C
7B
F9
B0
A0
42
8B
CE
60
E6
83
2A
60
46
3E
CF
CD
A3
7E
1C
24
1C
41
CC
CC
76
3F
96
B5
A4
61
90
EF
70
C8
C4
DA
F9
0B
3A
67
B9
98
98
7D
A8
88
32
B3
AB
C6
78
37
03
AD
8E
01
CC
FE
72
2B
C3
67
A7
78
86
56
0A
00
2D
56
6E
1E
FA
71
DE
B7
08
8A
83
D9
D6
DD
70
1C
A0
00
5D
F5
20
3D
6C
3E
53
F1
70
F5
83
9F
41
4C
40
8F
24
71
F5
0D
75
8F
69
EC
FE
A4
21
87
E0
65
DA
35
86
99
54
6F
B7
AC
57
26
9C
59
CE
55
3E
0E
E2
35
AE
71
BF
7A
BA
1F
98
84
77
10
36
53
CC
7F
88
EE
B2
CB
10
53
43
56
94
4C
A5
3D
BB
6C
BA
4B
8C
1E
E5
75
82
C0
28
11
C3
F5
09
7B
03
DA
4D
E5
EA
CD
8A
8F
DB
05
1B
B1
06
5D
60
D1
19
5E
22
1F
CA
1D
1F
B1
17
DA
A6
10
EA
7F
BE
A9
09
3F
91
F9
E4
CA
D8
86
0C
53
61
AE
7C
8E
90
18
AB
66
DE
6A
E9
06
EA
66
B3
6B
DE
C6
5C
60
4C
72
CB
2D
15
5F
40
B6
89
11
40
79
15
0A
09
9C
29
2B
91
B3
FD
5C
2E
7D
92
CA
41
15
53
9C
30
C7
FB
A5
C7
2D
87
1E
15
15
E0
91
55
86
8D
EC
19
46
E9
2A
D9
56
E2
13
88
45
77
D6
94
EB
14
EE
5E
10
F3
F5
F3
F6
06
B5
BE
93
77
0A
6A
04
68
54
85
E5
F9
13
F7
36
08
64
0D
4E
7D
E2
A0
AE
A5
BD
46
08
C8
D0
97
02
FA
99
C8
F3
30
9E
4A
CA
F0
AB
77
3D
E9
F1
D6
4A
A0
63
6F
79
7C
A5
32
58
E1
7C
81
CF
4A
37
8E
F4
67
FD
A2
4D
88
BA
23
A6
C3
36
F3
45
4D
A5
75
9F
F8
6A
DB
C3
59
FC
A6
EC
B4
4A
EB
DE
C1
36
03
59
DE
C3
BF
FC
0E
99
C9
54
96
C3
05
0F
B9
C7
B8
B4
DD
4A
9D
98
C7
56
BF
55
82
B1
3F
7D
F5
DA
E7
7F
C3
EA
99
67
3C
95
9F
D4
04
65
EB
29
CC
11
38
49
0A
2E
76
F6
34
0C
F7
47
FC
48
B4
BF
A5
0F
A0
44
7E
74
33
B9
1E
F1
5E
0F
68
4A
91
2C
91
D9
A2
D6
CB
3B
8B
FD
4D
D8
B2
7A
69
BC
58
78
99
EC
EC
1F
02
02
DE
6A
58
81
09
03
0B
8A
EE
FA
51
3F
33
4D
34
CB
21
BE
BE
66
72
89
27
44
C2
79
07
B8
ED
4F
71
9A
A6
B0
43
E0
87
09
3D
AB
7C
1E
62
6F
DF
B2
AF
A7
EA
B9
0E
89
9C
33
23
72
95
54
89
EE
D3
55
B9
58
C5
07
85
1B
BC
1E
FF
D5
2A
A4
BF
DC
B0
83
29
C2
1C
60
C8
28
69
C7
3D
52
77
56
DE
7B
50
77
5F
1A
1E
94
EA
37
B4
FA
61
12
A1
C6
5A
9A
7F
78
22
18
FE
AA
FE
8E
A5
5B
A8
6B
E6
50
A6
4C
F0
4D
4F
19
88
34
C0
52
5E
3B
D8
0A
C6
1D
A9
42
90
9F
87
AC
62
09
B7
C0
6F
C6
8E
89
E4
8D
9F
5D
33
6F
B3
71
91
88
F2
B9
FF
A7
6A
A2
BE
FF
C0
74
20
CC
E2
D3
03
51
18
8C
56
48
7D
6D
4A
E3
14
8B
B3
67
20
A4
08
71
D1
F9
3F
4F
1D
F4
1D
CE
F7
5D
87
A1
F1
D6
E7
C8
2A
35
84
63
0E
6D
4B
32
6B
E9
BE
29
0C
A5
80
44
C2
2C
0E
85
54
2D
58
BC
9C
D5
D1
61
7E
8F
A5
7B
74
26
A9
54
38
FB
7F
28
A2
A8
AD
4C
B0
84
B4
D7
89
26
19
B4
79
ED
3C
5A
4F
EC
FE
19
47
68
E7
61
A4
90
7A
4B
B4
FF
42
4A
4B
54
B5
C3
47
94
95
31
EC
23
19
24
D2
0A
52
74
06
5F
EB
8F
35
96
6B
31
7C
B4
F4
E8
E1
13
FA
58
D4
82
7A
A8
B0
F5
44
41
C4
B3
D9
A3
05
E1
A8
5E
12
7A
B2
DF
32
C1
F4
99
EE
4F
AE
12
F8
EE
0C
EF
F6
48
CB
66
5A
38
44
27
04
BB
41
4C
1C
D6
3A
0F
DB
46
43
43
A3
B0
3A
10
F5
B6
DA
8A
A8
DE
F1
35
4B
62
74
65
02
CC
09
99
59
C5
8C
E6
B3
58
EB
30
8F
24
81
FB
3E
C6
D9
90
79
34
0E
56
30
43
2D
E7
97
AF
B8
9D
1E
54
89
4E
6B
8F
95
B5
9F
1B
E7
5E
31
34
58
2E
61
EF
CE
AB
1F
E7
4C
32
7F
4A
87
46
A4
46
94
83
47
85
D4
55
CB
6B
95
63
2E
64
6D
24
C9
33
60
D9
BD
F5
2C
C7
55
63
5A
C8
C5
55
A7
8F
DC
7D
71
C7
4E
C7
95
4F
95
4B
9D
8D
FC
DA
BD
52
E3
C4
48
E8
83
6F
AC
CA
D8
64
E2
EF
08
E5
64
E7
BF
D9
18
F6
F9
02
6F
35
46
02
35
6B
45
F7
FE
B0
60
09
CE
45
39
79
0B
ED
C2
98
7D
B8
55
CC
88
65
94
63
F9
72
90
20
1E
2B
C7
E3
4D
65
5C
65
DC
AF
4E
4D
34
72
7E
45
6F
E5
9A
6E
2A
26
AA
4A
A5
0E
25
87
29
AE
8D
1F
7B
DF
E5
45
C7
89
46
CE
AF
1E
93
E8
42
B4
5D
02
41
AC
EB
76
8F
5B
00
50
52
76
95
6C
5D
2B
A6
2C
68
6A
89
D9
8F
41
CB
96
1E
D1
DD
4F
75
AF
16
41
B9
68
45
D1
1B
B9
4D
42
03
46
4D
1F
89
BA
03
7D
B2
3A
CB
2E
EC
A0
16
A7
11
5C
6A
F3
2E
D3
0D
1F
9F
A3
AA
D7
9D
51
EE
2C
A3
57
4D
63
08
D8
46
3F
A3
E1
71
A3
1C
90
47
F9
8F
7E
66
F1
5B
C9
AB
65
94
62
3C
36
DD
8D
D8
8F
66
C2
9A
C0
06
0C
F2
6E
A3
6A
EE
CA
A2
8D
7B
75
D7
0D
A8
3B
A6
DF
35
F8
A3
71
07
EE
6C
C7
D0
4B
13
71
0F
DE
30
56
98
A0
5F
1A
A9
04
3A
3A
89
6B
E6
D6
E9
20
B0
46
A7
0F
59
38
00
7F
19
C9
44
7D
23
2E
01
76
AA
44
37
D0
7D
1A
59
B5
E2
DF
47
19
2A
53
F7
16
62
C5
D0
11
CB
3C
15
A5
20
65
54
27
63
6B
CA
9D
CD
B9
AF
C3
60
7E
CE
3B
ED
C2
57
B9
AC
54
DA
8A
2C
01
A5
90
57
92
E2
38
8E
AF
DD
77
5E
BF
9C
25
10
52
69
E3
8B
F8
B8
92
FD
4E
46
C4
15
C1
3B
FA
96
72
DB
CF
FE
A9
A7
3C
59
F5
31
D0
4D
4F
F7
5A
8B
1C
89
A4
71
C8
AE
41
43
72
40
75
FA
B5
36
44
6D
85
5B
DD
B2
22
79
67
67
CF
74
C5
58
72
48
6D
05
D3
58
69
C0
5F
03
63
6D
83
10
2F
CF
B5
FD
C3
BB
52
00
F1
6F
DE
3F
E2
C3
29
48
88
9C
F9
09
B3
A5
F7
33
DA
EE
3E
73
57
DB
89
93
57
FF
B0
E4
6E
95
74
D5
55
7E
98
B2
24
87
61
4C
FC
3E
6F
08
2B
DF
D9
96
85
E0
13
0F
2A
8C
9D
04
24
9A
1B
6E
21
91
99
3C
38
11
09
F9
2D
4C
B3
60
7B
D5
5F
E3
33
BD
5F
DF
0A
8D
EF
A1
1C
8A
A0
68
76
66
20
E8
A3
F1
B4
3F
6B
74
F4
8A
FD
D5
94
82
C7
E3
61
12
E1
10
7A
DD
5A
B2
9E
AC
0B
DF
50
88
FB
0D
95
4D
6C
E9
EF
46
2E
38
C7
FB
DB
5C
E7
4A
97
85
0C
7A
22
71
88
F6
16
B8
45
FF
D8
83
82
DE
BB
8A
3A
BB
97
6C
2D
A8
FE
E7
94
69
EE
56
7B
AE
C8
14
D4
69
AC
3E
4B
1B
55
FF
05
07
6C
54
3A
62
97
85
3D
56
DF
17
22
34
B7
6E
D8
22
55
B4
43
98
E3
5E
73
F7
21
52
2A
F6
D5
65
4F
C2
CF
FD
23
BA
9B
CB
D9
87
AC
4D
BC
6D
63
B1
E1
E7
3D
7B
05
D2
80
8B
DE
54
89
B7
CD
CB
C4
77
CB
DF
66
0E
D3
A6
E0
52
1D
59
F0
DB
73
91
1A
A7
1D
7A
9B
A8
F0
85
62
C4
32
8C
28
C4
93
AF
C6
05
CD
8C
80
D6
BA
80
6E
42
86
D0
DC
E4
E0
0C
55
A0
34
E7
AB
AA
71
4C
69
79
F0
AA
D7
94
08
54
9A
53
2B
1A
40
C0
3A
F3
FF
E6
FE
6A
E3
6E
C0
34
7E
90
BE
6F
C1
DC
E4
5F
35
87
17
9A
BA
3F
50
B0
29
7D
EA
B6
58
D9
6E
D7
0A
1B
8F
3D
E3
61
A5
0E
8F
D9
9D
52
A3
42
6F
7B
08
8F
4B
2F
04
D8
71
B4
44
D7
E8
8D
6E
EE
DF
3A
78
5C
2D
F5
5A
6B
4B
9C
13
B6
EC
94
56
A7
4C
B6
B4
19
4F
4A
56
25
20
C7
64
A2
66
01
08
D6
91
CD
45
C3
19
F1
26
BA
6F
DD
00
E9
95
52
24
8D
CC
46
B8
F4
93
15
FD
F7
86
74
D5
AE
A7
AC
05
66
60
21
65
C6
56
C5
2A
C7
96
70
90
29
80
63
F9
B2
AB
49
3A
92
6C
D5
A0
41
58
48
9F
AE
EB
5E
73
C0
70
1B
03
29
AD
29
14
25
C4
17
7D
F5
E9
6E
AB
8C
A6
EA
A4
69
0E
47
23
AB
9D
0E
EB
97
DA
D2
AB
5F
39
9F
61
9D
4F
AB
FA
45
81
E3
C3
25
5C
2F
88
60
04
02
99
6B
40
CE
36
76
AA
50
ED
96
98
12
A0
49
14
FC
65
38
5C
4F
83
6D
3B
B0
51
4E
E1
7B
88
09
C6
D8
66
5D
2C
00
B5
9D
05
27
12
72
61
8A
3B
98
51
7B
C4
7E
15
79
E1
B8
9D
3D
12
6D
D7
A8
89
BE
15
10
EC
6A
DE
69
DB
68
A2
0C
0D
46
D0
5C
45
AE
0F
B5
7A
53
F0
65
C1
D0
C8
18
B9
02
D1
16
93
EE
CC
AB
64
2D
35
65
0C
E7
9C
9C
37
A3
83
C4
67
19
C9
53
C2
89
C1
14
2F
A1
89
C7
C8
CD
CC
F2
5B
07
BD
35
EC
36
55
23
62
5A
5B
4C
60
89
E7
94
79
B8
B6
99
81
71
A2
AC
99
4E
FC
F5
5C
64
97
2B
92
55
1D
D0
41
2C
57
FB
09
31
B2
43
C0
3F
2B
2D
C0
5E
6C
F3
56
01
B7
FD
F2
AC
33
9B
6D
5E
2D
43
59
3D
28
57
67
8D
E4
03
2E
49
F7
70
B6
DD
8A
3D
8A
63
A7
F4
EA
6E
2C
75
B4
67
86
B0
AA
0E
B6
CC
AD
1C
18
4E
C7
F4
2B
E9
A9
FE
45
0C
54
1D
1C
EC
6D
67
7B
D5
78
6D
35
4A
D9
1F
2B
76
CC
89
6C
3C
C7
DA
11
E4
0B
32
1A
71
B9
87
2D
96
28
B2
81
63
B3
23
BB
E0
65
E9
24
7C
8F
36
60
DC
3A
A2
23
A5
0F
23
B5
80
56
EF
2A
CE
A7
37
61
88
FF
23
36
88
77
58
5C
4E
D3
D3
BC
34
78
BC
63
47
E2
3D
99
07
61
F3
CF
E2
EF
6C
97
D7
ED
F4
92
47
57
D0
09
DC
3F
56
3C
0D
4C
98
55
0C
51
EF
84
EB
3B
3F
D7
89
F6
BB
8A
82
D4
38
3C
66
CF
70
1C
F7
AD
DE
2A
9B
03
45
C4
75
3C
E2
AA
F6
E7
FF
AA
82
60
B3
8E
05
3A
B7
DC
B7
81
BE
FE
B7
B4
C3
2F
34
87
E7
32
96
8D
13
A9
83
E3
E8
80
6C
89
35
C8
6C
61
00
B1
C9
B7
0B
F6
A3
FC
73
B3
5A
36
7A
37
60
4D
16
91
1A
13
54
F9
E6
07
47
55
11
9E
A6
E6
68
2A
79
26
B4
F3
88
E7
26
65
D7
4F
8A
4F
5E
42
FB
50
18
34
A5
94
10
8A
D8
18
A9
59
1F
F4
1C
D0
C2
6E
BB
13
86
A6
42
C1
8E
56
54
27
51
AC
38
F9
63
1F
47
42
CE
2D
0D
55
CE
4B
F9
AA
1B
7E
26
79
ED
E2
8F
22
F9
5D
11
13
53
4D
DE
A0
90
78
4A
C8
C5
B6
65
F8
02
CD
13
1E
AF
9C
74
5E
F0
75
AD
BE
5B
6D
74
FB
16
10
AC
C8
30
3D
03
94
D1
E7
53
BF
77
5E
DE
0D
79
8B
93
56
94
97
8A
A9
AB
EC
71
F6
CA
59
40
D3
85
92
EB
73
03
37
91
AF
D3
11
A6
80
D0
1D
2B
D9
88
8D
E0
67
38
E1
75
A0
63
93
FF
59
B8
70
63
FA
DE
36
2E
04
15
04
CE
48
A2
CE
6A
DF
60
DA
C1
B9
96
8F
E2
65
60
85
B2
3F
AA
EF
53
A7
0D
9F
9B
F3
71
CF
7F
1E
64
17
B8
5A
FF
27
39
DA
BF
6E
8E
C8
92
63
8F
7D
30
3A
60
DC
21
AB
2E
E4
14
41
BE
60
3B
F0
8B
60
0C
81
66
F2
DA
FC
E6
1C
FD
CF
AA
2F
60
C3
53
6D
68
BE
9C
8B
E2
92
EA
C5
4B
97
30
2C
B1
C1
82
4F
17
8A
6F
D2
F2
45
C4
ED
63
6D
3B
35
9A
48
41
85
03
F9
56
70
83
A7
7D
C7
68
8F
D9
9D
30
DF
19
F1
03
41
46
6F
45
F8
FB
3A
E7
3A
49
B4
61
57
C4
A1
81
9C
2E
F0
EA
CB
4B
06
D8
85
5F
EC
FD
D9
A9
7B
F8
01
1E
48
88
9F
15
2A
7F
D4
10
C8
FB
58
D3
5C
41
B4
93
96
7C
9E
EA
A4
6D
A9
87
71
9E
95
82
C9
E6
05
A8
E2
D4
37
07
9B
2A
F8
D9
15
AF
A1
5F
66
54
CF
CA
C0
E8
61
F1
9B
4B
C0
BE
91
6A
7B
40
BF
A8
C2
4E
EF
0C
D6
83
7B
99
63
43
EC
C3
7F
5B
34
6A
C0
09
33
0A
A7
4A
5F
03
63
B1
68
22
A8
96
A6
11
E6
3C
83
B9
CD
2E
72
5E
2D
02
1C
5D
A3
E6
47
D7
4A
66
60
97
10
10
75
24
8D
15
A6
98
57
73
D0
B7
51
5A
D3
43
FD
F7
CF
9A
6C
8F
7F
4E
32
CF
69
0F
7E
67
E0
33
96
02
F9
39
DB
33
F5
CA
D7
6E
ED
EF
85
A0
B3
28
96
29
2B
CA
5C
81
1A
4D
5F
26
A3
6B
3F
FE
DB
89
14
2D
FD
9E
68
2F
12
96
5C
1A
48
07
84
FB
F9
9B
2E
0E
62
01
BF
06
1B
FB
F5
6C
0D
FD
1E
B8
53
0C
B7
29
61
BB
38
08
93
D7
BF
25
A7
5A
47
24
61
3D
93
DA
F5
CB
85
FE
BB
23
26
6F
6F
4F
58
CD
01
35
43
2C
6F
D4
1A
74
BD
80
5C
A1
0C
53
F5
81
FA
C7
24
2B
E8
CB
DA
60
2F
C4
0B
52
14
18
14
7B
8B
8D
E0
7B
FA
43
B8
1A
7A
07
03
2F
FF
FA
58
5D
BB
B2
0F
06
7A
AE
FE
9A
35
19
CE
54
FD
69
4D
C6
B2
31
48
6F
F6
1D
3D
58
C0
0A
B9
7F
46
61
91
E5
0C
6F
25
11
D4
CA
D5
20
7F
BE
3C
A0
EA
48
31
5F
7B
A1
92
79
6B
9B
B5
18
3D
17
FD
8D
57
B8
0F
A5
41
CD
12
A5
4E
3F
EB
03
BF
8A
66
6B
53
C1
14
BD
5A
07
0B
51
11
0B
EA
09
81
00
33
22
8B
A5
7D
62
05
50
E8
67
19
B6
72
F5
9B
B1
18
16
A7
2A
F9
D8
E8
5A
DB
40
D1
89
FD
51
83
84
2D
8A
AE
E3
B0
36
5E
9E
AC
12
1A
0E
E3
5B
A5
82
EE
A6
61
F9
73
D4
3B
C2
D5
59
3F
8A
C5
D5
07
1F
94
C5
B1
D1
D7
0A
39
E6
AC
FA
F1
FB
B5
8D
54
F5
9F
3B
B1
FD
81
A3
36
90
AA
FB
C2
38
A0
E7
34
C8
43
28
6D
54
B3
81
E3
7A
68
B8
23
CA
40
6A
AB
B5
97
3B
96
40
CF
93
9B
32
09
15
78
48
F3
7F
11
9B
7B
7D
EC
19
77
66
10
17
DC
83
23
79
B3
B7
CF
0B
7E
DC
BA
AD
BC
6D
10
65
8D
39
0E
89
A9
D7
0D
B0
33
40
BC
0F
8C
D7
15
5A
CB
39
AE
B3
E1
9D
72
DF
5B
4B
DC
EC
72
12
EC
E2
F4
7F
71
A4
0F
E4
17
64
FE
BD
D8
34
D8
F9
02
7F
EA
67
09
8A
AC
6A
7B
BA
15
75
03
69
D9
C3
7D
4B
55
4E
D8
77
23
53
8A
F4
F1
93
40
8C
58
7A
08
16
15
6F
60
37
9E
FE
93
63
DB
F3
DB
55
7D
81
1C
AA
97
43
10
98
F7
5A
9F
68
15
3B
A3
30
F3
D8
A6
F5
CD
83
DF
DC
FB
7B
8B
B1
71
5F
96
CF
DD
90
AE
DD
C3
80
5F
D8
E8
20
0E
3B
03
1D
95
9F
37
04
7C
5B
07
75
DC
BC
D4
8B
6E
B8
2B
E5
A8
77
B5
9F
A0
FE
35
25
2D
79
F6
F8
96
92
C3
10
37
3E
92
B9
E8
E9
B4
F5
83
CD
15
6C
F3
B7
9D
27
22
EF
98
DF
1C
86
E2
97
C4
C3
AF
8B
24
45
3F
6E
F5
66
38
7F
14
87
E7
5E
9D
E4
64
92
18
D3
E8
1C
85
37
99
D4
A5
2B
6F
D9
64
C5
5F
B3
B1
29
18
DB
92
FC
5F
90
D4
FF
B9
48
F7
11
22
14
F5
40
56
F1
C6
D4
F0
3B
80
80
CB
61
66
20
C0
4A
9B
E7
29
90
0A
84
BC
93
69
FC
8A
D4
E6
C0
F7
5D
16
BC
16
69
FA
68
1D
53
D2
5F
78
87
62
AA
94
91
68
75
20
F8
6A
22
B1
11
F6
90
14
91
7D
DD
E3
7C
80
DB
30
01
A6
C5
DF
4B
75
58
41
DF
31
5E
FA
E9
53
B9
46
C7
92
17
83
B2
47
30
A5
89
BE
AC
D4
CA
4A
13
0E
8D
55
62
6D
19
E7
AF
14
2E
C3
1C
6C
1D
0C
4F
30
37
70
DB
40
76
86
3F
DF
A9
FF
77
D1
83
40
EC
A0
E6
60
5E
FC
8A
81
F9
BA
97
9C
9F
41
F5
0D
D0
5E
D5
A3
5E
0E
C2
9B
95
36
A4
63
C7
D0
F9
D5
B7
09
81
65
C7
9E
8B
AB
10
7D
14
D2
AE
F5
C4
13
04
93
C6
BF
92
40
BF
F9
A1
E5
43
DE
2E
12
7D
D8
D0
E1
2A
B2
10
7E
B5
2A
B8
6C
E8
19
E1
15
63
9A
6F
6C
CA
BB
B1
85
A3
AF
4A
B0
3B
16
A7
0D
CC
0D
D0
71
5F
BF
01
B7
FD
50
E6
55
07
46
15
8B
86
F3
6B
77
6A
A8
36
D4
AA
34
27
E5
39
68
93
45
50
15
74
62
55
0D
40
E7
AD
1B
58
67
21
6D
AA
FF
53
50
C0
9B
74
24
57
EB
C7
92
C4
C0
15
F6
23
C7
DA
1C
10
BC
E1
66
F7
CF
94
87
11
05
0E
E7
E0
92
84
73
FA
AF
65
EC
AD
30
90
82
57
73
C7
89
52
AD
92
C2
2A
86
04
FB
76
B6
16
2B
C9
8F
52
33
42
FC
0D
FA
51
BB
09
B9
92
8A
1E
3D
D2
D4
8C
70
78
45
7E
5B
71
A5
95
29
05
AF
24
39
5C
90
A6
5F
B8
FA
89
57
AF
5F
1E
E4
5D
2D
AA
FC
4B
23
62
99
74
53
CC
58
65
F5
DD
B5
B8
8A
E1
4B
3B
76
A3
2F
93
2B
22
49
F3
90
0E
AA
F2
59
B0
A8
AD
9D
A1
3A
60
1E
26
76
0C
E4
19
6E
98
25
6F
72
BF
D4
C4
E7
8D
2F
AF
63
BB
7A
D8
51
05
54
32
B6
E0
42
E1
23
58
E4
6E
FB
18
23
83
4D
46
5E
61
44
EC
7C
9A
D5
6F
B9
76
6D
0C
B9
A9
F0
2E
15
F5
D3
42
F8
37
40
52
97
DC
E6
9F
DC
44
39
5D
7B
91
22
49
34
BC
73
5B
FA
03
61
43
B8
80
12
A1
D8
31
8A
02
4A
53
B9
6F
74
45
0F
F8
AE
93
C1
6F
C6
13
3A
72
AA
AD
FC
6A
31
1A
03
BE
45
19
46
F5
8F
9F
E4
00
3C
09
3C
1A
13
51
AA
9B
1A
FF
5C
1C
59
68
2A
F0
0C
8B
1A
D2
39
C9
72
C3
DB
57
79
0A
B8
17
EE
C2
0C
74
95
76
7D
B2
BD
B7
16
A5
27
46
C0
2D
68
25
3D
D8
66
EA
83
87
93
3D
E3
C2
2F
93
6F
EF
DF
31
1C
C3
FC
5F
89
78
75
E5
60
B3
23
8F
47
6C
75
4F
B1
43
AF
BE
29
83
26
3E
3B
A6
AB
69
7B
94
D9
00
C5
EB
09
A8
76
41
A8
A9
22
8F
33
9D
85
86
81
C2
70
52
00
EB
F3
EA
C3
CE
B3
E0
E1
98
9A
08
A3
A3
22
E4
DC
13
9B
F9
2F
0C
99
10
3B
C6
20
DA
26
88
CC
E0
E4
19
FF
70
E4
75
98
8B
2A
D9
C5
B8
4C
EF
82
FF
65
90
E0
AC
CC
9A
D6
77
97
0F
6A
0A
82
44
FC
8C
77
8B
80
9E
86
6A
2E
CC
48
A7
85
E5
12
FC
B0
19
2E
B0
31
3E
F9
A5
14
9E
5C
82
B0
15
A1
F7
0A
85
7B
29
E7
93
C0
E3
47
D4
9F
E8
29
09
33
8E
F8
52
F4
18
16
A2
B1
5C
8D
19
EA
FB
BC
46
6E
AD
44
24
8E
F0
45
87
29
F1
21
ED
EA
75
98
30
EC
FE
53
A4
C2
EB
9B
1E
73
62
70
9E
AD
ED
37
3A
14
F9
E2
B6
F8
B2
A6
92
2A
EB
BB
BE
15
F5
C3
81
4F
FA
AA
2C
95
9E
5B
5F
82
A4
78
2A
16
25
CD
61
ED
77
00
00
57
4A
59
D4
54
2E
57
BC
5C
15
C2
82
5A
2D
D0
5A
89
A2
08
2B
2B
5F
63
86
1F
19
8D
20
73
56
90
88
E4
32
F8
1D
D4
69
34
91
D8
32
FB
37
A7
75
EA
D9
EF
20
48
D3
E5
54
EC
E5
87
FF
70
68
DE
64
25
F6
51
1F
10
1E
7B
62
B9
C7
4B
93
DF
BE
D4
42
13
D6
F1
8D
91
B1
6A
3A
99
58
F5
95
62
EE
3E
BC
2D
00
88
DE
1C
6D
F0
4C
25
51
57
5F
F2
12
FF
0D
01
72
6F
BC
87
7D
03
DC
F0
E9
F6
6D
48
3F
E4
49
D4
F3
B2
A7
59
34
70
D5
13
B5
C7
84
6F
C6
4E
B1
8A
C4
48
2D
84
79
26
12
F4
9C
A1
C2
18
C7
35
D0
4F
07
3B
67
BE
35
9C
36
4F
86
9E
FE
1B
52
AD
96
7B
FC
AF
A8
67
66
C5
EB
83
96
BC
FB
CD
63
84
59
00
E9
B0
B2
77
1F
FE
A9
9D
3D
54
8E
D7
AC
CF
52
FF
C3
88
85
57
1D
0A
C1
4A
F2
A6
27
F5
69
C4
7C
A1
26
B9
9F
35
84
E2
2E
01
C2
AD
CB
09
15
26
B5
9A
9B
58
57
DF
95
11
73
72
7F
5B
90
C0
D5
4A
C1
87
E1
4A
63
3B
1C
5B
3D
8B
AA
06
18
FC
29
CA
4C
2D
3B
6E
95
80
76
A1
1C
C5
4C
06
79
F3
C6
41
33
8E
C9
90
49
81
DB
76
2B
45
C3
C5
CC
78
BA
3C
F8
EF
5F
BE
FA
72
55
23
45
03
D3
62
BA
55
6F
05
D7
B9
53
A9
A0
88
05
A1
98
61
1A
4A
52
C8
EB
97
B4
9A
42
13
BA
0E
F6
89
96
35
BB
C3
6C
7A
01
F2
2C
BD
43
A2
4B
A3
91
A7
75
68
93
74
CF
AF
D4
BF
C0
82
3E
7F
F8
0E
CD
C7
CB
E5
47
9B
29
6B
81
26
36
75
D9
5B
76
95
52
88
59
A0
29
5C
E8
10
9B
58
35
F6
9C
8E
95
22
C4
49
8E
73
6A
E6
E4
A9
1B
DD
8B
8F
BB
14
8A
85
68
32
9C
95
6F
9A
6D
29
D9
45
9F
3D
FA
71
05
89
84
EC
A6
BC
0E
35
A6
E9
6D
E2
04
BA
48
8C
FD
03
9F
A7
AB
36
B3
A5
83
A4
59
1F
6A
03
24
C1
DA
12
8E
A2
BA
FF
A8
AB
A6
01
03
EF
E2
94
F4
4A
91
26
B4
1D
58
2E
E3
9B
43
6C
53
BF
97
48
9A
6A
66
CD
94
9E
27
9E
3B
18
23
48
55
C6
3A
23
BF
1E
2C
A0
46
39
8B
09
CF
E6
F8
72
10
9B
77
FE
40
D6
AC
32
7B
75
90
23
14
70
5C
16
B5
67
31
8F
6E
03
BD
B7
B0
70
4A
AA
6A
D5
05
E5
15
78
E3
EF
44
4B
D0
EF
BF
EB
E5
D8
23
2A
35
9E
F9
C8
E9
3E
94
A2
82
0D
B7
7B
97
92
48
2C
A9
BD
5A
6C
1D
F4
AF
34
2F
1C
7D
F0
57
BC
CB
9C
74
AB
91
CF
36
B0
F5
84
84
C7
62
32
41
C1
0E
45
D2
B9
F1
C3
8F
52
2B
A8
AE
F3
DD
46
B0
BA
AC
27
F7
BC
60
5E
9C
3B
23
32
76
B1
A7
24
98
6D
B2
99
01
43
F4
5F
D2
E3
1D
A4
BD
EC
19
4B
DB
04
54
96
F6
2D
64
C9
10
6A
EA
4D
A7
E7
78
6E
4E
44
1E
A7
0A
50
F7
C4
D6
32
B7
66
52
21
FC
E0
AC
D6
BC
7F
A1
D3
10
BB
4D
B2
D0
8A
A3
00
61
7F
D5
1C
85
7A
65
85
37
CE
02
EB
0D
66
92
FD
B1
2A
6B
58
CD
D1
5C
82
64
A0
44
6D
B3
7A
A8
1D
D7
3B
6F
5D
CC
CD
70
78
00
8B
9A
68
0B
19
AD
2E
72
7B
5A
42
69
BD
DD
98
97
C1
D7
B2
24
1C
71
B1
D3
49
18
C2
C5
5F
EB
77
CB
86
B7
D2
D4
0F
03
19
02
C1
5E
57
FC
E1
F8
77
9A
96
BE
C3
ED
2E
DA
14
34
B1
3E
A3
63
CE
9F
AE
10
FD
39
F5
70
92
55
CA
6D
B8
BE
6C
8E
8E
5E
F6
A6
02
08
FE
03
E5
17
26
90
76
8A
BD
E5
B2
4C
88
8A
23
BA
C6
0B
21
4A
91
EE
97
94
06
1F
6C
27
EC
9A
7F
55
7F
AB
33
95
A0
2A
13
41
87
DA
1E
40
25
B0
C4
64
0A
67
B8
B4
6F
EB
D4
E7
4F
5C
84
9E
A7
C8
18
A5
F4
2A
D7
45
B3
82
A3
15
6D
6A
2F
91
DC
0C
E9
A7
9D
5F
68
54
07
10
81
AD
5B
42
BD
6C
F0
3C
4E
7C
6C
40
3F
18
0B
B4
46
79
51
84
18
51
9D
9F
6B
E0
FF
58
D8
81
B1
AC
1A
7F
94
37
FB
7A
1B
04
F0
90
17
64
81
4A
0C
56
35
E4
84
CB
00
F0
C8
A1
4E
CA
0C
3C
C6
79
62
D6
19
E5
49
CF
B9
6B
1B
F0
81
2A
72
BD
32
3E
C3
44
F3
C5
88
3E
C0
62
D9
2B
06
E7
F9
EE
F0
5E
96
1B
E2
72
FB
C5
D0
46
29
0C
13
1B
19
AA
9E
E5
03
1D
10
C3
89
99
CA
67
B3
D0
14
2E
D1
3E
F4
D5
8C
48
BF
DA
3C
38
A4
9A
A6
3F
E7
24
C0
CF
DE
2C
D0
B0
2D
ED
E0
33
8D
29
6F
3E
C6
98
A9
F7
3E
E0
1F
D1
5D
E4
53
8C
BE
A2
F0
5C
66
52
EC
6A
4C
96
8B
6C
5F
2E
E2
C0
7B
49
FC
07
ED
AB
7F
56
CA
BE
EF
53
C2
1D
CC
DF
BC
2F
5B
0A
90
AD
0F
46
E9
36
66
B9
D6
8E
E3
5D
8D
F7
BE
7A
F9
13
FF
AF
3F
53
22
E6
88
07
04
8C
44
63
50
69
42
B7
F7
FC
B2
58
1E
BB
7F
61
3C
30
70
73
74
C2
81
4A
B1
06
27
50
8D
EA
31
E0
4A
CC
9C
0E
36
64
87
95
85
98
55
D1
06
96
C9
AA
82
32
B4
27
B8
AE
68
71
5C
E0
0E
1F
05
04
25
B1
B7
DF
E9
30
F9
DD
C6
81
99
DE
40
BB
38
0C
71
1E
82
29
5B
F5
A9
7C
5B
9B
FB
84
E3
4B
6F
96
73
A4
F0
3D
C9
46
0F
80
71
97
F4
49
06
E1
78
71
72
9E
E1
DA
6C
4A
84
35
DC
51
41
C7
84
CC
DA
73
07
98
59
82
3A
7B
BB
52
65
26
3B
BF
2A
4D
14
B2
16
76
FC
D2
E3
ED
C8
38
E2
B1
34
5E
6B
03
6F
38
58
24
C6
8F
FD
97
33
6A
69
1F
02
4E
2D
B0
A6
85
20
3B
21
0D
48
96
BB
1A
91
1F
33
25
AB
04
20
92
0E
E2
98
A4
2D
E8
46
7E
E0
D6
31
EA
97
A5
38
03
87
82
5D
39
27
3E
61
D9
D0
26
3E
FB
1F
71
C3
88
EF
60
56
E8
92
B5
B6
70
7F
44
F1
A7
2A
9B
A9
8E
0E
54
FF
E8
ED
9B
01
E4
7B
8B
AF
03
81
63
24
D9
C4
82
92
33
07
2A
39
91
D6
5C
B5
E8
E5
9E
45
B4
FF
8A
C5
BA
35
7C
25
62
F0
2F
BD
B5
70
0A
69
A8
E8
F6
14
E8
08
3F
13
BB
63
6F
4F
5C
74
01
C0
74
1E
EB
57
D7
11
A8
C9
03
76
87
5E
54
24
03
93
A6
F2
24
58
06
E6
F6
16
7C
E1
7E
C9
96
7D
DC
E3
E7
04
63
BF
C1
13
D5
73
17
B3
97
27
8D
AC
C2
82
28
BF
EF
7C
A9
14
1E
88
0C
D0
6F
7A
9C
FE
E4
D1
C0
A1
13
E6
AD
08
70
84
A1
F6
7E
00
BE
A7
14
3B
83
54
1C
BD
1B
CE
C2
A9
52
4A
5F
9E
80
C7
1C
CC
A3
1B
EC
EB
6A
57
C2
51
0C
89
F8
74
FA
C4
32
A5
71
35
5D
A8
69
BA
9D
25
04
F3
05
F9
60
7B
88
57
0D
7A
70
BE
4F
E6
C2
E8
77
13
40
11
F9
7D
4B
E9
9F
7A
E3
2A
B1
78
48
93
9A
9E
4A
D2
22
4E
CD
B3
02
29
B5
55
03
C1
A0
DA
86
0C
B7
B4
CC
BD
63
F5
E8
A5
27
B3
82
32
69
7D
50
28
63
FE
6E
6D
C3
8F
3A
94
49
78
49
7C
67
6A
EE
94
E2
BC
80
68
6D
12
9B
11
7B
0C
3A
D9
3C
6C
75
5D
6C
76
B4
8D
66
CA
89
5C
CA
2F
53
D7
ED
3B
5C
6A
28
D2
D8
EE
97
F9
D0
C1
7D
A6
B2
22
30
AA
F2
E3
A3
B7
8C
3F
D2
73
BE
14
A5
C9
EC
B5
53
28
8F
5F
D4
BB
F5
2B
81
88
B4
4F
A1
73
A2
C0
2E
2A
63
26
BC
28
BA
2A
F3
6D
26
81
4A
4F
42
62
A1
68
48
1C
0E
35
E7
F6
4D
B8
BC
9A
87
5C
31
06
40
31
34
CD
44
7D
2D
29
66
D2
33
15
84
F5
7B
68
7D
53
9C
5A
9F
F5
04
3D
A9
71
C2
C0
03
C5
49
23
B8
C5
5E
79
EA
FA
4A
B7
19
A0
FF
F6
7D
FF
D0
BF
DA
4E
A7
2F
A0
E2
E8
31
DE
62
C7
58
5A
14
73
0B
48
4E
FB
39
11
6D
81
DB
42
98
43
16
BC
88
BD
E1
26
55
4F
E0
C3
1F
E8
52
C7
B9
B9
6A
02
CF
68
EE
6C
94
D4
1D
10
26
44
07
4D
25
B9
D5
21
62
87
4C
EB
F8
C2
62
78
30
30
FC
BE
9B
5F
36
C7
B9
FA
1D
AD
85
EB
77
F7
70
78
78
DB
84
F8
CE
14
D6
D8
47
EE
62
D8
7C
FD
CE
71
12
FC
77
0D
72
AC
F5
3D
66
AA
A2
2A
04
44
40
9A
A7
D5
EE
EF
6A
AF
3A
5F
E0
8B
98
1A
E8
10
08
43
F3
6B
DB
7E
07
11
69
F1
24
DF
DC
E6
29
85
75
CA
37
D2
84
EF
60
EA
F6
2F
C5
F3
58
42
58
AE
D4
18
1D
BB
A3
BF
DC
B2
2A
76
04
25
72
97
CC
69
CC
08
4F
D9
14
87
05
A5
2D
E6
18
B8
60
5E
69
E8
13
F8
82
7B
FE
3A
0E
4B
D6
10
46
6B
0C
AA
7C
D8
F9
5E
C3
58
B2
C3
EF
8E
16
83
24
58
D7
64
61
5D
D0
87
E6
12
A6
29
5C
F5
DB
30
05
DB
91
05
C4
66
1E
48
49
22
B5
A9
4C
83
48
D7
03
7A
A5
4E
F1
B5
C4
0A
B8
00
4B
97
7D
A9
6F
4A
C8
90
7E
2B
55
53
2D
B2
4B
BC
0A
90
DB
43
C2
7C
1D
44
31
C5
9A
48
EA
54
CB
AB
6C
07
03
EB
EE
4E
EF
83
D5
75
53
A9
98
F3
77
CB
7A
DF
C2
C9
7A
79
DA
1B
96
49
5E
51
24
1B
54
AE
DF
CE
45
F4
CA
8B
C1
0E
4F
AA
B2
00
F2
D1
07
61
B3
77
AD
B3
E3
A4
39
96
DC
6B
E1
74
C0
7E
9F
DE
33
D7
6C
2B
01
3E
27
42
5B
64
5C
62
68
F5
D6
D4
FA
5C
90
24
69
3E
36
B4
FB
09
51
F5
E4
CD
98
25
39
4F
7C
CE
10
24
98
02
11
0A
34
FE
87
72
1E
5B
45
59
B4
D9
22
E7
C2
D1
65
12
18
8C
A9
33
BE
E5
70
75
41
D1
CA
11
17
6A
9E
5D
70
57
A4
1F
D0
45
E6
96
EE
69
CB
E7
6F
98
B9
1D
20
E2
AB
D9
BA
06
DF
A5
4D
F5
71
D5
63
88
2B
E6
80
9B
45
66
1D
D6
12
A1
94
61
DC
D8
EA
8F
1E
E3
04
0A
A6
4C
7F
38
29
DC
D4
4A
CC
E9
1A
78
88
48
B4
4D
8D
8E
B1
8D
F8
5E
70
FF
2B
AB
C7
73
5B
DA
71
BC
FA
5E
CC
60
F5
89
F7
C7
2E
F2
86
C7
09
74
1F
47
E9
24
7F
47
ED
06
93
48
35
7B
04
60
2E
1F
0B
AE
5F
F3
F5
97
E9
0A
4F
A9
70
AF
EB
64
0E
FE
4B
DF
EB
6C
82
BE
F2
5B
FB
60
E3
C3
83
67
33
2F
9C
BE
D2
2C
AB
7E
4D
5E
C8
6D
60
DC
65
AE
7D
20
78
26
01
75
EC
76
61
83
3E
7C
AE
FA
1C
E3
AA
2E
45
34
69
79
00
8D
F9
D9
90
CE
C1
34
C4
3E
9B
7D
6C
7B
CB
9E
44
B3
B8
9E
B6
91
70
9A
2A
D8
11
48
EE
D3
24
A2
0B
31
39
B6
B5
B3
24
88
F8
9D
70
11
A7
2C
4E
2B
7A
52
79
F6
AA
8C
10
94
F4
BD
90
37
30
50
17
AF
2E
A3
B4
63
39
A9
24
00
2D
17
0C
9A
CB
61
B6
2C
93
A3
14
3E
2C
BD
07
39
77
94
0F
A7
87
4F
15
3E
94
53
6C
25
03
B6
F1
1C
8C
B6
0A
27
86
6A
15
92
2E
FF
BE
57
22
97
89
37
8A
16
39
2B
AD
7F
A4
C0
3A
70
F0
63
62
66
F5
D6
F4
84
7C
8C
78
59
E6
9D
67
42
72
FA
95
D0
70
30
62
D1
C7
F2
A9
31
F1
72
42
91
B6
F5
F9
A8
6E
E4
9A
78
9B
FB
CA
7F
AB
4A
C6
65
EF
BE
AC
75
42
C6
2E
19
6C
A2
22
FB
A2
8A
EE
FB
CE
30
C0
C6
89
6A
C5
4D
61
6E
47
59
9B
72
D2
9D
D6
A7
3A
C2
AE
A5
02
47
64
5E
2B
4F
0B
97
DF
9A
89
69
D2
49
26
32
9E
C9
9C
CB
A8
18
EC
BC
0B
46
26
2D
F9
A0
3B
2A
BC
DB
6A
1A
23
31
FE
54
FA
E8
55
D8
82
F9
AD
9D
66
B4
59
5D
37
C1
71
F9
B9
61
17
7E
52
88
EB
BE
80
EB
28
09
37
84
CB
82
D3
6D
29
CC
A7
D0
6D
3B
A8
8B
5F
1A
4F
8F
11
D1
65
FD
E4
7A
35
49
DE
AC
35
BE
34
3D
A8
D9
C3
97
97
8B
6A
2D
99
6D
CA
7D
A2
C5
4F
CD
0F
AF
BE
E6
F3
91
C9
AB
D8
97
46
F8
15
D5
0C
3E
50
DD
DB
03
AB
50
32
0F
50
92
00
B2
9A
EC
35
49
23
BE
3C
6F
CF
32
FE
64
54
EB
0B
DA
4F
1E
92
AF
0C
50
1C
C0
C4
92
23
C4
FF
49
88
CC
D7
AE
45
2C
9F
89
09
82
63
F6
2A
10
FD
6E
2E
C0
06
53
CF
A6
2C
BC
21
E1
84
DA
1E
6E
83
E2
82
FA
70
30
4D
17
2D
3A
8E
DB
C9
AF
C7
F1
C1
FA
2A
C3
67
81
86
D1
63
5E
6D
DC
BE
E2
F4
16
9E
4F
A5
E4
EB
26
7B
BC
EA
B4
48
9A
1D
4D
AD
0F
53
E4
54
AC
29
81
82
1A
42
3D
1F
C8
2F
66
F1
84
23
CA
69
BA
85
0E
66
C7
AB
77
95
D1
F0
D3
3A
22
9E
D4
1D
C5
46
9E
53
EA
81
62
9D
D6
79
4F
DA
AD
C6
D5
65
D9
E6
78
7F
37
5A
9D
AD
7E
47
B0
5A
F2
27
99
50
E6
9F
54
8B
97
2A
89
91
89
57
1B
22
CE
A5
E0
9C
25
3A
5F
01
D3
17
C5
B0
DC
65
D4
47
C5
C0
C6
C1
AF
A7
E1
9A
08
F2
E7
22
F2
B5
30
B6
FE
25
1A
F7
B1
C6
9C
D3
44
25
F9
D7
AF
D2
39
ED
A6
1F
F4
8F
CE
C1
62
5E
F3
AC
4F
45
33
DA
F8
E5
B9
D4
E0
AA
E8
EC
ED
BF
01
82
37
0C
00
B0
57
3A
EE
34
11
55
36
14
CC
A4
EE
8D
BB
47
DB
4E
22
EC
67
EE
5C
C0
62
0F
18
7F
A1
ED
80
25
BF
05
CE
BB
43
DF
D0
F0
51
41
9A
F8
8B
1B
A7
2B
31
FB
BE
B0
14
1D
BA
5E
09
6C
39
1A
54
8D
1F
33
67
74
9B
3E
58
09
65
49
71
3D
58
98
D0
83
D2
C2
72
D3
8A
46
C5
A8
F5
79
0D
74
21
F5
E4
8F
9E
29
A7
26
C5
67
67
43
F0
0B
51
0D
0D
75
1D
CA
DB
3A
C8
31
9C
B3
0D
06
13
F2
ED
3A
35
86
B3
AD
66
D8
6D
51
D4
61
90
39
AF
70
3D
8A
9E
13
E1
09
64
7B
6D
A8
B0
98
FA
DB
3C
E6
95
B9
19
DE
34
69
62
97
9F
20
8E
AF
4B
F3
79
E1
F6
03
56
C8
70
1A
11
77
52
95
CD
A4
E5
07
A7
4B
74
CA
86
53
04
E6
D8
1F
78
AB
0F
AA
45
F7
5F
7E
22
8C
EB
C3
0F
A3
37
B8
9E
22
AD
97
D1
AA
59
8C
0D
AA
4F
3D
18
0A
B3
B8
4E
13
10
00
D9
F4
D0
55
FD
84
87
CD
E3
8B
19
11
CA
1C
98
D2
64
AC
66
C5
68
35
96
B2
E4
D6
3F
38
C6
CE
9A
13
91
DB
C4
9D
B1
20
D1
95
13
21
E6
CD
37
69
2E
D2
81
B6
9C
23
99
4D
C1
63
16
F3
36
99
1F
2D
B0
32
8C
D6
7A
B0
0C
BE
6E
96
90
A5
1C
BF
D8
D4
88
D3
B9
7A
CD
25
D5
BD
82
0C
1A
D0
3A
D3
90
CB
D1
98
D9
1E
1A
18
A5
09
A7
A4
0D
6C
03
85
F4
B9
34
9A
8D
7E
83
71
8B
9B
68
A6
44
A9
C5
38
E4
CF
A1
A1
43
55
4B
4D
74
33
08
00
B9
85
EF
D6
67
C8
3A
E6
9B
8D
AD
7E
3D
42
EB
14
98
76
92
08
06
03
D9
F6
25
ED
A6
AB
C6
FF
7E
21
76
5B
E1
5F
F2
50
D9
9A
55
B9
04
67
55
5F
D9
FF
5A
8F
F6
70
78
6A
72
23
60
53
2F
7E
AC
88
87
6C
9F
85
74
A9
66
D8
C9
C7
9F
F8
0D
BA
00
9D
3D
08
C9
22
DF
C6
2C
9A
95
B0
3F
62
EE
AB
C3
58
93
14
DC
D3
B0
CD
86
95
8C
3C
A5
2B
45
1F
45
C0
FA
28
B4
AE
39
D6
4A
33
47
E8
F6
B8
24
63
48
69
32
2E
9D
E8
5D
87
95
E3
59
0A
B9
2A
0C
6F
E6
A2
6E
96
48
9A
C8
79
36
50
9F
58
E5
C9
11
49
F2
5C
DC
67
2D
E7
81
2B
60
E5
7A
1E
99
61
DA
1A
BF
4B
8C
BF
CF
DF
8E
73
88
6B
FF
99
D6
1A
11
20
FB
87
CE
91
30
8D
D2
B7
04
A2
8C
51
80
7C
2C
25
42
43
01
6B
6F
42
16
F0
17
C4
7A
B6
1C
C6
64
50
8E
4F
5F
02
83
74
A1
CB
2B
BA
C1
46
40
95
7B
85
F0
81
72
24
77
7B
51
17
CE
FE
AA
20
7D
69
24
95
D7
A8
83
F5
F3
7A
84
E9
1E
42
66
60
93
83
40
28
09
47
EF
86
0A
2C
41
52
51
C0
DB
BB
E1
B3
6C
70
9B
84
25
0C
A5
E0
69
46
CF
A8
B3
3D
17
88
9B
F1
26
A3
07
D5
76
DB
A3
60
B2
6A
AB
DC
4B
C1
76
A8
31
B6
79
5F
E9
9B
52
39
06
EE
F6
5F
FE
A5
3E
38
63
FE
C3
C1
50
76
04
2D
F0
B8
89
4B
43
DB
4F
6F
B4
E0
F9
1D
24
65
69
88
E0
D7
ED
41
52
64
C0
02
35
06
29
63
59
78
3A
D5
B6
49
5D
0D
CA
D6
43
83
32
2B
E8
51
BA
2F
8A
61
56
42
EE
2E
A5
EB
AC
37
19
7E
97
5D
7B
0F
6B
BE
AC
61
65
AB
1E
B6
78
22
7D
5C
86
B2
C5
AE
6C
E4
2C
05
8F
EC
1E
6A
CE
68
6E
A9
BA
E1
3C
B7
24
9D
AF
5F
CF
49
E7
C6
A9
2F
2C
94
85
74
EC
65
41
25
3B
05
4D
BF
BC
BC
80
CC
FE
2F
A2
EA
33
F8
00
6E
33
72
50
56
4B
2D
9B
FC
F2
E9
C6
71
D0
63
38
86
3D
35
44
E6
99
B5
7C
D8
42
99
C5
5B
4E
E6
DE
FA
30
E6
02
7B
E5
74
F9
47
57
95
8D
E7
72
95
06
CD
DD
CF
5F
CD
2B
32
A2
05
23
7D
51
3E
B4
5D
04
AE
F6
C4
25
53
AB
7F
C5
BE
DA
80
5B
5A
15
82
34
7A
81
3A
A9
E9
06
BA
7F
29
0F
1F
BA
FF
D7
65
E1
9D
5D
25
25
C6
2B
70
C4
E5
59
22
76
E1
1E
8E
C2
7C
65
08
C6
4B
E5
4C
17
C9
83
A1
1C
16
A2
FF
19
FA
60
CE
44
16
42
66
83
F4
BF
36
57
8E
D2
4C
06
CB
88
0A
30
FE
AD
7D
8E
60
52
31
20
25
B7
B8
E2
10
37
D0
80
19
D2
3B
2F
19
F9
AE
34
70
19
85
4B
00
3B
7A
36
90
7F
B4
7C
00
CC
82
5C
4B
D5
56
B9
EF
7E
16
72
4D
EF
FB
50
ED
FB
7D
AA
6C
47
CE
E4
AA
D7
D8
6B
50
59
7C
07
BA
AF
2B
53
EA
39
A1
61
83
E8
88
BD
0A
E8
3A
E3
3C
3E
CA
0C
3C
77
23
15
EA
F6
50
FD
CE
B9
C9
16
47
82
47
7E
D5
86
18
5B
BD
B3
DF
8E
1C
71
DF
D4
3E
BD
8F
48
F9
F7
0B
C2
DE
01
B4
7F
B1
A0
A0
B7
A6
8B
A8
C8
45
2F
A9
87
A4
CB
E5
BE
74
34
0F
ED
18
62
29
7C
9D
63
48
73
B9
DA
DA
31
3A
67
66
0B
CB
2C
91
2B
DF
60
42
FA
3B
3B
77
FB
CC
71
83
D9
5E
CA
28
EF
C0
14
EC
CC
61
C5
74
FE
D8
6F
E8
B1
F4
94
5C
A1
9E
7C
A9
C8
68
F2
32
5E
80
B9
6B
CC
38
B6
34
BA
5F
1B
53
E1
A1
50
99
48
39
51
5D
61
6D
CA
87
B2
8E
2D
3F
05
40
2B
C5
B5
E3
58
1E
13
B7
DD
30
0F
98
F3
03
22
31
F7
5A
6B
EB
98
7D
23
A2
C6
EF
5E
5B
B0
42
37
6E
E4
8F
F4
B1
75
F0
B4
51
AD
F0
0E
A6
DA
E4
2B
F2
77
8D
A1
AB
D9
5E
0C
53
3E
79
21
A5
4C
3E
F6
58
57
5C
BE
38
FC
27
E2
DE
8B
5F
C2
24
4D
FC
08
21
B8
61
87
FA
C8
64
AA
1B
3F
76
98
0B
9E
89
5F
48
03
94
BD
77
B5
73
75
97
=======
35
CE
49
B1
89
4B
F8
86
29
57
6A
22
3F
69
EE
A1
7D
30
A5
4C
14
01
FC
A4
CF
C7
D4
5B
CB
44
DE
D1
C1
98
EF
CD
A8
2E
5A
55
97
CE
5C
47
22
3E
A9
BB
B7
C2
F0
35
1D
E5
50
87
38
50
1B
F5
DD
DE
1B
CB
2E
DD
44
02
A2
6C
94
FD
12
30
71
FF
71
DD
5D
33
07
29
44
AD
19
4B
A1
FE
70
90
16
D4
E7
ED
FD
16
F3
CA
1C
59
38
EF
50
A4
7D
4E
2A
5F
0B
18
16
92
0F
B6
58
00
CF
82
6E
91
2A
BA
BF
4C
74
D9
BA
A9
E3
51
7E
A5
CC
C3
62
8C
86
CE
64
F9
E3
DC
16
E1
6E
FA
D8
D8
32
D1
F2
AC
C8
51
0A
06
9F
C8
05
8C
4A
11
08
E6
07
5B
6B
D4
E0
B0
7F
C8
D6
6B
2C
9B
D8
BA
C6
C7
F7
6D
88
4A
C7
35
3F
75
2C
2C
04
35
35
3A
C3
85
45
95
B7
5C
64
85
FC
0D
38
EF
1E
B9
89
A6
1B
F9
A7
EA
57
33
86
59
E3
39
66
B6
1D
34
A5
F7
DF
4D
54
4C
95
02
3C
2D
CF
4D
D3
D0
FE
6F
02
96
FC
3A
7F
E1
FA
E1
B2
96
60
00
55
61
49
0D
2E
57
B6
BA
C3
27
ED
30
DB
2F
83
F7
4B
B3
61
4F
25
4C
6B
39
F2
4F
52
BB
FE
75
BD
A9
A3
B1
00
A4
AF
20
1D
FA
A5
14
3D
AA
90
AA
15
1A
49
93
7F
7F
71
41
21
02
1A
C7
29
BE
35
48
FF
6E
B1
32
B9
53
A2
4D
B6
17
F3
C6
DA
E3
FA
1D
96
BF
54
C5
94
15
7E
DC
1F
EA
98
F5
A3
CE
9B
FF
1B
6F
6E
71
7F
DC
0E
ED
3A
42
83
72
37
D1
5C
0E
35
6F
7A
09
42
83
48
E0
33
B9
9A
FF
39
70
99
5F
51
02
92
0B
0B
FF
B2
A9
DA
E6
7F
E1
E7
47
2F
CA
16
34
C1
A0
3C
35
DF
2E
25
11
87
8E
BF
0A
15
0A
9A
E0
05
CA
B0
7A
CB
0A
B0
63
EE
6A
85
2E
B8
D8
B0
8A
67
97
3A
BE
23
29
D3
F7
4E
CD
11
D9
DB
62
0A
11
73
78
AB
8B
38
2B
F8
A5
30
2C
51
FB
AC
92
F8
12
51
90
52
73
41
BB
1E
60
4C
19
6C
83
2C
CA
C6
CD
F5
5F
3D
FD
CC
4B
58
27
41
C7
A1
95
24
63
96
92
B0
63
73
D5
E5
4A
EA
46
41
F7
7F
A4
23
CF
DA
EB
B5
5D
1C
14
19
FE
4B
95
4A
A6
95
BD
C7
5F
C4
97
6B
EB
4B
18
A7
57
DC
5A
2A
CF
15
98
95
2C
4F
0D
93
3A
E0
B3
07
5C
20
08
1C
F4
07
11
27
B1
5F
6C
D9
5B
15
3B
9D
13
A6
15
D0
7E
69
EA
7F
52
5A
9B
53
C9
C6
9D
E0
45
7F
B9
EC
4C
FC
C5
CD
5B
91
1C
F8
33
3B
EA
B8
D3
BA
9B
87
6B
6B
30
47
E0
F2
47
9A
46
20
EC
BD
3C
6A
2C
0B
75
14
B2
40
65
37
61
6A
78
5B
9C
E7
8C
2B
CD
29
CC
28
33
BD
3E
60
64
72
E3
36
0E
8A
70
32
C0
66
EA
86
91
AA
DE
1F
20
5E
BB
C9
A6
10
59
D4
C5
E0
C5
F5
35
9F
A9
A7
3C
F9
E9
73
8E
40
94
1A
1B
62
89
B1
71
1F
93
DA
5A
A3
DC
01
C0
8C
AC
C5
69
C5
EF
1A
88
39
BB
02
AD
7F
24
AC
89
8D
29
7D
A8
A4
87
31
47
6F
9B
F2
11
CE
71
8A
37
EE
B6
2F
65
FD
B7
BA
49
43
0F
89
2E
27
83
6B
8E
BA
E0
24
28
CF
B6
76
07
DB
12
CA
D3
8F
77
41
E8
BD
F4
BA
0A
83
35
02
28
AC
91
4F
6B
59
BB
57
38
31
61
81
D1
8B
E3
EA
40
5E
8A
46
0A
D0
2E
90
78
E0
5C
D1
E3
CA
EF
02
7E
5B
45
F1
FD
DF
1B
EC
31
40
01
48
4B
2E
92
EF
A6
DB
6F
D7
35
B4
54
EA
C7
69
DA
EE
C3
C6
5A
9D
CA
81
55
C6
40
69
76
3B
9A
17
7F
95
DD
03
BF
FA
82
6B
E4
53
1A
12
2A
9E
0F
99
99
3E
20
CA
4F
AF
49
27
AD
A9
FA
31
A3
E0
17
1B
9E
A4
95
EA
42
69
94
6E
79
25
F8
38
E1
7A
58
19
12
BA
60
98
43
D6
D0
35
A4
E1
0F
1C
7E
7B
77
D2
B5
DC
56
60
1B
A4
13
A3
BC
84
81
0D
6B
82
2A
4D
C9
73
29
22
8E
A4
0F
1D
63
79
A8
5B
51
D2
7F
10
81
6C
FF
C2
EB
38
1B
CF
32
A5
73
ED
46
38
1D
9D
7D
CF
5A
F3
89
E8
F0
5C
8C
94
66
AC
52
66
DF
ED
9A
D2
DF
0D
74
2C
F6
75
B1
A3
D4
2C
3A
F1
BA
AB
25
83
39
D7
26
68
7D
E8
A8
3A
66
C0
B2
76
A1
32
52
E0
68
AA
DB
5B
BD
76
AB
6C
FA
D5
1A
BE
9C
96
EE
4E
2E
B7
DD
44
04
F5
9D
95
CC
12
AD
DC
31
51
A7
8D
55
4B
D8
7A
CF
B6
51
1A
BB
DB
6E
CC
45
5B
D7
85
6B
BB
A7
47
BB
BA
62
0F
94
20
45
43
5F
82
D3
69
CD
4A
34
58
2D
A5
E4
85
DC
BC
D4
50
01
4D
18
26
23
B2
5B
06
72
59
9E
CF
F3
AF
C2
91
15
14
B8
2D
54
35
52
C2
AE
B7
64
8D
A9
66
C7
51
3C
DD
9C
77
C0
3A
13
8E
F1
47
B5
DB
CF
B2
58
0A
DF
13
A7
1C
F2
6F
CC
18
4A
DF
7E
1B
50
D5
CE
80
C8
3A
14
C7
DB
46
75
A1
CD
88
3B
B6
21
6C
66
8F
FC
4D
FA
67
8B
0F
34
09
72
46
E1
ED
28
5F
D2
9B
97
92
8A
F5
B0
01
80
70
B3
09
A4
E5
2A
B1
E9
BB
31
7C
60
70
4F
50
C4
7B
72
E4
39
DB
80
8B
2A
6F
D4
45
87
E3
CB
95
14
9C
A7
1F
DB
4D
BD
68
AB
44
69
53
BD
41
A5
80
20
D2
A9
B5
C1
E0
27
EE
D2
43
1E
F4
29
0B
8C
39
8C
C8
66
C5
E4
62
16
D2
78
0A
CB
94
91
9F
0A
47
FB
7D
BF
94
04
73
52
78
E3
26
D6
0A
6D
4B
8F
A5
51
4F
B4
47
9F
A1
DB
69
86
B8
ED
D7
C1
BB
AA
7C
4B
1E
BD
22
22
76
6F
76
92
67
4E
0D
AE
FF
F3
F6
5D
DC
43
0D
74
20
B8
09
AB
39
B2
8B
4E
1F
EE
25
F7
5F
31
6B
01
10
87
76
28
BC
17
ED
8C
47
42
21
C2
3F
88
A8
0C
86
0D
09
1A
57
D2
3C
C2
99
DE
34
A5
BA
D9
91
92
3F
2E
AA
9B
A9
BD
A2
8F
9B
F2
FD
15
E6
8A
3E
6C
01
38
78
76
51
A7
F6
2F
83
53
E1
20
24
46
68
D0
95
C1
CD
87
D2
97
03
23
CD
64
5C
FF
3D
7D
A8
BD
B3
9B
FE
DC
22
22
AC
91
CF
71
B1
61
17
3E
CE
F4
0B
BE
1B
6C
AC
4A
A9
EA
73
3A
4F
8D
9F
EC
4B
1A
F7
0E
73
9E
FA
3A
ED
79
76
3E
C7
1C
DA
1F
FE
E4
7B
F7
B2
34
7F
99
22
8A
48
F5
51
D2
E3
8C
84
C9
64
3F
8D
95
92
83
DB
EE
19
59
9D
E8
AB
B0
03
24
43
E5
A6
18
63
D6
D3
8D
74
F7
BF
73
AF
52
98
39
85
71
9B
4D
96
E3
CB
DC
2C
52
C1
48
1F
29
EA
18
AE
86
CD
4A
4B
2C
95
A4
11
B0
9E
2C
4B
44
16
6D
02
46
2F
93
99
1E
30
00
E9
10
EE
4D
96
56
45
3B
FA
F8
EF
CB
F3
E9
B0
E2
2C
5C
82
C1
25
FB
C9
83
55
7A
84
6D
6C
A9
ED
E3
F3
5A
D9
B8
1F
D1
BC
16
B9
AE
D4
37
E2
BF
EC
0B
88
A9
59
AD
14
B3
E5
5C
1F
B7
FE
08
93
4E
EB
08
A5
44
19
BC
9D
0E
47
A6
CF
50
04
3D
D2
57
FD
76
10
20
0E
51
BC
AA
7A
80
CF
A7
8F
5A
3F
1A
AC
65
54
04
69
73
60
94
D1
36
D9
E8
B9
7B
A0
E9
FE
78
06
45
13
E6
66
2D
39
5A
D6
D1
6F
90
CD
01
D8
6B
D5
FF
38
FD
34
CE
E5
5B
20
36
CC
E1
A8
13
C3
3A
E2
43
76
A3
E8
69
CD
2D
B1
A9
60
8F
CB
AD
5B
A4
27
F7
33
C4
9E
3C
24
CF
72
EA
07
92
7E
15
2B
73
BC
80
61
1C
20
C5
EB
58
8C
CB
84
27
53
A1
62
A2
C3
0C
5A
F5
43
91
F0
73
60
26
C1
93
83
60
D7
EA
9E
89
9E
8F
05
F7
A0
22
67
93
A6
D9
06
46
5D
8E
28
A5
AD
FC
4F
66
A4
16
58
04
72
B8
9C
FB
DB
98
DA
F5
BB
1F
56
89
1E
20
6A
0B
0A
5E
AC
80
56
B5
9F
24
78
C5
FD
41
81
74
96
03
E7
8F
8C
B3
68
A2
1D
91
1A
F2
AD
03
E2
0A
A9
EE
01
DC
AC
0C
64
30
51
0E
94
72
48
A6
B9
FF
65
24
91
B6
78
4D
60
FF
85
0D
C7
5B
C1
75
F2
20
37
A0
F0
CA
82
47
FF
51
F4
0D
50
6B
90
5E
2A
EA
20
D6
5E
9C
D7
28
E1
68
0E
83
05
06
B4
E2
D5
F8
E9
86
CD
0A
90
02
42
A8
C4
8F
8B
91
E5
E1
63
72
BA
2B
0B
8C
59
92
EC
D4
9B
32
41
87
E7
54
01
03
9E
51
8E
45
1A
B9
23
3D
9D
10
58
21
36
D9
97
CA
39
77
AB
DD
F0
E7
90
B2
80
3D
81
18
A6
8A
8C
18
45
78
9E
E9
21
A1
5C
64
99
74
71
22
C5
41
1B
71
07
95
BB
67
01
CD
9A
4F
55
5B
8E
C6
D2
A1
DE
A0
0D
2A
E7
42
E6
80
CE
C1
F3
80
20
46
63
0F
13
2D
88
D4
A9
B6
7A
EA
8B
B4
FC
A9
64
39
8E
9D
C8
46
9F
56
16
34
54
31
53
71
ED
95
C0
1F
6B
4B
33
C4
2C
02
C2
7E
3A
42
D1
49
D1
C2
E8
1F
A1
06
CD
1A
88
B6
1E
A3
03
49
DA
F1
C4
5D
90
F9
D0
8D
B6
35
8D
0D
6D
EF
68
00
5C
42
43
C1
A3
0B
81
48
E4
5B
86
F4
99
1B
A4
E1
34
93
7A
3D
90
5A
F9
97
55
82
D2
52
FC
E5
9C
9B
98
5C
0E
2F
01
E2
42
67
F6
15
B2
93
55
47
2D
AD
7C
DE
23
7A
89
79
C4
BC
40
C3
9B
FE
29
3C
D8
E1
54
32
DE
AD
88
49
13
6F
BB
92
F6
12
6E
86
62
BF
0E
3F
2A
FE
E2
B7
EF
FF
B8
C1
6B
68
44
17
95
B9
68
36
93
49
F9
25
3B
1D
95
2B
D1
8E
3F
89
B0
84
28
1A
E7
4D
D6
6C
5C
96
46
14
22
16
37
12
99
2C
96
9B
5D
00
EB
10
80
F6
18
E5
17
73
DA
CB
F2
2C
B9
E5
37
51
1B
EA
BF
91
F4
80
2C
C4
41
8A
FA
61
09
8F
79
7F
7D
25
D7
C1
D5
63
5E
4F
CC
FA
3E
4E
39
1E
DD
CF
C8
B6
CD
97
E0
AE
FD
DD
8D
A0
A5
89
7C
43
4A
AC
6F
D5
34
01
53
DC
05
0C
8E
1C
88
12
5F
89
FA
90
20
92
55
4A
90
4B
67
C3
97
28
DA
E1
9D
DC
F1
22
BD
C5
A2
25
8C
2A
8A
3A
BD
2B
FD
B5
>>>>>>> 3c744f089472803f0ea1f05f1e58404e4e422e63
