F1
93
D9
FF
BF
42
DE
9A
C5
9F
57
0C
3E
C2
6F
51
48
16
28
FA
A0
EC
CE
DD
A8
1E
2B
68
58
54
4B
FE
AF
B2
E9
DE
0C
1B
9F
C0
48
6A
4A
C8
F4
CE
29
17
4C
FA
27
91
9E
4C
E7
49
E8
01
0B
BD
CA
9B
EE
1B
43
65
E6
E0
61
EE
87
A6
7C
BD
75
67
65
8C
E3
C3
ED
71
B8
53
83
06
F9
EC
65
66
E7
AA
12
10
2C
70
C5
FD
CE
CE
E1
8D
C0
E6
51
1E
25
C3
8C
79
BD
E0
E8
83
3D
CC
16
BD
33
51
52
63
82
6F
6C
45
70
DE
4A
95
5D
D1
80
0E
2C
60
57
05
C6
1E
FD
9F
FF
4B
35
A3
63
8B
C6
C1
29
A6
58
66
79
01
D4
CA
10
54
8E
0E
18
53
40
5C
55
A1
4B
6C
D0
5D
F9
EF
1D
9C
C6
92
6B
65
8E
88
3D
90
94
23
0A
B2
92
2F
63
61
AD
82
0D
E3
70
48
41
03
77
DB
53
A5
94
EF
0E
FE
E2
2F
31
49
79
78
E4
AB
1F
E6
E1
D0
DD
D4
21
51
76
BE
82
DC
26
C0
17
E1
F0
29
B5
D8
0B
93
28
42
E8
C4
3E
EB
AE
AB
44
8B
11
DE
92
40
94
88
D5
A2
8C
6D
4A
C1
FD
9B
97
38
94
EA
E5
75
7D
3E
78
FA
87
37
8D
D7
2D
81
89
BF
67
5D
7E
BA
ED
D8
CC
8E
86
42
C5
C6
96
72
3B
2E
EB
38
FA
A7
DF
A6
C9
0D
CA
F8
6B
2D
FF
70
EF
51
55
E2
86
8B
95
E2
D0
C0
EA
50
13
FC
58
E5
F2
44
15
AA
F8
EF
5B
5B
20
8A
1C
6F
0D
0B
0C
BF
5A
BA
D1
4D
31
2A
01
33
A2
1B
1C
FA
B8
21
D4
B0
6F
AF
CE
D1
D9
B9
B3
D9
84
17
1A
61
5A
D1
31
BE
12
F7
5E
AE
A8
36
CE
65
07
7D
43
20
24
E7
DB
C3
92
E0
07
F7
2D
DA
01
3A
94
E0
68
3F
F5
AA
7C
9E
95
54
6D
5E
DD
97
55
D6
24
57
A8
EF
6D
E4
77
F6
30
FD
7E
CC
71
2F
FE
14
4D
A0
B6
52
37
14
0F
5C
04
88
DC
89
50
3D
3D
24
91
D6
70
7B
69
CB
AF
C9
08
49
9D
26
E0
08
0B
E9
DE
6D
22
D4
32
95
0A
03
8D
44
3F
FE
D4
FE
ED
71
06
CA
31
E6
0E
DB
D4
05
C7
92
FE
76
7D
85
94
C2
A8
A8
44
C5
4A
10
2F
35
97
40
13
E5
D4
D4
64
AF
60
38
C2
A7
56
99
AB
1E
06
7D
A0
3F
6C
1D
F4
1B
D1
BC
FC
07
07
18
C8
1C
76
86
BC
4D
DD
E8
88
77
5B
08
43
B5
50
AB
22
64
59
DE
D0
23
4C
D4
E1
51
8F
10
D7
C2
04
E1
DF
E9
B0
F4
40
AC
5F
92
07
B4
6F
06
40
4A
38
5C
6A
16
43
21
92
7E
38
45
88
D0
A2
90
9A
F7
BB
D7
A1
16
D6
DD
AB
91
37
50
C3
15
62
92
63
7A
F7
C9
51
3F
3E
E8
8E
BB
51
E4
32
63
67
F1
8C
A8
0E
6F
52
64
21
6C
B0
08
F2
E8
C5
A0
97
60
6F
EA
97
60
37
BE
B2
EF
CB
D7
CD
F6
B2
FA
D5
AC
A4
AD
DB
16
90
A9
B3
1D
B9
7E
E0
AF
D6
A1
D3
0A
D9
98
6A
7E
9C
87
8B
90
A0
F3
3C
63
3B
AF
1F
EE
DA
67
F9
A1
D8
AE
20
D8
77
FA
2F
B4
B6
5B
04
AD
89
F3
1D
01
AE
18
9D
23
16
70
BD
2A
D4
4E
15
41
94
2F
8A
B6
EA
80
21
E0
0C
3C
98
AA
64
74
CC
2E
A0
E3
4E
F7
17
CE
47
47
6B
5F
D3
C2
0A
82
2D
21
10
D7
65
F3
C3
6D
15
AD
AE
B1
D9
B3
18
D3
A8
F1
72
43
36
AC
38
51
63
80
E4
4F
F3
CB
47
F3
25
12
06
AA
1E
40
CD
CC
17
50
B7
BF
F7
9F
76
A1
6F
EF
C2
F1
5D
92
71
2E
C6
D9
0F
5F
34
D5
F6
2B
5E
FB
52
52
F5
E7
B2
2C
C4
A0
D1
B4
1C
03
F3
D1
5C
3F
CF
91
8C
AC
47
3F
AE
29
7B
1C
45
0D
E0
9F
D9
2F
70
00
82
8C
0B
54
11
05
7D
4C
A2
49
34
BE
03
64
4A
E9
88
4E
84
67
01
31
1A
7D
5B
5A
8B
40
62
69
90
05
0D
9F
85
CB
5B
EF
60
4C
84
55
04
E2
37
6E
38
2A
92
BB
9B
97
C3
E0
4D
1B
8F
67
44
5C
02
9B
75
98
7F
11
77
03
44
3F
3A
7C
A4
C8
20
4C
19
5B
3D
75
27
49
31
C0
7B
15
6F
CF
C9
6E
E8
CD
5D
55
12
40
79
AF
D5
52
73
AD
C4
D8
1B
55
7A
DF
75
12
45
04
9F
08
7C
3B
4D
6A
94
51
12
E1
5F
62
72
E3
A2
3E
4F
3E
4E
16
07
D3
04
A6
AD
8E
3B
4B
4A
A1
77
8C
FA
09
2D
C7
AD
DB
B1
82
B6
AA
AF
4E
A5
C8
85
EB
B1
52
D8
F4
D1
6D
37
08
DE
E5
6D
01
79
33
BA
B6
5B
E3
F7
AD
A2
83
E7
3E
46
53
FE
7E
79
BC
9C
5F
A5
E6
C6
31
B9
6F
67
30
04
FF
4C
90
B1
AA
E5
70
4E
D3
91
D7
25
18
01
7D
49
D8
07
3D
7D
BF
4A
09
BF
3F
E0
FF
0D
D0
B5
C4
A2
93
7C
53
F3
B4
FF
AE
37
11
25
96
9E
F7
AF
8A
4C
18
1A
78
9F
D3
13
6D
B7
FF
8B
26
31
E7
2A
A1
9E
53
BC
83
FE
EE
1E
FB
88
BF
5A
24
25
CD
DF
99
81
CE
3C
3A
9C
AC
C9
69
A7
DB
C2
C5
76
01
6C
91
64
FF
5A
5B
40
77
14
7B
16
2A
D7
23
67
95
78
63
D8
1D
79
EB
DE
63
84
3F
F4
8B
45
E8
E9
5A
70
8A
04
E7
6A
73
95
0B
6F
9C
0D
58
6B
DD
C8
37
2E
E5
A5
BB
D6
A1
E2
03
C3
07
9E
A8
5A
C0
D7
94
11
62
7A
EE
94
32
19
1B
DB
CF
2B
D2
E2
32
7E
DF
D5
0A
0D
91
67
B3
EC
85
96
26
33
A8
BF
E0
1E
B3
C2
A7
FC
E5
27
EE
2D
69
F1
DC
46
66
89
28
82
8F
58
D1
A8
53
B3
1C
52
F1
F0
83
C4
02
C7
0E
2E
15
F6
D9
98
D3
CA
10
02
41
3C
12
0D
CD
BF
50
AD
C7
04
88
BD
1A
79
D7
46
19
EC
EC
AC
93
B4
86
5E
13
36
81
C7
76
24
FA
8D
5C
37
B8
63
1E
BA
51
98
17
EC
84
06
FB
65
B3
C7
95
5C
4F
F6
36
C4
2C
ED
39
48
42
36
11
3A
76
4C
E5
1E
9D
4E
B6
62
35
9E
52
10
E3
49
5B
DB
51
EA
8D
52
B0
25
41
6D
94
F1
25
B5
3F
4D
03
BD
C8
93
17
D6
0F
51
8A
1F
F3
B5
D0
A7
03
E5
D9
8C
AF
F7
E4
FA
58
27
F5
D3
DE
D7
D2
22
A9
D4
90
84
F6
16
E6
C8
BC
B3
83
1C
BF
98
8D
45
41
C6
15
FE
25
F0
CF
98
ED
82
8C
5E
9E
50
62
15
4F
46
61
C1
87
90
AA
AC
37
6D
9B
44
53
24
FD
FB
91
83
63
DA
4A
C9
39
58
3E
84
3D
47
78
D0
63
F6
A4
4F
18
80
62
E4
7A
D3
7E
9E
50
AB
FB
54
23
56
B7
BD
18
5F
F2
BE
14
4A
1E
49
2D
A6
B7
68
D4
EE
0F
C2
FC
35
32
0F
FA
57
C5
B0
71
CA
0F
9C
67
9C
BF
28
88
35
38
70
16
D9
76
A5
DF
0F
0A
D9
10
62
9A
DD
FE
13
6E
2D
E4
79
16
2F
6D
45
9C
3F
11
5F
37
8C
9D
68
DB
DF
D4
2F
18
E2
14
EA
45
65
2D
26
4A
79
16
1E
39
1B
B9
E9
03
FD
2B
09
C4
CD
C5
1D
BA
A0
84
F8
A7
03
B7
F3
5A
C8
36
11
E1
37
94
BB
53
85
48
57
6A
BD
03
F3
E6
7A
66
7C
91
41
5C
48
75
D6
CF
DE
C1
D6
9A
0E
78
8C
03
03
02
30
63
BE
B0
3D
A6
A7
04
0D
DD
08
7E
3B
AB
6C
AA
0D
4F
88
B4
74
CC
99
18
25
4B
83
E5
C8
EE
D0
6C
18
44
0F
C1
27
05
8E
20
31
55
62
5E
5E
27
78
17
B2
8E
33
1F
DC
E2
44
F4
FE
B4
F6
78
61
75
04
0D
9E
A9
13
03
89
90
4E
98
C6
CE
91
26
BC
A9
6E
42
CB
E2
01
4F
D7
AD
5C
8E
EA
D0
0C
8A
86
EE
03
9B
D9
04
A9
13
38
FF
6C
1E
65
BC
51
5D
BA
F3
FA
9B
83
80
93
D5
E8
BC
77
DD
47
95
77
1F
F1
98
2E
12
37
94
6A
58
82
E1
6B
7E
F4
0D
08
F9
B2
0C
CC
2C
65
50
4E
DC
CE
41
9A
80
CB
7F
0E
9F
0C
77
DB
BB
71
37
E4
43
1B
3A
F6
68
64
DF
12
92
70
BE
59
CB
4C
16
B3
37
51
EB
19
3A
C5
7C
D8
32
7C
6C
99
A4
00
B1
99
00
96
57
AD
1E
02
43
5B
30
28
F6
B0
3D
CE
9F
51
D9
E1
71
DF
95
52
D4
B4
46
32
7D
82
EC
B9
30
C1
B9
05
5A
E0
F7
CE
EA
29
2B
D8
E8
12
03
B6
8D
10
11
A7
91
EB
77
9A
4C
A0
DF
1D
C3
4B
BA
4C
6E
B0
90
D2
CF
B7
CE
EB
4F
3E
6B
83
57
82
E2
A0
B9
6A
97
06
6F
30
5C
DA
CB
36
72
35
D9
99
62
3B
D5
62
4D
FE
5C
C7
4E
5B
FC
DC
98
CE
6E
2A
0E
C0
CA
B0
4F
19
89
23
8F
97
FC
79
95
1B
7A
6B
3E
39
40
09
2D
A3
63
5E
D8
78
82
05
41
2E
E3
38
67
AB
E8
80
D3
D8
E4
46
34
02
C9
B9
0F
F8
55
DA
A8
C6
7C
14
36
75
9D
5B
E0
03
F2
7E
D0
49
ED
4F
10
A7
0E
37
77
49
F6
ED
EC
55
EE
D6
23
4B
82
73
0D
EE
0C
93
53
EC
73
E5
29
1C
8C
B5
82
58
47
18
F0
F3
E3
9B
A0
78
F5
04
AE
41
43
77
7A
8F
24
14
47
E5
78
11
B6
6F
94
AE
37
07
53
C5
36
55
48
38
B4
BF
F3
5C
16
6D
47
12
70
DA
D2
7F
05
AC
67
60
1F
81
B5
C0
E4
B0
FF
EC
B8
6E
96
82
45
12
0E
A9
4D
12
D2
14
51
1B
94
E2
9C
6B
64
E8
72
23
15
27
C2
92
72
42
AD
8E
27
98
64
E1
BA
0F
88
88
25
3A
CE
F3
C0
D0
87
5B
A5
F2
78
DD
40
B5
F7
9D
3B
CE
BC
23
E5
8F
73
21
28
0E
05
ED
92
F8
3A
F5
AE
E1
8F
CC
59
0A
B7
FB
97
C0
6A
2B
D5
4E
5F
3C
C1
D9
E6
4F
7E
72
F0
38
4F
43
C6
60
E9
2A
45
AE
72
44
57
92
ED
E2
FD
CC
67
8C
F9
58
2A
89
49
ED
FB
4A
44
98
00
D1
D3
D0
4A
E1
E5
E2
FB
66
24
79
4B
28
A1
F8
E7
E9
AB
C3
5A
B1
A8
31
0E
D6
3C
89
90
C6
BB
41
D5
3A
39
98
40
26
B4
32
75
02
71
50
EA
CB
4E
4B
42
06
F8
03
44
30
88
F5
E0
19
2E
54
E5
A0
C8
58
32
64
57
7D
1A
AF
40
82
F2
4E
7E
14
A8
01
9C
A3
34
E8
33
30
E8
7E
57
1A
9D
C6
29
33
2B
9F
2F
1C
39
83
46
E4
F7
13
F1
B0
8B
D9
5C
3A
2B
BC
61
A8
2B
FC
A6
EE
75
DD
90
85
72
7E
4D
9D
4E
70
AF
E0
35
4F
32
00
09
06
84
88
B0
0F
A5
B9
52
E2
5E
97
E0
F9
B3
4A
8B
0F
28
55
4A
A7
05
3D
8D
FD
A7
FE
14
0B
72
47
5B
22
0B
6A
4C
F0
6E
82
72
14
E8
1F
AC
B1
2E
2C
F7
AA
9F
29
54
E3
E8
99
60
EF
5B
32
47
10
27
1B
42
1F
25
37
2F
28
DB
53
3E
85
3C
5D
7F
D7
0F
30
75
1A
95
A4
46
93
E9
6F
C2
98
7E
23
BB
41
A4
BB
34
88
86
9D
13
5B
6E
94
B5
B4
11
FE
A9
3C
13
6A
05
A5
BB
D0
3C
02
31
3F
6B
D3
67
41
7D
C5
17
9F
C6
66
30
3D
49
E0
33
B7
56
36
5E
07
B9
00
13
51
90
64
A4
FF
F1
C5
84
79
34
2C
8B
C5
EA
E1
68
F3
BD
AE
6B
5B
95
D8
BF
8C
9D
BC
2A
A2
B8
82
E6
DC
67
FA
2B
FB
3A
A5
5F
84
0A
D3
5C
69
AF
A1
E5
E7
58
70
9C
5D
FB
2B
04
E6
43
7F
50
EC
B0
6B
AB
A3
AF
9D
F0
18
E2
10
EF
E3
F2
3A
23
BD
F2
89
BD
9E
44
62
B7
9B
7C
53
3B
BC
CF
FF
91
CB
B3
91
0F
2C
0E
2C
A8
1A
DA
6B
4C
C2
89
DA
B8
4A
5B
BA
91
0F
12
3D
EF
EA
42
3A
C9
1C
EF
B0
48
54
F2
E3
98
2F
C4
BE
06
EF
B9
D6
67
6F
A8
9F
16
3D
38
89
DF
EA
D2
0A
21
F7
72
65
DB
C3
A5
45
43
E4
CB
7A
BD
0C
F8
E8
51
0C
8C
BD
F2
C5
B6
AE
42
63
A6
21
6D
B6
EC
E3
F3
F6
C0
64
C1
62
84
90
FE
3B
9F
E7
EE
F7
1D
67
A3
42
8A
B5
A7
36
87
CB
B8
E6
BF
D4
BC
7A
20
27
92
41
BA
14
03
2D
EA
51
D3
62
97
38
3F
BD
2A
B1
78
1D
B8
49
0B
04
1F
61
25
C8
BE
99
54
DD
15
9D
27
B3
83
C8
4C
D1
E8
6D
E3
BB
54
72
54
91
31
9E
2E
63
D6
29
A6
91
6A
F6
5A
53
4F
43
EC
E7
72
BC
1D
EC
81
BC
C9
58
99
45
7D
B8
66
4D
3F
5D
12
C3
6A
E6
DA
59
DA
0C
3A
6E
36
92
6E
6F
27
76
EE
66
65
D7
62
90
90
8D
E8
12
49
98
B0
FC
A9
02
C8
B2
94
39
9A
F0
7A
F7
04
45
87
74
1B
3E
B7
B6
53
DC
59
17
82
4A
E7
C1
A0
CF
4F
48
BC
9D
DD
72
46
98
9C
F8
FD
67
AC
DA
E8
4A
C4
0F
A1
7F
94
46
A2
C6
86
CB
5E
99
7A
68
12
37
12
E5
39
15
97
B4
E8
58
CD
71
DF
12
32
30
F5
9E
58
87
D0
19
F6
E4
13
A9
5D
E2
3B
55
4D
24
E5
5B
9F
53
41
17
7F
D8
F8
DC
B4
C4
DB
48
B8
FC
DB
E9
3E
E0
8B
03
1F
2A
1C
70
36
C9
91
2D
A4
8A
F2
F7
3D
DA
57
11
31
61
6C
2A
FE
C3
8F
CF
28
62
02
A0
77
B9
12
5C
B7
40
71
66
AE
BF
C3
7B
30
CB
0B
09
4C
E1
48
48
95
3B
8B
BA
4C
3A
E3
1E
7A
AB
56
9B
76
2B
5E
3B
08
33
79
F8
1E
90
24
82
BB
F8
9C
75
4B
25
B2
B6
BF
69
DE
0D
CB
21
2A
B9
61
72
A9
D8
34
F1
C0
8E
D3
1D
6F
01
34
D6
F7
17
06
C6
D1
CD
C6
90
C7
3F
3B
D4
E7
EF
3B
BF
05
C6
96
A8
1E
63
1D
92
99
71
C2
2C
88
17
6F
06
B2
9A
C6
D5
48
A4
3C
51
D3
E5
33
0C
0C
DD
2A
56
0E
5A
E0
25
AB
A6
58
E8
7A
BE
8B
DE
DC
CE
10
0E
89
25
9C
21
56
A8
6D
45
CE
86
BE
11
36
4D
2F
3E
9A
EA
B2
2C
50
B4
09
BB
4B
3E
87
C8
2D
6F
AD
61
E3
58
F9
E3
E6
9F
CC
31
D7
25
0A
AE
65
95
9E
0E
79
FA
9F
CA
3E
8F
0F
01
0A
33
DB
CA
72
1C
9A
77
A3
8F
A8
0E
52
4B
EA
F3
0C
90
42
92
BE
E4
AE
20
ED
3F
DE
A1
F8
5A
77
2D
F6
58
F9
22
70
0C
6D
82
30
47
AF
6C
DC
B7
DA
27
AD
04
67
DC
90
0B
F1
9E
17
A8
98
40
28
02
9F
C1
BA
E2
A6
CC
B0
20
D8
E7
58
78
71
70
83
D5
4C
59
AE
31
26
8E
A6
B7
D5
74
5F
EB
8D
C2
E3
88
E9
43
25
E8
51
C0
70
D1
D2
F6
67
B1
93
B3
E6
1C
2C
D8
1C
26
D8
2B
C0
5A
9F
AE
93
63
36
15
7D
AC
CC
7B
0A
10
C4
6C
9A
37
6C
FE
86
CB
A2
25
46
0A
1B
CC
9B
01
6E
99
50
B1
AE
52
8F
A8
DF
E6
1D
C1
D8
0B
F6
E1
C9
ED
45
82
0F
9D
A0
4F
0D
A3
35
B2
E5
71
42
C3
6C
90
74
56
23
DA
4A
F8
5C
8F
E8
F1
F9
8E
B4
D3
38
BF
1A
98
92
45
BC
9D
7A
63
B8
D1
ED
B1
4D
69
C7
F1
AF
8A
76
68
58
DC
58
83
18
10
E1
B5
FD
99
B4
2D
EC
F7
8F
19
1A
F8
64
87
91
16
D1
96
67
B7
1D
1D
5D
B3
8F
FC
0F
2F
83
AC
C1
13
31
32
D2
EC
B3
E2
41
01
FA
A3
17
57
DC
89
B1
1E
BF
8B
AC
9A
83
2A
0A
81
B2
75
0E
F8
71
E3
D6
4D
3A
40
AC
03
53
BB
72
F0
44
D1
D7
8C
4E
FE
A2
E3
2A
19
66
A2
0A
A3
38
EB
14
AA
85
F5
B3
54
AD
7F
70
CB
66
F6
89
B1
C5
C7
D4
EC
4C
29
F2
B6
2B
8A
32
00
47
1A
FF
11
3A
97
2B
0F
80
E2
08
54
93
A6
49
1D
29
47
7C
66
6C
F2
28
37
57
11
4A
D2
83
4C
4E
F0
52
2C
84
B1
2B
D7
55
4E
96
72
39
B4
A9
56
17
12
11
8B
FA
3F
DA
B0
2A
65
D4
DD
52
08
42
9E
07
F8
8F
5B
E0
D3
7D
15
4C
BB
AB
AB
28
BC
F9
5B
F6
FD
B3
BF
54
4F
55
4C
B4
9E
4A
18
F5
54
98
6B
45
6A
78
B2
10
17
17
ED
88
CC
F4
86
CC
23
9B
6C
CB
46
C4
85
1B
F2
16
17
E1
34
F8
12
74
90
F5
52
86
0A
BF
E3
AA
35
B7
72
21
F4
2C
08
D7
C4
C9
6F
6C
85
10
FA
2E
40
B4
A3
9E
E1
93
65
7B
F8
96
A7
A6
99
5B
FA
7B
2D
73
DC
68
84
46
97
5B
BE
DB
2F
61
A5
CE
BE
2E
F3
F4
44
45
F3
5D
2E
32
05
05
DD
90
12
1D
14
C6
DE
AB
9D
C8
56
CE
5B
B1
ED
85
9E
34
D2
40
78
33
0D
E6
73
CF
B9
3F
99
A3
15
2A
EA
34
23
97
95
1A
DA
CD
94
41
F3
11
00
F5
BD
CA
A4
72
BB
06
4C
F2
8E
20
54
C6
D2
42
2D
FA
07
66
88
CB
BE
89
90
1F
8F
2B
2E
8C
59
E8
D4
5C
35
41
DE
F9
AF
D8
E6
19
64
43
3A
E6
8D
7D
35
82
65
8E
55
3D
7C
09
0B
3A
52
69
BF
52
06
89
F6
9D
9E
F2
05
7C
6D
B4
34
CB
59
20
8F
7C
D3
56
59
E3
43
F9
04
A5
6E
1C
48
22
0B
3B
AD
3A
50
47
E7
10
DB
C5
0D
D9
86
C5
AB
BB
C6
56
BE
1D
EB
59
69
FB
A0
24
DD
04
DE
CF
33
A0
9E
DB
73
28
CC
51
19
82
11
4F
34
BE
DE
29
6C
BF
AA
A8
1C
C2
93
6F
97
34
E2
BB
65
F4
07
A2
82
63
3A
69
E7
9F
7C
6B
5E
EA
E9
5A
BD
05
17
82
68
EB
3B
68
E4
E4
1E
10
7C
1C
C1
68
01
E3
89
D5
41
63
4F
8B
E6
5B
D5
C8
70
D7
20
8B
A9
5B
73
2F
EB
78
45
7F
A1
68
63
A2
29
52
81
22
13
1B
7D
D1
60
CD
FE
7E
43
04
0F
A4
AC
64
4A
2B
EB
3F
76
4F
4A
6F
4A
20
7C
E6
F6
A7
A9
DE
C1
EE
2E
D2
E0
35
04
01
DE
9A
D8
28
79
51
30
57
D4
A8
7B
34
75
3D
24
F3
DB
66
A1
A4
92
8E
C8
F8
B2
E8
C5
BD
B4
1B
91
69
4F
A3
CD
6D
ED
EE
12
51
E8
C4
CD
10
61
55
27
1C
5A
5E
10
6D
0E
38
BB
56
C3
F5
62
E3
1D
7F
5C
C0
09
D2
29
54
E9
46
D0
5D
9C
DA
7A
79
EF
88
6A
EC
14
2C
47
E5
37
59
64
F5
26
FD
38
03
84
5B
38
36
F6
F2
21
AB
BB
BA
D6
CB
09
14
39
04
C5
F6
FD
2C
F4
EE
B3
54
DA
27
EC
41
F6
5C
9C
92
35
3A
22
DC
3E
D8
4A
20
C7
39
AF
2B
1B
6B
20
CD
5B
05
72
E1
DB
70
4A
52
A7
9A
48
C1
5D
A2
4D
32
B3
AB
FE
26
44
C6
08
23
3F
9A
E6
67
A6
08
2F
39
42
12
42
12
D9
97
DC
10
B9
11
D2
BB
CD
2F
A3
E4
DB
35
DF
25
90
58
C6
BD
50
4A
76
79
14
59
DB
EC
5A
C9
AB
56
14
78
FD
CC
CD
28
D1
F6
89
55
BB
A0
49
0B
BE
04
7C
1B
84
5D
DC
64
D6
EC
47
25
76
AD
98
6A
55
64
8F
08
D9
A9
6E
73
69
3E
62
78
4B
F3
AF
D3
27
AF
56
F4
12
E2
16
19
2E
E4
9C
1D
40
8C
35
B4
C2
63
3E
F2
DA
99
83
56
A5
DA
D1
18
C7
4D
15
C1
D2
AB
3D
9B
9D
DA
B6
78
F8
3C
95
73
B9
CA
5B
26
E1
73
3F
F0
4D
F0
92
43
15
6A
5D
1F
6B
70
A5
F2
10
75
47
36
FB
6A
FC
5D
FA
0F
90
07
0E
D8
5D
E8
71
61
16
6F
2F
9D
FC
4D
9F
0E
20
47
CC
78
10
8B
D4
27
B2
DE
70
FC
3D
05
A7
66
DD
9A
60
9B
99
85
FC
0C
35
9D
B8
A1
0E
A3
B9
4C
2B
88
5A
6B
FB
3B
E2
80
83
17
0F
3A
35
94
9B
BE
EC
71
61
C9
AC
A5
6E
92
DF
FF
00
C4
D7
AF
28
96
D1
D5
2F
5E
C2
C6
9E
BB
B9
E4
A3
ED
B3
4F
6B
F6
BE
D2
A0
D4
59
91
A0
F0
60
1A
66
C3
48
FB
7F
0C
3A
3A
D1
C6
EC
E5
96
94
CC
00
BB
E1
E1
F3
FE
D6
B2
4D
D6
D5
D9
62
CE
B1
CD
1B
D9
1E
74
C9
23
44
C5
DF
90
85
4F
8B
1B
10
EC
5B
DB
40
84
27
95
01
A5
0B
65
A6
40
40
06
F7
7A
D8
0E
49
0D
BD
DF
A6
46
E9
8A
66
5B
CE
17
A3
14
D2
FE
ED
7D
47
C2
53
C1
20
1D
45
34
5E
C5
5D
77
FF
F9
AE
DF
13
41
93
32
42
3C
71
A5
B6
4D
7E
65
B9
28
75
EA
00
51
F9
74
E8
32
25
EA
0B
AB
FD
55
3C
5E
B1
1C
01
FE
A1
83
E8
0C
AA
33
A5
59
2F
3A
4F
EB
E1
D9
6A
8B
37
F6
F9
51
06
2C
4C
08
A8
00
48
F0
C5
A6
E9
D4
5E
14
F4
2F
86
5B
31
30
1A
B5
0D
34
9F
AD
63
B7
D9
92
B5
27
46
B8
F0
6A
6F
38
88
17
DB
56
6D
E1
26
56
7A
C7
67
00
8E
6B
EC
36
39
F4
F4
90
14
FE
EC
A1
B4
20
58
48
CA
16
E4
D8
30
4C
EB
39
6C
18
55
D6
79
E8
73
CE
03
3A
04
50
F4
8C
2B
56
5A
66
6B
52
3F
E7
9F
9F
24
55
25
4D
BB
F0
CA
B4
EC
D0
AD
7F
70
6F
8F
A0
1A
55
B9
3F
4C
61
BE
40
63
3D
E8
B6
74
07
A3
E1
39
70
9A
3A
12
AC
C5
C2
D8
91
C6
76
CC
D7
36
FE
4E
FF
08
49
3E
3B
BB
EC
FD
F5
9B
B4
B9
3B
C7
E2
09
69
47
7F
11
01
BF
D6
20
C1
56
81
F4
5A
ED
81
39
0D
6E
69
31
2F
A5
A4
CF
66
62
FB
E1
F4
80
E6
E0
F4
A2
39
CF
37
A3
4A
12
0B
AB
C5
F7
DF
4E
4F
08
DB
0A
57
7A
36
47
9B
BE
9B
B5
36
BA
6D
5B
23
22
D8
E4
E6
5E
03
32
0C
22
D9
C1
32
2F
23
D0
B9
05
B1
6C
6D
71
82
35
C0
0C
00
87
6E
2A
10
3C
80
43
C6
46
67
FB
3D
33
A4
10
64
19
8D
08
0E
8A
B4
A6
F1
4E
51
17
F1
51
AE
38
98
94
93
0C
34
E0
F4
14
94
C0
B1
55
F6
A1
01
4D
65
C3
60
82
C1
0D
77
39
DA
F0
47
88
70
FE
51
8D
1F
CF
85
44
14
05
7D
5B
C3
69
5E
E9
AB
5D
4B
F7
52
78
46
5E
C1
2F
AB
F6
D9
2C
A9
0B
E1
52
97
71
0D
AF
DB
4C
0E
DA
8A
CB
93
C9
F6
87
21
91
65
03
A3
39
81
68
52
61
3D
8C
08
8B
1A
46
C6
DA
48
BE
9D
66
9E
21
4C
97
89
37
DA
C3
B4
D1
BE
F3
A8
0F
EB
5F
03
FF
A2
4D
EA
27
8C
DF
5C
54
CE
F4
1C
71
AD
EA
B1
61
B7
8E
A1
81
08
B5
37
9E
EC
AF
81
61
D6
C7
EB
B7
F5
1E
A2
70
23
0C
5C
64
74
51
61
78
E7
75
A9
E7
02
CD
F9
C4
E1
6B
5C
8F
12
22
F1
1A
42
47
88
04
4E
C4
AA
64
DC
35
9D
DC
B1
89
8C
D3
1C
87
9D
2C
49
73
6D
44
1F
A8
33
9F
56
4C
0D
47
26
7E
64
06
88
E9
BA
85
64
0E
46
66
F3
5C
46
6E
E7
E4
67
FC
8D
EB
EA
A5
43
0E
C7
19
BF
28
42
5D
93
27
77
6C
1B
5E
05
3B
0D
61
A1
4E
AB
5F
45
78
E1
DA
B3
E7
4C
D8
9A
8F
DE
12
8D
DE
E0
6F
81
24
73
D3
D9
3C
A6
1C
85
8E
1B
B9
C8
14
BF
CE
BA
51
58
24
8C
A0
1F
BA
77
64
88
42
1C
56
9B
64
81
47
F9
B8
0D
AC
5E
E8
70
EE
10
00
39
08
74
20
EF
AE
D6
73
26
22
4C
99
30
43
36
17
B6
AF
09
C6
20
A5
4F
EC
5D
36
85
0A
3C
D9
AF
DD
8A
DB
CA
3C
D1
66
F9
CF
FF
0E
73
18
78
D4
C2
D3
29
37
DB
BC
87
27
69
0A
8C
C5
91
69
C4
FF
ED
5B
66
EB
49
B3
CE
D6
A6
D6
7F
88
5D
2F
5D
BD
99
D6
9D
19
46
EB
E7
DE
06
52
B4
96
C4
D0
4F
A2
40
EF
44
C7
2D
98
F9
D7
11
5A
E4
17
8C
35
D9
42
98
46
33
2C
E7
13
03
19
07
7B
25
03
49
B8
AD
9D
9F
9D
F9
97
90
DE
47
6F
65
06
01
E3
4E
39
2B
6D
4E
97
B0
AB
78
F2
D8
86
AF
FA
66
FB
3E
92
83
5C
27
F9
22
10
F2
6F
45
A0
53
14
2B
E7
0E
54
D3
07
62
C7
66
D0
85
CC
4A
F8
DD
21
72
50
78
BA
B9
EC
3E
09
39
F9
87
DD
6D
EF
DE
49
B6
49
7F
DE
70
5D
6F
79
A9
E3
6E
01
2A
88
1F
BD
78
E1
2C
E7
41
F4
79
D9
F5
C1
B3
26
00
E7
CE
99
3F
90
51
76
4D
CA
0C
80
B8
1E
17
E2
46
68
31
6A
BB
7D
79
E0
45
01
AE
F2
B6
AE
D9
17
89
AD
00
CA
00
1A
DD
CB
C6
8C
B8
E1
0E
54
25
FC
B9
54
BD
0A
45
13
4E
C2
41
2B
58
C5
C7
12
C5
A7
7A
77
51
85
22
32
C0
5F
AC
19
BD
8E
39
7C
B7
34
0B
56
42
F8
E6
C8
10
08
14
61
7E
75
49
7C
6F
C9
32
77
87
CB
E1
55
3B
75
74
77
F0
15
15
15
27
1F
CB
41
D0
2A
E0
8C
58
6D
A7
D9
BD
DB
71
45
28
E6
04
5B
8B
53
6C
9D
DC
3B
C6
3A
D8
F9
28
FA
72
E0
01
2D
63
18
7F
1C
74
7F
94
52
B5
D9
4D
36
58
25
4B
11
5C
B9
1C
79
8A
A0
6C
08
3B
13
F7
F7
43
99
EA
9A
4D
53
95
C5
2D
6D
80
9E
25
59
F2
E5
BC
17
93
87
10
56
6E
55
41
1F
25
C3
C7
3B
F6
FD
23
C5
05
0A
F7
19
02
47
72
52
BE
77
7F
17
D4
79
02
54
64
93
E5
BD
83
78
03
5E
90
62
63
F7
6F
63
03
FF
65
20
29
C8
17
D2
08
08
B8
62
E7
7B
7F
73
32
E3
C3
87
90
72
88
9A
90
2F
4D
99
60
CE
40
E5
13
A7
90
EF
8D
7C
C1
DD
15
53
FF
C6
B3
B5
F2
E3
1A
FC
E8
26
2A
0C
1F
45
82
34
97
2C
D7
9C
F4
08
5D
06
BA
19
07
46
D5
42
55
7A
F9
BC
58
5D
59
47
FB
6D
C4
B4
89
D6
CB
E8
70
47
82
FC
9C
C5
34
A6
A7
53
A3
85
F5
8C
EA
14
C0
ED
8F
D3
F3
2B
A8
22
14
90
91
93
E6
63
DA
27
97
25
C4
DF
C8
51
63
A1
BB
D5
94
B8
EB
17
44
BC
F5
0B
94
A4
99
9F
11
DC
08
E1
AB
90
93
8E
CD
F0
B7
98
14
B9
E2
E8
A2
33
23
6F
6E
6B
98
CD
0D
58
0E
CD
A0
13
A5
57
7B
E8
96
5D
04
5B
B3
5E
E3
F1
C1
A4
57
E6
B8
A5
91
01
38
71
3F
1E
4E
90
D1
76
B3
F8
87
4F
EB
DB
4F
06
A2
92
46
C7
C9
16
A0
E8
0D
E0
0F
8B
5A
5B
B6
84
F5
C8
13
D5
FD
87
2F
13
0D
84
91
1C
62
18
3B
1C
20
70
A9
EB
B3
A5
2D
62
00
61
56
EF
21
30
B3
F0
12
98
C2
27
97
7E
62
B1
E9
0F
AC
08
03
45
1C
DE
A3
3E
66
FD
4C
1A
D0
5D
39
D7
74
7B
9F
0D
10
0B
88
88
73
92
66
E1
6C
F9
CF
EE
AB
9D
F1
72
65
04
42
B6
27
CA
73
4C
99
F2
93
71
DE
CF
C9
A4
61
5E
77
15
A5
31
F9
48
95
02
BD
39
94
3C
B9
9B
6C
B0
15
21
78
E0
6F
B0
04
FB
C2
E7
CB
D1
4A
3F
33
F7
D8
4D
1C
9E
E7
9B
F9
CF
AF
4C
D4
A0
AC
CD
FA
79
76
07
A7
96
DC
82
4C
DA
B9
4D
86
89
23
E6
44
3F
01
92
2E
C9
7E
2B
7F
04
68
91
4D
8E
11
69
84
9E
B0
B8
6A
DB
07
8D
39
75
B9
BC
8D
3B
0E
B2
31
91
E8
DF
54
CE
90
1B
3B
E6
16
71
E7
2D
C1
0A
4D
F8
C5
7C
28
D0
5C
85
6B
A2
9A
37
C2
F0
A4
25
99
C3
30
0D
F0
55
3F
78
74
15
21
A1
A6
87
11
A8
24
29
3F
40
88
A8
69
4F
B3
BB
49
41
58
14
65
F7
6D
6E
FA
12
7C
7E
AB
C7
2A
72
10
4C
4F
5C
BA
E9
00
4F
8C
40
59
DF
33
B5
7B
9B
BB
11
6E
E0
EF
F9
66
2F
A9
49
66
B3
DA
95
7D
A0
3F
8F
DD
A7
F4
14
7E
2C
C1
01
D3
BB
21
E7
56
10
5E
51
B1
5D
56
52
92
54
C6
92
8E
67
F2
CD
B7
3F
E5
AC
74
C3
00
15
0B
3C
2A
00
76
51
F1
58
58
31
29
06
57
25
5E
30
23
93
B1
57
70
F4
FD
96
FE
53
BB
70
8E
13
80
21
02
D2
32
B3
86
18
8F
2D
17
2F
F9
8D
B4
7E
A6
CC
F1
76
0E
BF
BB
D1
7C
14
7F
03
A0
E6
45
C6
56
88
4F
7B
34
0F
0D
F0
E8
69
4B
0E
E1
10
40
24
90
16
4C
FA
58
A9
2F
60
F7
3E
64
CA
69
77
3A
48
05
F2
77
7D
1E
FC
61
DC
C4
96
2A
16
E7
CE
04
7D
27
81
AA
97
9D
81
DF
06
44
57
3E
C2
CB
27
3D
B5
86
D8
D2
30
EC
B7
81
63
0C
1A
76
91
F0
3B
F9
87
03
20
70
D0
B1
40
CF
E4
E9
E2
AB
C4
02
91
B9
41
8B
E2
90
CD
40
FC
81
3D
1A
57
1B
E1
6A
95
60
43
31
EF
0B
F0
CC
3E
8E
56
4F
39
B6
50
5D
92
C7
26
4F
5A
80
0F
25
B4
0A
42
F5
83
D3
AF
97
3F
16
27
E3
0C
5D
91
E2
85
03
E3
85
EC
73
59
C3
12
5E
BB
D1
43
87
B4
85
ED
98
8F
19
47
90
89
64
EE
73
39
DA
6F
20
78
A8
39
9E
82
4A
2A
E6
82
25
53
55
85
FD
B5
E7
A2
CF
B2
24
97
52
EE
F5
A8
AA
BD
61
0F
B4
23
F9
49
8E
1A
10
F9
D9
C1
07
24
37
02
27
77
68
2D
19
28
B7
2F
31
ED
1E
1F
AF
A3
D2
C8
82
02
B8
9F
74
DF
B2
FC
5F
3F
97
BF
D4
68
39
74
9F
1A
48
AC
65
2B
D6
90
05
C5
83
B3
B0
C1
09
B7
F3
51
BE
07
1E
D5
48
84
2A
D7
D2
D9
6D
E1
0E
35
17
D5
F2
4D
59
9B
61
99
F4
AA
E9
B4
58
DC
3E
AD
70
AA
12
3C
F2
03
70
AA
3D
B3
95
D6
1E
C9
75
3A
39
BA
A4
0C
21
F1
FB
3C
28
4F
0A
57
82
E0
2B
A0
EC
5F
D5
3D
6B
35
E8
21
17
78
B4
D0
FB
7E
4C
2C
42
6D
75
79
05
59
73
52
D5
83
BC
23
5D
66
42
A8
15
95
0C
D6
5D
5C
5B
44
31
77
F5
46
8C
D3
0A
AB
99
B3
8A
62
BF
73
54
47
F6
B7
F3
D4
10
86
54
61
BB
70
86
AB
81
FB
10
77
78
24
2F
CD
5A
0F
8D
E9
00
A4
BE
CA
EA
7C
BF
7D
E0
C5
60
E8
28
C6
4A
25
5B
A3
CC
8C
B2
26
C0
C1
8A
96
A1
55
8D
9C
88
BE
BA
3A
4C
90
4D
3D
7F
B3
27
A5
24
32
0E
DE
1D
23
B9
55
A8
CD
BC
53
AC
35
68
EB
E4
75
3D
54
2E
33
5A
A7
FD
3B
23
99
86
C8
36
47
8D
FA
FD
2E
FD
BC
11
79
2F
76
EE
48
FE
8C
B9
D8
A7
F8
29
B7
BF
B8
7D
07
21
DC
15
CF
21
EC
BB
4A
AF
3E
D9
73
A0
7D
90
8B
C3
82
AD
81
E5
5F
FF
46
9D
14
5C
08
F4
06
0E
8D
F3
B5
BE
11
6D
C9
5D
1D
53
F5
EF
41
59
B3
5B
F1
4E
ED
3C
8B
46
DE
78
4A
46
39
53
BD
71
C8
49
EC
1C
7B
E1
9A
96
F3
69
53
A1
7D
62
64
D3
AD
26
C8
8E
7C
4A
1E
60
22
06
3F
34
C1
E0
C7
90
F9
75
AB
3F
15
21
5D
D3
10
DF
52
3C
09
6E
BC
B8
40
58
82
CC
94
52
83
6B
15
7F
AC
D7
F4
18
BD
F5
00
C1
96
EE
20
44
E8
F7
1F
87
93
24
97
C8
EB
86
75
D0
10
07
C2
FC
88
D6
7F
C3
3F
4D
36
F2
82
43
0F
64
92
14
81
03
44
BC
6F
B0
04
ED
93
90
EF
C9
38
2A
40
D5
30
3A
75
5D
E2
AB
3A
56
78
61
B7
F8
B4
6B
F9
48
5F
75
FF
B7
6D
28
58
00
AD
37
59
14
AD
F1
A5
15
57
3F
D5
B5
29
7B
64
03
32
98
B2
40
B6
EF
E4
B2
B3
FE
B0
C9
04
C5
D8
3E
F6
69
53
8E
16
DB
3D
F3
32
1D
C9
23
3F
16
B1
1C
0B
7F
E6
B3
1C
AF
10
AD
CA
F2
37
44
51
93
F6
9C
8F
20
A0
6E
6A
57
59
AE
F2
62
64
DA
A5
F3
D4
98
06
53
FD
CF
B7
84
51
8F
C9
94
7A
63
43
FD
A1
D8
30
73
3A
28
9B
CC
FB
C0
6B
C1
61
C4
AD
72
E0
E8
F3
61
A7
93
BD
0D
29
C4
97
7A
13
A3
33
28
8C
DC
A7
85
9A
EF
60
39
59
E1
BE
64
EE
B9
D4
30
6F
2F
60
B1
D9
D1
8F
CE
55
81
0D
53
11
CF
6C
01
56
9C
CC
4E
FE
E0
C4
E4
8A
8F
C4
DF
B2
A2
8D
24
31
35
E6
A0
32
BD
15
99
A6
50
AB
C0
D1
88
91
E8
86
08
E0
3C
E9
64
F2
DB
5F
97
77
26
D0
26
DB
61
FD
CA
A2
1B
4E
87
07
5C
4D
98
3C
2E
96
6D
20
0C
47
41
53
31
EA
09
21
4B
DD
74
15
17
52
97
0C
DD
00
EF
57
ED
D1
CF
53
85
33
52
F6
6C
02
BA
83
27
97
9E
FD
EE
00
8A
5B
96
29
85
76
7C
C2
45
A5
5D
FC
9F
3A
EE
C2
26
86
D5
76
AF
68
FA
C9
0C
DA
EC
98
3A
3D
16
EE
42
3C
0E
29
B7
1B
2F
1E
F7
AE
14
4A
28
5E
63
3B
B7
0C
58
9D
22
84
5A
E7
A5
87
AF
8C
F8
59
5F
2D
50
13
CC
C8
C2
93
A6
AE
21
77
EC
44
4B
6C
CC
87
D7
89
4E
A7
45
2E
4C
15
E9
5E
7D
4A
0A
0A
07
49
6F
6B
35
96
1A
1D
37
85
2F
4F
E3
9A
7C
11
A0
5A
3B
AB
AF
2C
18
76
29
FF
5A
6B
D2
FC
89
91
3B
6F
31
F4
62
5C
8B
51
43
06
5B
3F
0C
D2
F0
76
D4
5C
1F
38
47
60
20
62
B6
20
C7
1A
0C
D7
E9
DC
16
1F
19
0C
27
F7
29
AE
12
48
B1
4D
7F
6F
3C
04
AA
0D
28
82
31
8F
B8
55
42
B0
81
84
EE
A0
62
EF
F0
12
61
55
51
EF
C5
C8
0A
34
1E
FB
B9
41
96
46
C8
17
CB
D6
7A
9C
B5
C2
2B
10
72
DD
20
53
9B
5F
8B
44
CE
EE
88
37
92
F8
67
92
CB
56
BD
15
F1
A1
F5
F6
2F
E8
E6
9E
01
7B
24
E0
8A
5A
D0
E1
AB
34
3D
E0
64
E2
F4
59
BA
BA
12
2D
7F
AF
7B
8D
3A
F5
D0
43
77
E1
62
A4
25
83
8E
13
98
83
26
6A
6A
B3
49
C7
14
CE
41
E7
29
7B
DF
11
A3
85
DD
5C
73
21
15
65
A6
62
27
12
53
BA
3B
41
C9
F7
F9
7F
C9
40
26
28
59
76
B9
DF
58
C0
4C
B1
B4
39
AC
53
77
38
DB
17
9B
18
D7
20
CC
27
13
F0
8E
B1
85
11
BB
B6
A1
D3
BB
60
8F
72
05
7F
85
DB
33
54
FD
29
8B
72
1B
E8
12
46
9A
58
DF
55
9A
68
4A
32
EA
D1
E5
60
C1
D8
E0
ED
50
62
81
B4
76
28
36
80
20
9C
0E
51
8A
05
BF
8F
8D
80
63
A4
EE
C8
44
CC
F1
B7
8E
DF
25
13
2A
6D
FA
27
C9
F3
0F
FD
10
06
A2
EB
61
75
BF
AC
73
1E
C5
A4
97
14
E2
C0
49
39
5D
45
73
00
ED
3E
1D
8E
8D
1F
42
71
82
AC
32
6A
54
26
3B
76
10
0B
E4
98
5C
C8
02
BF
7B
D6
67
61
8E
96
04
7C
6C
2B
1B
60
79
61
FD
0E
86
B2
6B
FD
38
55
87
AF
D0
82
EB
57
C0
6D
94
15
43
14
2F
49
05
14
87
DF
5C
96
1B
6C
22
1F
4F
BB
05
08
09
45
F8
C5
33
AC
51
1B
8E
8A
58
11
83
A2
CC
8C
59
4B
67
E8
FE
79
66
97
CE
38
1A
48
E3
AF
6B
07
DF
EF
1C
E6
3D
D2
C8
92
6A
8B
04
C6
FE
19
A8
D6
E5
07
07
DF
83
B6
E9
B8
28
4E
CB
36
C8
58
95
21
62
5E
7F
98
36
6B
AC
97
1B
75
F5
17
64
BD
18
AC
2E
AC
C8
33
FB
FB
87
09
88
C0
55
4F
81
10
F8
DA
C2
E4
A5
BD
F9
23
01
E8
74
AE
53
06
6B
3D
B7
D9
AF
B1
32
E7
44
0C
1B
D3
C9
2D
20
12
1B
0A
B6
BE
4E
A9
61
60
0D
9A
28
A2
2D
4A
C2
14
D6
7F
BA
AD
8C
13
DB
C4
0F
EC
6F
CE
DD
37
2D
24
A7
7F
99
A9
C7
6D
7F
E2
83
9C
92
BD
DF
2B
30
73
39
02
1F
D5
00
0D
52
1F
8C
C0
33
C0
AD
62
A0
60
AE
62
D4
24
D0
0C
F6
22
CB
4A
3F
9F
FE
7B
42
04
06
0E
90
14
F6
C7
65
C0
32
C4
D2
B1
F6
55
09
3D
02
35
C0
61
B1
88
83
00
99
73
EB
21
1E
BA
57
DF
63
5D
AF
DC
3D
25
9C
71
99
A6
2F
9D
C2
EB
25
3D
6B
41
CF
5A
36
34
46
43
9B
BC
DD
07
2B
E4
93
3D
50
2A
8D
89
A5
6E
CE
31
EE
87
58
EC
1D
9A
5A
D7
41
59
AC
98
87
DA
9A
2B
0D
18
BE
F8
64
B5
D5
8F
E2
75
EE
22
69
42
CB
13
66
71
7C
91
3D
D5
13
F3
4A
EC
51
CC
BE
C7
72
9A
4E
D6
89
86
C1
00
35
E7
E4
1F
50
17
6A
51
DB
65
5F
04
38
95
27
34
88
CF
FF
DA
9A
9C
8C
19
89
DA
8C
A5
B4
3A
D9
37
65
7F
48
96
A9
28
04
59
4D
98
E6
F2
4D
C8
20
9A
31
D7
83
69
38
B5
DB
BD
92
07
99
6D
C1
2E
43
CE
E9
5C
0F
48
C2
1D
E4
47
D1
D0
95
52
A1
D6
23
57
5F
D0
65
28
CF
C6
B9
9C
43
D9
B6
23
C7
53
A2
BB
51
2B
18
A0
7F
A8
47
FC
B4
B4
50
F6
C8
1F
3C
3E
81
25
11
E0
CD
81
F1
2E
FC
C8
39
82
CB
04
F8
93
C0
3E
4B
05
40
64
78
9F
E1
BC
38
E6
28
13
60
FC
7A
74
D6
3E
A3
79
3E
C3
7B
FC
0B
54
F3
6B
0A
EC
73
94
8C
37
C3
71
A2
B8
F0
A1
1A
D5
9A
0B
D8
F6
3F
5E
67
E3
92
5C
42
83
09
BC
F0
EC
A8
C1
58
D3
B0
7E
2C
2C
71
5E
C9
03
A0
04
50
82
15
B7
FE
00
CC
9B
42
28
96
5E
EC
FF
98
D4
EF
2C
1E
8A
08
BD
A0
AE
20
F0
D8
2E
22
B8
63
C0
F8
14
51
70
E7
5B
5D
2E
31
FC
AF
CC
17
B1
84
0B
D7
57
40
76
F1
8E
B8
14
97
28
11
26
92
26
34
A8
26
D6
4C
B9
BC
D2
B0
22
18
0E
D0
2F
F3
76
71
7E
DE
9A
11
BD
FA
83
13
27
E5
D4
B6
7A
98
D2
8E
2B
9A
6B
28
74
1F
C5
1D
01
8A
A5
F7
D9
C4
89
21
52
6B
0A
67
B5
20
F4
FC
16
92
D7
6C
08
6A
A5
DA
64
6E
14
D2
4B
78
64
08
99
0F
A8
F4
DE
E2
92
16
5E
0A
06
B1
04
CA
3A
80
B4
C9
BA
95
8B
61
C8
CF
BD
73
C8
52
BA
C4
CB
54
B2
D6
F5
31
9F
B6
75
CC
EF
18
3D
B2
C2
5C
51
BF
3C
E7
F0
C6
B9
CC
37
80
30
6E
EC
28
B1
5F
0D
16
9C
A1
6F
50
D2
0B
DC
49
98
FC
76
1D
03
27
B8
B2
AB
A4
54
57
A1
1E
EC
D5
7E
F3
E7
E8
5B
10
86
AA
E9
88
9E
ED
1A
6C
F3
D1
9B
3F
7F
A5
52
38
83
27
0A
8C
EB
3F
2B
A4
8E
18
1D
8D
E9
12
F1
CA
15
E5
C0
18
D7
EB
51
DE
DC
3D
B7
79
FA
7D
55
4D
94
4B
27
38
EF
00
D7
46
A3
14
0F
57
52
D3
A5
70
DA
26
94
63
CE
CD
B5
A9
C7
BF
A2
A9
03
D1
A2
2E
FF
A2
22
73
EB
39
F2
AB
1D
3F
79
A8
01
FE
34
82
F9
4A
4E
EE
AC
31
FD
EB
0B
6A
EE
59
8B
B9
D4
6E
7A
1D
38
59
E8
C6
96
80
F9
B6
BB
CE
2F
91
A9
8A
6C
A4
84
E4
73
19
A6
86
0A
F3
02
0B
0E
F3
0E
F3
04
5A
84
F8
ED
CF
37
A5
01
77
19
B5
F4
22
F6
C2
4C
B8
A8
69
1B
CC
88
79
26
C6
90
54
0E
88
06
F8
29
D5
8F
52
70
5C
E6
3E
D9
5E
E9
42
4C
01
01
9D
11
F8
72
C4
09
3E
5D
E9
CA
83
AE
C5
D0
29
2B
02
F9
2B
77
B0
26
E1
C1
29
69
10
1F
17
D5
F4
0C
2B
41
00
0F
80
30
B1
8D
F1
39
C8
F3
72
47
80
4B
B5
89
CF
9C
B3
36
38
22
23
9D
93
1A
CE
E0
95
C5
E8
17
81
DB
25
A1
A8
37
AB
37
CF
85
51
C7
42
39
D6
57
9D
C5
AE
6E
6B
46
1C
18
73
20
B2
58
36
96
28
48
2B
E8
D5
DD
DF
A8
BF
54
2D
97
57
99
81
04
EC
A6
FE
BC
2F
2B
EB
3D
CC
7F
08
08
E0
1A
54
6E
71
D2
B7
50
15
71
FC
54
62
4D
77
44
10
02
59
E2
55
A8
18
F3
84
47
A7
C9
3C
59
72
2F
58
57
3A
A0
85
57
01
B5
B4
F2
89
56
50
E5
F1
0A
0A
47
B8
FB
0D
F7
CF
76
69
73
DA
4B
D2
B1
33
4C
67
AD
84
3D
82
9D
B1
B9
7F
20
57
A3
07
97
95
E9
DC
B2
CE
60
F1
6E
98
69
E4
7D
59
A0
F3
E4
08
F1
AA
2F
14
4E
88
F7
4A
84
12
E4
2F
9E
8B
95
C3
85
9A
4E
97
46
E4
FC
A7
99
6F
81
0C
0D
39
58
B1
44
18
BD
81
E9
2C
EA
23
62
65
BC
19
E2
2F
F8
A0
8D
31
3A
86
F8
50
CA
25
F1
2B
53
6E
B7
3A
80
87
A4
A0
D0
C6
AE
66
20
47
55
4D
D3
1A
8F
9B
11
AE
02
11
C3
3D
20
B6
70
4E
FB
A0
B9
71
30
73
3C
34
7E
69
AF
1A
4A
FE
37
41
F0
8E
49
E1
E3
BC
E3
A1
8C
0A
BB
47
2C
A3
BE
FF
9A
8E
6A
41
EC
B4
E1
3F
B6
3D
49
D5
85
2F
77
2B
52
5D
92
2F
B7
F9
9C
F0
B2
33
17
D2
FF
DD
A3
62
41
1E
0B
FA
96
A1
1A
81
37
06
1D
60
AE
D8
66
92
01
8F
2B
B2
AE
95
E9
7E
A1
E3
6B
62
D8
B4
86
4C
9D
5A
E6
79
02
10
6C
22
30
7C
1A
62
38
03
0D
93
F1
BC
6F
60
AA
79
A3
D9
68
62
45
28
E5
E8
D1
85
06
D5
5C
72
AF
EE
F8
42
38
B3
90
DA
69
A2
55
2B
B1
AB
E6
8E
5C
8E
5C
9D
33
3C
29
EA
BC
F3
34
CD
0D
E7
C0
C1
BD
AB
FE
21
9E
14
27
68
9B
4C
E6
B2
84
2E
95
9D
4A
4A
51
E2
C2
30
F2
D6
EC
B4
2B
CB
C5
F7
00
48
8D
1A
51
BE
F5
1E
B5
5D
CA
AB
B3
98
0E
1F
E8
DC
36
F3
35
FB
09
9D
0E
13
58
11
F2
B8
FC
7C
71
E4
DF
3E
C0
14
A5
7F
D0
D3
0C
0F
86
22
B7
A2
18
27
83
BD
0B
B3
18
8B
C5
41
45
67
1C
DF
1F
BC
F9
ED
A0
3D
AC
E7
80
34
2E
DB
EA
34
B7
89
45
9B
79
04
51
A2
4F
36
9B
75
C2
96
37
40
F1
84
83
82
B4
47
1B
2A
07
15
25
31
FB
65
21
C6
D4
40
BD
88
D3
ED
0F
23
D0
C4
CD
16
BB
6F
16
D7
FC
89
F6
49
DA
97
6E
31
09
42
65
36
36
24
52
EF
CB
75
56
7C
2B
E1
B4
0B
20
38
31
52
28
C8
DE
1F
2C
4D
2E
97
E5
E6
C8
55
8C
30
52
C2
D7
D7
87
E7
56
58
FB
9A
A5
39
1A
BC
43
9E
17
12
4F
B3
B5
C8
D2
65
42
FA
57
E2
5C
32
AE
02
16
3F
2F
ED
15
FF
B4
0C
46
F0
E0
AB
D7
CC
9E
A7
17
81
5B
95
56
A3
87
20
82
DC
27
DF
37
7F
13
38
70
8A
7B
17
DF
E1
8F
8E
2C
C3
3E
F2
E6
C3
35
C0
2C
0D
29
ED
3A
5C
62
3A
47
C4
BB
A8
E7
79
B1
69
67
B0
40
D0
A3
11
A9
6F
CE
B2
A6
12
3A
80
FE
F4
C2
7C
E2
19
38
1A
98
22
BD
3F
8A
D4
DC
3B
70
F4
BF
DA
4A
CD
E4
D8
BC
D5
24
A8
CE
91
41
94
62
5E
19
0D
91
A6
6B
73
2C
8B
DC
F4
10
A8
D5
93
12
51
D6
5B
BE
60
C5
54
E0
6A
AE
56
CE
5C
D0
8A
A3
1C
9B
77
BE
B5
84
C1
4D
EB
5D
53
47
5B
E9
17
7A
5D
39
76
8F
71
53
58
88
EB
AA
24
AA
1B
28
55
A3
BC
E9
7E
7B
6F
B5
FA
01
DF
6F
97
21
13
8A
0E
55
9F
4D
0B
22
C6
DA
ED
55
4F
45
5E
DA
C6
14
EA
8B
11
06
BF
39
FC
D7
1E
7A
33
85
B4
5B
15
4B
5D
09
FD
FC
E8
9E
A4
A7
53
6B
B3
D0
47
E1
45
0A
2B
E7
C0
E5
62
9D
76
F7
75
B3
49
87
44
10
43
D9
46
75
A7
F9
96
30
44
E1
58
FB
E4
96
40
5A
C3
75
95
E2
CE
85
3F
D5
B1
9F
F4
12
61
AC
C3
D9
73
60
39
1A
ED
12
9B
EE
E4
13
6F
0C
BB
D0
7A
7A
AC
66
CD
E5
99
A5
60
1F
0F
98
C3
37
D3
2B
69
49
82
49
CA
90
76
A1
E6
49
13
D9
DF
15
A1
98
03
80
AE
26
80
34
9A
10
19
2C
FC
5D
20
AB
55
44
D0
B3
F9
1F
1A
C0
14
64
29
14
A3
67
C4
03
B1
3E
46
3E
27
0A
3F
D8
3F
3E
18
CC
C5
45
47
C0
AC
92
E1
95
96
66
68
37
8A
78
83
0B
69
7A
0B
A9
D3
AA
39
AF
2F
8B
5E
18
D7
F4
8A
D1
65
46
64
33
1A
A9
6B
09
E6
85
3A
3D
04
95
74
20
4E
82
A3
A8
F9
D8
6C
0B
F1
50
15
8B
CF
A1
36
B0
E8
F4
D8
FF
1D
05
B5
12
FC
05
15
02
44
0E
1A
C7
B4
89
68
70
18
EB
AE
BC
CE
37
25
49
74
1F
6F
FB
D0
8E
26
1A
F5
9E
8E
13
69
77
76
69
A1
9E
C1
91
65
93
BC
A5
A6
DE
3B
DC
0B
8D
87
75
99
92
2B
93
C9
F5
2A
5F
1B
6F
85
11
5C
8D
D3
04
71
F9
9A
AA
A2
D8
AC
A6
93
3A
16
BE
DF
51
EF
7C
41
43
E7
5D
27
70
D0
76
B3
15
79
04
6D
78
FC
5C
AE
F9
8C
B8
5A
47
C3
05
D4
B4
53
EF
39
61
69
CB
18
03
3F
27
38
99
98
EC
4D
B4
7C
2F
87
94
D5
76
75
67
33
6D
ED
A2
2F
56
B1
F7
3C
BD
10
5A
10
DE
02
47
27
55
DA
50
4A
53
D5
B5
58
FD
92
9C
44
86
9F
A0
54
3A
03
22
19
B5
15
03
CF
AC
C6
40
B7
93
9D
E2
75
DE
BC
7B
41
90
0A
DE
FD
B5
F8
5B
8F
EF
AB
98
72
25
55
53
1E
01
EE
EA
AF
0C
7F
44
7A
F0
DF
95
E6
7C
67
8B
2A
AA
6A
B6
EB
13
13
CE
03
40
84
6A
BD
BE
8D
4F
2F
57
00
EA
9B
01
AA
30
F9
50
FC
D2
8F
4E
B9
79
E6
B5
AD
2A
58
3D
AC
11
7D
27
8E
93
4C
05
87
B3
C4
79
96
E5
9D
20
B3
84
40
46
06
CB
44
6B
12
7F
F5
DB
69
F6
0D
FD
E9
4C
4A
96
36
3B
A1
AD
98
E7
B7
D5
11
5E
1C
1C
2A
17
D1
53
D7
81
4E
C9
AC
DE
ED
34
90
3B
98
C0
6F
60
5D
26
E0
64
EC
8A
70
E1
41
2B
9C
89
72
1C
90
BA
27
9B
FB
30
DA
EE
AA
1A
F5
4A
B6
41
F0
8F
DF
D4
8E
AD
F5
1F
1F
24
A3
AE
13
2A
A0
B6
34
F0
44
08
CD
AA
8E
5C
3D
56
D7
18
41
AC
EF
B9
97
8F
52
98
4F
24
EF
79
8B
C8
A7
FF
8F
39
94
03
A3
B7
C8
F1
81
B0
4D
03
D8
0B
AF
00
FD
AA
4B
A9
BD
E9
9D
CB
3F
8F
E4
D8
1C
E0
85
5A
DB
AF
07
C9
C9
74
4B
10
EC
64
76
4F
56
8E
C5
4B
5F
D6
9B
78
1E
53
5D
52
52
F5
F1
3B
8E
55
F3
85
B6
ED
38
FD
20
C9
3C
A9
FB
8C
B0
42
D0
1B
C2
BF
B3
1E
90
6A
63
80
F3
3E
93
77
5E
AE
48
8E
5F
52
A5
B1
42
E0
82
1A
F2
4E
B5
82
2D
0D
C1
52
DC
5C
11
A0
0F
4D
D6
79
E9
FF
7D
0E
A9
91
D2
4A
27
C7
06
C4
49
9E
A2
F9
98
F9
7B
51
ED
11
FB
B9
6F
B1
71
10
01
AA
53
5B
01
68
FE
39
2F
87
53
46
C6
63
52
63
DF
D3
68
A7
13
7D
CF
63
E1
38
78
D2
B5
10
E2
2C
7B
9C
A4
69
F2
14
BB
1B
3B
05
CC
5B
3F
20
17
B0
E3
84
E5
CE
F9
D5
19
02
30
C3
39
BE
69
A8
08
2B
71
0E
7D
8A
84
10
BC
07
30
6C
12
17
1D
64
1B
82
82
73
86
5B
51
47
2C
AF
3A
F4
D5
6F
FA
93
7F
6C
C6
79
5D
9C
D6
85
BE
76
F9
BF
A4
F1
2A
7B
0F
FD
8A
4D
E3
E1
83
50
04
A4
80
C7
9C
D8
46
23
33
00
9A
52
F2
60
0C
BE
96
06
16
6E
05
4B
3E
E1
A3
59
BF
7A
B8
DF
B3
F1
A0
1F
26
ED
30
A7
01
0F
A8
21
AF
0D
4F
A8
6A
BD
B6
E2
65
32
61
21
FC
B9
6A
8E
AB
B4
99
C6
75
F2
24
21
DC
93
CC
02
BF
40
73
5C
64
40
10
72
FF
BD
DF
11
09
4A
1F
FD
FB
0D
9B
FE
07
5E
DC
51
99
A1
18
F0
49
73
66
2C
30
90
E0
CF
3B
46
CD
D6
49
AB
77
7C
72
6C
A9
6E
DA
53
22
BE
E7
AD
7D
93
CD
68
4A
F9
50
1C
F5
AE
2D
3B
53
D7
EE
1A
9D
67
B3
FA
34
8D
0B
AF
39
96
3B
7F
9B
A1
92
C7
8E
E5
FE
FE
A5
EB
2C
8D
31
9D
62
7D
8C
06
80
2E
6E
9E
41
38
A2
14
46
6E
6E
66
E8
81
97
CA
17
C2
77
EF
22
0A
40
34
8C
AF
69
FE
9E
E7
D7
24
20
1C
5A
82
8C
D1
91
07
1A
F8
B9
5F
CF
B9
19
60
2E
39
9C
9A
1D
9C
47
72
6B
38
2B
04
70
94
59
34
B9
75
84
94
29
FF
A0
34
C6
53
E7
D6
2A
47
7B
81
E6
FB
04
65
99
C7
7E
D5
94
13
70
F1
D6
94
6E
CC
72
4E
A3
4E
D3
F9
4C
14
FA
61
D0
E8
EA
D3
0C
54
53
7E
98
57
9F
FF
39
36
33
04
DD
32
E4
30
6B
CB
59
3A
E1
AB
A0
67
94
4A
FA
AD
F3
70
E6
89
38
B1
67
15
4B
D0
F6
D7
70
EF
D5
95
05
29
77
0F
E6
A0
E9
44
BE
CA
C2
98
7B
3D
04
ED
85
AA
8F
B7
34
1D
2D
4A
FB
1E
57
FA
83
35
00
66
F4
0A
A2
CE
08
BF
36
D7
44
D5
B6
46
49
C3
32
70
6E
FB
A6
B5
C7
95
08
3D
FF
2D
66
C3
56
DD
2B
8C
03
F2
CF
BA
B9
A9
09
D7
24
F6
F4
D1
46
BA
E4
6E
05
D9
5A
E7
EC
FA
04
22
32
B3
32
19
E9
FB
11
62
CE
CD
D1
1A
62
7B
58
F4
B1
DE
E0
CB
5F
02
70
12
8D
7B
9B
40
E2
DC
8F
68
0A
92
FC
0E
09
37
E5
A5
BC
F4
B6
66
D0
BC
19
14
0C
74
E3
D1
78
CF
4E
58
A1
90
66
20
3B
BE
C9
F0
EC
D5
FD
AB
B2
BD
D7
07
21
9E
41
70
7C
81
C1
44
38
A3
5F
49
02
E6
87
10
05
5C
6C
18
2F
AD
B2
2E
65
86
4F
E4
BF
30
E3
7C
77
5D
E9
02
0C
82
48
58
23
4C
6C
00
CE
DF
36
34
45
04
A9
D3
20
79
87
25
68
00
2F
FF
CB
46
F4
A7
38
69
23
BA
36
CC
DF
8E
6A
FC
E8
03
8C
46
B7
D7
E0
5E
08
3A
32
A9
E9
2E
5B
5F
C9
F8
34
93
15
D9
23
B0
00
CF
84
FC
F1
93
76
CB
19
91
18
34
27
44
50
E7
A2
3C
24
94
07
46
12
C4
AD
03
22
F8
EF
63
6A
2D
57
05
A1
E5
CA
75
35
C7
AA
9C
AD
0D
1F
15
05
C6
96
05
D2
41
8D
D7
80
8B
5E
FE
C6
50
1D
1F
21
3E
F2
2E
37
06
C4
7B
FF
EA
F0
B5
D2
34
0A
62
60
FE
B1
27
19
3F
25
83
E8
8F
43
8A
F4
0D
32
E3
BC
51
2A
F4
08
B3
10
C4
FC
A7
A9
CB
34
9D
8B
ED
C3
02
59
68
B0
A1
37
F3
D8
61
4E
D2
C5
BF
B3
AB
2F
80
38
82
7A
87
0C
69
51
44
18
47
6C
CC
75
7A
06
F9
8B
4D
62
E7
2E
A8
1E
BC
4D
39
65
E1
B4
D2
37
42
1E
25
DF
A1
E3
5F
62
C3
3A
2F
BC
2C
B2
EA
DB
6F
2C
10
EB
7F
03
53
04
84
71
E3
1D
6D
E6
87
15
87
56
EE
90
CE
1B
F6
89
95
36
96
C6
CD
2D
F0
C3
52
2A
D7
A9
59
1C
B2
1A
84
FE
2E
7E
60
16
53
86
18
D4
E6
16
AE
12
38
4A
E9
A0
81
74
46
84
14
87
B9
31
11
07
60
6A
B5
64
12
2D
24
04
25
E2
80
C6
14
19
4F
55
72
81
92
E3
96
26
0B
81
B1
EE
78
D7
D9
2D
4F
B2
60
A2
7B
C1
99
57
0F
EF
FC
3E
92
9C
95
A6
4D
D2
D6
54
0C
05
4F
79
A3
44
0B
1C
C8
39
AA
F5
9F
2A
50
B8
8A
F7
15
D0
98
C4
2C
F4
80
FA
27
D0
28
47
48
AF
45
5A
F8
72
A2
24
5E
83
12
EA
41
1F
6E
39
B7
9C
7B
EC
72
C2
04
E5
8B
02
DE
7E
01
2E
8A
24
C3
B9
1E
D1
95
40
FD
99
24
DE
ED
A9
88
88
59
0F
A5
54
46
95
E3
2E
F7
6D
5C
3D
88
96
F0
A0
18
AE
B1
06
11
C2
D9
81
BB
82
DA
CF
6C
0B
BB
44
1D
16
D8
3A
20
6E
C9
08
46
8A
02
48
0C
E9
9F
22
92
33
53
70
F7
EE
68
C0
97
B1
79
E7
BA
B8
3F
74
C6
BF
2A
14
B8
7E
0C
85
9D
AD
43
2E
17
1C
22
F7
97
78
EA
E9
ED
C5
F8
8F
E9
AD
16
2F
78
8F
CE
C0
73
E1
49
2F
DA
B2
04
AB
39
64
D3
39
03
E3
F1
DB
F4
99
72
CD
BE
C7
01
2A
20
DB
1D
C9
7D
D1
F0
B9
18
0C
12
BB
99
A3
22
AC
CD
E9
63
6C
24
E7
6F
BA
DD
FE
BE
2E
D0
7F
63
71
95
EB
13
B3
9A
3F
36
B2
5D
32
A9
40
F7
4B
BC
12
A7
15
6C
BF
FA
3B
00
40
4E
81
31
C6
5A
37
D8
06
3D
A7
58
11
FD
9B
15
F7
7C
CC
0A
F3
F4
60
DB
55
37
02
07
CC
A3
FD
FF
D3
7B
BE
EC
5D
55
E1
29
E4
F4
96
E7
DA
C0
36
16
FC
D6
9F
CD
6F
45
53
B9
0E
F1
1B
73
3D
A1
7B
93
6B
CE
07
FB
4A
06
02
F5
D0
5A
5D
CD
EA
A0
58
32
E2
CF
B4
99
9C
F3
DD
34
44
EC
9C
55
32
3C
EE
EF
70
F2
5D
C5
36
C7
E1
0D
E6
AE
58
CE
1D
4B
D0
1F
1C
36
3A
A4
35
B5
97
B0
2B
0A
A5
63
31
B3
59
09
EA
F7
D8
71
E7
A1
A3
DA
96
97
0B
37
61
13
B7
57
4B
B8
02
88
65
95
31
0C
C1
A6
9C
23
3D
4A
6B
13
F5
24
F7
AD
5F
18
D7
FB
4D
98
D2
EC
81
E8
CC
73
A4
21
0F
5E
87
9A
A7
6E
B7
66
1A
8D
E0
3D
7A
91
A7
91
45
0D
6E
6B
29
D5
12
8F
B8
CE
5D
5B
89
98
7B
1E
7C
30
59
B3
A5
CB
D0
08
87
BD
80
9B
91
15
59
CC
DF
71
10
05
90
0D
D6
B9
39
CA
A4
32
69
15
F2
14
41
98
66
7A
AB
4D
9E
20
53
5B
0B
72
C9
5E
80
E4
08
CE
44
84
AF
A1
E5
C4
A6
D7
FD
B6
68
5C
04
FF
58
24
98
AE
58
52
05
41
57
B3
70
5F
05
A8
E0
7C
9D
30
A9
E0
7A
9D
88
3C
49
59
1C
10
66
D4
6F
9F
DE
70
A2
95
91
C9
8B
1D
AA
96
1E
F3
C3
E1
28
5C
F0
5F
24
49
6F
5E
F9
A5
51
A0
E9
DE
D4
C4
59
78
2F
53
AB
E3
07
3A
A5
F6
85
D8
01
A4
BE
C1
35
5A
75
C8
4A
50
53
46
83
BD
01
C7
5B
39
F2
EC
DD
41
EC
32
2F
DA
95
A4
3D
82
75
97
8B
34
14
36
75
8D
85
02
6C
A9
7A
81
40
54
5F
CA
CB
F7
C5
9B
C6
78
0C
FA
8D
B4
00
CE
7E
47
95
AE
F6
41
74
44
89
01
97
4E
52
48
3F
BA
34
37
A8
F3
C7
17
DD
67
37
B3
95
42
AD
AF
3C
D5
5D
C5
6B
33
B8
84
0B
60
BB
47
59
54
DB
34
83
81
75
68
52
78
48
3A
CF
CB
90
09
F9
6E
4F
02
7F
27
B0
3C
8B
B1
79
FA
20
EA
7A
C7
F6
FF
F8
D3
94
EA
21
9B
7F
52
E8
64
63
60
AD
34
C8
F1
32
F2
E6
B7
E7
41
69
BB
57
AD
25
15
96
FE
E0
55
E0
06
85
F0
9B
84
07
50
74
B0
1B
08
E0
17
0E
83
C6
4F
DE
4E
A1
2A
07
7E
55
8A
35
A5
D8
52
85
2E
47
41
1C
72
82
1A
72
3A
FC
9E
ED
3D
BA
D0
21
C4
94
72
06
88
FF
4B
27
38
5B
7B
49
AD
D3
F9
8C
B3
4E
F1
3D
08
DD
B3
55
EC
C6
B4
D4
EE
65
2C
73
DC
0B
43
40
EE
DD
79
28
05
01
81
7A
B9
85
77
A9
DE
77
77
73
3E
15
7E
41
91
88
CB
73
0E
23
89
DC
C2
56
D5
8A
F5
FA
07
64
B5
8F
48
31
6E
B1
AF
46
FB
36
D2
A2
99
B8
7C
DD
CD
F3
2D
4F
B5
7C
CA
4E
EE
44
C3
E7
BF
BA
D0
13
58
B0
3F
9B
59
04
3B
7A
37
45
4C
24
72
65
0C
02
55
3B
DA
5C
22
07
B4
BA
06
8A
6B
64
A9
4E
FA
C8
B8
95
FD
27
E7
66
4E
8B
9C
7F
82
DB
23
9F
22
F1
15
BE
FA
8D
0A
37
40
80
CE
4D
10
43
0F
AA
AE
30
EB
37
33
11
36
CC
62
F2
62
95
A0
A3
C2
EE
A1
3F
D3
EA
4D
5F
34
4B
89
1B
F0
C6
DB
DB
BB
8E
8C
E5
D4
B0
23
9F
F1
A0
3F
C7
7D
91
F6
18
D8
83
85
AE
66
91
E9
93
4D
0A
06
A0
1A
35
E3
1D
C2
86
6E
A4
40
4E
2C
CF
68
97
92
B4
DB
59
54
D8
43
97
2E
65
4A
D9
CD
74
D1
AD
41
69
82
CC
CE
49
2F
33
38
44
60
86
B4
07
16
10
12
7A
76
B3
72
60
2D
0D
59
64
50
C4
4F
00
80
9D
FA
5E
69
84
F6
06
E8
97
5A
3D
B1
A6
23
6E
BA
E5
75
56
77
33
0B
FC
B9
30
A7
B9
60
56
02
D7
F2
03
A6
CD
29
68
C6
56
51
2C
F3
7A
3A
84
0E
D4
CC
A3
D0
26
A9
2C
6D
AA
60
C7
73
F5
90
3B
3C
8C
74
16
61
67
26
C8
72
68
82
3C
F9
EF
80
CD
CA
A4
97
E3
1D
36
99
C4
72
9F
F5
93
7C
8D
71
61
F4
40
A7
92
68
9A
A3
D8
25
17
D3
1E
19
72
F7
AA
D9
70
C7
A8
44
15
D8
8D
3F
4D
EC
47
07
2C
43
16
EF
87
13
80
E0
DA
5D
26
3A
C2
06
9C
9B
3F
E3
38
BF
60
0D
A5
D0
72
F5
E6
0F
AE
97
84
85
14
74
3B
A1
FA
79
79
99
9F
08
FB
37
E7
32
6B
B3
68
6D
90
AB
2C
73
73
E8
2B
B6
C5
A2
28
0D
7D
17
5F
55
77
EC
B3
08
B9
54
D7
DD
6D
A0
8A
BD
82
B5
64
FE
82
68
72
76
56
F5
D4
A8
8D
31
11
32
16
FB
8A
B5
4E
A8
1A
B8
5A
A3
AA
33
CA
1D
65
AB
8F
31
C0
AD
19
D4
7F
DE
5C
0F
84
05
25
C3
C5
C4
E7
9E
C9
08
E3
9B
BF
08
D7
94
6A
D0
22
6B
C1
9E
41
34
46
31
0F
27
ED
5A
43
CC
83
22
B5
76
64
71
8A
09
52
FA
76
4B
F4
E9
64
CE
1B
D5
27
B2
D3
39
D2
06
FB
31
21
71
DD
EE
25
A8
69
B8
91
D9
25
3D
2A
14
41
94
7D
31
C2
50
50
40
BB
B4
EF
6A
2E
50
CF
B8
69
A5
B8
8E
F0
9B
C8
47
66
7F
42
20
18
4A
DC
82
41
46
81
96
E6
B5
4D
EA
4E
D3
79
4A
42
D6
B4
0C
C4
F2
C2
3A
F5
EC
A2
CF
27
43
54
24
63
AA
B5
10
B1
DC
91
59
72
A0
75
20
A7
CA
D1
ED
76
B2
8B
1E
E5
FF
EF
07
A4
7C
7D
FE
DA
E8
26
DA
C4
B0
20
2E
90
71
B9
65
3D
2F
92
E5
E5
1F
C5
8F
EC
BA
AD
FD
A8
AA
47
83
27
67
76
F2
7A
73
7B
97
1E
58
89
33
82
64
B5
37
D7
A6
18
94
0E
EE
51
38
B5
69
75
63
45
55
97
9A
0A
CD
2F
C6
1D
89
21
68
22
91
19
21
6F
31
61
2D
E5
51
ED
6F
2A
DA
92
C9
BC
3F
ED
B2
A7
20
43
33
5C
37
32
68
D6
0D
57
52
A9
EF
FB
0E
FE
D6
B9
0F
A9
3C
82
B4
76
1F
8D
B3
02
9B
D1
80
59
9D
78
46
4D
20
E5
02
52
2B
9D
3B
54
04
D7
9C
7B
E3
A8
4D
94
52
7D
EB
C8
04
C7
DF
4C
32
6C
1C
68
DD
9C
84
F9
3A
36
97
34
22
6B
28
2B
0B
8A
BA
2D
61
44
C6
24
39
1E
12
25
31
5D
35
6C
20
CA
05
6C
09
98
69
57
8A
D5
76
A5
6A
6D
91
ED
35
8B
CA
0A
0D
9E
95
5C
E8
24
29
AC
16
AC
11
3F
DC
2D
D6
AB
D1
38
D6
EF
01
EC
F9
08
0E
81
80
B8
08
8D
51
B2
EF
4E
A6
70
9F
50
88
77
4B
DE
91
27
FB
DA
04
4B
39
25
11
C8
32
88
E2
3F
1A
A2
28
5D
11
F1
C9
45
BB
BC
F6
3F
89
09
32
18
2A
87
41
9B
99
E8
EE
89
43
6B
62
E8
DF
DA
50
9B
2C
4A
82
DC
1E
33
B1
23
67
A8
FA
8A
6E
A8
D1
14
6A
A3
B0
F5
91
AC
BD
E5
5D
2D
A1
99
B4
E6
EA
91
13
3F
86
43
1C
41
DD
EB
65
5F
B3
28
DC
9E
FE
0E
F2
FC
A9
16
9F
BF
2E
A8
94
20
E7
85
DE
04
4E
EA
B7
B5
8A
C6
B2
DF
A2
F8
97
E7
6B
ED
FA
A8
BB
BB
2B
A2
CE
6F
E0
DB
88
CE
99
BE
CC
33
F8
EC
12
88
66
7A
2B
FE
C8
72
D7
72
66
9E
3C
9D
DC
FB
F5
2B
51
69
F5
BD
F3
CF
67
AA
29
B1
71
71
CC
0C
A2
17
5A
4E
B8
A2
18
F3
6C
1D
31
F8
E3
60
43
20
04
36
A0
65
FD
3F
D2
35
07
20
68
8D
81
2D
42
9C
78
DA
32
DD
CE
E0
E3
E7
2E
20
33
1E
91
C3
50
C5
95
FC
3E
88
7C
BF
41
7F
68
1D
87
A7
89
EB
0E
88
A7
4E
76
F9
7B
9C
2B
D0
F3
BD
7F
C8
6B
5B
40
5B
87
5F
C2
45
B9
E3
A4
91
C9
1D
C1
EA
3F
69
4B
C7
C0
EA
2C
CB
9D
65
80
FA
EB
FB
8E
84
B6
E9
DF
C9
36
8B
10
60
E4
42
B3
CB
D3
8E
E6
F5
54
EF
2E
D0
E7
09
39
50
DC
55
1D
8C
64
3C
9A
FE
F1
16
42
56
50
0A
DA
0F
A6
0F
A0
B8
F3
30
A2
7C
C5
6D
8B
AC
A0
4F
69
DC
67
8D
03
74
61
85
25
BF
F3
A9
38
B5
CA
90
93
BD
AB
76
00
F2
4D
DE
6F
66
4F
48
1B
4C
A4
CD
F0
4D
BD
95
D7
10
66
6F
6B
F9
CE
88
94
7A
43
97
99
71
FB
16
C1
C0
E7
BC
05
7D
30
A4
F2
29
04
AC
23
36
4B
0E
89
B0
53
B8
91
07
9C
E3
94
89
F1
7E
38
B4
CF
0D
B5
6E
A7
33
57
EC
3B
F7
46
60
88
53
27
F0
68
E6
D9
1A
34
23
F2
8C
68
9A
0C
58
D5
90
2E
DF
C5
D9
63
46
34
A8
BB
AD
3D
03
8B
8D
3F
82
8F
00
F8
12
28
1D
31
A8
C1
AD
82
A7
7B
7C
28
39
88
35
48
A6
49
0C
F4
06
D7
C6
48
23
BE
1E
9A
D2
4E
AF
04
4B
4B
49
A3
93
26
43
B1
65
AC
4E
F4
4B
8C
A4
C6
9C
F7
06
3B
DD
2F
4D
08
D3
CF
83
01
43
CE
FF
95
41
70
50
99
2E
B3
1B
C8
DD
1E
02
82
96
44
51
60
85
4B
47
7A
11
27
C8
6E
41
CA
6B
5A
3A
6F
0C
43
9F
ED
C5
C1
6E
30
B7
02
D3
D0
B0
C7
AA
B6
11
DF
52
A3
AF
03
6D
4B
0C
89
DA
73
CF
24
E3
A3
B2
F9
3A
9A
8D
36
1D
5C
F5
B6
0A
7D
02
5A
CF
37
96
14
76
57
9C
4A
99
B2
93
96
5D
21
24
AB
01
46
62
04
A1
AB
00
D4
A8
CA
CA
8E
D5
9C
2C
31
FA
D0
A6
59
1E
76
1F
90
3E
09
AF
A4
B6
34
29
5E
74
9B
A4
8A
BC
A8
7A
81
D4
DA
E7
42
7E
FC
E9
9E
23
CF
8F
29
27
F5
C2
E4
16
2C
9B
67
99
17
3A
31
11
4E
A1
FC
4E
10
46
16
21
F2
89
6F
D5
F5
90
A0
9B
83
B0
BF
6A
C2
E5
64
30
D1
95
0E
BF
FD
B3
29
C6
58
FD
60
BE
6C
F9
1D
E7
0C
90
94
3D
B6
14
8F
29
6A
4E
C0
17
A4
EB
4C
A2
26
44
87
