78
9D
D1
9C
26
9E
81
27
1B
B6
AA
DF
02
43
FE
2B
53
4C
56
B9
C5
E9
4B
A3
9A
EA
DC
1E
74
F2
B0
BD
01
2E
07
E7
5C
86
AD
87
A5
76
02
11
82
81
3A
D4
8F
17
B2
88
5D
6D
C3
FD
27
19
63
24
01
59
EC
D1
50
34
FF
02
A8
CF
E3
B1
FD
6F
0A
6C
0B
71
51
88
A2
C9
87
4B
EA
08
E8
72
40
87
6A
7C
36
BD
9A
15
67
CC
AE
16
16
6E
2B
66
08
2D
D5
7C
21
53
20
B9
AD
D3
E0
13
CD
FF
C3
47
7F
BD
54
68
03
DD
F9
AF
9D
21
38
68
DE
87
45
06
65
05
E6
10
4A
04
5F
4E
62
4D
4C
59
47
CE
93
8C
02
5F
6A
1C
8D
A3
D0
A1
BB
80
E8
CE
CC
EF
B8
93
AC
AE
9B
F2
DF
27
A0
B2
21
55
83
12
2C
08
8F
01
3C
6E
82
F4
52
48
D7
19
5F
AA
C7
FD
D3
23
A5
A6
B1
31
63
8B
4A
ED
03
A5
8E
FC
77
F6
1F
EF
B0
8F
1B
DA
5A
13
15
C1
E4
C6
E8
40
9D
5D
10
A6
79
34
3A
96
B2
39
59
B4
C2
B9
EB
1D
22
32
C6
EC
A6
9E
69
A9
0B
24
B8
2D
65
E5
19
80
56
9F
18
BC
E1
D8
89
B5
04
C8
FA
79
AD
50
2C
5D
0B
94
52
7D
B7
46
0A
59
9F
25
CC
A1
4D
FB
F7
69
16
C1
15
14
32
C3
D4
70
A8
64
35
61
DF
8A
94
0A
34
97
C7
47
4C
26
F0
3A
38
A9
0F
E1
74
61
3A
AE
15
14
F6
AF
1A
6A
1E
27
64
8B
A9
FB
FA
C0
C9
0C
96
B5
1F
B8
4A
05
BA
91
D5
2A
A1
78
DE
44
FE
7A
D7
C7
FD
30
81
84
08
22
72
95
D0
23
D3
44
8A
CE
C4
F3
DF
0D
E1
A0
09
30
DC
0A
D5
AA
5B
7B
44
90
53
45
2A
C9
BF
13
AF
13
60
3F
21
53
42
E9
27
B9
01
10
CA
28
D8
5A
3C
20
7D
75
B1
D3
BD
6C
C2
6B
94
BB
3D
CF
20
37
39
C5
52
9B
A0
44
DB
98
4A
51
41
AC
0F
06
45
98
51
31
C6
14
5D
86
48
5F
2F
E5
94
F3
F6
C5
41
55
89
66
A7
D6
51
05
8D
E2
25
66
1A
CE
7E
EA
1E
62
12
11
AF
D2
A3
14
56
7E
6A
AA
71
B5
5F
D8
E5
ED
5A
1F
24
02
9D
FD
14
61
EA
0C
B9
37
81
83
D4
D4
3D
24
64
A9
FF
A4
A2
D7
30
BA
E6
7B
88
BB
8C
5F
5B
39
5C
01
9E
02
CA
A1
7B
5C
F3
CD
E1
45
6A
18
3C
D9
D6
C5
F7
AD
8A
1A
CE
32
65
8C
2F
D4
74
0C
98
BD
03
11
A3
67
BD
94
87
54
3A
C4
C8
FC
12
6D
F9
40
6E
95
39
D9
4B
8C
E9
C4
B9
E5
D0
41
F3
B0
EE
B6
64
9F
DE
CC
60
9A
76
9A
2F
F9
38
3B
76
9E
07
DD
0A
77
CE
84
D6
F0
5E
6A
EE
D8
74
23
A2
C6
DD
0E
F9
0F
6D
79
C0
20
13
D9
D4
55
7B
39
F6
58
E6
FE
27
11
34
F5
75
6F
76
16
B0
F9
0B
BD
5D
65
B0
33
25
D1
10
CF
57
AB
3F
8C
40
DA
29
1B
53
E4
5D
7D
1E
F0
9C
63
59
4E
72
5C
24
F6
C1
E5
34
4B
3E
64
F9
AA
67
B0
9F
0A
52
87
E6
EE
66
A3
18
A3
9B
92
F7
43
FA
27
E8
98
10
E1
88
9C
05
24
44
A7
92
2C
B2
AD
B7
38
3B
31
E5
EF
4A
51
1B
04
B0
4B
C1
AF
1D
D9
25
26
9F
9E
76
2C
79
F2
24
31
81
99
72
DD
85
E2
F3
DC
9E
81
43
7E
33
BD
D5
AE
B4
59
D9
EC
07
47
B0
D8
B5
E9
38
ED
3B
A1
CF
9B
23
49
E2
CF
38
67
1D
4B
64
17
C9
25
9D
C0
E5
6C
98
50
91
E2
02
88
71
7B
05
0B
C4
94
6C
AD
74
3F
ED
C7
DC
6A
AF
6D
A6
41
F2
65
3B
5A
43
BB
61
AE
A3
71
AA
90
10
D3
7D
9D
C2
E4
AC
D8
7C
25
96
4A
76
A8
C4
E1
3A
D5
5D
29
10
02
85
DF
50
8A
B7
E7
73
F1
79
06
3C
D8
FC
7F
B5
3C
BB
21
3E
B1
29
81
6C
F1
27
B3
BB
3B
E0
D6
E5
52
4C
A3
15
A0
F7
83
40
A9
68
85
40
BF
75
E5
F8
A6
29
A2
FD
37
2E
C9
46
40
A4
71
58
0F
F5
44
82
A6
CF
7E
87
21
EC
84
5B
36
15
9E
22
9B
B8
E0
3B
1F
D3
51
75
D9
F1
DA
8D
B3
6A
E9
84
0B
1A
75
0A
1D
28
56
F1
BB
4F
71
35
FF
A1
A8
60
57
9F
BC
F6
2E
A8
44
C4
26
49
71
36
2E
89
F2
37
7A
B8
45
31
43
86
01
10
9A
EF
55
77
86
7C
B1
EC
94
31
2D
78
1C
E5
32
C6
66
DA
57
40
DE
33
B3
8C
56
A0
E2
1F
4C
00
8A
77
20
EB
16
9C
29
B4
3B
49
64
BB
84
F5
AC
A1
23
A4
29
03
06
C0
09
90
63
FF
BB
83
42
B6
9E
AA
F1
75
35
F5
21
BD
B2
D9
22
FE
0E
03
C5
04
37
EF
AF
EA
AC
A2
F1
D7
C4
BB
51
60
65
AC
22
7C
FE
2D
EE
0C
22
47
0B
D6
02
EB
F8
A2
28
B6
A5
EC
BA
F6
8F
03
F3
D5
C8
60
92
54
90
2D
E1
19
0B
1E
6F
E7
E6
33
E8
54
70
A8
20
98
17
D5
FD
E8
CD
B9
68
40
28
54
35
85
76
B8
5A
96
12
FE
5A
72
42
86
4D
3F
F0
51
AB
56
ED
1A
BB
AA
7B
DA
7B
6A
BF
62
B3
4A
13
21
D6
29
95
38
AD
74
57
85
8C
A0
FF
D3
A2
B1
22
6F
30
3E
EA
DB
66
E3
15
6B
B8
A4
88
EC
93
E8
57
D8
82
BA
D6
D0
4E
7E
41
B4
9A
D0
C8
29
7A
E2
6E
FD
75
AF
2D
06
CB
84
45
26
D4
2F
A6
32
FB
DF
38
5E
D4
02
98
B7
EE
73
81
9A
B5
AE
D6
11
EF
BD
95
FB
1A
62
22
F8
66
73
20
BF
D6
0D
9D
02
78
36
C6
75
C3
79
37
43
D4
60
9E
D2
1B
4F
93
15
82
56
B2
33
FB
25
23
C8
9E
76
9E
B1
61
CF
4E
4D
7A
4D
C5
75
C6
9C
9F
68
7A
99
0C
B4
57
22
AE
99
C4
4E
E8
AE
A0
42
BA
E9
A0
56
F7
27
31
9C
89
1D
A2
21
A2
61
25
60
B6
45
73
A8
F8
24
F0
A8
CA
F6
87
96
EE
EA
EA
46
5A
E7
BE
02
2A
31
E3
39
DD
70
D3
50
54
20
C3
49
21
9C
B8
61
C3
7A
97
05
83
0C
2F
87
71
28
31
7C
12
11
54
32
E9
AB
AA
0A
ED
B9
7C
BE
CD
95
9F
B8
FD
56
06
7E
6B
3B
9A
8B
9A
B2
3F
48
9B
62
7D
01
74
6B
68
07
0A
56
87
F9
3E
96
47
8A
06
9E
55
7B
2A
E9
22
34
AD
F1
84
E3
02
5F
BA
09
06
93
32
D4
71
2A
D0
D3
E8
1F
CE
6F
24
EA
41
B0
21
7B
B3
3A
B8
45
48
C8
B3
25
69
43
03
D6
95
C6
E8
2F
81
D6
48
A4
41
81
E3
E1
01
30
2E
19
EF
D7
91
14
B1
E7
0E
8D
21
F6
C0
4D
A9
7D
09
22
CC
DE
A3
D4
09
EE
EC
08
82
9E
A3
45
5E
6E
AD
15
C0
A7
D4
A1
FA
2F
0A
8B
4F
32
64
B5
6B
2A
97
B5
83
61
7E
7F
80
B6
8F
59
DB
D7
2E
F1
E8
B0
52
85
77
49
B2
D8
71
CE
59
C2
85
DD
73
98
93
6B
34
1A
A4
79
38
BC
FB
10
08
4D
C9
C3
94
D9
3D
46
29
B5
67
3D
81
68
AE
28
7B
B1
00
DE
C5
4A
B7
F2
17
96
D9
FB
9C
79
9B
FA
07
82
61
F6
11
AD
16
E6
A7
FC
7E
76
80
47
AD
A1
FE
FC
01
C5
82
68
10
F1
BD
F9
7D
E5
CD
9C
98
2C
70
8A
FC
39
31
55
BD
B2
8C
3C
47
8A
F7
8A
E0
C7
11
18
5A
07
0B
41
3E
60
D6
36
72
74
32
F2
8C
C6
EC
F1
AB
3F
3B
47
31
E5
A1
7A
55
14
BA
14
1A
C7
20
17
41
72
31
3F
E9
F5
73
8C
A1
BE
C7
0C
D2
54
5B
65
06
BF
A5
91
C2
F7
70
81
B8
13
F3
7B
0C
07
09
97
83
39
9C
FE
D7
2D
AD
12
9B
1E
A8
23
70
F1
E5
C2
A1
F8
34
A7
57
5C
C2
EC
86
AD
F1
32
A1
43
52
BA
83
18
86
89
6A
B2
AE
7E
B5
8C
44
A2
2A
E6
3A
F6
E7
2B
15
76
FC
A2
8A
42
23
36
29
23
D2
D6
C1
E9
0D
88
E5
0E
48
81
76
BE
04
BC
05
F0
11
F5
5E
C4
24
28
03
7F
0E
AB
60
6F
A8
3F
1A
D1
1E
1E
F0
3B
BA
EB
3F
AD
94
2E
70
58
C9
81
70
C3
ED
5F
A9
63
3E
D1
93
2A
7F
4C
1F
4F
4E
E0
2A
F4
A5
00
BE
59
89
32
83
21
2C
04
13
25
DC
0C
40
55
DF
92
7B
89
36
8B
2F
F5
9C
2F
5E
97
9B
98
83
3E
28
38
53
73
15
72
C9
5B
F6
22
A5
9F
A4
4B
99
B3
84
5D
6E
35
C3
04
79
A9
12
E1
07
BE
95
15
1F
78
A0
66
BF
27
44
CC
A4
D1
40
B8
12
06
08
AE
DA
BE
CD
B5
33
94
1E
82
C9
5C
D1
7B
3F
4F
9F
21
05
62
C8
A7
1E
F6
FF
2E
C4
FE
EF
CE
23
8F
00
CA
26
22
B1
D5
0C
80
A3
F5
E2
E5
27
17
8C
28
24
40
41
52
3E
11
49
AE
EB
2B
02
9A
D7
4B
53
F8
17
38
15
95
35
6A
05
7F
F4
9B
D2
90
12
E7
AB
65
9C
7B
29
0A
B4
C6
1A
53
00
96
F7
0B
67
D4
A7
DD
E4
A1
BE
87
EB
8A
E7
8E
85
D5
1D
77
A6
E9
52
3E
43
E6
4F
A9
75
46
DB
9D
BB
A5
A1
E5
A0
DF
95
23
82
42
0E
A8
8E
3D
B0
E8
FD
6C
64
1D
BE
A6
A6
1F
44
24
CE
9E
47
76
0C
4C
D5
F1
BB
A0
90
55
22
42
6D
7D
7D
90
16
87
81
13
A6
D0
FB
E5
69
33
44
2E
BA
5A
8A
0A
C0
20
B5
3D
A2
ED
B7
82
B1
50
49
F8
23
29
C3
9A
FD
CB
3C
65
71
6F
DF
23
47
ED
6C
BA
8F
0F
9F
87
EB
77
B2
5C
0F
53
85
4B
45
9C
91
50
60
DB
86
D8
5E
07
02
F3
EC
57
D5
A4
91
82
79
C7
80
D8
AD
B7
E1
12
29
80
A9
60
B9
20
F1
41
1C
A0
E9
4E
04
54
BD
55
02
B1
DF
7B
B6
2C
16
C9
4C
77
80
D1
AF
4D
AB
95
96
09
70
2D
AA
09
69
70
18
F6
56
5A
DC
7F
78
8C
A8
11
B8
20
FD
94
0C
84
F7
77
49
4E
B7
9C
E1
07
26
A9
43
99
86
08
54
23
A6
88
49
2F
1E
E3
1C
54
1E
E7
82
1B
F4
B9
DE
C3
F6
82
CE
BD
D1
D7
A2
CF
EC
C3
0C
D5
CD
2B
2A
CB
B2
78
9A
CF
6B
09
6E
32
03
89
CE
67
B8
89
49
E5
BA
2B
28
A9
91
9E
BC
64
84
D8
03
1C
16
13
74
7E
FA
0D
50
51
73
41
FD
09
96
90
96
69
C4
03
0E
A6
86
66
23
