F1
27
4C
F8
54
A5
37
30
80
E0
09
18
F6
A3
17
BB
07
A7
2F
AC
9C
5A
FA
27
5F
9D
99
71
65
35
0C
3C
04
92
3E
DE
EE
E5
9D
F6
55
B0
59
2D
AE
C4
5B
41
21
EF
4F
B1
C0
BC
60
A9
36
B9
8E
D6
76
94
87
FA
D9
3C
D2
F1
AA
E9
D1
5F
C9
57
E9
AE
9D
ED
7B
04
71
D8
46
7F
D1
6F
80
3E
90
3C
2B
9E
19
5E
B4
D4
87
8E
70
DE
2E
01
57
DD
E7
7A
13
92
70
AF
BD
C4
4B
72
C7
07
DA
C3
F4
1C
47
A7
52
EE
58
91
A6
CB
2D
D3
84
B0
C3
77
2E
EB
20
FB
2F
AD
00
8C
C1
99
92
7C
36
37
1E
35
DD
F0
CF
B7
AC
A8
8D
B6
AB
D3
34
4C
D4
64
2F
A5
BE
AA
44
34
B7
A6
68
69
C2
93
59
AE
49
1B
BD
1F
3C
59
DB
8C
68
A8
C1
0F
C7
28
A8
E8
D6
A4
D8
30
B7
F5
79
E1
C1
87
76
F0
6E
7A
BD
50
BD
0A
FE
1A
54
E5
71
E1
EE
F7
09
B7
7C
52
94
88
78
CC
A3
4E
0F
20
8B
62
F6
4A
5A
17
6E
79
E7
55
DF
FA
01
43
2C
1D
75
E9
14
9A
0C
83
6B
7C
B4
A6
19
95
9F
98
98
EB
5E
B9
81
BF
8F
0F
51
85
1F
25
D0
CF
1F
ED
D2
9D
7B
FB
0E
A8
E1
74
19
28
0A
E2
CA
20
09
42
32
0B
0E
B3
98
56
10
E9
5D
1C
A7
E3
96
ED
91
5D
39
99
B6
68
80
39
C8
AF
52
18
98
56
46
5F
E7
11
41
60
3A
97
9C
6E
4D
D3
D2
8C
7B
D8
7C
70
F9
BF
7E
63
D8
9B
E9
9C
71
2E
E7
29
15
6B
6D
F1
F3
2F
17
46
9D
09
9E
3D
D3
37
A6
ED
D4
B6
1A
1F
AB
2C
0D
AD
1F
6D
8D
32
B2
FD
FC
7E
52
D0
CE
4A
6D
DE
07
F9
B2
3B
28
E9
82
4B
77
D3
A9
A5
03
C1
12
55
06
B3
C8
5E
0E
CE
1B
E9
E6
D6
D3
13
9C
04
AC
28
57
FB
46
BD
7A
F6
CD
6E
10
9F
3E
1C
07
BA
48
BC
26
8F
FA
2A
04
4E
7B
36
D4
A0
76
35
53
D4
78
72
5D
88
FB
C5
11
48
12
33
95
A2
AE
CB
6C
DF
F3
DB
28
73
8D
11
D2
1C
77
E4
EB
37
A5
C3
24
B4
B4
85
C8
1E
3C
37
6B
8A
A3
CA
7E
11
A7
7B
B6
18
D0
A9
68
43
1D
C1
EC
3D
08
C1
CE
0B
3F
E9
2C
03
A0
1A
32
91
77
2D
01
78
33
FB
A8
48
58
B8
1F
4D
8D
B6
14
D3
CA
F4
2D
99
34
73
01
13
E2
C6
17
4C
E8
2B
F2
39
BA
7F
C7
4C
4D
69
F1
BA
DD
E8
41
BE
28
80
4B
99
C3
16
53
0C
FA
7F
82
10
15
B4
70
8D
1D
B4
33
90
BE
DA
29
85
03
49
B5
1E
CC
84
93
24
3A
DC
B2
EA
D6
15
7D
C6
07
DB
7C
B8
D1
15
7B
45
0B
24
C5
66
76
6E
27
7F
9E
97
9B
28
CD
2F
C6
48
21
3D
CA
E1
51
93
42
22
F7
1E
E3
D2
61
B1
2A
A1
7E
BE
C2
B8
4A
B4
E8
0D
68
1B
84
45
CB
36
A7
BF
30
BE
06
67
4E
5E
4D
51
B8
B5
4D
1A
DE
D3
08
00
F0
E4
64
30
F9
5B
D9
82
5C
C7
73
C8
99
7C
FE
0B
11
C7
0C
B7
5F
0C
B3
46
D5
AE
EE
97
25
69
FC
B4
D0
58
4E
E5
56
6D
0C
10
57
F4
50
95
31
E3
DE
D6
07
37
8B
77
A8
57
FA
00
85
89
22
57
44
D9
2F
3F
AB
3B
C1
F0
78
E3
AB
BD
3F
D7
2C
15
9C
14
F7
50
9B
A2
4E
EE
8A
9E
15
1A
78
92
A3
D3
73
87
C8
D6
A2
8D
D7
1F
E7
49
EC
02
4D
10
2C
CC
39
AB
25
B4
20
67
AC
9D
0D
C5
62
F8
A1
12
E1
D7
BC
92
0A
70
F6
B2
F6
18
83
37
27
3C
D7
5A
19
8F
3A
6D
72
B4
9C
4B
47
80
52
4F
2F
D1
85
13
C9
B4
78
DB
E2
8B
E0
43
C7
88
B0
9F
8F
F7
A7
94
6D
8A
52
29
3A
0D
F4
FF
F9
6D
C0
48
3A
81
C4
C5
0F
4F
1A
99
EC
B7
4F
AD
75
7B
85
01
D6
DC
E7
83
55
1E
0C
B2
E3
2D
EF
BC
25
F6
3F
07
CD
CC
BD
9F
E3
B6
E2
35
7E
8D
92
E2
D4
F3
CB
8A
84
65
4F
CE
0A
3A
7A
13
B8
21
2A
7E
1C
E1
C9
05
84
DD
58
DC
0C
CF
93
0E
43
28
5E
DC
59
AD
C3
41
4E
4F
AB
E9
01
A0
96
6C
40
4A
01
66
09
51
77
FD
14
DF
15
4C
00
D1
DF
7A
D6
CB
70
B5
5B
6E
7F
41
9E
45
3D
B8
A1
8C
25
6F
3E
B1
F8
29
83
88
EE
90
99
43
C2
D0
02
A3
A5
CA
66
F0
C2
2F
8C
BF
DD
6C
E9
A2
3C
58
9C
39
80
34
13
53
DD
7B
5A
87
AC
BA
FE
44
DF
57
6F
D3
9B
90
E0
30
94
AF
8E
76
79
FD
D3
B1
6D
FE
48
47
0C
BF
FD
37
9A
03
9B
A7
63
CB
65
98
86
6B
E2
D2
15
1F
BF
43
49
F6
29
10
E6
CB
76
A9
B4
BD
DB
C6
CE
E3
9F
D0
CE
84
57
D2
83
A9
2C
C7
DF
5D
26
76
16
27
C7
C2
76
EB
B9
FB
45
93
0E
30
D7
B7
65
C9
53
65
A0
16
F9
BF
0E
C6
64
4F
EE
B2
53
59
72
BF
CB
00
4C
5E
A0
40
8E
26
1B
3E
AE
6E
87
71
9C
37
00
63
F9
07
A4
0E
C8
76
3E
9A
73
42
15
CA
95
43
0E
C1
C2
01
A2
44
5F
76
CB
F1
62
36
68
30
6E
DD
B4
AE
DC
A9
2B
7E
DC
3F
19
3D
44
69
AE
36
95
B7
A1
18
04
67
D6
7F
2B
DB
5E
49
74
E2
B1
31
55
5B
53
9B
43
E5
8B
30
E9
C1
D6
B5
BF
E8
83
DC
89
4B
56
50
5A
50
AF
E6
81
4C
B6
08
E9
B0
6F
19
68
1B
80
C0
89
45
F5
A4
A7
70
58
CE
CB
30
41
66
CE
BA
9D
12
44
2F
82
4F
B2
F0
79
5D
94
57
94
70
92
9A
D8
B3
11
6E
53
73
F6
DC
B0
15
B9
D4
73
02
8F
D2
D5
2E
B1
1E
D4
35
60
2C
BD
19
24
BC
FC
87
5E
7C
E0
6D
0D
88
73
B3
EE
1D
25
C9
B6
49
FC
96
A1
AE
8E
6C
29
7E
F9
9F
2C
F3
F9
00
C9
4C
6D
4B
18
23
B3
D3
98
98
CE
C3
DF
BB
2D
65
10
6F
18
5C
DA
A1
C2
20
BB
4B
96
42
EE
40
DF
E1
48
00
6C
1F
9F
C1
7A
D0
9E
45
8F
25
E8
14
BA
BA
C7
37
C4
13
9E
EC
C3
FD
6D
A9
94
2A
69
53
67
EC
3A
A2
F2
D6
B5
20
CD
15
ED
97
E6
EE
3E
71
DE
87
28
04
CD
4E
DF
0A
C5
32
91
BA
8B
A9
43
AF
8F
E3
D2
52
50
B5
17
E7
EC
1B
41
AA
56
DE
56
D6
8D
EC
7B
8E
3C
49
9B
20
C6
36
BD
57
2D
4E
53
20
1F
97
73
22
0E
3E
3D
D0
2B
D6
2B
18
90
ED
9B
EC
A8
62
DE
D4
35
75
EE
75
EE
19
1C
EB
2B
92
BC
7F
61
82
58
A6
04
9F
79
51
6C
A8
7A
1A
1A
8F
EE
E4
73
41
EB
66
56
5B
18
A5
67
C2
9B
BA
FF
DA
CA
49
7A
57
A2
C7
CD
08
7D
4C
4E
93
43
1E
2A
B0
25
E4
60
03
02
00
F4
84
7D
03
97
6E
67
17
12
16
EB
07
91
B0
2C
A0
BF
D7
E3
B6
F0
A4
EF
8C
73
E7
94
5C
7C
1B
49
68
57
99
18
20
EC
F6
78
85
22
C4
EC
40
BD
EA
85
E5
00
C8
5F
A4
E3
57
40
32
98
90
89
46
AC
C9
C6
05
B0
EF
98
7E
FB
11
96
DC
7D
6C
27
1F
EA
F1
BD
93
E1
4D
8D
96
58
31
02
E4
8F
77
EA
50
E1
66
D1
98
DC
00
81
A0
92
B7
66
CF
96
F7
F2
CE
D2
12
FF
6D
18
DC
94
9C
0F
D2
F6
BF
B5
1C
B6
4B
F2
15
BD
E9
48
6B
78
41
80
A6
76
92
29
DC
D1
53
92
EF
47
2E
E0
91
24
2A
A1
EB
CF
44
4F
47
61
2E
EB
5E
DA
32
67
BB
6A
CA
B6
05
32
3F
91
D5
7D
62
21
3E
71
4E
58
61
9D
6F
7C
3F
1D
8E
2C
A0
13
98
85
9E
86
96
14
88
F3
96
A7
7D
AC
25
6D
B1
01
35
77
3C
48
4C
60
D2
41
8B
90
7A
FA
16
D7
12
4A
3B
E4
E8
2B
E9
38
13
53
D9
81
4C
8C
01
5F
95
B3
65
78
43
DE
7B
FB
67
DC
3E
3D
25
8D
1F
D7
9B
F4
CF
88
0E
C4
4E
43
4B
C4
57
50
3D
12
ED
10
75
8A
1C
74
D0
64
29
31
5B
06
92
6F
C9
40
F7
5D
64
E1
94
A7
F0
AE
34
B9
4B
F6
B6
CA
46
D7
BD
54
05
7F
3D
94
0A
F3
8B
91
FF
9A
71
B6
32
6D
E2
9C
43
49
48
97
80
D2
8D
49
62
B9
14
6C
DF
D8
88
90
C3
69
E0
11
89
09
32
29
36
97
BA
EF
01
8E
2A
D3
AE
2C
4D
64
08
9F
EA
2C
82
70
99
51
34
ED
53
10
06
86
33
48
C8
40
5F
0D
8C
E6
E3
B0
CD
83
C2
9C
80
6A
1D
DE
22
BD
56
83
78
FB
00
09
B3
F5
FC
DF
4B
EC
74
29
10
38
7C
28
75
48
54
CC
AF
DD
2D
E6
70
6F
0D
C4
C1
21
E4
79
AF
42
73
89
D9
D9
75
09
36
37
41
65
05
AD
B5
DA
1F
15
5A
BB
85
D4
FB
7F
34
A3
B4
B2
4A
D8
0C
94
5D
84
85
87
F9
C0
18
C0
E4
E8
1F
5B
DA
6F
B8
70
43
1F
F6
E6
AE
25
48
4D
0C
CB
A2
54
60
2E
2F
1D
F4
0F
C4
D4
9E
13
0A
30
50
47
14
08
BF
97
05
90
04
0C
0C
44
B0
44
C6
39
8C
FA
04
B8
3A
6A
22
3D
CE
54
30
DE
89
BC
77
33
AB
16
6A
BC
0D
1C
9B
27
4D
92
EF
A5
76
A8
6D
AA
DC
01
75
3E
76
F0
06
92
28
4E
4A
E3
8D
93
C8
31
FD
DA
8F
A0
FE
B0
02
8C
BE
A7
1C
4D
37
0B
C3
F7
93
08
9C
60
9A
AF
E4
BD
C1
84
91
45
ED
47
9E
34
82
E2
C6
41
E6
0D
C8
39
63
1F
12
F9
F9
09
B4
51
34
0F
A9
56
0E
9F
D5
01
64
27
CF
CB
08
64
0E
95
B2
3E
AC
24
83
5D
BF
93
69
4A
7F
66
7C
D1
D9
17
52
47
F3
6F
25
40
49
D3
C4
C8
4C
40
5A
F4
A3
C0
2F
E8
04
D0
EC
6C
50
FA
DA
96
6E
80
97
3D
F5
74
78
73
08
73
72
8E
08
EC
32
35
F4
DD
4D
6D
94
68
30
BD
35
EE
F9
9F
2A
02
1F
F7
C9
2D
10
54
B6
36
5B
4A
C6
4A
25
07
2D
D7
14
BD
37
D5
13
42
3C
BF
B3
08
9F
EB
15
8F
7E
2C
E7
4E
0C
99
9F
32
EA
4C
8B
CB
7B
C0
E9
32
36
17
EA
BF
03
FE
E9
EC
24
C9
15
D0
EB
22
4E
4C
C2
17
C6
E0
F9
1B
9A
28
80
E3
85
E7
38
CF
BF
6A
E9
E7
6F
46
35
98
44
8B
D0
14
5F
11
31
90
61
A8
EF
16
BD
7B
79
38
E8
75
83
EA
6B
8A
5C
D0
7F
45
F3
B9
88
D5
5B
8D
E9
22
89
5C
12
7E
87
13
AB
E9
64
9D
F8
9A
95
12
D7
23
D9
B4
1E
FF
CB
66
1D
34
7E
B7
95
49
57
4C
9A
CE
78
D1
09
33
CE
96
1E
85
7D
BD
39
AF
56
ED
E6
C6
D8
20
DB
30
0E
E6
1E
FA
D4
E7
3D
DF
8D
11
16
4D
67
48
C4
80
96
A0
23
53
55
9F
07
3E
EF
BC
FE
EE
7D
B5
27
DF
B9
10
38
A1
92
12
26
F3
EA
DA
AA
03
3D
45
71
89
E8
E2
A3
40
CB
77
5E
C5
9A
64
22
8A
7C
21
6A
1B
87
53
02
84
55
98
73
B4
8E
C3
9E
58
1B
49
E3
73
FA
C9
F4
24
3D
57
51
EE
C5
54
17
04
F3
0A
3E
34
1B
5A
03
1B
4E
8F
15
47
C7
B7
DA
B2
E1
78
BE
A5
7D
4B
A3
E3
83
F4
25
56
13
5B
A2
4F
C6
45
82
2C
9E
FA
B7
E8
8F
93
A7
75
AA
84
00
7E
8D
16
CB
F0
60
88
BA
5F
1D
39
0D
55
F4
BA
8E
4A
20
DC
88
C9
DF
CF
83
8F
87
B5
9D
3B
B5
2D
1C
D4
44
15
E7
B1
B6
BF
AC
62
05
07
66
9D
40
7A
FD
0B
B9
13
0B
25
A8
B2
0A
51
08
4D
A5
BD
32
26
10
64
98
24
65
DD
24
B1
9A
08
8A
A1
20
DD
FF
4A
3D
04
F8
75
07
54
9F
67
64
F5
7B
A0
38
55
6E
1E
2F
48
10
7A
26
C5
49
35
6C
3B
8D
AB
87
9A
9A
21
14
52
D7
F1
28
B2
0C
C6
83
31
FF
79
03
3D
18
70
F8
2A
6E
F5
4B
69
08
3D
19
FF
51
16
98
C9
7F
2D
6E
1A
E8
37
5B
C1
99
86
3E
F5
30
75
AC
FE
0F
83
0C
4E
3C
63
99
14
89
35
94
B8
EE
79
43
8D
EF
18
63
08
DC
82
2D
FD
98
08
79
B4
B5
D5
A3
36
CF
D6
1C
73
7B
CB
CD
D6
CC
C9
ED
33
85
21
03
A0
EE
2A
A0
A9
F9
49
B6
2D
C5
5D
BB
3C
F7
15
4D
69
BF
45
DF
1B
37
F1
26
EE
3B
81
8C
A4
CF
5D
41
57
0F
C1
7E
7E
32
1F
66
81
84
69
64
AA
36
8F
EB
DA
1F
CB
6E
14
AD
00
78
52
F6
F4
26
AE
67
47
82
38
4A
AF
B1
79
EE
31
8D
5A
DA
8C
57
C9
16
0E
5E
3B
63
34
58
F3
82
AB
DB
BC
52
07
3A
24
EB
49
8D
66
EF
2D
FE
73
E7
44
B5
02
5D
71
4C
12
28
92
E8
E9
63
EE
F7
DB
5D
A5
D4
28
1B
7A
BD
7E
9E
8A
64
A2
AB
74
1A
CE
28
2A
61
F1
49
13
4D
D0
F7
93
27
EA
95
37
F2
77
5E
AE
EF
CC
A2
D9
3B
B1
22
66
31
FF
DF
89
D6
B5
84
65
56
2E
15
4D
F5
D3
1C
B0
E6
42
EA
A8
CC
19
EF
52
E5
18
4B
1D
13
FF
2E
04
25
9E
7D
76
43
B5
40
DE
D6
48
70
C6
54
19
68
D2
C8
A3
C2
1E
11
17
62
B3
F6
9A
6B
F9
06
6F
CB
E6
B2
8C
F1
D7
2D
D1
74
E1
75
0C
E7
F8
77
B7
2B
16
F4
45
DF
2F
DE
67
44
6C
FC
3D
12
27
41
55
82
05
A8
B0
DA
25
8A
BF
25
A8
42
19
C8
63
77
95
9C
1A
D3
7F
1A
CA
D0
D4
90
44
81
7F
1B
38
BB
F6
B6
10
DF
E5
19
F3
68
0D
F0
46
B1
E6
02
DA
83
89
E9
2E
4C
73
8C
F8
02
32
F2
4E
5E
30
F9
6D
AE
A5
3E
0C
A4
4D
70
8A
43
AE
21
7B
15
6F
8A
6C
01
62
4D
59
DE
CC
F7
10
91
D8
88
AB
2B
3E
7D
F8
4F
D5
AC
2C
2F
08
62
07
E4
DD
6A
CF
60
DA
38
91
C7
0D
BB
7C
B6
1A
D3
7A
C4
98
85
20
D4
BC
9B
00
36
FD
12
CB
10
C1
71
05
FA
27
31
28
B7
A9
F1
B6
1F
0A
D7
04
2A
3F
0C
BA
E1
93
B9
4F
DE
A4
D9
11
1F
0F
E5
B0
92
61
FF
51
3B
18
1E
40
A3
0E
E3
52
39
7F
FD
B5
C5
78
CF
BC
AD
9B
35
87
84
D2
5F
82
01
04
03
F9
67
37
3B
18
1C
57
FF
F9
29
1F
BC
44
75
F4
47
B6
A6
F8
4D
A7
52
03
AB
D2
EF
10
2D
51
0D
3B
2D
B1
C2
59
C9
74
DB
89
94
5E
DC
02
50
20
D6
6E
E7
6E
DA
18
EA
91
64
F7
51
7C
B3
33
D7
B8
C3
95
AB
E6
F4
FE
D8
0F
73
1A
30
FE
97
85
C5
4F
97
F2
9F
EE
71
81
E1
99
19
9B
6B
D2
9C
91
EF
99
46
25
E5
24
C5
E7
3B
DA
1B
8F
FB
DD
72
9A
15
72
8C
15
A3
B4
EF
5B
42
9D
16
61
29
02
71
D8
04
FA
BE
E5
E7
79
44
30
09
2A
D1
28
84
06
1F
34
EA
7C
1D
5C
27
30
C2
1D
5A
78
47
F6
EB
48
C7
2A
69
F4
7D
E9
C1
28
01
B4
04
69
09
51
BB
4C
EA
40
45
CE
DD
8C
B5
B5
85
02
CE
7E
78
49
33
C4
D0
90
9D
DC
88
04
36
E2
C3
F7
C0
5A
F8
33
B0
9A
99
7C
72
07
C0
3F
38
1F
6A
4A
4F
D3
C9
4C
70
3F
71
99
7B
89
45
31
C8
0C
C9
B4
52
BE
1C
B1
C8
5C
CF
C6
D6
A2
F6
08
74
3C
58
34
4C
B5
F5
CC
CA
07
45
E6
A8
1C
EB
AF
D6
5E
44
11
23
28
62
9F
A7
9D
7B
D6
AF
D5
1D
7A
3A
94
02
CE
E9
48
6F
39
DA
49
3E
5D
7D
FF
00
64
8C
50
DC
37
C3
0B
2B
83
32
7F
3C
58
D5
45
A3
37
51
92
4B
18
59
EA
88
2C
48
28
22
64
E4
B4
60
E6
87
9C
F0
70
78
C5
45
3B
0D
3A
62
1E
87
58
D3
95
28
F8
D6
EC
FF
BF
A6
0C
D0
17
B4
E2
D7
D8
55
F2
21
8F
F5
9C
5C
B3
DB
BF
3B
4F
02
A6
02
85
18
10
74
A4
F1
4C
A0
D4
08
62
84
83
AB
33
B4
E1
F9
7B
C3
5B
01
9B
A6
A5
60
84
72
A8
D3
C5
F7
5B
91
34
CA
50
AB
EB
DC
8D
F1
4B
9E
46
A2
E6
72
D5
1A
F4
1C
B2
6D
17
10
40
56
05
28
DC
FC
DE
79
33
71
E1
6F
DE
4B
72
B0
1D
8B
9A
65
B8
DE
92
9B
CE
EA
58
BE
D1
59
C3
89
62
30
AB
94
F1
84
04
78
9D
B0
5C
63
61
FA
33
4B
1B
9F
1E
64
81
D4
AF
72
78
BB
79
14
2A
68
EB
1E
07
D2
FE
16
0C
E4
15
6D
D4
A2
3B
97
6E
1A
9D
49
DB
E3
6F
99
22
C3
0A
29
16
CA
33
6B
2D
59
3B
48
FD
4E
8D
6E
0E
62
B6
3B
81
86
CE
0D
3C
3E
EC
BB
72
64
3C
84
CB
E1
E0
07
3F
9B
36
81
F8
09
12
9E
33
DD
48
26
A3
B3
BA
C2
C2
37
95
1A
44
B1
10
7B
42
72
A2
1F
F8
0A
7B
EE
AE
FC
DC
19
52
AB
37
B5
01
D6
15
9C
AB
EC
77
BF
E4
AF
4C
32
BF
3B
6A
32
F5
B9
5D
40
D0
D7
FC
C6
4D
39
6F
2C
1B
29
04
D5
DA
B1
34
F5
35
F4
7B
5C
C9
35
C8
DA
42
F6
9E
36
A3
B5
01
3B
65
AE
92
62
77
62
DB
53
BE
F2
56
BD
98
89
BB
35
D5
63
EA
6A
2F
95
EB
7D
A6
37
95
BC
01
0F
9E
E3
FC
90
D1
65
DD
F6
C4
77
DD
D9
98
6D
70
45
4E
A8
A6
EE
57
E1
AC
17
23
E5
9F
D0
FD
F5
C0
6B
98
64
A5
BC
9B
E4
CC
10
36
F6
0A
0D
1C
B8
89
F4
70
6A
6F
15
C2
95
BA
8D
E0
99
59
73
73
B0
F7
C2
B5
B5
36
76
69
F0
93
FF
59
F3
D0
EA
FF
3F
10
2C
9F
3E
43
A8
FD
88
84
70
02
BF
BB
26
8A
B0
96
2B
54
85
AD
21
E3
AD
33
29
C0
44
89
5A
95
40
AD
B4
CF
C6
9B
09
34
96
60
70
5E
8D
AA
F6
C0
CB
99
94
35
A9
B6
C6
9E
79
F1
A4
A9
52
2F
95
15
CB
1C
C5
34
7B
1A
44
21
5C
91
ED
0A
9E
67
95
52
F0
3B
3C
A8
67
C9
88
AF
88
F9
8A
C8
32
69
0B
90
98
44
12
2E
F6
C9
4F
07
08
71
89
EF
82
14
C2
96
2B
A4
88
C2
60
6D
BB
37
F3
25
75
B3
76
8E
1F
F0
2D
06
66
A9
16
4D
F8
81
06
B1
5D
E7
9B
40
BE
16
0A
65
42
C8
49
C2
37
67
96
64
03
0A
29
2B
C3
C7
0F
1E
67
66
8B
AA
3E
63
F5
4C
7C
45
88
2F
BC
55
24
FE
52
6C
13
51
50
02
4E
7E
3F
BE
B2
D0
86
90
D2
D0
88
AF
9F
BC
5D
FF
37
CA
6F
63
30
53
2E
33
3E
09
E2
2C
78
1C
5C
6E
A4
2F
15
67
B8
E1
93
AD
46
D0
19
89
87
F5
A5
AA
37
BD
C5
3E
65
73
CA
11
41
E9
C5
84
52
0C
13
9B
7D
AB
C5
42
9C
2E
52
52
F7
66
6D
69
F0
BF
8B
0D
D5
5A
78
F7
AB
F5
37
DC
48
34
8C
22
13
D9
06
06
5D
5B
73
EF
75
4C
46
EA
76
CB
0C
0D
E4
2B
22
9B
FA
9B
B0
2E
18
01
C8
21
2C
3E
50
1D
2F
2F
DE
70
8D
56
D4
C1
4B
2F
01
29
37
3C
74
90
B7
8B
31
4A
33
4D
C1
92
15
B7
7F
93
FD
11
2B
D6
CF
9A
51
3F
CD
1B
49
0A
B8
D1
11
8F
BF
4F
80
C7
BA
B3
8E
47
CB
0F
6B
A9
19
4C
54
0B
F8
B9
27
BF
B7
DC
42
C2
92
88
8F
08
AE
19
E7
61
38
1B
56
B7
D4
68
C5
B9
DC
4C
08
A6
0A
FC
99
23
BE
A3
94
EA
05
08
1C
10
6A
AE
64
7D
5F
CD
D9
3B
79
32
FD
16
26
4B
D6
47
69
F4
48
F2
8E
79
B0
10
EE
B8
60
D7
EA
1F
B0
F1
57
E5
03
38
64
C2
E7
A6
F6
F9
AA
4E
D8
38
92
07
E9
35
C9
0F
00
73
D5
69
A1
8F
C6
23
2B
3D
33
6F
94
53
D6
C9
07
DF
2B
BE
5E
37
74
01
54
16
D3
B1
04
10
1D
7F
E8
CF
E9
AB
20
C4
E7
B0
FA
B9
91
12
B8
84
A6
B0
16
68
53
2C
7F
9A
52
17
EC
1B
44
8D
0A
19
CB
F0
7A
DA
99
92
95
73
92
AD
9F
30
DD
6E
0C
E9
DE
86
D4
94
D5
8D
9A
00
4E
47
5C
F5
B9
E7
CC
5B
21
30
6E
EF
04
C2
95
F9
33
D6
68
39
D2
3C
FF
4E
5F
EE
5F
B6
AA
B3
74
50
7D
EF
EC
19
28
B3
BF
D3
BF
34
D4
98
7D
CE
AA
4C
6C
E7
1B
A0
77
CE
FD
D8
F8
AD
1B
47
85
95
B6
44
DB
88
6D
05
EB
FD
29
16
9C
41
19
F3
CE
9C
F4
9D
E2
7C
9E
CD
72
F3
AA
35
F9
C8
24
56
CA
30
0F
0A
41
BA
85
9E
65
56
A8
85
2A
D9
01
0A
1D
14
E2
4C
75
0C
51
FE
03
B9
93
0B
5F
5C
AD
F5
07
A1
5A
C1
F9
E9
7B
34
22
27
D2
62
DE
6F
FA
F6
B4
52
C8
33
3B
9F
6E
CE
32
7B
8A
E9
10
F0
89
17
58
4F
46
19
8C
34
72
7C
05
0B
BB
D9
EE
97
90
ED
93
20
D5
59
05
73
78
79
D5
FD
B6
09
9A
47
0C
10
48
F1
BA
F4
E8
CD
E1
CD
8A
31
83
01
CB
C3
71
6F
5E
4D
B6
CC
02
C5
96
1A
36
35
6C
C8
CF
A1
23
46
FE
C7
A6
AF
06
DE
00
C9
64
50
42
F7
54
CB
3E
75
98
DB
11
08
C0
5F
B4
55
62
D9
69
16
D0
64
19
C6
17
37
76
EF
D8
AC
E8
48
E6
A3
41
1A
B8
0B
37
D7
2B
4B
BA
5C
3F
60
34
50
34
D4
12
53
4E
77
2E
C6
08
06
39
2A
4E
94
03
E7
EF
A1
BF
06
0B
95
C5
5B
60
E7
6F
52
43
02
E0
BE
77
8D
B4
53
C4
39
9D
2B
C1
46
91
A6
DF
2D
30
27
E9
61
F3
86
FA
07
49
C5
25
09
99
BA
BE
0D
93
A9
7C
1D
E3
33
7A
15
B2
FF
99
5C
42
3E
FF
9F
EC
BC
94
51
1F
77
74
5F
B6
68
50
41
F1
A1
CA
4D
5E
26
63
0D
76
28
04
89
B6
78
A3
A8
4F
6B
AB
4F
0A
A4
1A
88
7D
40
21
EC
62
75
8F
D2
C5
4E
C9
04
68
9F
4C
1B
2B
07
E9
B5
2A
60
9B
7A
C4
11
EE
E8
05
AC
BE
DB
BF
DC
45
25
22
5F
B9
12
8A
20
46
95
A7
04
D7
A7
DD
D1
CC
62
CD
EF
25
D4
21
7E
E7
FA
FC
F9
4F
71
98
49
47
AB
58
7D
25
08
73
A3
EA
70
99
E0
55
1B
6C
96
BB
E8
EF
A7
D7
A7
40
04
40
C3
2A
21
B8
4D
5F
17
9F
B7
B7
90
C4
AF
1B
5E
49
46
C1
46
CA
68
40
D0
19
C7
16
5B
81
9F
45
E5
D6
7A
DC
7C
B0
7D
B8
15
A7
27
D0
0E
CD
6D
0C
81
A7
D1
D4
1C
BB
61
14
76
A2
73
5D
A7
52
34
98
60
73
A7
19
BC
5E
E1
96
C3
5D
78
AC
FA
9C
29
AF
43
89
FC
01
9C
9B
B3
5E
E4
CC
AC
79
BD
56
F0
72
3B
77
5B
31
7B
DE
78
54
53
AE
9B
A0
28
1D
E4
CE
D6
42
BB
FA
EC
B4
6F
21
D1
1B
E3
76
70
26
84
F6
D8
90
47
D1
40
9F
84
A2
F5
24
FE
81
BF
51
0C
E3
4E
5F
EF
7E
3E
81
1D
6D
E1
3B
30
EE
AF
3D
10
55
93
CD
D4
E3
75
F7
95
E6
24
38
2A
C9
3F
BE
4F
19
DA
6A
D7
4B
55
BD
FA
1D
F2
AB
85
8B
84
FD
A1
4C
21
54
51
39
26
D0
B3
F5
42
86
A4
71
D0
C8
10
A2
3D
63
F5
7B
57
A3
DF
8D
97
5C
E6
D4
82
3B
92
B4
6C
1D
62
E5
C6
9C
DF
6A
58
8A
24
6A
F7
1A
11
C2
E3
A9
BA
07
A2
D7
C9
B3
73
29
F7
1A
45
20
8A
F7
7A
11
2A
F7
16
65
D9
4C
E6
6E
DC
F0
2D
69
A6
C1
FE
40
A5
31
AB
E6
1E
6F
AF
5B
63
29
B3
12
F8
8E
07
B5
93
3D
B6
1E
03
D1
41
E3
FA
83
CC
AA
D4
38
A7
29
D8
91
F8
3E
C6
57
D4
58
BA
38
9E
8E
F7
C5
F3
07
B2
C1
AF
87
09
92
63
E0
3E
4F
3C
07
A9
17
6F
CC
10
EC
33
A9
20
6E
A5
FA
1E
A8
DA
99
2D
96
23
B6
B4
6F
6F
20
D6
E8
56
AC
37
CA
B6
C0
40
30
54
DA
62
D1
0C
EF
52
CE
A4
00
5D
4A
2E
9B
70
21
59
88
F7
56
E7
27
03
3E
C6
C1
9A
EF
ED
C8
4B
3E
E6
77
2C
2A
15
7A
A2
E0
A6
5E
CA
0A
D6
D2
F2
32
39
F8
3C
74
1D
42
76
C9
91
17
1C
CD
FD
F3
38
76
B0
5A
F6
F0
15
0A
A7
0D
F0
3C
BB
96
4C
76
24
F7
CB
4E
AA
4F
03
62
1D
DA
FD
37
1E
73
47
77
C6
E9
BF
5B
41
CE
A4
28
E3
D8
9E
AB
5F
29
A4
83
C2
7A
7F
46
F7
4A
2C
A2
90
EC
D9
3C
F4
AD
EA
5E
2F
F8
87
E6
C3
50
A7
3A
A8
80
E0
63
E1
CA
EC
BE
F5
2C
5C
66
65
21
04
7C
9B
A8
9B
66
3F
C3
F4
52
B6
F9
67
7F
7F
11
50
04
45
DF
F6
44
39
03
56
EB
9F
DC
EC
F9
F1
E5
88
B2
0E
EF
81
A5
D2
94
3E
0E
DA
E4
DF
53
11
5A
32
65
BA
C6
73
52
8B
3B
70
BA
E0
B7
1E
3A
EC
9D
06
C8
C7
43
9D
F7
4D
82
B9
23
10
9F
02
5A
D9
FD
32
47
80
85
F2
0A
B4
FB
37
5E
A8
DC
48
F8
90
A2
09
E0
E0
7D
3C
F6
5F
71
ED
BF
B3
20
2C
97
EF
08
0C
27
43
19
9A
04
A9
8A
F7
89
64
92
12
D1
49
63
99
3E
84
18
34
26
E0
19
B2
58
0C
29
A4
A7
4A
CD
EF
26
E1
15
88
78
42
EA
FE
92
9D
61
DB
23
B0
C1
DF
96
8A
D7
B3
44
8A
D2
B5
5C
2A
E8
02
ED
6B
37
F2
58
67
12
5F
84
79
43
C4
E0
71
A2
87
0F
62
35
0D
E2
33
AF
77
32
DB
C3
82
25
A5
88
97
B1
AA
F2
0C
85
BF
AA
AA
A4
82
B7
9C
27
D3
3B
47
CE
A7
E1
B2
52
59
7D
A9
C8
81
A3
9E
70
10
64
FC
AD
3D
63
BE
19
F7
16
99
B6
FE
6C
91
77
24
A0
F9
43
48
13
51
6C
C6
7E
38
94
0D
08
06
CE
71
46
6F
B0
0A
B2
E5
6F
43
79
2F
E0
3C
70
4F
EE
79
C6
76
F7
5D
8D
77
71
39
CD
3B
E3
C2
8E
20
58
47
A6
6F
AE
E5
00
B4
BA
FE
F9
67
BE
12
07
0F
B6
BF
0C
5F
36
E7
D2
24
95
3D
2E
91
FC
0F
33
93
11
C3
A5
2D
93
8E
0F
01
DC
E8
22
76
BC
B5
3C
56
AB
E1
96
5D
E6
14
6D
BE
CC
58
91
02
64
06
BB
AD
CB
93
F8
FC
73
D4
9F
E6
9D
25
E2
6E
BE
D4
3C
B0
C8
0F
F2
00
55
D6
80
68
0B
15
1D
15
5E
1C
ED
DC
F9
3E
DE
8D
59
A4
D0
EF
15
0C
21
DB
90
BC
52
D4
D7
07
A2
AC
B0
75
FB
DF
0A
57
B8
85
25
68
B5
F5
B1
2D
29
40
AE
FC
0F
14
F7
F5
A1
F8
4A
00
09
03
0D
6E
0D
82
C8
1C
2B
70
7C
13
4B
1D
C3
54
BA
1E
0B
D1
EB
A1
83
09
2F
D2
92
F6
2B
13
CC
F0
82
D6
88
B5
10
35
E5
DF
17
FA
E4
94
71
E7
31
BF
EB
7D
1D
C2
D9
B9
E7
C0
90
67
95
F3
D2
C2
A8
B0
6F
0C
DD
12
8E
12
0C
3A
8A
61
99
97
4B
5F
E7
94
32
30
54
9C
32
CF
71
43
6E
63
39
33
5D
51
9B
6F
80
CD
83
BE
AA
9D
54
B4
E6
41
A0
72
72
CC
17
C6
42
5A
8B
1E
EF
3A
02
2A
DE
34
2F
AE
DA
33
01
ED
A4
50
ED
36
1A
9E
0E
35
05
0E
A3
AB
21
78
70
81
B9
FD
02
1E
AD
93
ED
19
09
04
A3
13
3B
86
5E
54
FF
11
EF
80
CA
37
1E
65
DF
4A
3F
63
97
5F
B8
1E
4C
71
2C
D6
3A
DA
B3
E5
41
D9
37
8B
7A
64
1F
A6
61
AC
9D
F4
67
1B
C2
2D
5B
31
5F
87
DF
01
88
51
5F
D3
CC
3B
08
43
92
7A
51
7F
06
56
E5
4C
99
02
9F
17
E4
EE
A6
FC
2E
0D
2A
6F
4D
CF
BC
E5
3A
92
D8
F9
E1
AA
00
7D
D6
2C
30
2D
2D
9C
A1
CD
6B
44
36
78
6C
83
19
57
00
19
57
D8
24
E6
EC
3C
22
71
51
2D
E3
F7
8E
B2
00
DF
F4
BD
66
0D
40
A2
C0
00
CA
50
8A
CF
34
ED
A3
58
B9
A9
7C
CD
22
2C
49
9B
2F
75
09
B5
6C
C3
AA
D6
E8
CA
D0
B2
22
2E
50
EF
D3
CE
F1
72
6A
9D
6E
E4
29
97
D1
15
26
C1
04
05
DF
AA
89
24
A8
A1
03
B2
45
16
9F
05
C9
3C
E1
B3
14
DE
85
AD
8C
A4
81
25
A8
0C
35
18
AE
E0
BD
5F
A7
C6
96
39
F0
DF
76
4D
18
06
51
6C
A3
A9
45
A0
51
A5
78
39
5D
B3
16
29
FE
AB
21
11
73
BF
5E
AD
AD
8C
61
4B
DC
D7
34
E6
BA
1B
E3
76
21
5F
BF
81
36
6A
80
63
53
D1
0F
2B
14
61
A0
C8
93
6F
07
E3
46
E1
DD
27
AD
A3
4D
D9
2F
17
99
24
1B
B5
D4
C2
8A
A5
30
30
F0
10
D8
51
48
95
C4
56
0B
52
C1
CE
52
2C
24
EF
BF
F5
BD
FD
59
49
C3
48
12
BC
B0
35
10
8A
B2
A0
77
3C
FC
67
FC
25
C1
E7
2C
41
A7
12
08
20
FC
1E
24
2A
65
99
A9
9E
D9
3A
20
6F
C6
08
5F
22
D3
E9
73
24
EE
60
A5
AE
D1
F6
83
EE
15
33
5B
63
7C
25
22
16
EC
7A
AC
A3
AD
B9
FA
A7
2D
AF
BA
E6
F1
FC
41
D9
0E
C8
B0
58
A0
76
75
D0
9C
2C
1D
0E
71
5D
37
A4
27
2A
A8
EC
B6
71
7E
83
43
AD
47
95
4D
8A
C1
D0
86
5F
07
15
F1
66
85
D0
57
32
6A
CD
48
20
49
4D
AE
FC
6E
90
EB
96
3F
47
B9
98
77
61
86
49
C2
59
5B
6F
B4
6C
DB
44
1E
5D
63
10
4F
D5
1F
B6
5E
99
D1
1D
C4
92
E5
A8
F2
9D
D6
FE
71
E3
49
73
A3
2F
9D
93
58
6F
92
6C
C0
8F
32
82
73
FF
92
67
C0
C6
8F
A1
BF
11
F0
A8
54
B7
E8
F7
E6
94
49
D4
03
1E
8B
BD
0C
80
9F
17
0E
82
2C
2C
86
DE
19
35
48
18
E7
67
08
F4
E6
85
B0
07
B0
E9
77
C0
62
1C
E8
3D
E5
A1
E2
86
CD
73
F5
06
2E
91
5C
87
04
9E
06
12
12
B5
EE
90
5B
76
FD
8A
8E
6F
A1
6E
2D
8F
52
E8
CD
24
EF
B0
FA
CB
D7
0A
AC
D5
C1
E5
D7
27
2E
28
BA
7A
1A
BD
19
1A
10
71
BC
2C
3B
B3
E6
DB
60
C1
5A
E8
64
C3
88
E2
DB
F1
1F
8C
2B
5B
FB
87
38
E0
86
B2
7E
4A
BF
69
27
42
95
AB
78
A7
EF
E8
E8
04
67
CD
F4
FF
DD
36
F0
73
CA
08
6F
D4
5B
36
03
77
08
9F
D1
18
A6
1B
58
98
A4
44
33
F4
64
13
48
03
D7
47
94
03
6E
DD
12
88
59
75
77
8E
44
01
F1
F7
8D
7A
6B
19
CB
75
7E
4E
47
C4
E3
59
EF
E4
15
DB
E8
F6
6F
46
CB
61
DE
9F
C0
49
13
4B
9C
61
47
62
EA
56
F2
B3
4E
1F
34
7E
32
A8
EB
1F
84
EB
47
08
FB
36
AF
4D
C1
87
90
0C
CE
C7
77
B7
5D
F5
12
7B
A3
C5
17
AB
6B
54
7B
E0
77
6E
CA
5F
71
4F
E5
52
85
52
13
9D
03
2C
30
8F
D5
8F
11
8B
C9
C8
54
C9
FC
91
89
C1
3F
68
65
11
2A
FE
28
8C
8F
12
96
5C
9C
FA
01
17
3F
54
EB
65
29
51
6C
8B
85
00
65
3B
AB
20
23
3B
00
B4
11
DC
89
17
29
D5
4E
13
59
63
6A
B0
13
00
70
A9
30
2A
06
81
34
36
B1
DA
A6
3E
E8
FA
A2
18
2F
42
51
2B
F0
46
4C
98
A8
CF
27
9D
AF
BE
2E
0D
6F
E6
12
55
B3
D8
9D
AA
CE
04
BD
9B
7C
DD
3B
DD
7D
8F
CB
12
51
75
14
65
AD
CC
68
A9
51
24
00
13
5E
5B
65
E2
D1
BA
9B
D5
E0
48
F4
4E
C8
B5
5C
8A
A0
AB
EA
B5
73
97
C0
61
50
B7
3B
78
8F
0B
60
97
02
E3
C7
C5
B8
6A
7C
10
4B
69
9F
9B
B8
36
68
31
24
7B
27
DE
11
8C
A6
E3
58
55
5B
B6
EF
2B
5B
C8
DD
6E
2D
09
7A
B9
F6
94
58
8F
4B
39
54
A7
EF
A1
60
84
9D
5E
5B
18
D9
DC
65
11
60
6A
CC
98
EB
AA
15
E1
64
8A
D1
FA
72
20
53
26
8A
B9
80
53
89
2D
52
54
16
BC
C7
F9
BD
BD
D1
21
BD
80
9E
36
B2
94
6F
D6
66
3D
83
03
E4
BF
4D
FB
7A
D2
38
F8
31
34
A2
92
45
CB
0B
AF
24
18
05
C0
66
62
DF
A9
06
40
B7
8D
09
84
C0
AE
3C
C0
41
CD
C4
07
59
31
C6
26
27
4C
D6
6E
28
73
3D
2A
2E
01
33
51
83
A6
BA
ED
D4
91
33
7A
0F
7D
40
C8
E5
C2
0A
84
E3
31
65
F6
12
6B
F8
03
86
B0
FB
6B
C7
A3
CE
5C
FB
AB
3E
80
0B
57
5C
5D
D3
59
60
37
57
5E
7B
AC
0C
14
4D
C0
58
BE
4A
02
62
10
1C
15
FB
E4
98
C7
B3
69
7D
37
86
A1
B7
11
DF
F1
60
98
BD
86
72
AF
1E
E4
B1
73
DE
A3
DF
53
E0
4D
D1
9E
CE
5B
84
1D
F3
53
8B
4F
C8
ED
24
41
06
3E
08
D0
7C
4E
9F
09
B2
71
9E
C6
C4
54
76
3A
16
2E
0E
E9
30
88
EF
32
87
C9
9D
F3
28
53
64
7A
1F
5E
AF
88
35
22
67
26
E5
8B
DD
6F
50
C3
6D
57
2C
F6
6A
E3
7E
0A
DF
DB
79
14
C0
2F
B9
FB
C4
30
E5
4B
8C
21
91
8B
D2
CF
58
C2
61
63
3B
E8
F8
86
0F
54
CF
11
97
23
63
45
D2
9F
95
71
91
45
4F
DB
E0
FB
63
E6
4C
D9
07
21
9B
0E
1C
32
AB
67
26
68
E7
3B
E5
5C
31
E0
8F
FE
88
14
09
C3
71
5C
28
8D
D8
F9
DC
44
7C
7E
BC
58
70
26
5C
66
13
88
09
87
B4
AB
A3
8E
CE
6D
42
FA
47
15
EC
52
37
09
B2
BA
3E
D6
26
0A
A2
68
41
93
AA
23
91
B6
0B
90
BA
23
DF
B1
C3
51
EF
F0
FE
8D
03
F1
C1
B9
B1
0D
CC
25
D0
8F
86
58
87
82
57
CF
EC
EE
9F
D1
30
8D
E6
00
4A
ED
C1
67
1D
1A
0D
40
96
4D
D7
00
0C
9A
B9
F2
2E
06
C3
D4
73
F8
05
00
5C
8E
F7
26
37
CE
F4
1A
2C
80
9C
23
62
CC
C3
FF
3F
83
BA
9F
E8
BE
67
A8
CB
50
58
8E
F9
8E
BF
1E
CA
81
AB
7E
28
1F
F3
05
07
FF
41
58
67
D7
7F
F0
AB
BE
3E
B3
53
16
69
D1
08
F8
B6
95
08
F9
13
1E
20
7A
85
63
62
72
E4
48
37
EB
AE
2D
51
16
3F
C2
EB
F9
44
60
8B
5F
10
DA
EE
45
99
FC
2A
86
89
AA
A2
A5
71
00
E1
8C
D8
AB
63
D2
98
38
3C
19
68
08
18
77
4A
04
1C
77
C8
4E
CB
27
B7
71
0C
1E
D6
08
63
51
CE
AC
CA
53
74
DB
E2
89
42
CC
D4
48
97
17
78
F5
4C
EC
79
AE
88
FA
67
41
A9
C9
23
6F
F0
A9
DE
11
B2
95
BD
BA
B9
66
E0
3F
B4
3B
44
E3
EC
55
54
C5
AE
FE
92
52
38
FE
0B
8F
64
A4
AE
6B
4F
71
C9
6F
8A
D0
48
AC
95
4A
8A
30
B3
40
FE
10
11
50
EB
FE
D3
63
07
C6
A6
63
6E
A2
CA
2D
F6
26
7D
3B
71
F2
E1
88
CD
72
89
AC
FF
9D
F7
BB
29
32
D5
9B
EE
66
70
EF
26
9C
57
60
2F
49
F3
02
9D
8E
2C
B2
87
29
B9
87
6E
43
8D
71
4F
17
12
C5
F4
EC
F1
BA
56
89
AE
73
1A
93
84
BC
A9
CC
AF
39
32
F8
D4
45
7A
E6
E7
5C
DA
CC
C1
E4
7A
78
5F
8B
53
B1
84
88
C2
BC
95
68
26
C6
A5
30
B9
1E
03
52
31
1C
68
10
E2
02
55
35
48
D7
87
6F
34
EF
0F
AB
7A
DD
81
9F
77
99
85
A2
41
88
B5
CD
3F
44
D1
30
89
F4
68
B5
6D
D9
34
8F
56
8A
19
54
60
06
87
0B
DE
E8
C9
FB
E8
39
34
D7
86
52
AF
7D
70
E5
1E
61
4A
3B
F3
85
D8
E9
38
DB
08
0B
EF
A2
50
82
36
CA
03
57
4E
87
A2
C0
68
38
7A
56
32
F5
B5
E5
FD
B1
43
A5
44
B0
F2
37
00
72
38
98
54
F2
15
7C
32
FF
DF
7B
79
D7
85
3A
30
FF
07
C1
11
94
24
95
B7
F0
FC
7B
0D
7A
70
3C
5A
23
33
FC
4A
46
0B
0F
75
44
54
B7
4B
39
3B
0C
26
3E
10
1E
1E
DC
E2
AD
67
0F
6C
A0
67
85
4D
6B
1A
4D
1A
B6
48
79
86
75
88
B3
93
AB
06
01
7D
12
19
D8
98
BE
E2
DE
C1
5E
CA
71
24
D2
E2
71
CF
0C
91
CC
F7
8C
35
7B
F5
55
B9
91
FE
B1
29
D0
E3
23
6B
EC
60
1B
8C
DB
69
A9
61
CB
0F
79
A1
A2
37
24
19
55
82
21
F5
A6
66
1B
86
80
E8
99
60
FD
69
B6
83
A4
60
42
9E
14
89
D5
77
00
79
D0
E0
76
A7
B1
C8
88
1C
30
AE
D1
0F
EA
C7
63
3A
9C
E7
52
EA
5B
ED
17
25
C0
E5
83
60
6C
FD
88
81
9B
0D
E0
F1
CE
94
00
AE
04
9C
73
AA
DF
1B
F2
77
EA
1F
A2
89
89
75
C9
84
16
14
8B
3A
A0
C9
91
4A
C2
72
CD
01
19
07
09
27
FC
18
C9
2C
90
0E
91
CF
57
BA
97
40
31
11
80
7F
0C
F8
DD
28
25
BB
4E
30
D0
91
C7
74
4C
80
F9
06
34
3C
62
18
70
5E
D1
5F
DC
D7
E8
B7
09
1B
8F
FB
64
DA
D4
18
74
BB
8E
DC
97
BB
BD
5A
2E
52
84
4D
79
9D
2C
47
EC
43
75
A5
27
DE
33
64
FE
A6
C6
7B
CD
29
6F
56
1B
8F
86
58
7D
EE
9A
F1
C6
5C
D8
E7
7B
F2
D5
85
38
A4
6F
E4
3A
DF
0C
C6
6E
45
10
63
2B
40
E8
FE
79
CB
2B
94
B1
DB
C1
28
53
11
C3
7C
71
A6
8F
FD
49
5E
03
FF
ED
91
38
B0
89
E2
C8
5F
20
B4
70
2E
57
C1
D4
78
FC
51
16
4D
C0
52
F3
0E
9D
EC
7B
C5
2C
F0
74
D0
83
1D
81
3F
9C
13
C2
7D
6A
51
56
7A
13
F6
99
41
FA
07
7C
87
E6
3E
6E
6D
75
45
06
FF
53
02
E3
CF
DC
37
2B
0B
0E
6F
A0
9B
B4
0C
70
7C
E5
5B
BF
E7
E4
7D
A3
BC
01
8A
03
88
F8
77
75
4E
F9
CB
16
20
E7
13
98
8B
A9
D7
E8
A2
08
43
59
02
B7
66
DB
EB
0C
F4
FE
5E
0A
6E
5B
3C
59
1C
D4
F9
EE
25
C9
B3
15
4E
9A
14
2C
0C
32
47
2E
09
72
AA
26
A4
CE
78
1D
26
F5
FB
7E
10
50
B0
0B
B3
66
4A
DC
BB
E2
21
E1
5D
C4
CF
01
8A
4F
4A
BB
73
96
55
D6
32
66
BC
2F
28
3F
8A
A1
C4
F6
7B
6E
FA
26
34
45
35
81
C0
F9
33
72
38
5A
62
C1
05
66
1C
B5
63
44
8B
9C
6F
36
C0
2C
A4
EC
9C
D7
90
CA
B3
57
E6
DA
77
4F
CB
A8
CF
9E
75
64
CF
B0
8A
F5
57
EA
D3
81
C4
08
69
49
EE
9A
07
52
81
B7
55
96
1E
68
E2
BB
DA
7C
3D
C0
07
4D
67
47
C0
2C
C1
F1
4C
D8
23
51
C7
AA
74
1D
CC
6B
AE
D6
F4
95
91
48
AC
62
2D
37
44
A0
60
AB
6F
1A
97
84
44
27
D6
99
41
19
60
92
E3
52
80
2C
0F
AC
A0
B0
C5
E6
C3
66
56
AC
16
32
ED
19
DB
C3
75
45
4C
29
10
42
CB
E0
AF
05
B0
B4
A0
1B
6B
5E
A5
C2
5C
06
25
0C
32
85
F2
3E
68
FF
80
0C
8C
B3
19
FD
07
DF
27
F8
62
1A
56
CC
C0
C9
20
80
B3
48
7B
BE
5B
12
ED
67
EB
A9
71
BD
76
81
CC
47
73
A6
C7
66
E8
55
FB
4C
A9
AB
BF
6D
BF
79
CE
12
27
0C
94
CA
BD
9C
02
81
0C
61
D5
F0
82
AF
49
85
F8
15
32
9C
FC
D6
07
A8
69
6C
29
B2
75
17
18
84
9D
2A
C0
A8
F3
05
38
3D
05
AB
3E
9D
36
E9
80
F8
21
B7
00
66
DB
F7
D8
BD
38
76
E9
63
DA
A9
DC
9A
CD
78
9F
B1
67
BF
9D
D1
6F
E7
71
33
F0
9C
ED
30
DE
C9
B9
BD
15
04
80
63
3A
55
55
BB
DD
97
E3
7D
75
23
F4
FA
9E
3D
74
75
19
91
11
CF
37
F8
46
35
2E
15
A4
76
09
9A
EA
84
71
FC
C6
88
B6
4F
63
A1
A2
18
78
61
17
DF
80
23
9B
45
C1
DE
35
30
54
F3
FF
49
ED
93
B9
AF
A9
50
62
76
BE
D3
5D
BA
FE
DB
AA
32
4F
4A
1C
A9
75
D5
26
05
59
F3
D7
78
49
6D
F9
B8
F8
21
4E
A8
5A
8C
0A
00
6D
ED
C3
66
07
A5
46
2E
3B
8B
F9
46
FB
E6
CC
7D
2D
23
E3
F2
9F
1B
34
C4
FE
DA
3D
2E
80
26
CD
C3
C0
4C
2B
3B
62
AA
ED
9D
68
67
73
14
8A
5A
8C
8C
D3
72
A0
4E
61
9E
7C
FB
8B
01
ED
22
5C
74
71
40
51
51
33
C5
76
59
88
4E
BE
F4
D2
A6
46
29
F5
F2
BE
1E
C0
17
2E
3C
17
0B
80
65
B9
7D
8E
37
7F
8F
0B
D5
79
BF
D7
E3
BE
B7
13
52
BF
1F
27
7F
7C
EB
C9
0D
47
61
08
0D
59
CF
D2
F1
0D
2F
3F
9C
65
A4
AD
D0
F8
CE
FA
B1
32
CD
D6
31
7D
29
D4
BE
54
30
B8
64
AD
8A
98
C8
81
9D
E5
C0
41
E3
ED
43
80
80
26
F9
CF
FD
71
46
07
43
63
DB
EC
DE
82
07
1F
F0
A7
9A
D7
59
3D
CF
22
C4
CD
3E
9D
AE
EE
51
84
CB
6E
18
F6
44
FB
B9
0E
89
8F
AF
09
90
D0
80
27
A8
E9
07
AC
95
50
7B
12
CF
91
94
F4
4A
67
61
2C
67
35
D7
BE
07
3E
64
8C
DB
57
D9
B6
08
E4
6E
F9
A3
87
CD
7D
20
EA
F9
5F
A7
27
9C
1B
3B
6B
9D
19
CE
9C
02
8D
12
A8
86
97
CE
FF
63
B1
61
2A
0A
88
0C
A7
9F
F5
57
6F
3A
56
56
5F
F9
EC
A9
A1
8B
56
ED
54
4E
C7
A9
62
25
8E
7D
EE
79
A4
8B
5B
97
8F
1B
DF
40
78
41
00
91
7E
EC
78
2D
2D
E6
CD
7C
60
79
5A
37
A1
AB
E3
BE
FC
E0
B5
06
C3
2E
F8
E9
3B
83
50
68
2B
22
B8
C1
35
91
1E
27
A7
7D
8C
B5
22
66
4F
9E
D4
EF
44
60
05
2E
6F
98
C6
0B
5B
6F
19
16
9F
05
A0
1A
6F
0A
A2
ED
2D
10
9A
B8
42
8E
F6
04
36
0F
4D
31
2C
37
EF
A1
01
41
C0
90
23
A3
79
EE
B5
52
4D
CB
5D
A5
0B
51
7C
F1
31
52
7E
D4
D5
30
F3
4A
39
1F
10
FF
8A
C9
B6
E8
13
4B
F2
7E
36
68
1A
82
FC
E6
C3
E1
C7
5A
29
11
1A
19
BB
CE
06
71
80
58
96
40
2C
B5
8D
C4
EC
F1
AF
92
9A
F2
D8
4B
3F
CE
0D
9C
87
5D
39
59
D3
10
14
83
FB
D1
15
F1
4F
DE
6A
67
BF
71
FB
17
45
6A
21
65
93
D1
AC
C1
E6
F6
DB
CE
D9
62
06
18
0C
0C
42
B4
27
3E
53
26
A9
0D
3B
E5
03
BA
06
0D
0B
A3
21
B3
B0
11
DB
FE
CC
84
F0
2A
19
0D
D8
53
D4
18
0F
8D
1D
2B
04
B3
E4
78
65
A3
BE
26
99
A3
2F
7C
5E
FE
11
A5
37
94
DC
B2
B2
BD
F2
4B
5B
AB
82
24
D4
D7
92
64
B8
95
61
1E
7E
00
82
BD
54
CF
9A
FF
85
E2
D6
91
52
5B
B3
59
A0
A2
DD
05
3C
05
98
88
DB
B2
85
8A
34
95
EB
5E
10
61
ED
76
C6
C5
A0
6D
A7
92
10
77
AA
EA
E0
81
5D
FC
1C
7A
E8
42
96
1C
1D
C7
98
6D
E1
65
54
78
0F
A4
5A
B2
9A
44
88
E9
75
D7
76
44
29
1A
16
FD
FF
FC
53
96
B9
EC
3A
E3
13
9C
67
06
C2
27
C4
7F
F3
98
D2
37
77
56
A9
7E
0E
EE
97
4C
F8
A0
2A
E9
F8
51
FF
3D
C3
21
70
49
EA
70
C9
E3
99
59
24
CF
FD
0E
46
0E
E1
16
DB
34
1F
AC
43
AA
8B
F2
1B
D2
6D
FD
55
D4
F1
7B
A7
77
DA
DF
D7
22
5A
64
9B
CE
52
FC
06
EF
E3
07
79
9A
12
8D
55
D9
86
D5
0E
BE
13
D8
59
DC
33
03
E1
1C
D3
35
0D
95
16
59
18
48
F7
7C
1E
57
40
54
6A
69
46
73
31
92
8B
F1
C3
25
15
7B
D6
5E
E8
DD
14
FC
1C
3B
10
26
A2
57
0A
8E
A9
77
4C
FE
9A
7A
54
35
D4
9A
02
9F
67
DC
BA
F2
A8
14
B2
6D
D4
91
85
FD
2E
CC
9E
6F
A2
C0
6A
AD
8E
1D
A5
BC
92
25
D0
DC
8C
D7
5F
F8
0E
47
C4
33
0A
51
35
A1
20
3A
C9
C8
E7
66
B8
22
A8
B0
75
C5
6B
A5
CF
24
A0
FA
04
4D
63
7B
23
3C
2B
11
2C
6E
DA
A0
7C
71
DD
C5
BD
B0
D4
AB
3F
08
FA
CF
C0
12
0D
09
2B
D6
8F
E8
F8
78
BE
FC
BB
68
10
B0
30
9B
B8
C0
89
4F
21
78
1F
19
EC
57
37
A5
B7
87
23
27
29
5C
4F
18
46
4E
2F
4B
6B
A2
D8
B8
3E
D6
E5
3F
0C
78
D1
9C
44
6C
1B
1A
F7
64
65
85
95
81
5B
94
FC
AE
96
46
6B
DC
D5
6A
DD
00
42
A8
0A
E8
20
CF
1D
9A
B0
84
2A
76
44
8E
61
1C
4F
94
C1
55
AE
39
8B
15
D8
83
BC
5D
FB
C4
8C
A6
37
86
4A
11
CC
22
28
CA
03
A3
49
FE
C6
78
F1
BC
44
8E
BD
B8
57
DB
D0
E8
30
81
C7
4D
A9
77
0F
1F
82
B8
5A
F3
1C
04
E6
25
34
46
36
05
FE
55
69
60
C3
F0
92
07
7B
5E
77
CA
3D
9F
E9
88
A3
C7
DD
FB
B4
28
CD
4C
E0
A9
AB
16
94
4A
3D
3F
00
C0
DE
7A
FC
EE
FB
D9
F9
A7
82
F9
FF
52
DD
F1
5B
EB
42
99
DE
25
6B
EF
56
29
45
8E
C2
F7
DE
22
25
A4
CE
EE
62
37
F9
B1
DB
46
BE
D6
C0
E6
56
EF
DE
DF
15
0A
EF
6C
63
EB
20
0D
B9
CA
58
A4
ED
8F
4F
A2
10
A0
E6
BA
63
39
3E
17
D0
42
53
F0
19
75
92
C0
90
98
BB
6D
43
84
CD
85
D1
85
BC
F0
C9
68
C2
C3
93
B2
04
25
3B
0C
BA
80
68
6E
5C
FC
5B
11
60
28
8A
F9
04
1E
3E
BF
23
23
6C
41
FF
C8
CD
E8
35
68
49
48
1F
FC
92
DE
BD
B5
A7
F5
8A
6C
CF
C4
25
D6
E4
61
CA
1E
09
13
39
FF
02
86
33
9C
7B
AF
6C
70
69
2C
7C
D4
F5
75
12
82
73
80
9B
B9
FC
72
36
D9
2D
03
29
3C
34
57
26
05
69
4F
C7
13
D3
89
F3
6E
50
A1
4C
3C
D7
07
31
AD
9B
05
36
8C
F0
9C
DC
E8
02
EC
8E
16
6A
63
1D
4E
50
0A
69
ED
E5
A2
DE
1E
DC
97
EB
03
7E
74
99
FC
C9
4B
E1
CA
53
86
D9
92
9B
04
44
1D
E2
0E
63
80
4B
04
D6
2F
45
51
78
12
17
5C
E7
7E
E2
B3
2A
B3
71
FC
89
D4
C8
C4
04
95
45
19
08
31
EB
8B
AA
C1
23
4E
ED
85
B4
74
96
BF
7B
BA
B3
94
73
57
9F
E0
BB
FD
69
92
CB
47
41
DA
5C
2F
99
A4
49
41
3D
3E
B9
05
6E
9C
4C
8E
D4
BB
78
20
77
DB
75
E1
C2
A1
F8
05
E3
80
E0
37
56
2F
D1
3C
29
58
3C
47
A3
7E
0F
8A
1A
94
A3
01
D4
A1
D4
B2
00
99
53
8A
E3
23
54
62
50
E2
84
7C
01
96
E8
BC
25
50
12
3F
D0
2E
F8
50
38
E9
4F
B3
59
CB
8E
E0
02
AB
A3
E7
B7
93
7A
29
3A
E6
28
14
5F
1A
96
2C
55
E9
23
33
9B
BC
CE
14
08
A4
88
93
A5
D3
9A
9F
9B
33
9B
AD
67
4A
E6
9C
91
5B
E6
45
83
C9
B1
3A
57
7F
4A
E9
29
D4
94
28
0C
96
5A
13
EE
C0
53
96
DD
E0
65
23
54
7F
AF
77
2B
B3
80
C8
C9
3C
1F
45
EE
19
AA
33
E4
0E
3A
85
7A
15
E8
B0
58
58
95
23
57
40
5A
66
D8
FA
F2
E3
BD
99
43
F5
B5
14
8C
78
E0
E8
F2
7E
E7
97
15
E7
5E
E6
E5
55
40
0F
AE
47
68
9F
35
68
EE
0F
75
E3
6E
CC
EC
B7
10
29
5D
1D
EC
9F
0A
2E
CB
B1
DF
4B
B1
28
BE
87
6F
6B
BC
65
3F
7C
32
8A
2D
FF
23
5C
2F
97
C0
53
14
0C
60
F9
3A
CA
62
B9
63
4E
EC
78
43
89
BB
AA
63
29
4E
ED
3A
A8
7C
DE
3A
F8
E0
93
A8
78
04
2C
37
82
D1
AD
1D
B6
91
46
66
0F
ED
29
63
2B
39
FD
68
D0
82
03
A0
D8
D1
3E
71
9D
CC
75
4A
EE
03
67
DE
64
E5
80
D1
7F
08
64
F2
65
09
30
8C
23
CD
18
BA
AD
1C
B8
E2
DC
5E
0A
03
62
6D
7A
B6
70
63
D3
1D
24
EC
86
8D
35
E5
7E
EC
94
66
29
C1
94
AB
45
D9
5B
3E
D1
09
45
46
75
7C
53
F4
EE
06
FD
49
F2
9D
BB
61
56
15
A3
3D
26
4A
FA
47
04
70
CC
F4
F6
CA
E7
75
46
3C
0A
03
73
9A
57
8C
F8
FB
FB
18
E0
B1
D2
86
D3
8A
56
17
FA
5F
1E
14
94
A9
64
2F
31
6E
A4
C1
60
47
3B
A7
2A
35
3C
48
61
52
42
92
B3
F2
E1
D4
E0
55
9C
8F
51
F2
C2
57
E0
B2
4E
25
58
D1
46
CF
44
79
42
8A
80
EF
7F
EA
86
84
6E
F0
52
AA
EA
81
8D
97
0F
25
12
3C
2C
D7
D0
C4
21
28
9D
C2
D3
78
22
17
2B
4D
45
53
74
35
E1
C6
7C
68
C3
70
EF
17
0D
5E
21
73
FD
3E
28
C2
5C
DC
A7
D5
E5
39
0A
36
46
A2
D9
22
A6
D9
00
CA
1D
37
9D
6F
0A
4F
F4
93
0C
56
AA
10
AC
56
51
93
F0
D8
19
23
6E
32
34
56
F0
62
7C
60
19
F6
AE
20
2A
89
F7
89
A7
3E
08
0F
21
A6
08
77
58
3F
80
0D
0A
59
C6
4A
A3
F1
FF
2E
42
4B
AB
4E
A1
E6
3A
4E
AA
79
B7
9F
B8
3F
69
70
02
37
B2
A7
5E
DD
7C
06
C2
48
0F
6A
F4
3F
25
60
E4
0F
8A
71
9F
15
F2
FE
D0
4D
98
33
03
D2
DC
A9
19
52
D2
D5
84
C5
D1
B2
3A
F6
F8
4D
6F
4B
EE
77
F8
96
3A
59
13
17
1C
E5
91
C9
CF
2D
D9
34
ED
D7
9D
0B
A7
F6
63
C5
07
FD
45
1B
61
B6
F9
F6
85
7E
85
D0
AC
F5
4D
42
6C
F1
A0
9F
B4
68
79
D1
EA
A2
88
A1
B7
97
4D
1B
6B
56
0F
6B
08
FE
C8
8E
C0
A3
72
65
A3
4D
0A
CF
E1
0C
B5
B0
A1
CB
D2
20
D0
00
71
BD
F4
4C
7A
19
1F
55
9D
82
41
1C
23
D1
63
07
22
F8
98
E4
F6
CB
EA
B9
A8
F4
B2
8D
DD
72
BE
FA
94
69
F7
07
16
1C
D9
4C
14
D2
AC
A5
20
84
F5
99
13
8B
99
D2
11
65
14
6F
02
83
51
86
BF
84
FA
1F
12
0E
DC
F8
9C
70
B2
01
F0
92
17
29
8A
91
6E
46
8C
E6
5B
2C
25
BA
0B
DA
B6
C7
F8
37
5D
C6
8A
14
4C
C9
9A
B2
23
A6
16
1C
F1
28
A0
C5
ED
32
CF
57
C3
5B
DB
DA
A9
65
5B
51
B3
3B
EC
BC
3B
12
FC
D2
DF
50
A5
E3
A0
73
B6
B0
5C
94
FB
29
68
F8
C5
78
62
5D
A9
76
48
A4
7A
E4
89
8F
9C
AF
94
27
D5
77
12
7D
AD
71
50
B6
0A
A2
E7
8C
BF
AB
E3
EE
5B
D5
C5
B1
8D
1B
D8
FD
26
16
E2
F7
C2
A9
AD
6D
B6
B7
89
C8
F3
BB
79
26
29
28
62
39
CA
46
23
32
5D
D0
90
4D
E5
09
81
51
04
2A
FE
18
33
FE
46
82
95
D4
FA
A4
CC
EA
56
1F
2B
FF
44
2E
F2
61
3D
4D
72
49
E5
41
D4
93
CB
4E
BA
6A
5B
E3
E4
C1
0B
01
98
42
A6
53
7E
CD
AA
5A
73
C2
0F
91
94
26
BC
1D
DB
E2
C6
65
BF
90
01
6E
E8
B6
F3
12
43
3B
50
32
DC
A4
E4
5C
2E
14
76
D2
7E
28
77
68
22
4F
9D
14
D6
AA
4C
E5
06
EC
9B
DD
B7
32
0F
53
73
64
9D
94
33
F2
15
61
6D
79
69
75
2D
EC
6B
C8
88
E9
BB
8C
B9
FB
4A
C2
16
B0
48
60
82
6C
5C
CC
7E
2C
AB
20
18
A7
09
84
24
19
EF
9D
F1
C6
A9
ED
EB
1C
79
9A
CA
5A
87
43
C8
A9
C2
E9
7B
0B
85
3D
46
43
51
8F
8D
6A
22
9D
5D
D6
FD
98
97
52
0D
9F
FC
D2
80
58
42
0C
EA
0B
AF
C0
16
5F
FD
51
97
9B
66
EE
83
AF
5A
0C
DB
5F
C0
0A
08
52
A5
64
58
BF
59
B2
21
8F
45
03
E0
CE
3A
6F
79
47
E9
F3
59
8D
0B
2F
87
2A
B5
BD
6F
00
32
B8
53
74
A5
DE
E8
A2
AD
8A
AA
37
E2
AE
B6
BF
09
B9
03
E6
08
5E
BD
3F
56
94
B9
4D
5D
0A
F3
76
FC
57
EF
98
33
DC
39
F7
B2
EC
70
43
15
4D
51
4C
EE
8C
0D
42
48
92
20
39
52
49
C3
59
47
94
FA
35
75
C1
76
EA
43
92
0D
8F
04
32
39
64
52
3F
25
F3
ED
84
3E
D2
D1
1D
D3
9B
78
20
82
32
41
05
5B
EA
F9
07
3E
CA
FA
37
19
3B
8E
33
2F
60
72
CA
C8
41
50
9D
D5
FE
13
26
93
5C
B1
42
0E
F2
05
F3
05
DC
4E
76
51
03
7C
6D
54
F0
FE
65
4F
E5
90
5B
56
38
77
80
38
AE
19
98
26
DD
15
FE
88
80
C8
96
19
42
3F
F0
2E
95
CB
F1
7B
F8
D5
F6
83
D7
39
B9
EF
98
D6
2F
77
F3
24
6B
D0
01
4D
06
72
8F
D7
BC
BC
08
C7
1D
69
2E
D9
8B
C1
25
DF
EA
C6
A3
78
CB
04
30
1B
16
83
13
DF
AF
82
C4
D5
73
98
A2
30
2F
07
39
C8
2E
01
CF
42
AA
19
F8
D8
ED
73
5A
66
3D
D8
A2
7D
24
39
12
CB
D3
48
B1
5C
BB
35
B1
C2
D2
C2
37
A8
3F
DE
56
AD
66
88
E4
56
CC
C4
3F
56
E5
F5
AA
36
37
6E
B0
D1
AF
49
DD
8A
D1
36
F8
16
37
1E
3C
4F
82
15
F8
ED
82
17
4B
AB
88
35
0D
45
23
CC
91
B9
B9
5A
59
3A
2C
AE
FB
99
AD
A3
15
15
A2
AD
37
6C
D1
85
DA
6E
31
64
FC
57
DD
F8
B3
ED
26
DF
B6
27
E9
E2
CC
54
1D
7A
D3
5D
CA
FB
86
F3
BA
F2
16
0A
8A
93
5B
74
56
E8
4C
08
01
95
00
0B
CE
C7
0E
99
3E
26
47
25
B4
1D
5F
F2
C7
B9
83
82
CC
35
FB
7D
A1
13
AA
E0
2C
F3
1A
8E
A4
9B
3A
AE
A9
F7
8F
84
01
8F
23
35
D8
8D
01
17
08
9D
33
8A
61
72
B6
78
BA
A4
5A
76
38
7B
32
A0
1E
FC
25
D6
73
2C
21
49
2E
25
28
B8
CC
46
56
B3
4F
33
0B
BF
28
63
C5
AA
57
52
DB
DB
FE
4A
1B
E6
19
42
38
78
BA
D6
3A
D0
32
68
D2
7F
B9
2A
02
2B
0B
35
70
7B
6E
06
3B
1C
6F
0F
16
E3
8B
41
3A
C5
EB
6C
5C
91
DD
1F
C7
5B
57
0B
92
04
AF
6F
F6
91
C4
FD
E0
BE
4C
D8
52
7C
9B
6E
48
A4
3E
20
B0
46
1A
98
9F
B6
8F
11
42
C8
A0
26
2A
62
47
8E
ED
0B
60
9D
5A
33
54
43
AC
B8
27
7E
F2
FF
3A
7C
CD
2D
65
65
BF
67
77
A2
0C
2B
ED
B9
8B
E6
AF
37
99
97
33
6F
40
08
9A
11
87
8B
5C
34
61
63
D8
01
4B
E4
0D
1D
28
88
9C
2E
43
66
D3
7C
5A
6D
81
7C
94
73
DF
8F
26
15
3E
DC
B4
FA
3D
99
CB
90
02
7E
08
A0
A0
AC
14
F8
3A
41
91
AE
E0
7C
30
57
3C
A3
2B
8E
4D
F0
B0
DC
CF
EE
23
DF
55
0B
E7
20
C2
84
9F
DC
79
EF
F6
0E
2F
95
4F
1A
99
05
D6
E1
86
DD
70
BC
03
23
36
F4
12
AB
71
1E
40
5D
54
4B
F9
82
6C
C9
37
67
F2
A7
EF
E5
8A
9A
BD
B1
80
33
B8
69
FB
7F
6D
E6
78
F2
40
1A
D0
06
5B
28
4F
AD
B2
59
E7
63
B6
BA
56
A0
75
96
07
DA
E5
43
83
87
15
ED
23
84
95
81
4E
3C
12
B3
15
C7
17
6E
E4
67
1B
63
43
BB
7A
63
70
D4
DD
1F
71
97
F5
C1
4A
06
9A
5D
A4
BC
F4
C7
27
52
7A
36
80
5E
2D
1F
AC
A3
0F
37
E7
1A
F9
99
06
7B
66
9A
F0
9C
EC
32
73
56
82
DC
29
93
C8
D4
8C
45
80
58
DA
CB
1F
FC
56
71
25
52
7B
4B
0E
F4
BF
71
66
0D
74
02
16
F8
AC
E9
C8
F1
C8
A6
9A
AD
F8
62
0E
D8
17
7B
8A
3E
82
D2
11
EB
E1
2C
12
AE
89
7D
B3
BD
AB
43
53
EF
3E
1E
25
11
E0
69
12
AF
62
4F
13
28
83
9D
D2
12
D9
D1
FC
51
E9
97
67
51
D3
84
68
21
83
34
A8
2F
E4
E4
52
46
28
B6
BA
46
EA
16
70
B8
A0
69
BC
DF
81
5A
6E
9A
97
76
36
93
AE
CB
81
E6
06
89
A2
6F
9E
E1
31
31
17
77
40
17
4F
A0
D2
22
28
CF
28
A0
47
5C
D7
E3
22
3D
21
71
57
51
59
6C
42
9A
D8
EC
37
06
3F
40
74
63
E3
E3
C1
9A
CC
28
5F
49
3F
EE
F6
89
A1
01
E4
F8
49
26
DE
CA
33
B3
9C
38
F1
CA
37
1D
FF
4A
E0
02
55
4A
0D
9C
0C
EC
86
0D
E8
D0
C1
4C
C0
01
17
52
0D
E5
63
98
01
9A
76
FC
CF
19
D3
89
B9
70
D2
4E
FF
7B
C7
DB
C8
B0
31
E7
E2
1A
A0
B0
D1
59
17
25
EB
5D
41
C6
D5
55
54
8D
16
A2
1A
FA
CE
8E
63
9D
8F
AD
40
CD
B4
15
79
72
EC
86
63
7A
6D
72
71
56
42
18
4D
37
43
8E
7F
C4
DE
D6
09
5D
A9
31
6F
61
94
A6
25
AE
9B
94
8A
12
30
33
1B
38
01
53
E3
9E
AB
DF
55
0F
1A
01
A2
2C
5A
28
9C
9A
AE
FD
B8
BC
89
DC
0B
99
A7
F4
98
E6
40
48
BA
9C
CE
9C
A4
70
2A
BE
65
F2
BB
0E
94
78
3B
A8
F6
66
B9
E0
06
7E
AD
81
91
FF
AD
E5
FF
2B
00
78
C5
6C
9D
9A
08
9C
5F
76
DC
6C
6B
28
65
6D
6E
8B
E3
6E
DC
E8
1A
DE
E8
B9
84
81
4D
D0
18
85
EB
90
65
08
95
24
CB
0E
E9
7D
8F
D3
78
09
6D
EF
15
EE
66
39
6D
17
CD
01
7F
9F
3D
82
55
D5
45
F6
68
EC
52
B3
8B
A7
41
36
CE
96
3B
34
B3
50
40
5D
DD
F9
44
47
B8
BB
9D
27
AD
F6
17
EF
95
42
90
F4
C4
20
CA
AB
E3
25
1F
F8
39
5A
0A
48
89
B1
50
6F
EF
37
D2
C3
60
60
A9
3D
70
7E
23
18
4C
4C
28
33
4E
C1
5B
31
42
10
4F
79
2D
08
79
80
3B
F8
B3
26
AD
3A
E5
33
2C
9B
A6
4B
AB
BE
05
27
60
4E
17
E7
E6
27
8F
3B
DE
C7
93
D7
5A
7C
A4
F5
77
B2
25
C8
89
0B
51
6D
DB
94
40
53
57
5D
4A
C4
DE
8E
75
13
63
8F
7D
54
27
FE
1B
01
D0
E5
2F
D4
A5
5F
FE
69
A4
D6
77
D7
A8
55
2A
08
B3
D8
C3
A6
1A
04
C8
F6
D6
6B
D8
9D
51
70
D4
B5
EF
99
62
D1
30
95
FE
39
7C
07
9E
AB
37
BC
6D
2A
58
01
00
89
A8
C4
DF
6C
E6
E3
8C
E8
4D
21
F5
2F
16
A9
F9
7D
CA
42
2C
D4
99
F0
4F
D5
52
BC
7A
90
3F
43
98
99
6A
48
71
7F
D9
8A
2A
45
5A
26
8A
9F
98
4F
F8
AF
A9
7C
76
5F
5F
7E
41
8B
45
BD
80
C5
27
8C
6B
CC
7F
15
34
66
12
5B
32
E7
A1
5B
E7
EB
6E
74
22
BC
34
29
C1
A1
85
D6
99
56
89
54
AE
68
05
41
7E
6C
48
2E
F3
50
B3
E9
5F
2C
11
CE
48
6F
05
DE
15
FE
DC
C6
14
3B
D5
67
BC
C0
D2
7D
D3
46
CC
7F
01
0C
41
98
FF
4D
4F
29
75
F4
25
14
94
D0
3C
F0
A1
DD
21
0E
0F
AF
10
43
6E
EE
C0
CC
C7
7C
3B
4F
20
B0
37
E1
12
61
62
3B
C7
5A
5B
3E
8A
B9
FD
ED
52
58
5E
0C
47
FB
56
7F
22
EB
31
3F
EA
62
38
DE
8C
48
71
8A
73
45
6D
E8
04
BC
B1
01
E6
99
D6
F5
52
E5
93
90
4C
26
19
2A
C0
B9
31
2A
63
1A
73
A7
E9
20
FC
2A
C5
58
68
5B
8E
4D
BD
04
05
27
48
26
5D
A8
62
56
B7
76
81
38
08
29
AD
20
1A
E5
0B
7A
6E
88
39
CA
BA
11
74
08
C6
0E
36
F1
86
83
58
F8
80
21
E9
EF
6F
3D
97
B3
A3
25
83
CF
B0
D0
18
C6
A3
46
99
4F
09
DF
EB
C7
AB
F6
59
35
39
16
81
39
63
7D
05
CF
9D
13
A3
B8
5E
EE
1B
E3
D8
B7
73
2C
01
34
45
90
61
81
1F
7B
27
14
31
3E
42
4B
4C
68
F3
29
E9
CB
84
38
9F
A8
D7
79
0D
50
9F
B0
81
6D
46
5A
DF
8B
6B
F1
83
B4
66
6F
1C
70
E0
09
AF
9E
F0
47
14
00
86
3C
21
1D
40
14
BC
2B
09
BB
14
54
88
78
10
1A
39
55
05
A7
05
8C
9A
5D
73
2F
F1
A6
9E
A7
23
9E
B2
BE
4D
19
EE
CB
AE
41
38
D0
8A
7E
E2
41
B7
4B
E9
50
5B
48
0F
4C
5E
AD
12
75
4B
79
32
CD
09
A5
C1
A8
AF
10
AB
E8
2F
5E
41
48
F2
1D
DC
1A
46
E2
2C
93
7B
6E
85
25
28
E3
99
FD
66
20
B5
8B
5F
A2
B4
A9
F9
64
05
55
0E
0F
65
64
77
C1
9B
B1
49
07
0A
66
AD
3F
F6
1E
DC
A0
E8
CC
40
38
A9
C0
3A
12
BB
E5
42
1A
EC
B4
F4
8B
45
F4
FE
E5
90
27
78
32
7F
48
AB
E7
D7
A6
6D
1D
07
89
1B
C9
1F
9C
3C
DB
56
A7
90
9E
1F
9D
DE
C4
85
81
12
C4
1E
51
C4
68
84
9B
3E
25
7D
AE
9A
4B
35
1F
27
8C
54
57
EA
D8
C6
65
90
1C
B8
F7
3A
82
4C
CD
3A
12
E7
58
C0
95
94
58
59
8F
9E
1F
7B
82
45
9A
F7
94
36
35
CD
D7
6C
5F
F2
4D
EE
B7
AD
1F
35
9E
A8
21
87
E3
08
A6
BC
E0
4E
0F
EC
C4
E1
51
F9
FD
02
68
C6
E6
D1
4E
61
9B
8A
77
3B
D9
45
81
10
6A
AF
A7
76
94
AE
EB
FC
3D
73
47
A4
16
CB
B1
9F
94
D7
13
8A
CA
93
4A
F2
E9
81
AD
28
77
69
94
1A
E6
98
DA
96
8F
87
8F
57
BD
8A
F3
E2
E0
AC
49
22
DA
F1
23
6B
40
FE
E3
D5
6B
2E
3F
AB
4F
24
5E
E1
84
DE
AD
9D
AD
F6
55
80
3F
E6
85
60
D1
6C
C5
2F
28
9D
B5
90
61
DE
8A
20
AB
74
D0
35
58
EC
91
96
69
AF
CD
8B
E1
E0
A1
81
8E
18
80
CC
C3
B2
DD
B1
B2
66
4A
C2
35
10
22
4E
C3
E8
A2
5B
D8
96
01
67
E8
9D
B1
1C
4C
EB
77
05
29
09
C9
CC
AD
55
32
9C
18
9A
D9
43
42
22
53
6C
A2
46
94
0D
F3
B1
75
EB
6F
2A
F8
71
AD
0A
A4
34
E3
0F
73
E8
35
49
61
8B
77
2B
5E
94
EA
2E
AA
2D
A6
8C
92
23
EC
26
73
D5
ED
6F
B6
75
06
F0
F3
C6
35
5F
A4
B9
2A
1C
7A
C1
13
03
A5
F3
53
BD
ED
D0
98
EC
23
5D
2A
60
3E
38
D4
3A
E0
C8
C8
B0
98
BA
7E
6B
EF
AE
9A
BA
F3
5A
DB
FE
0A
14
98
56
B6
AA
23
92
D7
8E
E1
D0
3C
1F
41
6F
FA
2E
78
52
A1
B4
08
16
FD
AE
52
0D
DC
F8
4E
85
2E
9C
B4
64
29
0B
14
AE
19
F9
B1
2B
05
18
0F
3D
75
EF
C1
A8
A6
1F
19
42
66
02
AB
6F
39
6E
1C
CF
7C
14
E0
91
70
4A
61
FC
E5
C4
AD
51
92
CE
FF
4D
86
AF
DA
1E
4A
79
46
C5
0A
CD
B0
A3
0A
7C
8E
FB
4D
44
10
CF
8F
B7
88
37
6D
D9
CC
FF
A9
5C
1F
67
42
71
