04
00
F8
06
06
02
03
FE
06
FD
00
FC
04
F8
F8
FF
05
FC
01
F9
F9
03
FB
00
FE
03
FC
00
FF
FC
F8
F9
05
01
F9
F9
F8
FF
06
03
FB
05
F8
F9
02
06
02
F9
F9
FD
FF
FC
04
00
FD
01
04
F9
04
F9
FF
FD
FF
02
05
F9
FB
FB
04
F9
02
FD
FA
FB
FE
06
01
00
FC
F9
FF
05
FA
01
FE
03
02
F9
04
F9
FD
06
FB
FE
FC
05
FD
F9
04
03
F9
02
FC
FA
FD
FE
01
FB
02
03
F8
FE
F9
FA
02
F9
FF
FD
FE
FB
F9
FF
04
01
FD
02
FD
FC
FB
00
06
FB
FF
04
FD
01
F8
00
F9
FB
05
04
01
01
F8
F8
FC
03
02
06
FD
01
02
FD
FE
FD
06
F9
FB
FA
FA
FF
F9
02
01
06
04
03
F8
FB
FD
03
02
01
FE
05
FF
02
02
FF
04
FD
FD
FF
F9
FE
00
FB
06
02
FC
FD
06
FF
FD
04
F9
06
03
FD
F8
FF
06
01
FE
F8
06
01
04
01
FD
FF
01
FA
FA
05
FB
FF
00
F8
FF
F8
FE
FE
FB
01
F8
F8
F9
FA
FD
FE
F8
05
05
FA
FC
F9
02
FF
F8
00
06
06
03
FA
03
05
05
06
F9
F9
04
02
FE
FF
00
F9
F9
F8
05
FC
FD
03
FE
F9
01
03
FC
FF
04
01
F8
FD
FA
FA
FB
FE
FC
F9
06
06
F8
02
FC
03
02
FE
FF
F9
FC
FD
F8
FD
F9
FA
FD
FE
FE
05
05
03
F8
05
04
06
FE
06
06
06
F8
F9
F9
FA
04
F9
FD
03
03
FA
