02
04
01
02
00
F9
05
F9
03
F9
FA
00
F8
02
05
FE
00
05
05
FF
01
F9
00
FD
FD
04
05
FE
04
05
FC
06
05
05
03
F9
03
FB
FC
05
02
03
FB
01
04
05
05
00
03
FE
FC
05
02
FB
04
F8
FD
F8
F8
03
FD
FD
F8
FF
FC
FB
06
FE
FE
FC
F8
F8
FB
F9
04
FE
02
02
FA
02
FC
FB
FF
01
06
F9
06
F9
04
01
FB
FE
FD
FB
01
01
FD
00
02
06
FD
FE
F9
04
03
FA
03
00
01
FE
FE
FF
03
F9
00
03
F8
FB
00
FC
FD
05
05
00
00
05
00
00
00
FA
FA
03
FD
F9
04
FB
02
FB
06
FB
FF
FE
04
05
FB
FB
00
06
03
03
FF
05
03
FA
FC
02
06
04
06
F9
FD
FA
01
FA
FC
00
FA
06
00
03
FF
FE
F8
04
04
03
00
00
FB
FA
06
01
05
05
FE
05
06
FB
02
01
06
05
