B4
0C
7E
B8
7F
BC
9F
CB
15
ED
35
78
B9
75
33
21
A8
36
B8
87
02
4D
02
AE
5B
7D
6B
A2
3E
FA
AF
8C
E3
99
35
BB
41
1B
54
00
2D
E9
CA
18
D3
9C
67
3D
E7
31
92
39
F1
8E
F3
7E
E3
71
83
F6
87
32
68
54
26
E2
CB
55
98
C7
48
6D
CE
B9
BA
44
5D
D5
EC
99
2E
61
02
6C
A1
61
17
BB
43
C8
79
4A
38
88
B5
26
D5
95
57
17
98
F4
6C
48
C8
F0
3C
35
56
0A
F1
A2
3D
83
E1
A3
26
0C
A4
96
FF
7D
22
39
F7
14
A2
BC
71
84
CD
A5
79
75
F8
A3
CB
E6
9E
19
CD
BE
84
54
86
68
B8
0A
5E
EB
CD
7F
05
B3
8F
DC
D6
6F
7E
E2
B5
13
91
C2
7A
94
A3
2F
52
CA
80
AA
D4
58
72
60
12
03
E9
07
F5
89
7B
D7
AE
4C
46
3D
12
D5
3B
5D
EB
D4
F3
CF
21
96
87
69
AA
F0
08
25
8C
96
B8
51
A3
29
17
D0
18
4E
47
E6
60
54
90
95
37
BB
D0
A9
14
C8
88
BD
21
89
72
35
6D
6A
FE
A4
18
07
E8
BF
51
D4
BF
6A
6A
28
DC
09
0A
07
BF
4A
12
07
7B
65
B0
FA
37
AC
B0
AB
E6
E8
A1
D7
91
CE
81
C7
95
B0
1D
99
73
0B
6C
52
08
CB
25
B6
41
61
0E
AB
6A
EE
4A
6D
C9
59
D7
02
49
C6
3B
7B
39
8F
83
70
AD
16
52
31
2A
1D
DC
60
0B
3B
0D
93
F4
EE
71
9F
FF
7F
50
2B
6B
8C
07
2F
8C
03
4C
10
7B
EC
D6
9E
E5
9F
5C
0A
23
D1
6E
2F
41
A8
8A
3E
0F
31
4F
72
4A
B2
31
F8
E0
21
EB
FA
43
8E
56
E5
7A
DC
4B
21
CF
73
25
DD
3D
89
97
34
05
DB
5E
DC
0D
05
A5
EA
6F
C4
E3
7B
29
EF
7C
85
C3
9C
BD
63
18
79
B7
8D
C7
0B
40
29
0A
4D
59
54
A5
B1
10
C2
3F
84
63
A3
E3
8E
90
C7
AA
D2
E4
82
88
B1
1A
25
3C
1C
58
8D
B8
4F
DD
06
E3
5B
E8
84
E8
C6
18
3F
A1
51
65
EF
FD
6A
5F
45
F3
D6
CB
E2
FB
E4
B0
A1
49
C7
39
6D
A0
1A
D4
37
6D
66
E9
6B
0B
7C
E1
E7
1B
AA
7B
39
AB
34
00
61
FA
64
8C
99
16
74
B4
9F
41
92
14
4B
90
5A
00
49
C0
FD
CC
DB
AD
CD
9E
68
1B
89
3C
9B
CB
2A
D6
3B
13
FD
02
8F
45
99
CA
70
48
BF
9C
5D
0F
68
F5
A7
E7
1E
AF
92
A0
84
51
70
C4
CB
BD
25
E3
B6
18
04
4A
29
A1
FB
6A
5B
11
B0
46
88
F0
2D
F7
5D
C0
A3
FD
9C
1B
57
A9
13
03
37
69
E4
76
7B
4C
8D
73
5C
DE
35
94
3C
BA
6A
45
BD
3D
E0
14
30
F2
CF
E4
FB
3A
EF
5D
9E
73
70
93
A4
E8
16
7D
2A
86
F8
A8
0B
A2
E2
DF
22
FA
2B
B4
9F
59
42
78
22
5E
44
7F
7A
BC
14
BD
71
54
64
1E
21
65
F5
63
B3
A0
2B
98
72
67
64
44
C5
E9
F8
C7
D8
7B
9F
10
FB
15
A4
CE
17
89
8D
93
F0
DD
02
2C
17
93
36
6E
39
19
94
DC
A8
68
AB
E3
F0
FF
C7
31
31
CE
0B
B2
00
22
0D
77
07
FE
33
DB
C5
F2
93
C7
7B
D5
F1
CD
E7
D2
5F
A0
11
19
F4
61
AA
DB
94
73
4A
8F
7B
7A
C8
AA
40
1C
49
48
2B
95
0F
80
AA
C2
4A
EF
6B
EF
76
DC
AB
D6
B6
87
E0
02
08
1D
8A
F7
7A
FD
11
05
21
7B
EC
A7
FE
BB
20
D6
A5
D3
E8
4B
81
49
E5
C4
3B
2B
0C
04
91
56
6A
02
7C
36
4A
03
8B
5D
15
BE
11
40
5D
D7
34
A3
23
04
13
26
0E
BC
1F
E8
E1
DE
19
0D
86
38
6A
77
7D
62
FB
4A
06
A9
FE
B9
29
52
EA
95
AD
B7
19
E1
E4
C7
30
B0
00
9B
32
64
D8
36
FF
2C
08
A5
DB
E4
05
16
D9
70
D5
86
C4
BB
94
25
01
AB
40
CC
D8
8C
3E
6C
6B
CB
14
B8
96
7B
88
54
70
43
66
24
21
7E
47
85
F9
0A
0D
89
44
DD
50
9A
E1
1A
C0
FC
01
13
9A
73
6F
80
7E
D9
AC
F2
89
69
72
4B
8D
38
54
2B
65
5B
68
C5
C0
0F
93
89
1B
71
45
D2
C8
3A
2A
2C
F8
9B
D5
E1
22
02
F3
B2
2C
B8
67
C0
47
C0
F8
13
A2
74
74
F8
2C
C2
C2
2E
15
9D
7A
D5
0D
12
45
35
B0
60
BD
9A
89
87
6B
47
18
BD
DD
F2
3F
12
0F
C1
3A
23
4C
6B
27
6F
D2
A0
A5
E4
02
99
82
C4
70
6E
48
3B
CF
4E
A2
21
E9
68
88
B6
7E
A8
C5
E5
95
DF
1F
FD
72
7A
04
9A
85
D0
33
A6
95
BA
86
EE
BC
D8
BB
29
C5
5E
44
29
DC
FE
08
F2
E3
D8
FD
57
F0
9E
1C
AF
00
2D
28
9E
5B
07
37
15
A9
16
70
56
35
2B
05
28
A5
53
F8
17
BD
6A
18
A7
89
8D
36
9F
45
09
48
32
D7
90
CE
20
70
C9
17
1B
D4
37
3E
D0
00
BA
DD
59
7A
44
13
51
36
EA
10
F7
00
F2
0A
79
6D
69
DC
4E
8B
E0
F2
65
F5
A6
D2
BE
2E
80
36
15
83
CB
19
F0
8F
BD
4A
11
F0
72
06
D4
68
87
F7
D2
46
CC
0C
01
CA
4A
A8
5D
04
23
97
58
E3
F5
7C
99
4B
9C
AB
26
CB
77
6F
10
24
E3
9E
EE
B4
6E
0C
0F
3A
9E
8A
9A
16
C5
D6
B0
18
B8
2C
82
CC
14
C3
29
C1
48
D7
3E
F4
37
17
E5
A3
DA
53
1C
2B
7C
5A
81
2C
76
FC
6A
39
AA
E2
67
0A
86
62
0D
6D
87
3C
0B
49
54
43
F3
D1
79
9C
17
9F
ED
E4
1B
5E
E9
7C
E6
0D
42
91
91
A3
8A
D1
D8
30
CB
B8
64
CD
3A
09
85
D2
8C
68
EC
03
EF
D0
1D
E5
0C
E3
DE
7D
BE
22
21
0A
F0
EA
D2
CA
DB
03
B9
16
D0
6F
9B
BD
72
98
C7
13
A0
3D
4A
4D
36
42
B4
CA
CD
A5
0F
33
93
B5
99
A3
5F
F4
C0
B5
43
78
B8
A6
58
9F
9E
9F
03
9B
FC
EB
47
F4
1A
98
90
B0
6F
CC
03
58
EB
25
4B
ED
30
9F
42
EA
88
5C
B7
D2
19
2E
D1
1C
05
A9
BF
7E
86
92
DC
5B
0C
CF
21
70
B0
AA
95
7E
09
DA
98
A7
2A
3D
32
A7
6D
E4
C8
BB
B0
B5
4C
4B
DE
05
33
2C
6F
F2
9A
EC
64
86
53
08
11
87
4B
E7
0A
21
64
74
09
53
A1
CC
9B
C2
75
19
D4
DC
46
1D
34
DD
D1
45
35
E0
0A
14
98
7E
B1
95
05
8B
85
7F
69
8F
C5
26
8A
91
ED
C3
FF
51
4B
07
20
63
8C
1F
44
51
FA
8D
E1
3E
35
A4
5F
B0
5A
77
EA
87
21
87
AD
E0
69
4E
57
71
DA
B9
CC
58
02
78
36
C0
74
6F
EA
56
FB
AE
C5
E2
7B
B1
E1
78
E7
1B
32
1D
DC
28
18
DD
74
41
68
A6
EF
36
16
87
82
CB
B1
E6
40
E7
2D
29
8D
AB
CC
EC
51
54
DB
30
29
44
EB
1B
4A
FC
AB
31
ED
65
8C
10
D4
0B
C6
E9
A7
1E
AF
B7
F1
7E
90
F8
CC
40
C8
5B
32
53
0D
BA
55
D7
9D
90
F7
FE
68
C0
BE
70
E5
EA
72
FD
79
3B
EA
A3
9D
E7
38
3C
20
D1
E4
28
77
F2
6A
44
B5
1E
ED
2E
B8
84
EA
BF
D8
34
E0
F0
1E
B4
C1
E3
16
31
68
D7
B3
0B
E8
A9
DA
1D
53
CA
E0
90
5D
DD
72
07
60
54
35
EF
33
10
AE
C6
10
90
B0
AC
F9
A3
53
10
0A
7E
37
66
3E
B3
5B
88
CB
F4
07
C0
B8
30
95
AE
58
3D
3D
0E
29
C7
35
DC
7D
F2
A2
5C
BB
F1
76
26
F4
B4
DE
21
E1
E5
6B
B0
E7
69
57
2F
B6
3E
0E
D5
2F
44
71
2E
F1
52
EC
E8
E1
C1
DE
87
E6
7F
04
DD
AB
D2
D5
5B
8A
28
10
EA
86
5B
5B
46
36
F4
74
52
00
2C
82
65
5E
29
92
BD
03
7E
65
9D
EC
C2
DA
C4
EF
77
D0
D5
67
57
DF
FB
B3
B9
A4
5D
DF
92
94
A4
22
F9
64
95
13
0C
32
1C
02
88
35
A8
7B
34
8A
F4
51
BB
C0
9F
C3
71
9D
96
BF
59
59
67
5C
AD
EC
BA
7D
99
70
4C
0E
C7
AA
21
86
1D
F1
49
B7
07
23
85
9F
D0
59
99
09
27
FE
A1
25
58
B8
A1
D3
BA
E9
96
7D
14
77
66
24
D0
5A
6E
95
FD
99
F3
8F
3C
EA
97
DB
E6
D1
8A
CA
3A
E0
FD
8A
32
E3
18
89
16
E4
CB
FA
5C
61
AA
79
26
3B
BB
CC
EF
59
54
0D
02
15
33
DC
CB
17
2E
FF
96
8B
A1
0A
E8
4A
6C
65
E7
3B
43
03
90
94
9E
4A
26
4F
DD
3C
3E
A3
9C
5E
C0
06
2E
20
3A
BC
4B
DB
92
34
52
92
86
9B
B8
9E
F0
17
43
8B
EC
F6
C1
51
CC
34
AF
AF
A1
0C
73
4C
DA
4D
D1
CD
08
EA
D1
9E
A3
5E
56
7B
8F
47
B9
B3
CF
00
C8
C2
9B
67
95
D2
59
72
CA
E0
94
50
2D
82
35
28
5E
EA
B0
BA
E8
9A
E9
0C
B9
23
4B
B5
6F
FD
BB
AE
CD
CD
24
1A
4E
38
17
CC
2F
03
C0
7A
C8
ED
DD
27
32
44
32
DA
C4
51
59
9F
85
39
1D
FD
EE
5B
4C
B9
24
00
5C
4B
7A
91
9F
AA
5F
2F
D5
33
AE
8F
91
CC
0C
05
15
4F
31
CB
89
21
4F
10
32
85
A1
3F
41
2F
99
AA
79
91
BB
B3
F5
50
3B
A3
49
EE
1F
3B
F3
A6
C6
BE
B8
FF
C5
10
01
CD
67
C6
AC
06
DF
7B
56
05
27
AF
D7
CB
13
A9
0B
E1
10
2F
34
34
E7
A9
D9
00
8A
1F
A6
F1
DB
F2
E2
1C
00
55
C6
5B
32
AF
84
C4
F3
0A
10
D4
23
F5
D6
66
3A
6D
09
EE
6B
0F
B4
FF
8D
2B
8F
F4
13
E4
7F
7A
A6
7D
96
65
BE
22
5D
61
1D
8F
64
D4
52
27
44
D7
19
3C
09
B0
F2
69
42
3A
59
E4
66
8C
73
E3
8F
2C
EA
5F
A4
AD
FB
B3
2A
79
6F
AE
B3
16
29
BF
2C
1F
95
27
7E
47
23
A9
02
6E
09
68
86
4A
11
03
9D
8C
61
34
AC
34
57
8D
FE
13
7B
05
73
80
E1
A3
E3
38
B7
75
43
41
16
A8
B4
FE
8D
14
39
8A
2F
18
C9
2D
6A
B4
C0
1D
DC
B6
6A
C4
FC
CF
7C
06
F1
4E
4C
97
19
C4
9F
5E
6C
5E
5E
AF
63
9A
78
DD
13
D8
14
2A
54
9F
D1
F9
66
40
A2
4E
63
31
7F
23
F4
C3
2C
C9
25
F1
FC
80
FC
4B
C3
06
56
1B
3E
2B
4C
A2
30
3C
7C
76
23
19
56
66
3A
6A
05
A4
5F
6A
FB
11
F5
78
14
2D
EB
F0
39
FB
1A
9D
28
31
DA
00
25
B4
7F
3E
86
52
3F
0E
39
0C
10
BE
C7
85
99
36
DD
23
17
38
C1
C4
96
74
14
2D
A2
13
0F
1C
4B
95
57
77
A1
58
F9
41
3C
B1
54
70
31
74
48
DA
63
A3
46
5B
DF
FC
EB
E2
C9
F2
86
C2
B3
A4
3C
14
31
AD
D0
F4
4C
76
EE
1A
72
EC
42
96
3F
9A
98
50
7B
92
D6
18
C1
52
7A
6A
F0
0F
C7
CE
BB
FD
A5
B3
4D
35
D9
19
26
D4
8E
07
05
F2
5F
64
59
E0
5E
98
B1
E9
28
78
37
5E
8D
7B
C1
A1
08
4D
4B
4E
EE
F9
B3
B2
CA
9D
49
23
A1
63
B3
7E
B0
DC
F9
B4
CA
B4
7B
59
DA
0D
C0
5D
F4
C6
04
BD
7D
B1
C7
9E
E7
DB
BA
58
34
05
47
83
C9
BF
EF
0B
8B
22
00
F8
78
4A
28
B4
60
E3
0E
3C
D4
62
11
92
64
91
8D
76
7E
E4
43
B7
4A
15
49
08
17
8C
D9
18
79
65
31
35
76
2C
1B
6F
44
B5
0C
AE
46
15
B7
28
C9
39
E0
B2
52
1D
10
31
F2
A1
99
74
DC
64
08
86
CF
7C
1B
1A
5C
2C
E4
AF
0D
33
C4
6E
6F
43
C5
36
C9
7D
C1
BE
DE
3C
99
6A
5B
16
4A
85
E1
07
2C
A2
BE
3C
30
9F
9F
62
47
CD
1D
61
D0
05
58
71
0C
BE
5A
5E
54
F0
7F
36
A5
F2
0B
F1
D8
11
52
A3
AF
9E
C0
2C
0B
33
BD
A9
53
8F
66
D1
7F
B7
73
A2
56
C2
F4
F9
2D
DE
AD
04
A1
E5
20
0B
AC
F9
15
17
F2
BD
66
49
FF
50
AD
0B
65
B3
52
9A
69
84
F0
5B
7E
B4
F3
AD
19
CF
36
C2
B2
90
06
53
51
9E
58
A2
57
0F
C5
39
E4
B8
7F
6D
DE
14
EA
08
C4
A8
5A
9F
D8
26
39
72
3B
24
CF
9D
AC
A8
0B
1F
F4
34
D3
73
89
49
B5
47
9F
1F
07
C8
FB
18
49
05
2B
B4
35
CF
B3
3F
B4
83
92
A0
7F
AA
A4
66
E1
86
73
F4
23
77
E0
E4
B4
D7
D1
65
DE
13
8E
25
DF
1A
58
F6
3C
30
3E
5B
94
FE
DF
4E
0B
45
23
87
4A
DD
CF
00
90
95
78
C9
CF
B2
AC
3A
E9
01
84
22
15
34
42
F5
C4
E3
D3
EF
84
67
F8
E0
99
B4
23
0F
6D
75
8C
8D
1A
65
AE
04
D6
52
E8
4F
43
DB
4D
14
13
3A
37
39
49
64
F0
38
AE
BE
FB
8A
88
6D
78
F1
41
E9
D0
46
7D
55
9F
78
88
00
F3
87
7D
6D
A6
D0
99
5D
36
DD
1B
4C
17
8D
9B
3F
6E
B0
74
29
DA
6B
89
FE
18
F1
65
0B
2A
A0
70
10
23
97
42
BD
65
C6
83
B1
48
25
22
2D
AC
4E
BD
9D
F3
31
E4
22
0E
EA
12
CD
AA
58
A8
96
94
3F
BE
8B
50
7C
43
F0
68
D0
EA
5E
F4
E0
A4
58
10
81
09
5F
BD
A6
C4
F4
B9
C9
C6
2F
E8
8D
62
57
80
8B
57
5E
ED
50
41
AE
4D
4D
72
32
C0
B2
81
96
15
09
FE
3D
3E
F7
44
27
8C
2B
74
20
FF
E6
91
53
4E
27
27
39
53
DC
E5
59
F2
6C
E8
F4
AB
BB
9A
6D
97
45
94
45
D8
E7
06
FA
48
1E
B2
D6
2C
24
83
53
87
C8
27
EA
9B
B9
5E
1C
8A
AA
52
0B
60
6C
0C
0D
BA
60
BA
89
3E
46
BB
F6
E6
25
7A
03
03
07
89
6C
F6
21
B1
39
DF
90
B0
C7
B7
10
22
C9
22
5D
F8
C0
8B
51
49
CC
E0
34
26
95
39
E6
DB
C6
99
8E
EF
2C
67
3F
7F
FD
9E
6C
46
21
7D
38
86
22
D4
93
EE
DC
20
3C
BC
6A
82
18
AE
A3
41
4D
00
77
5B
1A
16
05
FC
AE
D5
88
23
62
70
B6
C1
1B
BE
06
92
85
CA
64
7B
28
5B
9C
8D
3A
45
DD
39
DE
CC
3C
4B
4D
77
CD
92
BC
54
9D
99
CF
2B
5C
3B
30
59
7A
70
6B
93
6F
31
63
39
37
CE
04
6B
00
18
DF
7D
3A
8F
0A
D3
89
58
55
8F
05
EF
EA
5E
AE
8A
27
88
9A
84
DB
B1
C9
28
71
E4
32
E3
45
BD
4F
33
A6
22
41
85
45
B3
21
64
6D
5E
DB
8E
13
F2
51
7D
E5
20
E7
5D
83
FD
24
C3
D8
7B
71
66
0C
8B
0E
91
30
BD
DF
EE
4B
A8
21
9E
08
09
29
39
3A
D9
3A
B2
73
DA
17
1F
02
9E
73
73
DF
B3
88
D4
0A
96
D7
57
04
6D
B0
93
A2
5F
E8
CC
70
A5
DE
48
97
CE
0C
D4
E8
C7
B1
6E
C5
5E
6B
27
51
30
60
86
7C
06
10
F4
E5
80
96
97
85
6A
0F
EE
55
66
30
D2
29
D9
F1
DE
2A
46
F4
64
8D
57
33
6C
CB
4E
2F
AD
18
01
99
D7
D3
49
B3
D5
11
72
C8
A0
97
89
01
D8
F5
BF
94
34
BE
36
16
41
CE
BB
5E
C6
DE
F0
A4
59
69
D7
F5
67
00
C3
4B
98
0E
4C
CB
4A
B5
FA
C1
E2
21
C2
D7
E0
B3
AC
5A
CA
01
34
BE
DC
A3
97
7E
95
96
90
47
DD
97
F7
D5
FB
6D
BC
09
DC
9F
77
61
70
32
F5
E1
8D
2D
D7
AA
D7
8C
7D
EE
9D
60
FF
83
D1
69
DA
E8
F2
FE
32
75
E8
0D
80
1C
21
10
7D
D8
FC
79
25
67
CE
8F
FA
E5
7E
9F
7B
B9
86
CE
C8
14
32
6A
EA
78
FA
F6
3C
FD
75
DE
2A
A4
A3
0B
33
98
DA
E0
7E
9C
29
82
15
0B
D6
4A
04
C4
D0
B4
1F
02
56
2A
34
34
AC
84
4C
1C
0C
AE
21
20
26
1A
03
85
82
7E
4F
4D
02
B3
AD
5E
79
37
78
2C
8B
CF
A0
F4
15
E2
3A
D2
3D
67
E8
7D
CB
CF
89
03
DE
4F
5F
99
48
D5
F1
3C
40
43
02
50
A5
F9
F0
B0
A9
DF
1B
FB
19
5A
72
5A
58
0E
0B
57
DC
92
71
AE
59
19
18
41
BD
CE
6A
8B
2E
AC
AB
6F
63
FB
5E
B2
80
09
30
26
A1
61
26
4B
94
65
FA
FC
2F
FE
4F
BD
94
F0
A5
44
FC
99
CD
4A
DB
87
BC
CD
CB
4F
3B
00
A7
DC
F8
F7
C9
1F
3A
80
BD
14
ED
43
27
5F
80
CD
52
2C
2F
8A
04
B6
0D
B2
6B
FB
E5
DA
95
0B
D3
AE
04
AF
16
E5
24
66
82
40
14
BA
7C
CA
C7
49
33
97
62
45
F7
83
6A
24
1C
B1
35
D1
1C
AE
56
6F
1B
1E
D0
9E
AD
DA
12
E2
37
2E
AD
FE
1E
FE
FE
82
F0
65
F8
44
1F
BD
F4
61
A8
14
E3
BA
55
B0
21
20
FE
47
FA
23
24
33
55
C9
AB
82
5D
EC
A6
0A
64
02
16
00
7C
CA
27
FB
4B
82
66
64
5F
DB
54
39
EF
69
BD
DC
F6
BA
DB
A9
B8
B5
EA
17
67
1B
F0
B6
F4
88
1B
E4
1D
19
96
DF
DF
9C
6A
21
40
09
A2
29
C1
9A
03
C1
6C
BE
6F
6C
B2
6C
D0
5D
9A
3D
D3
BC
DD
5F
EA
3A
9E
91
72
24
AF
B4
A4
3F
C2
D1
F0
4F
30
55
99
DA
A5
90
9E
EB
A5
30
2C
D5
7D
D8
25
D7
83
99
52
B9
07
04
73
5D
FB
48
61
ED
B1
2B
1A
8D
82
EB
94
E0
15
97
2F
D8
09
B8
05
04
78
78
EC
A1
43
F7
38
7A
E5
F2
87
D9
EA
06
0E
CD
98
13
FC
5C
F6
B7
5A
EF
32
F6
E1
7E
BA
6B
59
D6
CE
E8
A1
8E
0E
C7
9C
E7
4C
FD
CE
06
06
92
05
C8
93
F4
BC
C6
7A
E2
FD
C6
A2
3F
86
EA
FF
2A
C7
2A
BB
2B
3B
8A
DE
98
B2
A2
10
10
24
E0
EE
26
40
B1
DA
98
6A
A0
9F
62
4B
25
1D
26
99
EF
DB
26
60
33
18
BA
C0
D7
51
ED
62
F6
74
C1
53
01
07
0F
4B
47
5F
34
79
12
EB
69
29
FB
0D
CD
11
EB
37
9C
02
7F
2A
E6
14
7E
BA
C1
4A
70
70
F9
14
B2
A8
09
13
3E
D4
01
68
7D
28
DA
CD
0D
1F
8C
92
1E
32
B5
80
C2
1A
01
18
3E
54
A9
4C
09
CE
0D
35
C6
C1
D0
63
08
7E
32
E9
0B
0A
6B
4B
39
5C
30
A8
35
68
A5
45
1B
76
E3
DB
44
AA
A1
3F
2D
69
1C
85
E5
2B
6E
37
2A
C8
7B
21
92
1E
3F
47
63
02
16
F3
E4
63
16
7B
E3
6E
F7
F1
5B
49
0F
B3
AA
28
2B
22
2B
A6
3B
D2
EB
4E
C6
A4
35
F8
6C
40
B7
1C
40
E0
24
01
92
17
4F
6D
AC
5E
02
E7
60
FD
AE
A4
61
B4
E7
6E
80
2C
5E
A9
0B
69
FC
A9
98
65
F7
CB
56
E8
DC
D9
58
96
A4
D0
DE
2F
CE
92
57
0F
05
99
89
6D
E9
18
C1
09
68
5A
A0
0B
FE
23
E4
02
23
0D
D6
41
0E
CA
81
C6
2E
09
83
2E
A6
3A
96
CF
FE
1C
FC
72
AC
91
6D
60
DC
FB
28
AF
96
6D
25
D1
35
C9
D6
48
BB
4D
37
B5
A5
67
CB
B4
76
C9
AB
F5
58
77
BF
03
31
BB
17
06
C5
BC
5C
64
67
A5
A8
C2
AF
83
1B
64
67
5F
3D
3D
44
5C
8E
F5
F9
39
BD
CE
7C
59
09
B1
11
84
7F
13
AB
35
E1
BB
2D
D1
1C
71
B7
E2
9E
C7
5E
93
3E
FC
05
6A
56
12
5B
F8
91
DB
9A
C0
06
B6
F3
03
9A
12
E2
92
88
A7
93
FF
13
48
0C
C1
FB
2E
00
B1
74
27
27
52
D4
1F
2A
D5
5B
A5
83
C0
31
70
BF
55
BC
5C
3B
CA
42
A8
22
82
6C
19
B2
1A
C9
7C
07
CC
90
2B
6A
17
62
EC
B9
C2
94
72
49
FC
C8
47
83
55
D0
3B
32
1E
9F
8C
0C
53
2F
BB
51
AF
A5
FE
AD
A9
1B
B0
70
BF
D1
49
04
EF
BB
3E
42
10
45
47
54
70
39
57
1B
BF
C5
64
5A
5A
D0
54
65
6B
B4
35
0A
E5
09
09
51
46
01
C3
DC
AE
E0
1B
53
AA
EA
0D
66
63
98
A5
47
D5
A5
A7
A9
0E
00
A9
A2
92
4F
85
B3
B8
59
73
E1
DE
E8
C4
56
5A
CB
1E
B9
05
48
A0
10
12
0C
34
15
BD
46
FA
BE
9C
F8
F5
5D
2B
00
94
B0
52
9E
24
3C
49
FC
15
A5
56
E2
21
7F
92
D7
E4
AA
7A
C2
08
42
46
37
6D
AC
B7
92
21
0C
2B
03
98
BD
46
FC
02
B0
E2
1B
DF
B8
14
2B
07
1F
E8
1D
2A
A7
6C
23
A3
4F
09
B4
97
0F
0E
69
F0
07
80
79
30
80
B2
BA
4B
24
34
C3
FA
90
F5
D6
5B
08
DD
CA
6A
A4
A8
03
CB
67
76
0A
FD
7F
46
F0
34
7C
7A
34
0C
84
2E
7B
0C
A2
A0
57
B4
97
3B
35
61
3D
0E
F3
6E
BB
38
53
9B
96
20
2C
32
57
50
90
2B
96
7F
3F
B6
EB
18
B9
1A
7A
F7
0C
D8
4D
E5
D0
88
F6
D7
B2
41
97
E2
33
2C
AD
E3
8E
1F
80
9D
83
97
1C
23
51
03
DA
0F
6A
60
68
F5
08
FE
D2
CD
6F
CA
E0
BA
77
60
D1
0F
42
18
60
53
DA
6B
3E
1B
51
B8
4D
DD
D0
9F
46
53
C9
B2
4F
BF
B8
D6
74
6E
64
E7
8B
BC
77
77
98
5A
9C
16
10
BC
AE
7F
4C
2A
73
BE
04
CD
71
88
B4
1C
84
CE
D2
F2
F7
A2
02
DC
6E
06
0A
23
C5
71
F9
5C
BF
B3
E0
FF
E7
20
F6
37
3A
A6
51
DF
22
77
AB
7C
04
7B
0E
71
31
42
6D
09
3B
D9
4D
28
0E
07
AC
99
DA
79
2B
74
6B
03
9D
3F
72
19
53
C7
66
66
23
99
E0
63
3A
9A
97
4E
37
9D
14
A6
90
47
01
51
29
CF
D2
B2
23
68
AC
09
DB
3A
F3
ED
4C
F4
51
9E
A5
76
09
34
C7
CD
AC
3F
3E
F6
A4
02
C3
1F
96
DA
24
BA
AC
CE
9E
8B
A8
21
B0
F9
40
06
55
EE
F9
D6
67
ED
FF
75
C8
08
3C
05
5A
9C
75
62
E4
0A
85
F0
90
43
C0
CB
7B
B7
11
C8
C5
C1
5A
F5
56
93
6F
F1
B7
B2
FE
9E
C6
0B
A7
80
C1
96
A5
EF
FA
FE
AC
EF
A4
B2
10
20
81
94
D9
FF
13
9D
8C
1B
EF
7D
09
06
F6
84
FA
45
9C
72
E5
0E
7C
6A
D9
05
60
B3
1E
02
72
0B
D6
E2
56
75
31
B9
9D
DD
7A
41
B9
A8
53
11
94
DD
96
78
03
7D
2C
7C
13
98
DA
FF
57
9C
CE
10
94
44
A5
AD
20
CE
8A
98
33
07
87
ED
31
D1
4D
A3
5D
00
7F
39
5B
D9
0C
0F
AA
12
D5
D2
F5
33
A1
82
21
5C
C0
8D
A5
0F
64
B7
3A
30
DF
2B
0D
D6
CA
D8
DA
43
09
08
D4
0A
5D
F1
1C
B3
4B
54
A7
36
E9
D6
8A
F5
E8
F6
B4
86
E1
42
EF
34
76
AF
FD
DA
D8
70
34
77
23
75
93
E5
03
98
D1
FD
79
ED
C7
A0
94
36
82
EE
7C
7F
7D
F7
BC
66
31
5A
5D
8A
DD
BA
25
24
D7
51
4B
F2
18
87
26
E5
FE
3D
58
1C
66
22
35
7B
C8
27
3D
E3
C4
6D
12
F9
C5
75
01
EE
84
D2
95
AC
53
57
5D
1A
9D
48
38
AD
AD
BE
F2
93
09
94
63
48
A3
3C
02
5D
C2
FB
16
45
80
BC
03
0C
A7
2C
9B
F9
C3
49
4D
1A
F9
19
C5
12
BD
97
45
39
AC
CB
A8
27
70
A3
A4
46
61
06
06
DE
F9
AB
CC
6B
AC
A4
00
04
E3
2C
57
62
F3
55
A1
C5
5F
48
B3
DC
4B
B9
09
70
01
3F
76
E9
C8
1E
BB
3F
7F
93
85
C2
7D
54
C3
1D
64
13
C7
87
5C
04
6D
74
AC
84
7C
EC
2E
3C
AF
3D
64
16
CE
D6
B6
7B
2C
4D
49
56
8B
12
78
2D
66
F8
CB
AF
6E
06
83
99
45
CC
9D
69
74
DB
3E
1E
94
7B
C4
47
6D
F8
C6
BE
DF
D0
A8
9D
DF
38
F2
EB
DA
46
82
BD
EE
02
CC
62
76
7A
2C
41
4A
83
38
87
D5
78
A5
4C
23
36
0F
7D
56
4D
EA
A3
64
AD
0F
C9
16
DF
18
F7
B6
4D
83
FE
FF
48
C0
36
9A
EA
55
BC
E1
C5
7C
A7
FB
73
EB
36
93
45
16
E8
0E
4F
32
B2
29
74
43
76
83
B5
A2
9D
1C
B4
1C
51
B6
6A
CA
35
E7
0F
B8
AA
CA
AC
AF
3D
30
EA
0B
08
46
09
1D
A7
4A
7B
33
5C
35
34
CD
CE
E9
95
0A
42
A0
E9
2C
C3
DD
CE
80
39
5F
CF
3D
9B
FD
B3
04
2E
67
C5
02
F0
24
2E
B0
BC
CC
CC
25
BB
86
6B
81
F4
17
01
BB
8A
36
54
80
62
8A
CF
F2
D0
DE
08
92
0C
6B
28
5D
4A
CD
9A
0A
B8
AB
42
74
43
59
C2
C7
89
FB
47
B1
F8
FC
C5
40
B9
C0
83
27
F3
05
0C
DD
A5
FA
81
69
E1
1E
A7
CA
E7
AA
E4
E0
36
6A
E3
F3
23
0B
C9
72
96
C0
30
4E
2B
F3
0A
F9
88
B3
14
71
57
F7
EA
FE
33
45
A8
CB
7D
DC
3E
A2
72
1D
94
FB
EC
76
CC
13
77
CC
CE
2E
E8
FD
71
99
3D
DD
02
33
DF
CB
11
73
F4
7D
86
F7
38
C9
91
22
7E
36
12
CC
BA
26
50
5F
86
C9
83
2C
62
51
77
3C
99
05
01
62
EE
B7
50
0F
E3
07
D2
EB
36
D3
FB
86
88
36
7B
29
24
68
BB
7C
8A
0F
8E
A6
D7
77
4F
7D
3D
81
41
87
B7
3F
3A
52
9A
FC
B0
48
D2
0A
04
93
61
57
FA
6E
28
D2
78
93
A5
03
C6
81
E2
82
B6
FD
4C
0E
87
78
AD
67
F9
39
B7
43
B0
CC
A6
AA
69
70
9E
50
37
24
95
08
C8
77
79
18
F2
CE
C3
40
86
BF
18
67
4E
65
6A
41
FC
80
A0
B6
92
00
22
AC
B4
F9
DB
20
43
0D
8A
15
88
CB
2B
29
9C
83
BF
CB
2C
B0
15
9A
70
55
27
0A
2E
21
0A
29
6B
59
39
CD
45
25
08
4D
D0
50
B2
67
D8
91
D7
EA
D7
07
45
15
F9
44
BA
88
3E
81
2B
CE
D2
C9
33
FA
32
AF
E3
E0
36
C8
EA
38
70
30
29
52
A1
A5
22
1E
1F
1A
58
11
21
C9
5F
8B
9B
AD
6D
A7
5E
BD
73
79
4F
E4
79
64
E7
6D
13
AC
CE
7E
5C
B0
11
F4
58
80
1F
9C
E9
61
DA
14
1A
86
A9
9B
A8
81
A7
2E
CA
78
D7
07
5C
55
ED
FC
0B
03
85
93
5B
FB
0F
63
04
AC
7E
C1
80
AD
08
85
BB
D3
26
9E
08
C2
AC
E5
C7
08
77
38
ED
D1
9B
E1
7E
B8
CD
2A
39
0F
19
60
51
32
6D
95
B2
33
31
88
3C
88
D6
18
C7
52
8A
F5
1D
85
5F
CF
D3
2B
82
F6
7B
CE
88
67
2A
74
04
B8
7D
85
B7
64
89
04
D8
B9
74
DC
AE
6B
15
AD
37
3C
C7
1A
DF
06
CE
F2
F9
8A
19
71
16
88
7C
F9
C6
85
AB
2C
BD
92
28
A8
1D
CD
66
F3
57
FB
B7
59
E4
AE
3D
1B
8C
C7
54
B5
F3
7C
AE
1F
4E
50
1D
D8
04
9B
32
34
EF
08
76
46
60
1D
3B
FB
1E
39
3C
1D
B0
A0
FF
FF
BC
41
F3
34
CB
7F
E3
9E
32
82
5C
8B
B5
77
B2
08
46
8C
92
E1
D3
D5
50
42
C9
C7
F2
A4
5F
66
89
71
E9
CA
64
9B
E4
69
20
ED
33
AE
5B
D5
D8
7D
55
99
6A
93
29
52
84
66
11
94
A9
34
F0
64
D2
3D
9C
09
9C
FD
CC
4F
D7
84
DB
17
2D
94
38
18
C1
3E
CF
B3
26
2A
55
59
24
28
DB
80
A8
37
EA
34
91
B2
2C
C3
27
8B
89
E4
F1
6B
A6
6A
EC
6B
8E
CD
0B
ED
F4
FE
CB
EC
A5
F8
25
83
C8
17
2B
1D
C3
1A
31
DE
00
6A
04
75
F0
9A
D8
DE
E1
57
9F
5E
CD
E7
FC
AD
B4
C0
9D
3E
EF
7B
75
3F
1F
26
7B
13
D2
4C
AD
56
50
53
1A
E3
0B
65
73
15
1E
A3
BF
16
1E
4B
DC
D4
BA
C4
57
88
E2
04
F1
E6
00
50
1D
17
07
E5
EC
EA
76
89
07
4F
CB
0F
7B
F3
FF
D7
5B
8F
D9
DC
B0
E3
D9
B4
E2
5B
6A
8D
29
54
96
C9
C2
D7
5A
1C
AB
A5
B1
9B
79
C4
31
75
12
88
9A
74
F2
85
0C
90
99
93
CF
C4
6A
D1
BE
C1
E6
CF
E2
23
C7
DF
12
F1
65
3F
C4
67
DE
D5
F1
AD
18
95
2E
2C
61
F7
4B
FC
8F
5D
5F
66
98
53
CB
08
FA
CE
C8
A3
5C
47
0F
04
C4
BB
D2
4E
8F
49
89
48
37
F9
A0
58
96
5E
59
B1
38
D2
B6
1B
27
AE
07
1A
F0
AB
2C
6D
77
E2
A7
AE
06
67
5F
A0
1C
73
F1
72
EC
DD
88
79
B1
C0
02
60
50
D4
FB
A5
5A
3B
45
87
64
99
CC
83
81
1F
B4
6F
87
4F
31
EA
7B
0A
DF
A3
50
37
5A
6A
E7
D6
30
9E
A5
86
37
C9
7E
1A
12
B0
73
FA
26
A8
52
36
02
E9
03
B7
1E
87
C4
17
37
9D
50
38
F7
8D
D9
41
12
2C
23
19
E8
E2
76
00
5C
6D
E5
B5
7B
2D
15
AC
70
C2
6B
6D
8C
5C
49
DC
7A
0F
FB
AF
D6
89
B1
6F
24
43
45
1A
A6
B3
EB
C7
76
31
78
8F
BB
43
35
51
02
01
46
88
CA
4A
B3
4A
3D
CE
C5
A7
7B
4A
6C
7C
5E
F6
06
8C
F9
F4
49
4C
1E
D6
86
DC
A0
E5
9A
62
D0
F1
16
2C
A2
DD
A7
82
33
BB
88
1B
24
B1
73
40
C1
80
58
DC
FC
EC
0D
51
79
60
58
1E
12
6C
71
D0
7A
F4
A9
52
FC
A4
74
2B
A5
96
D3
1A
E9
B0
C8
55
0B
EF
5B
3E
DB
74
92
29
14
D1
F6
70
AC
C9
03
AC
53
BF
1F
DE
9B
10
E1
B4
6A
46
7D
22
FF
8E
99
10
6E
32
E6
57
F9
9A
79
48
AD
08
4B
D4
CF
3F
34
2E
00
BE
8D
3C
16
54
E9
87
F5
B4
4F
46
5F
E4
34
AB
2C
F8
71
AD
DD
5C
53
A6
3F
29
5F
D8
B3
EC
2E
D7
E7
E0
AA
3B
1F
74
E2
67
01
F9
D0
26
59
45
3C
C6
FD
FF
11
F9
04
FF
7F
34
09
58
C1
8E
E4
22
12
DC
1E
10
BD
3B
BF
2B
A2
77
3D
DA
93
94
6F
AA
0F
50
70
67
CB
A8
C2
58
3D
B9
84
CB
C1
F4
EE
6A
D4
CE
1A
75
FB
A6
47
E4
4A
DC
12
FB
4A
2B
49
E7
E9
27
08
2B
0C
8F
7B
F5
69
BA
41
A5
5F
F7
B4
A8
95
E9
EB
98
B3
37
FE
30
B8
CC
63
3B
E0
B5
29
01
FD
95
C3
40
32
96
57
71
2C
B0
30
02
67
0A
5D
5C
D1
8E
10
8D
99
CF
B9
AC
47
E5
8D
A1
12
F8
E2
D5
A5
74
D2
A3
32
0D
2F
0E
78
01
E6
24
CA
B1
B6
89
10
D4
8B
08
FD
DC
E8
31
B3
45
4B
A2
3B
0D
1F
2D
F6
08
1C
69
4A
93
A2
50
70
F6
AA
2E
71
CF
33
11
B5
CA
47
70
9C
EE
70
FD
EB
0D
D8
98
89
76
20
A2
37
E9
9A
CF
AA
01
AF
32
77
DF
DB
6C
89
C0
66
F6
2B
10
91
F0
78
37
91
58
E8
90
C5
B6
DE
06
86
0F
95
57
4B
FE
FC
A8
B1
E8
75
C8
80
57
9F
44
E5
F4
D0
F7
04
0B
A7
9D
47
62
DC
9A
9B
3A
DA
5C
98
48
24
A3
88
6F
5A
E2
92
A4
2E
5A
C1
1F
5D
AD
50
B8
DB
9C
BA
D2
E0
E4
7F
15
82
AB
A0
AC
23
5B
0A
61
EF
82
0E
52
7C
4B
6D
F1
A4
2B
E7
0B
40
41
45
D1
E7
9C
04
04
82
2D
DD
19
F3
A2
CD
73
3C
98
5B
5A
71
B6
7A
13
A8
34
31
BC
06
68
D1
87
88
98
87
BD
D1
0E
77
B5
5D
9B
CF
4F
B7
9D
A5
39
BE
A2
5A
C1
F7
FE
5C
AC
E0
C9
D8
C0
BA
61
BE
04
3A
7D
53
9E
B0
11
41
16
27
50
BC
94
B5
27
B8
FF
19
81
1D
8B
86
81
31
03
60
EC
0F
24
FB
DF
B8
4A
C6
D1
BC
E9
0A
2E
4B
67
58
4F
5E
74
69
54
47
88
56
9B
64
19
11
BE
CF
E6
AA
FB
92
1A
29
4E
D0
DC
85
A3
FC
ED
BE
FF
B0
EA
10
E8
2B
BD
46
85
EC
B1
3C
C3
4C
58
4F
FC
27
51
71
11
A6
F5
3D
F2
44
DD
54
72
B3
C7
81
44
4B
81
EF
C5
B4
D5
3E
27
4E
D4
7A
6C
98
7E
E7
F9
53
66
C5
99
96
99
31
6F
B2
5C
56
EA
25
C4
67
50
45
2D
02
AA
D5
CD
31
32
49
FE
FE
46
02
BE
B0
06
92
E2
57
E6
6A
45
F7
7F
31
96
0F
25
37
90
44
69
5D
57
05
B6
1A
67
2E
D5
0E
3F
26
CA
51
9C
20
DA
F3
33
6D
3D
A8
7D
13
3B
51
5D
D3
40
7F
7F
5C
9C
D9
17
64
9F
DF
A2
83
AA
87
7C
FC
84
99
AE
1C
6C
3A
64
64
CD
40
32
78
84
31
01
85
E5
83
94
F2
E8
B1
A7
F4
35
3A
68
A4
01
F7
44
6E
BC
2D
22
A8
DD
2E
AB
39
7C
F4
A2
3E
8C
1D
F7
FF
D0
77
52
F1
18
63
CF
92
B5
A6
98
C4
D0
64
F9
41
99
DF
4F
98
66
CE
1E
3C
7A
52
E0
20
09
78
FE
8E
FD
C9
D0
74
FD
0F
D4
8F
F0
C9
B3
E0
B0
EB
A2
71
F2
D2
F0
3D
89
5F
96
BF
80
30
30
E5
24
AB
8F
B2
7C
F6
E5
82
E0
AA
39
11
58
46
31
6F
6C
0E
4D
55
DD
C6
3F
3C
EC
00
33
E1
8C
29
27
98
89
16
F2
24
9A
EC
68
39
DF
F4
F4
44
87
6D
35
1F
43
CB
71
DF
2C
AB
60
8E
CB
21
D4
2B
A6
D9
90
1C
68
9D
83
7B
4A
48
CF
4F
AA
9C
37
3E
95
63
1D
A4
24
00
6B
46
3A
50
EC
27
D7
6D
A1
33
6A
48
D5
EA
36
B6
AB
1D
A3
82
E9
A7
D1
2F
DC
7A
F7
8B
7D
D5
D4
D9
EE
A7
AA
13
C4
BD
09
A9
C0
EB
5C
AC
67
CA
C5
01
B4
34
85
6B
D8
A7
DB
DA
F1
31
B8
E3
7E
66
F7
04
C5
98
B1
E2
56
4D
4F
E3
20
00
58
B8
4D
99
6E
55
E9
88
91
DA
23
BE
DA
B2
11
E2
29
EC
76
13
95
C9
32
D3
CB
93
B8
3B
01
48
E7
DA
CE
F8
AB
71
3F
5B
09
05
95
F4
EC
53
71
82
26
45
21
1C
B7
45
2B
95
30
46
D3
85
39
42
C3
4A
4B
BD
4D
1D
65
9F
0D
FE
96
60
23
AF
86
56
AC
BC
2C
1D
E9
C3
6D
D3
2E
46
58
41
7A
E2
36
5D
F3
A3
7B
06
67
A6
B6
7C
74
6F
CC
DE
38
74
A5
83
3E
DC
92
7C
EB
27
6C
12
36
54
95
D0
06
20
E8
32
17
30
0A
B1
54
7C
E9
95
CF
0B
82
D8
21
D5
92
B0
FB
FB
5A
1A
2F
C0
86
F3
F5
5B
76
39
7C
E1
E4
E5
73
38
F7
0D
9D
CF
F7
89
E4
7D
DA
74
99
34
FA
DF
A8
4A
EE
75
48
33
21
56
9F
3B
0A
5C
40
75
E5
5F
CB
9D
04
95
EF
30
F3
43
29
13
46
50
FE
2F
A3
5C
4D
82
04
29
8D
44
B7
B2
2E
63
84
F6
C6
05
1A
D7
53
88
5C
83
43
92
9A
65
08
52
9F
05
88
65
58
8D
00
92
E9
F8
C5
3C
71
0F
F2
14
61
7F
5C
22
0E
F4
4B
60
68
9A
B2
74
61
B5
CC
3C
E2
F1
19
9A
B5
A5
26
70
13
B4
28
F9
F7
5A
F9
65
D7
99
FA
40
A1
40
95
A1
7E
E2
BD
06
21
44
F6
A0
72
7C
6B
BC
AD
45
D2
69
DA
12
34
3C
F1
DA
7E
2E
14
B4
F8
7B
E0
4A
F8
94
A6
D8
E7
CE
27
8D
6D
F7
AB
50
77
09
A3
2C
79
2F
36
9B
3A
24
D8
DC
AD
11
C6
10
22
19
31
48
BA
43
F1
7D
D5
3B
B9
25
B5
69
49
D1
4B
2C
49
5D
62
4E
25
D1
0C
51
17
89
AF
D5
6B
D1
0D
BF
C9
0F
37
7E
3A
0A
D7
0A
AC
3C
02
3F
99
30
E2
12
DD
3E
40
F3
DA
86
77
90
EB
1D
04
20
52
BE
2F
85
C0
1F
77
1F
E0
FB
5C
79
0A
FD
CA
3E
B1
9B
12
84
7F
56
A7
13
B9
42
F6
BD
75
4F
6C
C0
A1
35
7C
93
E5
5E
14
50
0F
31
FC
74
BA
A9
D6
BA
00
A2
ED
14
28
C3
42
C3
9B
99
8A
F9
0E
04
CE
3C
4F
F8
44
3D
AD
7A
B3
84
1F
22
81
DE
26
FE
03
85
C0
AE
04
61
EF
BC
11
DF
48
76
16
AF
5C
BE
8F
06
58
D8
41
74
CA
D3
19
51
FD
68
AA
5A
E9
D2
EA
E1
8A
18
43
9D
C5
22
9F
3C
21
45
3E
89
31
91
0A
23
AB
B0
80
3B
0D
DA
7D
93
47
F1
13
56
98
F0
4D
4E
C3
EA
CC
08
B1
9C
A0
77
5E
B2
8E
31
54
5B
EC
D1
EC
26
F9
55
9F
65
4C
85
36
F1
DC
F8
4D
5A
11
84
F3
4C
EF
86
DB
FA
36
47
98
61
67
B3
DB
3C
F9
CA
CE
12
71
AC
B3
7D
64
BD
B7
78
1B
FB
72
52
EF
3B
7B
14
40
8E
ED
D0
EB
51
6B
F6
E2
95
95
89
E3
C9
2E
66
D1
4C
C5
64
93
5B
32
42
49
A0
C1
AE
4F
67
45
3A
FA
C1
76
1F
4A
5D
56
D0
6E
1A
D9
BF
60
29
4A
74
E9
7A
C0
FE
44
57
DB
A6
01
6C
15
2B
8D
CD
A8
DF
13
1D
4C
1D
B7
7D
E8
A2
5E
57
AE
BD
4D
75
BB
77
01
89
71
A1
06
28
E3
D6
5D
A6
95
37
75
2D
83
FB
F4
49
2B
C8
FE
0A
28
C5
EE
79
FE
96
92
03
D1
A1
EC
BB
F9
7C
EE
7C
A5
6D
18
6C
90
73
C3
68
D8
81
D6
F0
10
25
7F
46
DC
5B
DC
07
AC
B0
73
FD
EB
40
9E
42
2D
14
E3
65
87
ED
25
22
DC
DE
F1
C9
8E
06
92
8A
E8
50
E6
35
A0
59
68
2D
B0
17
3E
3F
09
41
E9
BD
BD
18
82
91
B6
FC
18
EB
39
FF
07
01
64
09
0B
35
BE
FE
75
04
8A
A0
21
E8
22
72
68
24
F8
B5
BA
A1
E1
75
1E
39
5F
3D
38
32
55
25
21
87
83
3E
8E
BC
74
BB
AC
AF
41
7F
43
17
A0
47
D7
4F
48
A0
30
B1
A2
C0
33
3D
25
9F
7B
DC
DE
C0
A3
D2
CD
D7
4B
F3
B8
C0
AB
29
5E
C0
F5
0D
20
CF
A6
AD
AB
02
DB
0F
34
AD
6B
EE
CF
03
2F
EE
93
2C
72
3B
3E
BD
22
CA
B2
5C
43
16
71
5F
36
C6
8D
7A
D1
FA
22
75
1C
BE
6D
6E
51
45
F0
E9
A2
B7
2C
DD
91
46
A0
2C
FC
9C
3C
80
D8
7B
5C
BB
0F
D0
47
98
26
3B
B4
85
BF
08
E1
E1
2C
FE
72
70
84
BD
EE
CF
FF
0A
CD
14
3A
95
4D
BD
93
73
31
3D
4F
E8
8E
73
60
8C
29
32
B6
EF
71
17
8A
77
13
D6
C7
3D
5B
FE
40
85
43
0E
1A
CA
86
FC
D1
FC
41
DE
FD
F4
48
9F
7C
E0
96
24
43
44
23
2A
F6
4E
8B
B0
E0
D9
96
99
2D
8D
DE
CE
26
96
E9
61
14
00
8A
67
1E
65
80
83
D9
68
CC
10
D8
D2
26
A9
F3
29
5C
EB
CB
DE
45
BA
1B
B6
9E
8A
5B
48
88
53
99
38
B7
EC
61
CB
11
A0
B7
BF
7E
9D
B6
0C
3A
3E
2B
50
42
EF
EB
6A
DF
1A
03
ED
6C
72
DD
11
82
D2
06
72
EC
CF
38
4B
1D
A2
EA
D6
FB
1D
4B
F3
BF
7C
CF
A0
C5
C0
17
BC
F1
C4
36
FA
5A
F8
6E
C1
01
14
23
BE
13
B3
6D
22
D0
C3
4A
BA
60
C2
24
94
D0
41
CE
43
E4
B7
8A
63
1C
7D
3E
81
08
3B
F3
BB
03
E4
44
4A
ED
C4
36
28
27
6A
F0
04
B6
FD
2B
48
8C
EB
E8
B5
85
DD
08
E6
ED
C7
5F
3C
48
AD
76
2B
19
07
B7
65
F0
C0
E5
A1
66
16
DE
48
28
CB
AD
50
EE
55
1B
33
29
6F
F6
14
7F
BB
2E
11
CD
3F
43
39
EF
F3
7F
56
3C
9C
91
DE
3D
3C
ED
14
E1
C6
19
E9
FE
5A
52
8A
FC
36
7A
6B
C3
15
06
05
14
5D
F3
9E
9E
24
A5
F0
EE
5C
3F
85
2A
E8
6A
F7
94
07
9A
47
6A
CB
FD
4D
9C
81
44
58
B6
1D
9C
42
39
B5
DD
86
97
4C
BA
1A
2C
3F
03
B2
4F
C4
A8
E7
88
2C
90
59
D4
B6
3C
96
C1
15
EC
B2
81
25
31
9C
A4
D6
02
F6
7E
D9
56
E5
A4
60
49
06
C4
52
29
E9
2D
39
F1
29
05
33
0E
D4
FB
BF
90
EA
2F
44
00
C6
7E
64
52
12
6F
E1
92
E0
87
1A
DA
C3
1F
9C
3F
E0
FA
09
BD
9F
64
82
5F
5E
4C
20
36
0C
C2
2A
30
F9
C8
AC
2F
00
43
B0
89
B5
1B
04
83
80
A7
0B
C6
5E
8F
59
0A
1E
38
28
2A
71
CA
84
49
DF
36
D2
E7
AF
52
0C
14
7B
69
FA
70
5C
FA
84
04
3C
55
49
99
D3
A6
79
0F
2B
4B
7F
E7
25
B6
31
F5
D5
9D
19
58
E8
67
43
FF
B7
A9
47
1B
4D
84
68
CC
B7
64
2F
18
27
AC
A9
D6
15
BF
7A
A7
DB
1F
66
E0
9F
61
76
4D
3D
0B
69
96
DE
6A
C8
E8
D7
41
10
12
C4
EE
FB
D7
4B
33
84
3F
1E
C6
BA
11
EF
1F
F9
03
F3
E7
78
15
38
A2
1C
DA
11
F0
94
D4
11
F3
47
91
8E
85
81
C0
EF
15
54
EC
F1
D8
72
66
2A
AE
6A
7F
D2
8C
AB
B2
F1
16
CF
4A
AE
EC
2D
F0
D2
AB
56
39
DB
ED
0F
F9
14
08
2A
5C
AC
69
61
F4
71
3A
20
11
0E
E4
51
CA
12
74
BE
D2
59
64
E4
6C
54
F4
E6
57
6D
1D
1B
FC
59
53
61
DF
8B
E5
91
81
99
2B
B7
C9
3A
B0
4A
D4
F9
0F
84
94
E1
F1
9D
75
2B
78
20
8C
3A
D5
3C
43
54
E5
0E
58
A8
49
59
4C
96
53
58
69
E0
B4
3C
E2
2B
E8
A2
99
BB
81
11
F1
B5
42
B9
D1
22
29
3E
56
67
BF
91
8E
F3
87
2B
17
F3
48
D8
87
17
FE
38
3F
A1
5B
9B
37
33
94
DB
F2
5C
72
6F
A5
23
FE
63
2F
B8
60
13
BB
AA
BB
9E
B8
D6
21
6D
B2
CE
F3
3D
EC
CC
83
9B
EE
3C
EF
86
44
43
74
07
B0
FA
D8
6B
BF
6A
3D
7B
A5
23
5F
EA
C1
73
4B
C2
DC
50
01
18
6D
63
EE
E7
84
7D
7E
C1
94
4F
B1
A2
10
CF
6F
14
B4
C0
74
17
65
60
CB
20
21
03
F1
AF
0D
2E
ED
B6
25
4B
19
10
06
77
54
07
41
24
6B
98
FB
79
A4
06
F7
20
36
06
26
04
63
C3
E6
46
11
F1
58
05
17
77
1C
C3
1D
56
13
47
10
08
2C
F8
CF
A5
C0
BD
29
09
BE
83
50
8A
B1
5D
6B
DB
C6
56
8B
7D
11
36
1A
84
44
D4
FB
E7
EB
1C
B6
B0
2D
11
03
4E
D0
47
A2
DA
D9
17
C0
99
3F
7B
4B
ED
69
58
9C
B7
E7
17
47
E6
CA
72
C7
B5
D2
03
4B
1A
3F
CC
A3
31
97
20
EF
18
DE
EC
FF
39
EC
BC
21
BD
01
88
23
13
60
77
B6
91
E2
7E
03
7B
F6
71
FC
E3
87
36
0A
82
0E
05
3A
A2
80
73
02
75
00
B6
C9
F2
73
EC
0B
4D
B0
33
70
10
95
64
48
F6
42
17
94
49
EF
35
E1
77
8F
D7
