70
CD
1E
68
D1
C0
D0
3F
D1
7D
60
9D
29
AC
8B
49
AA
5F
5C
A8
F4
93
FE
57
60
B5
3A
C0
A9
CA
1A
27
7D
33
0F
AB
02
F5
2B
6F
BA
9F
E7
BE
E5
2F
90
14
50
F1
AF
AC
CB
7A
57
6D
8A
75
FE
7A
50
7B
04
57
A2
12
8B
22
68
90
98
56
B1
CE
12
C9
BE
F2
21
A9
7B
24
E1
07
C5
AE
DE
C4
62
7C
14
FE
05
B8
22
5B
1F
DB
15
D4
0A
65
13
43
2A
CC
C0
AB
26
AF
8D
7E
8C
8A
73
F7
0C
F5
A7
C9
26
DA
CA
9C
AD
BB
02
A5
A1
62
72
0E
C2
74
BA
09
9F
AB
33
8F
43
A9
DC
7A
67
DA
F6
46
F4
E2
AF
FD
40
14
96
5E
C8
90
66
5A
70
5F
A7
75
F1
D0
D2
70
06
3C
4C
C6
DA
7C
93
49
02
F8
BF
80
55
EB
68
7F
CF
A5
84
79
C7
23
32
29
C4
0B
4E
4D
30
49
3C
3F
39
11
35
8A
DD
59
34
B6
1B
8B
96
3F
72
C3
66
23
9A
7D
D0
42
F1
C1
17
ED
15
B6
DB
C1
5D
7E
D6
4E
64
2D
B1
57
46
D8
34
93
71
87
28
0D
DD
7E
63
52
0C
3C
FB
57
95
39
60
7A
CA
77
79
A3
04
86
5F
E7
15
5C
61
D0
CE
47
8E
11
7E
7B
41
F6
34
45
39
DB
26
4D
08
BF
24
26
BD
8E
1E
38
C9
6D
3D
1C
42
AA
DC
14
93
4C
66
9D
4E
0E
50
6E
2F
21
7E
0D
EB
C2
E8
0E
B0
A0
05
16
B6
20
68
B6
87
82
50
85
FE
F6
A1
D8
7D
AD
56
17
9E
CC
33
C2
B4
3C
9D
98
2C
7E
0C
58
DA
52
B9
34
96
EC
DD
C2
C6
4A
F0
62
48
2B
34
E9
32
CC
93
B0
DD
FD
85
B7
D5
2B
FC
73
81
B7
36
D4
C4
9B
9E
4B
2F
19
3A
9A
25
0D
92
0F
5E
89
C5
D6
AD
8C
61
FE
FB
B5
9B
AA
5C
10
F9
06
EF
9C
8C
3F
06
2D
B3
F2
87
6C
FD
39
EF
1C
49
4A
86
3F
3C
FE
C2
58
A8
9B
FC
3C
E9
F1
A0
92
B4
71
FC
9D
94
76
C5
3E
25
54
C8
2D
75
AE
DA
4A
E2
61
19
8B
DF
4B
0C
FB
3A
51
79
48
E3
E5
98
9D
60
6C
FE
91
AA
E3
B1
6B
10
00
21
20
44
DF
F5
7F
AB
1B
62
3B
D3
93
3A
19
BE
71
08
CF
16
B1
34
13
66
CF
BF
67
C3
B1
BB
97
99
2A
7D
AC
5D
B2
12
83
AF
FF
72
7F
AE
76
F1
5B
2D
EF
37
57
1C
D8
EC
90
21
CE
C3
7E
09
E4
9A
12
13
A7
4E
D0
D7
67
A9
F1
21
FB
16
48
64
B0
30
4B
8C
BA
E3
6B
56
18
60
12
89
7F
DC
33
D5
A1
64
2B
2C
85
E7
59
7F
FA
70
18
CD
8C
96
E2
58
06
B9
2D
51
1C
25
C9
D3
64
B0
6A
76
40
A5
5F
5B
E7
F0
BC
87
9C
E4
21
04
9F
B8
45
D4
27
83
6B
13
E3
98
6F
78
99
8F
C5
AB
09
C3
ED
CF
8A
36
0B
39
F9
BA
4B
93
A5
CE
BE
F2
C0
72
CB
D8
93
0E
AE
C6
AF
66
28
58
D5
8C
10
63
7E
A6
2D
72
52
B9
A2
49
6F
C6
74
A7
B5
74
4C
0F
20
EE
3B
03
92
62
2D
09
D9
2C
E7
B2
9F
87
62
2F
1A
FE
0C
DE
4A
94
34
CB
DA
E6
98
13
18
16
D3
1F
C7
AE
9A
C1
BE
F3
BD
3B
13
E7
10
0A
A0
12
FB
13
54
89
BB
16
21
B9
88
7E
AB
09
78
4C
31
D6
16
22
56
1B
B9
90
15
26
5E
09
5B
B1
D3
E7
EA
B0
D6
25
88
A9
52
CD
D3
98
65
52
44
07
7C
1F
20
A7
74
F7
37
C1
42
35
EC
76
69
E0
62
96
33
38
C7
41
3C
6A
FA
26
00
D8
EB
BC
12
18
8E
B0
F6
8D
33
39
2E
2C
B0
E0
70
AB
5F
2B
5D
75
8A
58
03
25
01
D5
3E
7C
CC
49
02
23
C6
9E
92
57
79
D1
49
E8
EB
28
9D
7B
6B
91
03
A6
D9
EF
91
A6
30
E0
5F
0C
41
BD
15
C1
BC
1C
10
A1
5B
B7
AA
7B
64
0C
0A
0E
CD
73
62
89
46
7D
0B
68
7A
C2
94
3B
C9
D6
88
80
AF
E1
B8
8B
CE
A3
12
AD
8D
76
27
FE
8A
4A
CD
F2
59
E1
5D
5C
81
F9
B0
4A
88
13
10
E8
F8
4C
5A
90
BB
FB
9C
D3
BA
AA
A5
39
FA
3B
ED
25
50
A8
3B
05
B9
6E
8F
BD
6D
E7
43
D3
40
01
12
C9
0D
6B
50
89
36
2D
EE
DE
F3
08
CC
19
FD
09
22
39
DE
EF
35
10
73
08
E2
34
6E
12
90
CD
98
D7
B6
04
D0
51
33
42
FF
E8
A2
6A
36
F8
48
F2
A4
3B
96
93
80
48
3C
B2
FE
92
21
AD
06
1F
A5
CE
4B
37
80
42
B5
D7
86
82
79
5A
32
96
0F
A7
B8
88
6D
60
92
8A
36
4E
38
AE
1E
85
72
FC
8E
57
02
B0
37
FF
AD
F7
DF
35
AE
F9
EC
84
FB
AB
11
67
1D
70
81
6B
5C
E8
DB
0D
3F
8C
EF
E0
9D
87
72
41
4E
BE
C5
49
DD
15
6C
2E
BF
25
0A
CA
17
1A
72
3A
A0
19
ED
DC
CC
16
05
2C
2F
77
F4
4A
3D
FC
2C
0F
99
66
87
4F
8A
DE
2F
49
B5
DC
09
D3
FD
40
C4
8E
63
49
D6
EA
FB
2E
C5
F6
3E
3C
1D
D8
50
AD
D0
D1
AD
83
37
BB
21
9E
5D
63
9C
03
E5
2C
F0
1C
0D
F2
13
48
58
BE
E4
4E
84
AB
AA
2B
44
B4
9D
E8
82
0F
7D
02
0C
4C
08
BA
C9
DC
C0
4E
E8
53
C0
78
DD
D2
30
B4
CE
2D
29
8A
78
1A
42
85
D7
69
F1
2E
8B
16
8B
06
6C
64
6F
72
E3
52
7B
6D
37
78
9D
43
D7
E8
62
D4
DA
F4
47
00
0A
FC
BE
B7
92
9E
79
FA
8E
93
90
D6
CA
2F
C1
4C
60
D4
B5
2A
CC
F4
7D
9B
B7
3B
27
9C
EC
E1
D8
11
FA
9E
BA
56
F7
88
B6
DB
B4
26
76
48
D6
CD
13
F4
03
A5
08
BD
90
59
9B
6A
A3
07
3C
05
51
D3
9C
8F
F8
97
06
E4
8D
82
61
80
BA
F5
74
15
09
9E
52
2D
DB
6C
53
BD
66
19
10
A5
75
95
E1
2E
03
AA
C9
53
A2
A9
76
CB
38
72
63
CA
93
6C
F1
E2
E0
DE
2C
B3
2B
AD
D2
FB
CE
A2
9F
30
D3
AD
E6
C6
17
B0
F4
96
98
D7
AE
F6
2C
54
B3
31
37
8F
DB
10
88
9C
1F
2F
C9
4A
E4
78
37
B0
65
01
66
8E
17
C4
9C
55
EA
BD
75
18
F7
54
85
69
A2
0C
AB
67
55
3C
C4
AB
25
0A
41
9D
70
D7
DF
7E
B9
60
34
BA
CA
1A
35
80
5A
F6
A4
36
AA
22
20
52
7D
11
93
9F
E4
D4
7D
40
6A
43
00
8C
66
BC
40
C7
B9
28
D0
8F
5F
5F
B2
C8
37
AA
C2
1C
08
B0
33
6C
63
8A
2B
75
76
42
8C
9A
BE
B2
B3
5C
B9
33
A5
6C
B4
76
0C
1A
4D
54
83
A5
33
AA
3E
75
76
B9
1C
C5
59
CD
73
2A
38
45
5C
AD
03
F2
6B
D5
C5
F4
62
B9
87
9C
AF
7D
0F
9E
C6
EB
47
EE
FB
93
B4
1B
A5
09
03
6A
36
02
61
B1
77
B9
6C
23
0A
A6
0A
5B
55
47
ED
92
FB
7C
DA
C2
04
64
EC
0B
57
DB
7C
E3
21
42
5F
D7
F7
6C
99
4B
52
FD
72
17
5D
66
BB
40
5F
20
3E
5B
F5
B2
A7
4F
9E
7C
11
94
6F
19
BB
DD
2D
A5
B1
61
E4
24
C3
19
41
D0
CC
75
A2
D2
96
A2
89
4E
E1
DE
70
9A
5D
FB
FC
6E
EF
4F
90
3E
3E
39
93
7C
EA
A9
AA
24
E7
9C
99
02
07
9C
FE
4C
F8
88
6D
64
FA
4D
C9
8F
5B
78
0B
27
61
47
65
C0
1C
01
F4
D7
E2
CA
34
F8
38
01
A9
D5
70
FA
DA
B0
AB
6E
AD
14
6C
91
5C
45
2C
44
63
DD
02
FB
17
B6
C7
79
CD
6C
0D
B8
B5
4B
EC
C6
F1
D8
AB
96
DD
B1
F6
12
37
09
F0
12
28
63
02
B9
4B
72
39
6F
97
49
F5
D2
13
0B
18
B0
61
7D
BD
AC
55
BF
36
FB
50
84
15
E7
97
5A
36
1B
33
4D
6A
4A
EF
0A
4B
31
2E
36
B3
8A
1B
41
18
68
49
A3
AE
63
BB
20
6B
ED
72
EC
F9
AE
58
81
29
3B
1B
86
C8
23
4B
D8
51
75
85
2F
2C
AD
27
23
C7
3C
90
D1
C9
A9
CC
32
37
FA
05
93
BF
06
03
76
F2
9D
C9
8C
3B
31
1F
30
7E
73
20
4A
53
AE
1C
5F
1B
DC
F6
CA
B5
A7
75
6C
F1
7F
54
07
3D
E8
DD
E8
74
04
BC
4B
35
45
45
95
8E
B9
CA
16
B4
AB
EC
68
2F
C6
B4
6E
E1
E6
BC
53
55
1F
4B
34
13
4E
9F
21
B4
72
02
27
72
4C
75
BC
1F
D1
D5
6F
9B
49
97
09
92
A7
79
20
AD
38
B5
8A
B1
0A
B2
06
FF
A7
5D
78
00
67
E6
C4
AE
AE
68
6B
D6
81
6B
C2
9E
DA
DB
6B
0E
B3
37
5F
FD
75
29
36
3F
77
F2
87
0F
EC
E0
AA
F6
F1
4B
0E
13
EB
16
BF
14
C7
E3
88
8F
30
D7
70
D3
BA
71
D1
5B
25
5C
E9
A6
0F
2B
C1
18
77
57
2F
99
57
6F
73
4E
FB
23
E9
94
FA
7E
A2
AC
D6
07
9D
2A
76
FB
6F
E1
4D
EB
37
AB
1A
A6
25
18
49
23
9E
F3
7A
F2
46
8A
9B
88
B8
13
D8
3A
CE
4B
C1
FC
18
55
2C
E3
D5
AA
A0
7C
E5
78
7F
DA
A8
8C
3B
6F
77
3B
B1
EE
3C
ED
7D
0C
AB
BD
AD
A6
A5
09
22
96
49
B0
EE
5C
54
78
28
A4
26
1E
B9
B0
58
31
CC
49
C8
91
B6
86
6A
89
84
75
6E
5E
04
2D
84
DA
95
3D
77
3A
21
0A
4C
E9
C0
C5
29
D9
BA
82
F2
65
90
1D
FF
0D
32
D9
D0
CF
B0
E3
A6
77
88
60
CF
47
C9
04
AE
79
7C
33
9D
01
8E
8A
F3
91
6C
F2
F0
DA
9C
88
95
32
FE
CC
91
1E
B4
08
07
DF
98
29
82
04
54
13
1E
F7
D0
7B
92
5A
DA
4E
88
8C
1B
0C
1F
61
96
6E
91
41
66
B3
C4
13
63
B2
77
E0
02
46
6E
D0
20
E6
F8
FC
C6
EC
D4
67
44
D0
EB
BD
59
A2
6B
7D
10
A8
6D
55
03
E0
F3
0E
82
6A
32
1F
E2
9E
96
1E
7F
B4
A6
AD
08
50
2E
51
43
DD
92
15
75
38
1E
D5
D2
0D
99
CE
57
3B
E4
78
BB
0A
50
FA
8A
46
EA
80
CE
AD
71
A0
A3
23
B1
3A
7C
60
BB
13
DE
B8
FC
A5
47
79
35
96
81
9F
49
E3
F8
33
A9
BD
31
0B
5B
54
02
61
DF
EE
42
F8
82
9E
54
2E
A3
0B
72
9B
FA
54
3D
2C
69
C6
CB
A3
EF
CA
F7
DF
F0
21
0D
F6
96
79
79
DE
63
CA
16
71
E7
56
7A
84
82
E3
4C
52
88
6B
0F
69
7A
DC
D0
AF
5A
17
F5
B1
22
A7
91
DA
B9
DD
0C
2D
32
80
7C
03
44
F5
37
EA
E4
DF
D9
D0
37
7A
AC
DA
E1
84
27
8E
A9
38
66
1F
AB
30
9E
E8
26
AA
67
81
5D
F1
D0
45
CF
73
1F
FA
8F
5F
F7
BC
96
40
80
56
D5
9F
22
C1
D6
09
23
38
FB
32
D2
AB
C3
E3
5B
53
4C
1C
41
C8
F6
CB
1C
DB
10
8D
AA
BD
39
D4
9C
E8
F9
8D
2A
56
99
70
12
6F
A7
5E
78
58
D5
C0
BF
18
CE
4F
DB
2D
CB
94
61
D5
C9
5F
1E
46
F1
5F
64
A9
8E
CB
12
F2
BD
D7
DF
81
94
5B
1C
93
AE
FF
48
14
DF
EB
86
5D
37
E6
B9
1B
EB
1C
4B
84
B4
C6
BB
C8
7B
EE
B2
AE
5C
BF
DE
37
86
B0
51
B5
76
A6
DB
61
27
58
31
AD
86
DA
94
43
C1
01
88
92
3A
7E
A1
28
6C
CD
21
D3
85
2E
2E
D8
25
F8
17
E8
9E
C4
4F
25
81
FB
1B
C5
64
EB
AD
48
64
6C
32
DD
62
57
6E
93
0C
12
E2
97
71
C8
05
2B
52
50
E5
B0
12
46
BE
22
4B
4F
75
40
4E
F1
34
A8
35
1A
BF
4C
F7
AE
B3
D3
53
86
3B
12
BC
91
A8
A7
C5
9A
0A
92
A5
C7
03
E3
93
BA
0D
EB
2F
D0
8C
3C
0F
0D
8E
5A
72
E4
70
70
80
46
07
C5
AF
E6
EA
9D
EE
5A
57
25
7D
0D
0A
EE
69
E4
E4
68
11
DB
D4
EE
1E
80
D7
D6
58
10
DD
B3
1E
19
CF
77
0D
4A
30
B7
2A
D2
A8
3A
AA
E3
15
3C
73
A4
B8
AF
95
3C
C1
3F
C8
1B
12
95
F7
FE
70
2C
E4
3E
64
47
C0
41
81
43
A3
89
CA
86
36
BD
20
36
89
0B
C8
63
C4
6A
BA
2B
E3
B7
58
EC
E0
22
85
B2
50
3A
0A
D0
51
41
1A
AC
5D
7D
C7
89
D4
AC
AC
57
DC
3D
1E
54
49
56
5A
5A
3B
7D
BE
25
A8
9A
AB
CD
8E
30
A8
AE
9D
34
2E
2E
0B
98
C4
33
D6
72
4E
6A
10
E9
01
8A
22
83
8E
91
AD
CE
DE
3F
AC
69
13
4E
D4
3D
82
C1
AA
32
69
1A
84
7F
26
5F
28
76
49
D5
50
6C
59
EE
61
B1
89
60
29
F7
A7
0E
04
F7
8C
8A
7F
CC
D4
16
1E
CA
E1
71
80
1B
2B
21
56
29
1F
40
26
2B
C8
C9
CF
45
1D
22
B8
B3
80
CD
2D
14
34
77
EC
28
4B
ED
B9
22
2B
E8
51
F3
22
C2
2C
40
D7
C3
31
FE
A7
39
14
33
2C
50
43
C7
BB
B7
B1
36
7B
61
DC
06
F0
C1
13
3B
73
FB
93
7B
7B
47
F9
4C
BE
D3
F4
67
89
68
26
20
2E
5E
AE
CC
97
31
20
47
B8
60
79
49
E8
C1
3B
B0
11
28
D9
62
B8
C6
84
3C
47
B4
EF
17
7A
9A
FD
2B
AD
FF
B6
57
AA
80
54
11
4C
7C
4E
F9
8F
21
FE
7F
8D
BB
30
F1
08
2E
8C
D7
C8
FC
10
C0
F2
B6
1B
0F
44
6E
42
E8
EE
E0
D5
8A
3C
45
0F
36
0A
F6
8E
A6
92
5F
30
9F
3F
91
AB
97
25
2E
FE
7F
09
EA
AB
E0
0F
6A
35
6C
DC
19
CC
DD
44
65
28
53
D1
B5
AB
0E
F2
1E
C7
DD
F6
D2
66
5C
29
88
08
7C
E9
80
BB
AB
2B
42
5A
B9
B4
69
D3
F3
A2
27
B9
B4
A3
D2
FF
CD
95
8E
D5
22
17
F5
34
2D
CB
0C
87
0C
E6
3A
7A
47
8B
D3
07
D7
22
E3
7A
C3
31
9D
85
7D
DA
1A
33
CB
99
BC
BE
8A
EF
37
8C
8D
DC
4E
3F
CD
16
B2
95
E7
70
51
E1
E2
D5
96
AA
1D
93
8E
BE
28
65
5D
60
C9
2D
51
72
B6
CF
5E
FF
8E
9E
D6
A6
7A
C2
AD
23
3B
94
7B
EF
6A
32
A9
DE
21
A6
0E
04
1D
3E
CC
0E
4D
44
33
6B
10
13
85
37
DB
FE
D1
51
FA
F9
6B
A1
C9
76
43
72
A4
16
66
27
A5
DF
2E
D2
73
A9
AB
1F
17
C8
EE
02
C3
FE
C7
6F
F4
82
79
54
17
1A
53
31
4E
5A
9B
81
9B
C9
59
64
9B
4F
D7
1D
A9
97
15
98
CD
D6
DE
B9
73
08
D7
02
22
81
4D
AA
40
85
5D
F6
A6
E4
AC
5F
F4
E2
8C
44
08
46
2D
17
4D
4E
DD
0E
1A
14
B1
F2
1F
E5
F0
1F
B9
63
B7
66
A1
D6
76
B3
27
9C
D4
06
93
0C
A8
89
71
F6
C5
38
C1
C4
B8
92
3F
6E
EE
F7
C0
66
B2
D5
6B
66
C8
C7
9E
A9
B4
C4
13
6C
08
21
35
77
29
41
C1
7D
F8
1B
E3
EA
0A
3C
14
80
79
8F
3F
93
90
81
D6
AA
5A
0F
18
00
BC
A0
A9
E2
0B
2F
4D
27
5A
A5
6A
EC
1A
B5
7B
FB
0F
D2
DD
06
EC
09
35
A2
4C
A6
2F
B3
81
6B
55
21
7B
BA
43
B1
65
81
83
44
89
1A
23
9C
28
AC
52
71
7C
AE
61
6F
80
DD
16
DA
8B
9A
FC
C6
95
7C
32
00
17
39
29
48
24
51
CB
EE
DF
BA
D4
B9
13
4F
F4
C0
9C
E1
A6
DA
F5
FF
25
10
65
0C
04
BD
43
57
AE
DF
52
E4
F1
68
13
D4
E7
F6
6F
99
F8
5D
A0
94
4C
CE
4A
C6
EC
A9
9A
57
D4
9B
02
72
80
F3
DE
A9
E7
02
82
6A
38
DB
E4
AB
4C
04
EC
29
64
C1
90
86
0E
35
A8
3B
9D
A5
F3
B2
EA
CF
6B
FB
60
2B
83
9A
54
D0
BC
4A
B5
4B
56
84
03
D9
D6
AA
CB
B8
57
94
79
F0
C5
9A
35
75
16
AA
1D
C6
45
AA
67
17
EF
D5
E6
B7
C1
0D
AA
01
11
7A
7E
0E
43
E5
2D
32
8A
5E
76
16
27
C9
38
E9
00
47
4F
19
68
04
88
0A
DA
6D
D6
7F
29
09
4A
17
3E
52
E7
88
51
5E
A9
CD
E1
58
FA
D7
C6
AD
F4
46
83
30
FB
89
CC
1D
26
E0
0A
FD
FA
60
FF
0C
92
6D
F0
42
B6
DA
55
5D
EC
47
05
0A
90
CD
00
31
2D
46
C4
1E
2C
D1
F0
E9
5D
B8
40
5E
C4
59
5A
A5
1F
F6
1A
21
BC
7E
95
5C
A4
E8
AA
A7
D7
7A
F3
4C
AB
8E
31
63
76
20
DA
07
AA
8A
BB
75
E4
92
D6
C8
8A
A9
0A
FB
B7
D1
F3
0A
BF
D5
DE
CE
2B
39
41
2F
09
E3
A0
F7
34
91
9A
1F
F5
91
B4
73
D0
15
4C
DB
38
58
3E
FA
6C
75
AF
1E
1F
FF
4F
BF
3F
B3
4A
EE
F0
2B
F9
2D
6C
9E
83
97
D4
08
0D
50
29
31
8C
CE
C3
E5
DA
48
E4
76
9D
D0
1A
3C
68
50
12
12
3C
BA
CE
33
09
6E
5A
36
F7
E8
9B
18
E2
92
8E
CE
5C
5E
BB
44
3D
A7
DF
4A
D0
62
FA
8C
96
13
C8
A1
E5
C6
31
47
8D
BD
05
18
2D
1F
81
5A
76
43
D3
4A
AC
DB
C0
3F
D6
5B
A3
51
1A
04
6F
F9
1E
23
22
89
BE
FD
0D
60
02
13
9E
63
42
87
1C
FC
83
61
D1
10
B3
22
9A
F0
00
24
9A
04
08
F6
48
D6
14
C8
FF
42
86
49
23
E6
F9
CA
81
64
29
03
57
89
51
52
AC
9A
7C
73
33
B7
FF
03
12
86
E5
20
06
70
C1
2D
D0
1C
48
DD
26
30
37
C5
9F
A6
65
11
E2
C5
9B
AD
8F
08
E0
14
03
C7
7C
74
B5
BC
0D
1B
C6
4D
91
7D
8F
B5
D3
E2
C0
E5
28
36
C4
88
E1
71
90
3B
47
61
95
33
D5
5C
35
78
3F
22
85
4A
7D
C8
E0
0A
A3
90
22
67
8D
9E
79
A2
E6
C9
78
4A
3E
57
2C
23
BF
C9
89
B6
6C
D4
6D
82
11
E4
9F
6C
18
E6
31
52
59
B5
74
93
77
01
C6
12
10
31
77
0D
09
E4
94
40
92
35
C7
DA
6E
17
78
F3
37
51
8E
5F
AB
A0
92
9C
62
47
A9
9E
39
11
02
98
B6
DB
47
F6
C4
56
11
C6
E6
15
54
E6
0E
9E
86
2D
F5
F2
81
B3
4F
72
2C
0F
B8
D5
33
6B
92
A8
8B
F6
99
55
20
8A
BD
AD
5A
11
6F
03
D8
6B
27
4C
E8
B7
DA
5C
C6
E9
73
1E
F3
B7
48
9B
EE
B8
21
D3
FA
44
42
28
96
F9
CC
20
E6
77
81
96
6B
C1
57
63
FC
C9
95
5F
1A
D9
0E
C6
B4
57
3C
B8
D9
59
19
E6
F5
0F
67
CD
74
D8
82
4C
A4
65
77
A6
8F
85
A9
28
CF
B3
10
43
50
7C
DA
C4
21
77
89
1C
86
B6
D8
BE
AE
4B
EB
20
C8
48
C9
5C
EE
B0
A7
56
B6
E9
99
40
8A
C7
08
2A
FD
B7
6A
D3
2F
DE
D9
E2
7E
28
2B
E2
86
DF
66
9A
87
C6
15
FA
B4
DF
73
7F
0D
F8
DB
10
C5
69
97
AE
63
B7
55
11
86
78
07
0F
EC
58
6E
A5
37
E0
CE
B8
59
F2
79
3B
ED
BE
E7
1F
C4
75
CA
0B
C6
9B
F4
43
FA
CA
D5
4B
45
9E
26
79
20
B6
F8
D2
CF
B3
91
80
55
C9
86
0D
59
41
96
70
79
2D
80
FB
4F
6B
9B
C4
3C
03
97
F2
DC
95
07
2F
03
AC
57
8C
DF
F3
70
F6
77
9B
E0
02
66
89
AD
5F
89
C1
C3
48
02
F8
78
1C
A0
B0
C3
C2
2F
5E
5E
C4
D3
FE
A4
C7
E8
69
65
C7
40
D6
6F
14
E6
4F
0F
A0
0F
C8
66
0E
74
32
6B
FF
16
AA
97
DA
4D
85
3A
56
7F
78
E9
80
4D
98
B0
17
EC
FE
8E
AE
E5
03
2B
72
FB
EF
B8
21
53
CB
3D
7E
34
97
EC
F6
82
B7
55
E7
26
5A
8A
23
BB
EF
20
7D
5A
B6
8C
A0
35
35
79
C1
76
02
99
FB
40
CB
5D
DD
CE
AE
F1
A9
5B
F3
A1
4C
C6
1D
2F
7B
A7
4B
D8
33
EC
28
11
47
D1
69
7D
AC
DB
15
C8
07
7E
30
42
04
AA
A5
FD
F0
48
87
0A
B6
8E
87
F5
AA
C5
E6
1E
5E
68
63
2A
47
02
D3
39
7C
ED
24
1D
8D
EC
C7
2A
CB
84
4D
7B
93
DD
D3
87
35
E3
78
30
7A
8B
E2
EA
3E
94
98
8F
0F
47
D1
7F
75
60
B5
85
68
08
EE
B2
FB
89
14
73
F4
FF
64
74
E0
26
7E
43
17
C3
EE
A3
BC
AC
BA
B0
B5
56
9E
14
6D
FB
05
02
EF
04
A9
1A
58
3F
76
9F
A8
A3
B3
14
BD
52
AE
BD
A5
FC
D3
9C
F5
67
9B
B7
02
B5
E8
83
C5
7B
A3
4E
6E
15
7F
22
17
B8
27
B7
FB
66
D9
02
FD
22
8C
72
F3
1B
B0
61
6E
4D
83
5A
83
E9
61
4F
E6
89
FA
0A
96
54
79
8B
EE
96
64
90
BE
BB
3F
99
60
89
61
44
AE
15
4F
33
7C
6F
16
C9
DF
20
B9
3A
23
B6
56
E7
F2
AD
8E
74
58
34
58
4D
EE
D7
5C
D7
60
48
63
39
92
33
7E
AB
C9
71
4E
26
18
6B
64
7B
0C
B2
62
1D
92
9E
AD
F1
14
15
26
C4
D8
CB
2E
9D
9C
1D
24
7E
D1
A0
A8
E9
4B
C8
5B
D5
6D
18
AC
F1
CD
42
1D
35
F6
8A
C6
11
A7
F6
43
95
75
E2
06
A2
1E
F6
60
CD
36
DE
2E
17
9A
AF
2E
95
C3
95
D1
00
85
B7
4E
F2
E5
FE
7D
F3
A7
A6
62
63
E9
1A
64
8F
65
2D
BB
39
85
7A
84
DC
1D
80
AF
80
6E
C6
56
1C
03
CB
F8
12
1B
24
C9
4D
51
C6
D8
20
06
F9
95
D5
15
E6
5E
CB
A2
5A
96
B5
9A
E6
5B
C2
A2
59
AC
B5
F0
42
CE
E6
93
36
E7
AC
C2
B8
33
83
BB
49
C6
36
BE
A6
AD
DD
DC
93
25
C4
C5
E2
A7
29
EA
6D
8E
2D
F8
2E
70
3B
81
31
C4
0B
63
BD
8B
CB
23
CF
4C
7E
5F
6C
42
EA
EE
0F
B8
00
FD
64
78
CD
AB
D5
12
99
29
09
59
62
62
46
1D
45
22
F6
5B
85
F3
7E
CE
2A
FF
AC
E4
CC
24
51
8F
EC
F9
F7
E5
D2
47
F7
AF
E0
F7
43
23
9B
F0
E1
F5
9A
70
7A
34
C4
BB
24
4E
01
62
B1
82
33
CA
A7
92
F2
A2
02
28
B6
60
8F
24
59
9A
61
EF
EC
5B
31
BA
B1
62
91
C2
06
C5
3B
87
94
A2
E6
57
7A
53
90
0D
8F
F3
FD
FD
F2
3F
52
BC
46
6B
8E
22
83
B7
D5
8F
03
D0
F1
46
70
05
19
E8
76
69
19
A2
EB
FD
E9
07
7C
86
B3
BB
73
2E
D7
0B
BB
8A
66
B0
6D
16
BD
FB
CB
3F
C0
6D
9B
37
43
4F
21
23
DE
72
7A
07
B7
FB
DF
C0
0D
43
37
53
70
A2
31
7B
EF
2C
F5
3D
A2
28
AF
72
11
EC
90
03
50
3C
B7
DE
C0
DF
C7
FA
D5
4B
8E
AE
11
F9
31
63
0A
D4
33
97
DC
8E
81
03
B1
62
AA
79
34
42
2D
21
D4
BA
3B
1F
6F
01
50
7C
A5
79
3E
C0
EE
85
5F
26
31
B8
EC
C4
CA
0F
80
F4
48
16
91
28
C9
5E
D5
D0
83
71
99
69
C3
28
C6
56
54
9D
7F
C6
91
C2
33
42
01
76
EB
90
F3
79
E1
69
0A
36
14
E6
D4
CF
78
8C
C4
83
B8
B6
70
6D
D5
6D
15
63
25
18
BE
1B
D7
92
ED
B1
F8
83
FF
F1
2C
57
71
F1
E2
F9
DE
1B
85
18
C2
7A
26
50
00
B4
11
21
20
C2
1B
E6
BC
19
97
2F
ED
A6
92
DB
E5
0C
B2
A7
08
46
98
E7
53
35
80
C9
0A
0C
E8
3C
FA
77
55
F9
0D
3A
8E
BB
66
03
F5
78
1A
4F
40
D2
6B
B8
FF
A0
7C
DB
E9
2E
29
3B
7C
CC
C9
2E
6C
BA
18
4C
57
F2
48
E9
55
5E
89
C9
3A
EB
BE
04
7F
4F
9A
23
DC
28
C6
12
EE
EC
5D
FF
DC
84
E8
1D
C1
4A
9B
6E
ED
3B
26
28
26
09
65
AF
63
B2
22
1B
5F
41
DE
1E
9F
41
1F
E3
C0
2D
F4
B8
C7
FB
5B
AA
48
F2
97
F0
25
4A
7D
F4
4C
9F
D7
C0
07
2C
76
88
CD
8E
DA
