CD
20
39
D7
E8
BC
27
C3
2F
C3
D7
82
41
C0
A9
D9
CD
2F
3E
AE
03
88
35
30
02
00
E6
69
02
DD
25
B4
CA
B6
AE
A5
44
01
89
08
EF
F4
EE
41
F6
97
96
1D
5C
42
4B
6F
1B
53
AC
C6
16
CA
A4
35
1D
F7
20
D0
3D
7D
C6
09
56
EA
A9
97
32
8C
AA
96
28
5F
E9
94
D5
3D
4B
DD
3F
FB
DF
BF
2A
4C
8C
06
CB
2C
F5
E7
5A
01
2F
32
39
34
CE
6B
3A
B0
CE
75
A7
EA
64
1D
AD
36
78
AA
FE
A9
C8
D6
3D
AD
D5
2B
B0
FD
75
57
73
8D
83
0E
CE
C8
3F
22
6E
60
E0
84
16
80
57
9D
AB
F5
96
D1
E8
4E
FD
93
AB
27
05
09
12
33
68
79
AB
46
70
59
0A
AC
1B
DC
3B
1A
DC
A9
A5
97
B0
45
E7
4E
78
21
EA
62
63
03
02
02
67
3C
8F
D8
CE
52
DF
0B
16
89
E5
16
7C
02
08
FE
06
F4
28
CB
28
8B
25
49
8F
49
44
E1
D4
60
C0
98
CE
7C
22
8D
5E
D0
7E
DE
61
66
A2
8D
2E
CC
CB
C9
BB
E5
E3
77
44
6F
D4
5F
67
12
2F
94
6B
37
6A
0C
EF
90
07
5D
24
6C
FC
4C
9B
D8
1A
66
2D
A4
08
46
F5
FC
DB
56
B1
30
9D
AC
DF
B2
0D
62
E6
C5
96
73
43
61
1C
98
9F
54
1B
96
19
EA
C4
57
EF
52
9B
4B
13
0B
58
C1
DA
DE
D3
D9
39
C5
D4
DB
CF
EF
8C
D8
61
2B
05
F4
08
71
9C
0A
1C
37
69
7E
32
88
76
6A
B8
75
88
A6
7C
A1
1C
96
89
93
A5
F6
1E
AA
40
9C
67
53
37
AC
31
10
1D
53
4C
93
71
EF
BD
0D
5F
44
B0
2B
78
27
97
DD
BA
EB
B7
05
D6
88
49
38
E6
C2
3B
92
39
F0
87
95
89
53
75
84
EB
7D
EA
9F
94
29
8D
B0
B7
54
1A
2A
19
BD
5A
A6
0E
FF
F7
C2
D0
AA
C1
E5
A2
9C
AE
DD
58
BC
9F
75
0E
83
0E
49
60
80
24
02
4A
22
BA
E0
57
74
72
A1
05
DA
BE
14
9B
7A
D5
AC
3E
34
EB
CC
1C
B2
80
85
2F
53
DE
A3
BE
48
76
B0
B9
BF
46
95
94
63
D6
52
CB
FA
E9
3A
15
4D
18
26
1A
AA
A1
5C
54
30
20
AA
4E
B5
09
E9
B8
89
C4
3E
D1
CE
3A
77
89
1E
D1
74
15
4B
29
98
AB
FC
DA
7D
53
F7
93
EF
FF
BF
29
7A
52
C9
6B
77
9B
F6
33
99
E4
9C
65
63
31
47
8A
07
B2
E4
A8
E4
F6
D4
5B
FD
EB
F3
2F
E9
80
1F
60
B7
A1
92
C9
5A
A2
36
E6
6C
D9
A2
8C
97
3C
01
FB
30
1D
DD
B6
F6
4B
80
86
14
CD
53
33
0E
B1
55
A5
A5
8E
E0
85
24
10
FA
F1
15
1C
5D
9C
75
04
EC
5C
8A
0A
7A
93
F6
CF
22
D4
E8
B3
65
CE
36
A1
61
AA
01
50
64
29
A6
20
C2
BA
2A
F1
DB
87
FB
30
1B
87
D0
78
1D
51
60
9E
18
D7
E4
11
57
4C
E3
72
7A
08
B5
D8
AC
2F
DD
04
E3
D6
FD
9D
A6
CB
56
2C
64
18
17
77
6E
38
19
D6
74
B1
8B
FE
BD
B4
2D
7F
D0
5B
AF
FD
BC
A1
5D
25
86
E0
B3
6C
D3
89
F5
D1
CE
21
CB
5F
5D
42
46
5D
8A
E9
EA
1C
02
47
ED
A3
88
94
5C
88
EA
6D
2E
16
A6
FF
0A
82
A0
45
F8
55
FE
C8
5C
B7
AA
29
4B
F7
F1
EE
AB
A7
55
12
A2
EC
0E
A5
36
B7
48
D7
11
39
63
5A
CF
9E
CA
B6
4C
D5
7B
42
38
0A
1E
F1
35
FE
83
93
02
29
EA
DF
00
EA
94
11
82
82
10
22
28
B8
62
F9
B9
0D
A4
D5
97
2D
03
83
59
FD
CE
D1
63
92
A2
B7
BF
7B
69
FA
B8
3B
44
3B
70
9E
8B
CB
AB
23
7D
F5
2B
9F
E4
9E
CC
BE
D5
2E
17
19
5A
F5
DD
40
0A
E9
B5
81
15
E0
D1
45
34
BE
62
7D
1D
B4
72
AC
8A
AB
E9
CD
C7
08
4F
DB
27
4E
8A
E0
E4
96
80
FB
DD
32
59
98
2E
FE
88
9C
22
83
9E
02
CF
C4
B8
3C
E1
3B
AC
B2
4F
D8
EB
A3
F9
7E
2A
6E
CB
7B
FD
EC
5A
8A
9D
4A
1C
79
B3
D9
E7
69
FB
81
6B
95
83
1C
04
0C
13
28
3C
18
24
1C
F2
88
7D
EB
4D
59
62
63
64
A8
BB
3F
85
8C
92
39
42
C7
0B
D2
72
F3
FF
89
EE
3C
C7
0A
DE
81
20
86
3F
C1
FA
4C
0F
07
CB
E8
23
A7
16
6B
8B
BA
FF
BC
A8
7D
D2
C1
91
27
CE
5D
B8
EA
60
55
8F
63
C4
B4
CC
E4
24
40
ED
38
42
1A
E9
41
7E
86
5D
DC
00
40
0D
4F
12
39
4A
DA
39
18
70
A8
85
2F
57
30
CA
03
91
F4
04
DD
C7
76
1B
87
47
86
BA
F0
69
CE
4B
D4
94
EB
7C
72
58
00
90
C3
11
7D
75
BB
72
6E
94
03
9B
39
32
87
4E
01
8B
E9
BD
7B
5C
59
2E
1B
FB
DC
FE
8E
2E
0F
26
25
03
92
86
42
BC
80
41
D3
7C
64
52
F3
32
A1
B5
21
81
DC
8B
E3
9D
DA
28
17
4B
6F
5B
94
47
2C
12
6B
86
3E
FC
2F
A8
5D
11
5C
AC
85
41
5B
8A
23
BB
39
AC
78
79
66
6C
66
CB
7D
16
41
C8
49
AC
76
04
6E
CD
E9
C2
6C
6A
CD
FF
42
EE
07
58
45
D2
C2
06
A5
1F
E2
F6
C6
BA
1A
F0
A8
6A
95
80
02
B1
87
6D
00
16
E9
65
AE
00
9B
EA
20
48
B1
EB
35
96
2E
74
A5
C0
37
B9
0D
9B
9F
DF
D0
42
8A
C0
D9
BE
94
FD
77
D0
99
9B
A4
E3
8D
2E
D5
D1
4E
47
B0
70
0D
48
05
75
CB
67
AF
57
63
7F
00
4D
02
AB
31
1A
EB
B6
00
99
B8
DF
3A
56
79
E7
7E
CF
06
36
88
11
26
B6
87
10
F5
9F
85
CD
B8
90
13
F4
72
F4
97
CE
6D
B8
59
A5
40
16
D0
6A
E6
02
ED
65
18
D9
77
42
1E
7A
8A
81
55
90
36
1E
89
30
B6
62
D1
AD
EA
D9
4C
E0
A0
69
C7
87
A3
E0
88
54
7A
98
79
8E
2B
44
CE
EB
6B
0F
07
B3
2B
9F
F8
83
E5
2C
60
20
37
42
E2
43
1F
3A
12
E6
A1
39
1D
DB
52
68
08
E4
6D
05
52
A0
FD
5E
2E
B8
C0
93
FF
65
E2
B8
AD
91
62
26
59
94
59
42
00
C2
2A
03
82
47
9C
0E
A1
86
D7
1A
98
76
31
0E
9D
2D
53
50
00
6A
E5
02
7A
47
4E
AB
91
12
BC
09
A0
1A
DF
33
88
2F
D1
DB
86
22
39
E3
1D
83
7E
B2
4C
60
DA
49
50
58
F5
FE
0C
3F
CB
54
0C
37
33
05
29
5A
CD
37
7B
2A
58
D9
E5
62
F9
40
64
BF
30
B2
C9
84
FA
12
4D
7B
ED
A3
E5
01
71
A1
78
9D
6D
24
C7
4B
D1
AB
8B
AE
19
2E
97
8D
72
BA
11
1B
72
CF
76
B0
B0
DD
0E
D9
37
FE
BB
6F
92
64
8F
B3
08
DE
60
D4
E5
B4
49
13
98
A2
2E
CC
6F
BB
97
82
11
B9
FF
C3
DE
4C
AC
98
D7
85
12
33
D9
F7
5A
D1
2B
6C
EC
00
7F
DD
A8
FB
31
B1
1E
5A
34
4A
D4
2C
1E
F9
0F
4D
D1
AC
96
99
65
07
4D
C8
C1
B7
16
DF
67
50
28
B6
75
6E
91
CC
7E
54
A3
47
1E
DD
0B
58
0C
6A
F7
DE
B2
B0
E4
00
7C
A0
4A
D3
7C
A8
C4
53
85
83
B2
FE
88
38
54
6D
CB
04
9F
5A
68
68
DC
3E
5F
69
46
8B
15
6F
A3
30
94
9E
A7
36
D1
BB
7D
31
3C
81
DA
1A
4F
9E
45
72
3F
DF
A5
F5
FA
15
B5
5D
0A
66
03
4B
C5
4E
AD
0B
37
03
3E
A4
19
79
E2
1B
EF
48
C9
87
9A
BC
F5
70
BB
22
E5
8B
5A
BE
31
18
0F
40
1D
3F
94
7D
E9
CC
B1
5C
C8
47
EF
1D
0F
4E
39
AD
B3
B7
FB
4A
03
CE
FC
52
19
85
33
41
9C
FA
54
E2
DB
58
F1
C7
8A
7B
B0
4C
5B
95
13
2E
6B
11
0E
23
DF
13
05
77
97
C3
3A
2B
32
3A
B4
AB
29
A0
40
EF
A6
39
FC
F6
86
B8
6E
74
63
0F
1C
24
57
D3
CD
59
0A
CD
11
B3
04
E2
17
D6
1D
C3
59
D2
89
77
21
1B
E4
61
67
10
5A
3D
19
8B
5A
0E
FB
1A
97
6A
66
46
BA
A1
15
17
79
D9
EB
B9
75
86
05
0C
F5
E3
1A
00
C2
23
D2
A8
3C
E2
F4
46
65
B1
9B
96
19
5A
E3
AD
6C
B2
AD
A9
6F
D7
F7
8B
26
67
73
81
D1
BC
63
C7
02
2F
48
D1
25
73
5D
28
29
74
F2
8B
2F
03
EE
87
D8
FF
32
EB
0C
F8
1D
32
58
76
53
7C
57
EE
A3
A3
37
9B
68
CA
E8
A9
9F
21
BA
C4
48
68
3E
CC
10
26
4F
D5
6A
6F
2A
42
05
54
E8
8A
57
D9
E9
56
E3
66
4A
98
8F
1B
FC
9A
A1
7F
38
73
9E
90
94
34
A9
94
DE
2F
F1
B9
B5
2E
04
78
CE
90
1B
C0
B4
FA
AE
0B
AC
1E
6C
97
F0
04
ED
57
A3
5A
B4
72
3E
BA
B6
0F
7D
A3
C2
42
EA
BC
3A
1E
7C
28
D0
E8
00
49
C3
17
5B
6C
AA
5E
E0
F2
78
28
C2
BE
8A
CC
76
8F
1B
D0
CE
3C
1B
08
A0
95
A8
A0
1F
71
6F
3B
D6
64
BC
81
B9
3E
78
58
7D
3A
75
BB
19
47
EC
AB
FE
C2
12
F6
FF
A9
BF
51
3C
C2
EC
6A
6F
D1
96
0A
90
B5
0E
5E
C8
94
82
2C
44
5E
4F
FA
EB
D6
67
C8
56
2F
E9
12
61
55
83
B5
B2
2F
A5
29
B7
3A
F1
44
C6
90
1A
A0
CA
82
F1
18
B2
39
03
38
87
CC
0B
00
8C
8F
62
6C
1F
91
C2
98
E8
C7
14
9F
21
EF
1B
36
91
AE
A0
D4
CE
9A
38
03
36
4A
B6
8C
2A
03
ED
5B
97
29
58
2D
EE
87
45
F6
94
33
A5
F3
91
17
A0
B0
8D
3B
0B
17
F9
66
96
DB
B4
87
FB
5D
12
9F
0D
25
CC
E2
DB
EB
38
03
C3
12
BF
86
32
9A
4F
9D
F3
02
01
94
A3
A9
B8
48
A6
F4
A1
BA
3B
4D
30
16
DA
4C
59
1A
1B
14
B5
1D
A2
75
FA
82
A2
5D
15
80
FF
64
D3
C8
F3
66
DC
39
FF
BA
D1
91
30
45
DC
DB
59
4F
E9
0C
2A
37
AB
70
13
89
5A
9E
02
5B
A2
7A
DE
FE
1C
D3
B0
A3
05
26
AE
71
F3
F0
F3
F2
A4
21
20
8D
7A
F9
2A
B4
D8
AD
A5
80
54
11
94
C7
B9
9B
9D
CD
BF
67
5A
4E
9E
9A
4F
44
7A
20
CD
1A
67
D3
A1
2B
B1
A1
A0
4A
CF
3F
0C
C1
BB
58
14
67
0D
F4
65
6A
45
10
9C
B0
8A
F2
E9
E9
9A
CD
79
F0
65
9F
E7
A4
44
CB
2D
CF
4E
CA
78
90
25
CF
32
44
3D
79
09
12
B4
39
FF
D1
4F
46
FC
BA
91
3C
68
69
