D9
13
CA
C0
B6
BE
A3
F3
C9
A6
3B
CA
12
CA
61
80
16
C6
BD
7F
5E
68
A5
80
3F
EA
8A
18
A0
4F
66
EC
C1
11
A1
61
DB
14
38
4A
F9
3B
9E
EE
5F
E8
04
55
60
E3
C7
3A
08
67
06
A8
7C
6D
DB
51
9C
4A
01
C9
CE
10
30
BF
11
07
06
B3
51
F3
CB
BB
F5
70
E9
C9
C6
16
86
E9
CD
47
3A
93
1C
BF
5B
63
F1
FF
E1
DC
FD
BD
BC
83
73
CB
D3
8C
52
08
A7
77
3C
11
B6
3A
84
2A
81
ED
68
EC
AC
8A
71
D9
F2
C4
EC
8A
83
B6
44
5E
D9
D4
B7
B6
50
A7
75
BA
12
22
B3
58
36
3E
0E
77
B6
CA
59
1A
84
0A
57
B2
D7
6E
52
94
A2
40
13
86
F9
05
6A
2E
EA
FB
48
F3
61
0F
F4
2D
39
2F
F5
5F
8B
AD
5B
11
E1
76
0F
35
3C
5F
4A
A1
6A
A3
61
D2
3C
DE
98
27
25
E1
E7
52
F9
BB
76
4F
A0
C2
38
D2
8C
05
94
26
B1
E8
84
E9
D7
AF
CA
E3
B8
9A
EA
02
3E
31
88
88
85
DD
0A
5F
2E
6C
E4
36
8B
43
68
A5
EE
9F
40
7F
39
6E
BE
6F
6A
DF
19
79
01
D8
C9
D4
C2
74
FA
23
58
53
E7
3A
F9
CE
12
6A
08
DF
0F
70
70
C8
EC
1B
F5
5C
37
32
1F
6A
64
6F
07
5D
0A
86
3F
C1
6A
B7
A9
CF
F2
27
EC
8D
2A
61
97
A7
09
79
33
F0
07
6A
27
A3
EE
CD
11
FA
C7
2F
78
04
12
C1
CE
FE
C0
36
47
51
36
37
5D
AB
B3
CB
82
F0
02
37
C0
EE
34
C0
5F
22
2B
FB
8B
67
5F
1E
F3
B9
2F
3F
0E
DC
35
37
62
C2
8F
A5
BF
E8
9D
F5
9A
BB
F0
BF
75
E7
5B
C6
41
FD
9B
57
B2
D4
8F
DE
C1
68
E8
E1
16
68
F5
39
A4
AE
32
29
AE
28
A0
61
93
31
FC
29
7E
55
98
63
53
66
11
06
6D
C4
7D
EA
D6
7D
99
62
9E
3B
05
F0
FE
36
A5
09
70
7A
AB
BF
24
E8
C2
05
BE
90
AA
BD
58
B7
85
79
96
9A
4D
59
A4
48
BF
B5
8B
EF
51
81
8C
22
4F
9B
57
A9
57
AC
B1
49
0C
E1
4A
C9
40
F8
7B
9F
A5
FA
F5
94
3F
84
8F
D3
0D
85
65
D5
90
A2
CF
80
78
75
7F
43
4C
17
3D
1A
0C
8B
BA
35
48
19
D3
3F
85
4F
23
ED
05
5A
5B
58
78
F6
87
B1
5D
D3
D9
A2
A4
19
E9
AB
38
05
24
3F
34
A9
A0
77
2D
BB
E2
3B
4D
3B
6F
60
83
86
44
49
21
C7
41
8E
C1
FB
AF
97
BE
6F
DD
1E
BC
04
1D
7E
D0
0A
68
74
29
74
75
D7
4D
FA
92
74
3F
B1
AB
B2
54
1C
58
64
08
BA
96
AE
31
32
19
0B
00
12
8F
E6
03
62
C7
B4
03
B6
B5
59
F0
D9
85
4A
59
1A
8E
07
F6
8B
BE
3E
A1
94
4C
06
9A
92
02
53
0E
76
B6
23
6C
F9
4B
B9
1F
E6
2B
1C
A8
25
9E
D1
C6
83
82
BF
BC
D7
8A
96
3E
56
7B
4B
BC
F7
8D
52
6B
E1
0A
A7
6B
80
7B
4F
0D
5C
DE
0A
16
AC
D2
1F
6E
A2
B5
4B
40
D1
EC
EE
FD
01
F1
3B
9F
1A
5D
A3
28
A4
E1
46
19
CF
E7
06
2F
E1
D2
30
C8
E3
90
A9
8F
BE
2F
9E
9E
A5
78
72
C1
ED
A4
A9
1F
8F
F9
F8
89
D5
01
26
98
7E
AE
D1
51
BE
BB
BD
6C
59
DB
2B
E1
FA
02
40
DC
33
59
B8
FC
9B
6D
48
AC
0D
4E
7C
97
C8
2C
D4
02
31
E2
2F
3D
CF
B2
E6
4E
9E
E0
B2
C2
3A
23
D3
B6
97
21
8C
DE
C8
D3
25
09
95
C6
07
E5
00
D0
FF
B6
C9
86
A5
95
60
12
AC
8D
83
8E
A2
C8
2D
BB
82
D1
C3
E2
24
87
7C
70
F4
7A
42
57
59
65
D7
3F
D1
8E
79
FD
95
6D
12
16
B1
8E
48
87
23
B3
33
A1
D6
45
14
4C
DA
35
F0
AD
62
4B
53
09
07
A9
5B
37
AF
92
8D
53
1A
27
DA
C9
30
C4
2E
B9
1D
1A
9C
ED
FC
C7
7D
A4
53
94
EB
E7
85
A4
44
00
12
1B
14
B6
50
73
0D
C4
E3
5E
AF
F3
7B
39
71
E1
32
34
16
81
EB
1B
35
C4
C1
29
05
09
80
DA
39
7C
59
E7
C7
BB
D4
54
1A
72
79
C8
7F
40
51
5C
15
90
4A
7B
F2
AD
F8
BC
F9
49
B2
CE
34
ED
17
A0
31
34
D8
B6
01
E9
95
A4
00
49
49
2E
16
36
CA
A3
F9
01
3E
72
FD
64
D0
9B
DE
72
AE
09
8D
C2
32
16
8D
F5
31
DB
43
D2
66
E1
89
CC
A3
04
52
CB
9F
51
70
2C
18
76
B0
DD
50
05
4F
C1
9E
7C
16
86
A8
A9
9F
6E
83
2E
C5
F7
60
D6
EC
28
1D
1B
60
D2
59
E8
A7
2B
A6
0C
5B
AA
1B
F1
91
51
72
18
7A
0C
0A
06
DA
94
37
C1
80
D4
D5
4F
62
77
5A
B9
C9
52
7D
41
67
FA
7D
23
74
18
90
01
19
70
17
70
E0
49
5F
25
E5
25
F5
C9
86
01
23
0D
48
62
AA
9A
26
17
73
8E
BB
3F
1A
54
EE
9C
3A
8B
18
A7
D2
72
65
72
D6
AA
F5
92
52
60
2C
9E
FC
B8
DA
C7
98
E7
CD
9B
E3
55
D5
F2
46
65
FB
3C
87
EB
7D
C0
BB
F3
3D
CD
A0
AF
1D
17
B9
BC
28
B8
F2
51
B8
52
8D
2B
0F
E7
89
B3
4C
AD
3D
BD
93
7A
A3
6D
BB
A7
4A
2D
18
0C
6D
C1
50
36
CF
05
0E
66
00
6F
BF
2E
85
39
8E
19
BC
A8
9C
0E
09
79
3C
05
E1
F8
F0
2D
48
F4
53
D5
55
CE
B8
9E
A3
72
08
CE
B7
EE
38
09
33
35
5A
E2
0F
4B
EC
CF
D3
A8
74
A1
B5
2F
14
34
AD
DF
AA
7C
11
45
4C
AC
78
F3
D7
51
96
FB
51
66
EA
9A
40
F9
98
2E
0E
4D
64
CC
21
5A
4D
74
C5
2D
3C
16
63
41
14
C9
B4
51
A9
8D
9A
07
F3
3C
79
C3
92
C2
99
1B
89
7D
CE
D2
55
4B
07
6B
94
98
66
FA
57
40
02
72
9D
5F
1C
F1
65
97
B7
1B
E4
B4
0E
88
4A
EF
E9
6C
0F
69
61
D2
B5
C8
81
AE
E4
B1
6C
BF
A6
80
70
5B
3D
E9
CD
D6
70
26
8C
F4
13
C9
CD
D9
65
2B
93
42
A8
EA
FF
73
5D
68
13
1B
FA
5D
61
91
48
84
6A
A7
0E
7A
37
F0
15
C3
51
16
6D
F3
0F
A9
44
7B
F5
9F
87
6C
40
3A
52
47
DE
8A
40
CF
04
35
8C
40
82
9D
FB
F0
00
17
C6
4E
2A
16
A4
57
BC
4C
65
8E
5D
27
D8
B1
96
DB
F1
F9
67
70
6A
05
35
CD
D3
41
DA
9C
5A
44
F9
1B
FC
72
C1
9B
8D
A6
D7
4E
E0
68
68
6E
6F
61
C0
E1
9D
E6
D5
06
B7
5A
E9
49
12
EB
B7
D9
D5
C5
4C
6B
BE
78
21
12
B6
A1
A4
9E
8F
CF
6C
C6
42
34
DB
79
92
96
9B
21
65
AA
CD
58
49
2B
38
FE
D6
1F
0B
9D
D0
EA
5D
25
A2
16
5D
D6
00
93
5F
9A
2A
12
E3
66
55
DC
82
56
53
C7
D3
D4
A8
1C
EF
84
CA
91
9C
6D
E8
44
5C
0E
2C
8B
CA
0F
3C
09
B2
E8
B0
6E
88
85
8A
24
EE
43
90
50
CE
B9
89
5F
EA
C0
25
36
E4
C9
DF
83
5E
5A
B0
DE
AC
EE
0C
7F
FB
70
24
3E
6E
AA
6C
D9
DF
FF
65
0B
12
B6
2E
91
C8
FD
4E
07
29
83
05
1F
7E
A4
B0
D3
D1
A3
25
30
E6
48
C8
67
FB
F9
F9
BE
CB
16
2B
CC
4F
00
37
BA
04
DF
CF
56
2D
5E
EF
C2
C7
D8
01
62
8C
8B
34
A6
EA
B1
87
31
5D
69
EE
D4
46
4C
84
C6
3C
95
A7
F5
C2
B2
9F
99
E4
FB
1C
96
03
5D
3D
5F
64
F8
94
3E
FA
85
02
C1
22
8A
51
A6
57
6B
74
41
53
16
62
66
AD
47
12
2D
0B
AF
70
8E
D1
66
E4
0F
87
36
6C
77
65
75
2C
59
0A
03
AA
47
11
DC
6C
0F
C5
B3
C4
54
A6
1A
6F
26
FD
44
54
8A
89
88
8D
D7
1D
A3
EC
23
0A
54
C8
11
54
3F
F0
96
B3
DE
78
00
0A
3F
77
45
5B
51
9D
F9
29
BB
42
1E
00
F2
D3
40
D7
95
77
74
E6
28
71
C4
1F
EE
C6
12
65
37
F3
C4
B2
83
28
75
43
51
8D
44
DD
90
1F
B0
E4
AD
53
1E
ED
F1
44
BB
67
05
16
EB
52
C8
F3
C6
8F
2D
60
4E
68
71
BF
F2
48
92
91
36
0F
FB
04
F4
11
08
B4
CC
40
A8
66
CB
A5
07
E0
7E
D5
E4
41
D2
6A
A7
F1
4C
71
5D
A3
5A
6A
3A
1A
A5
30
94
75
A0
E8
D4
99
05
60
E9
F6
8C
9E
A5
AA
CC
F8
0E
38
CC
5F
0C
2C
13
C2
7D
96
63
7C
AC
8B
A4
F6
40
B3
2C
A8
B7
55
C8
31
58
D3
50
9F
D1
13
E2
40
2F
68
FE
97
DC
10
3A
1D
DA
AF
33
C8
5B
C2
91
9C
9E
4D
18
7D
8E
9D
7A
5C
7B
6F
CE
36
12
B7
D6
D1
47
E5
80
63
6E
AF
28
25
2D
F3
65
4A
62
22
FF
69
04
B8
11
FB
CC
26
80
86
D5
5F
F5
C5
A2
40
A6
4E
EF
D1
C9
74
2B
66
9E
39
9F
06
65
DA
6D
F0
46
8E
4D
1A
A5
35
84
AC
07
CA
4F
A9
A1
F2
52
41
48
44
8F
4A
58
F9
54
0E
1A
0C
8E
F3
A8
4C
29
AF
06
AB
A1
6F
1F
DF
14
A0
48
DA
EA
6D
D0
D4
FE
AC
62
9E
96
AD
6F
AB
DC
42
10
A5
D8
4C
71
9F
B3
97
2D
34
BD
6E
69
BF
EF
84
7E
63
01
F6
C3
49
31
69
31
05
1E
08
AA
69
C9
E7
75
F8
6D
97
AF
7A
DC
BF
FD
D3
51
BE
43
CA
CE
26
FA
30
C9
C2
92
49
1E
92
E5
B6
47
B7
98
EB
B7
16
C7
B8
F8
B9
91
A4
A1
3E
32
74
1B
0F
91
9B
EC
E8
6F
2D
BD
88
B9
DE
4A
76
3F
A9
70
C8
C6
10
61
E4
B8
A5
14
18
90
E8
7E
2A
3A
B4
15
03
C2
46
91
34
D5
1F
87
D0
8E
B8
52
5A
DE
EC
58
B6
63
84
C7
5D
19
5C
86
69
AF
7D
CA
BE
0D
D2
BD
F0
79
F8
72
99
D0
C5
3F
C4
08
C1
A1
8D
06
BC
C5
F7
ED
47
35
9A
DA
9A
E7
ED
DB
E4
70
BB
B6
0E
36
7B
8B
A1
8F
E4
90
9B
34
C1
C8
65
2C
6A
6B
20
50
AB
EB
8D
8C
CD
87
DF
BA
CF
5A
AB
BE
7E
7B
F2
A5
C9
A9
1E
DA
B8
CB
35
3A
27
A4
73
F4
DF
93
17
D6
3B
00
3B
3F
08
08
FC
06
44
6E
ED
EF
8B
17
1F
89
D1
7C
0C
48
FD
A1
C4
8C
CF
23
90
08
7F
03
4C
CE
7E
9C
01
43
DD
56
6C
B1
94
E2
21
97
2F
8F
2B
B1
D3
07
8F
B2
9A
5A
22
06
50
26
5F
CC
DE
39
84
D8
0C
8B
F4
78
6E
