EC
0E
BE
85
E2
10
A6
DF
5B
95
58
E2
25
B0
01
C6
7E
95
BD
EB
39
EA
C8
14
EB
D8
C3
68
B4
C4
B0
DC
71
E8
8F
48
31
99
19
46
83
E8
27
19
5B
61
6C
AA
B3
C4
A5
7A
9E
59
79
25
D6
83
40
F2
4D
7E
B5
AC
DB
A2
97
8F
8D
BA
23
09
80
59
E5
AA
FF
D9
C3
99
2A
F4
E5
1C
DF
55
5C
A5
75
B4
BD
24
3A
56
97
3E
3C
B8
E7
76
28
AA
DD
EF
11
17
86
F3
BB
D8
C4
0B
C4
61
5C
5C
E9
0F
47
E4
4E
CB
A2
E0
BA
08
C4
61
A9
3B
CB
1E
CF
1D
C3
B6
E3
D6
F4
9D
A3
E0
CB
A6
99
DF
37
D1
6C
32
61
CD
4A
2E
38
63
D8
03
7C
33
12
C5
68
9A
7C
DD
0A
88
13
1C
B9
35
A0
EE
A7
BF
D0
6C
A1
6A
73
4F
B0
3D
5D
AA
79
ED
51
96
98
EC
5F
FB
02
91
67
CE
D2
DD
EC
FA
E4
E6
03
37
4D
40
9F
BC
EA
E6
92
EB
58
FD
82
AB
B3
F1
E5
CB
4E
AB
5B
63
38
E5
3C
DA
3D
49
25
08
D7
00
75
78
58
AE
85
99
1B
EF
37
3F
8F
AA
A7
8A
30
23
78
81
2F
9B
50
9B
38
0A
69
B7
31
B6
77
F1
2D
0E
44
56
B0
44
52
92
52
59
EA
CA
9E
FA
29
04
ED
9E
62
0E
9F
DB
3A
CF
D4
B9
35
0A
91
B8
67
DB
19
0B
14
A7
8D
A0
2A
5A
75
CD
0A
C7
71
AF
6C
3E
5F
88
42
AF
10
92
A5
02
47
64
5E
2B
4F
0B
97
DF
9A
89
69
D2
49
26
32
9E
C9
9C
CB
A8
18
EC
BC
0B
46
26
2D
F9
A0
3B
2A
BC
DB
6A
1A
23
31
FE
54
FA
E8
55
D8
82
F9
AD
9D
66
B4
59
5D
37
C1
71
F9
B9
61
17
7E
52
88
EB
BE
80
EB
28
09
37
84
CB
82
D3
6D
29
CC
A7
D0
6D
3B
A8
8B
5F
1A
4F
8F
11
D1
65
FD
E4
7A
35
49
DE
AC
35
BE
34
3D
A8
D9
C3
97
97
8B
6A
2D
99
6D
CA
90
8F
15
FD
1A
53
57
9C
24
F3
08
11
15
1E
63
75
47
D4
F3
D7
C2
FF
8F
B6
A5
4B
FF
5A
62
E7
63
39
DF
0B
3B
6B
47
D3
1A
1C
AB
7C
FC
D4
7A
AA
08
C3
5A
C2
31
17
DF
BA
4B
F5
23
DD
AA
5A
61
AF
D5
93
FB
DC
B7
F3
98
E5
87
7B
DE
FB
F5
B2
29
B7
CE
88
6E
B1
43
C1
FF
A0
7C
7A
0C
DE
EB
C1
B7
09
34
71
4E
85
81
0F
75
EE
70
F2
B2
69
05
34
B1
C2
D1
7A
CC
6D
C3
7D
33
21
C3
14
F3
17
3F
5E
A0
E6
F8
C3
5E
8C
31
69
98
61
3D
64
6F
EF
0C
C8
39
03
F0
B5
