FD
29
89
78
06
76
20
33
24
70
B9
34
E3
07
C0
01
36
E3
E6
73
42
92
25
C2
87
9F
1A
47
44
1B
A5
27
04
AA
8C
9A
10
CB
46
F1
FC
23
AA
FD
6E
BB
C1
97
39
64
17
8C
BE
5B
45
16
9A
F8
9A
A5
67
57
C3
37
E6
A7
55
EB
70
50
60
9C
CB
7D
BE
5F
5B
8E
8E
56
43
EB
A2
2A
F3
86
3A
88
1B
67
65
48
58
D2
AC
CC
B9
91
1D
67
B1
EE
E7
CA
E3
E0
1F
A5
69
43
AF
B2
42
AE
2C
01
79
74
D4
E2
9E
52
77
DA
64
4D
09
33
0B
E5
7A
13
B6
B2
5F
2D
E4
55
91
E6
64
2B
A2
CC
03
24
0E
F3
DD
CD
25
52
78
60
77
FD
E5
62
1E
83
29
0F
3C
CF
E5
A5
73
BE
DA
A4
50
24
B5
D2
5B
65
15
5D
C7
B4
00
51
52
21
2F
DD
0C
34
2A
E8
F0
AD
65
2B
AA
E5
93
5B
31
D1
11
16
0D
51
C5
AE
46
03
B0
E6
A8
53
4B
6A
03
90
90
53
EB
EA
B4
EE
2A
78
95
1C
63
03
51
E2
74
42
09
C4
A7
31
17
2B
39
29
D3
C0
03
6C
8B
36
23
30
03
7D
62
B3
A9
D7
97
B9
7D
E5
C6
A5
84
15
44
89
99
93
5E
AB
E3
EE
2C
FB
BA
1F
49
E1
BD
5F
44
3E
4F
D9
FB
1E
04
AC
F7
F4
A3
3C
1A
74
84
8D
09
00
D4
05
D9
98
25
8E
D6
9A
D6
22
52
68
12
B6
82
02
FD
B2
02
64
49
66
C4
B6
9A
53
04
D2
E2
DF
23
3C
8C
72
99
07
88
73
46
61
10
7C
AB
4B
5E
5A
64
61
E9
52
CF
CF
AB
23
AF
D8
2C
DD
A7
EB
57
C0
22
1A
29
77
8C
69
32
C2
B9
AA
F4
04
88
E3
D2
A5
33
FB
B9
15
ED
32
70
FC
BA
05
B9
71
AF
38
9D
D7
44
F7
84
FF
9F
D8
07
2C
B6
04
24
E6
3B
E7
2E
92
55
D7
63
CC
09
39
58
1D
14
F6
AC
DE
2F
0F
F0
0A
37
FE
84
7B
1F
17
E0
F9
88
75
BE
DA
E9
42
55
ED
F0
DD
AE
53
EE
C2
E9
A4
51
1F
18
D3
8E
82
EA
FC
E5
6C
7D
78
A1
74
B1
72
D7
4E
DC
31
8A
95
AC
52
2A
65
73
A9
E5
E3
77
04
B5
B3
1D
72
26
17
2F
1A
65
16
B2
70
D9
B1
5D
AC
87
FF
36
2A
42
ED
EB
C2
93
A2
B6
1B
9E
36
2D
D9
9E
DF
1E
3F
78
D6
A1
ED
66
D4
5B
BF
B1
B2
49
6A
18
C4
C3
35
B4
03
A0
8D
0A
0A
37
E7
4A
3B
B9
2F
37
84
79
A4
18
9B
38
88
01
54
10
4F
9D
80
FF
93
E9
1C
8A
D4
26
87
C6
34
CE
57
D0
CA
5F
3B
DB
CF
11
A5
EB
47
BF
E4
A6
2F
E8
14
B8
20
F0
C9
68
07
A1
51
DF
AC
25
B1
64
89
86
6F
EB
49
B3
A7
DC
42
16
81
3F
F7
28
1B
55
26
F6
D9
41
82
8B
E6
71
C8
98
04
79
A1
91
E1
08
4F
A4
6D
1C
45
73
BF
60
30
37
69
49
83
64
ED
7B
C8
8D
F2
9B
E0
96
8D
6D
98
B4
3D
34
B0
98
72
AD
FC
55
1F
A6
66
CB
F7
4B
2A
6B
24
39
4D
D1
76
D5
12
28
85
B5
D6
2D
A4
85
45
12
64
2C
00
81
5F
A7
73
0F
C1
96
46
E6
A2
74
14
BC
52
79
68
58
B8
E1
19
C2
20
A9
6C
E9
9F
A5
4A
0A
63
8F
65
BA
83
49
9F
0E
E2
AE
0F
D4
4C
94
96
D0
67
F3
11
D3
A4
49
A0
68
D5
CA
CB
8E
E8
94
98
1C
5F
18
06
C5
01
7B
E3
08
48
3C
2C
49
22
61
67
5D
C6
35
74
A9
1E
DE
64
90
35
DA
2E
57
EC
D8
41
59
3B
3B
D5
A9
A9
A9
88
C0
0C
BC
62
A8
F3
1F
A8
16
30
34
40
33
95
AB
0B
FA
60
8A
20
34
76
75
65
4A
66
2E
FC
D6
CA
59
48
AE
6B
3B
83
33
29
23
28
CD
7A
E4
5F
9F
61
F7
BB
68
92
BB
BF
5D
77
A0
6B
7E
30
E0
C4
67
4C
29
72
2B
9D
E3
92
0C
5F
0C
71
28
56
C5
74
3F
54
78
DB
01
7D
78
72
B1
D0
8A
87
A3
A7
4D
9B
31
1C
F0
AF
2A
8B
1B
E1
CB
AE
26
23
88
A9
B5
38
16
68
63
9E
95
52
0A
D4
76
96
72
A7
A4
F6
E8
BA
9D
34
B9
59
80
75
74
8A
15
9C
A7
3D
6A
52
F3
CD
89
AC
83
79
E0
4B
3F
B2
FA
11
AF
0E
EE
0A
C5
39
08
D3
E5
6F
4F
AF
52
26
7B
DC
9E
33
34
43
01
14
45
10
2A
73
7C
F5
D8
7E
6A
9A
F1
B4
DF
35
28
23
11
98
3B
BC
8C
87
6F
79
30
03
CA
CE
47
BC
AD
03
A4
57
27
E0
BF
DE
3A
85
0B
F8
2C
D2
0D
28
29
05
32
8E
76
46
43
FC
EB
F7
E6
EE
94
B3
20
E8
FC
0B
F7
AC
82
52
7D
F6
C1
99
44
07
8A
A1
48
DA
17
03
E5
13
31
EE
AE
E0
57
B8
E0
B8
14
DA
4C
99
98
27
F8
8D
83
3D
66
D8
E7
02
8D
20
7C
19
B5
88
2A
36
33
9D
AE
99
C8
89
16
FE
6E
CF
BB
3F
05
90
D7
74
C3
C0
14
B1
0E
FF
C1
80
04
3F
D6
9E
B9
1A
B2
10
19
42
8E
74
3C
CE
FC
37
C4
F7
39
CF
F7
45
19
F6
2C
E3
D9
60
79
5C
FE
8D
7E
51
DB
D3
9D
14
3A
3C
F5
D2
59
BD
00
5A
2C
B2
67
29
C1
9F
A2
FD
C6
7C
54
CB
78
42
E8
92
A8
5E
E0
11
00
EE
0C
8E
49
01
BE
A7
6C
FE
CB
91
CB
EB
58
AD
83
77
B2
B7
46
15
CE
7D
09
E0
DB
64
D5
2F
E5
AF
7E
A8
5D
AD
D8
C3
55
EC
9C
02
D7
C9
E6
E8
DD
BB
0E
B4
00
4A
12
7F
17
F6
E6
39
1C
F2
B9
41
D8
72
6D
CB
9E
84
B4
0F
3E
87
2D
56
96
BB
11
61
84
43
69
D2
9A
BA
02
64
50
FC
45
C9
B3
90
FC
70
1D
0E
15
66
9B
52
36
8C
CE
5B
75
8B
BC
AA
BF
E1
35
4C
28
4D
58
16
6D
6E
F2
62
74
59
3F
FB
DE
8E
EF
EA
D4
71
1A
2F
F7
BA
37
5E
87
54
82
46
40
FB
BE
EA
82
1F
56
F4
9C
EF
5F
6C
F5
2C
C1
2F
45
20
D2
DA
E0
31
8B
2B
11
6A
91
85
E9
11
F6
CD
F6
D1
B4
4F
F0
6B
54
40
B9
96
08
73
74
00
40
18
00
3D
A4
6C
15
47
05
3A
5E
BA
89
42
96
73
6C
E3
87
C3
25
4A
9C
FF
C2
47
AB
71
BB
2F
72
7C
EF
B1
ED
21
04
56
3D
D8
27
65
12
0F
D9
9F
3A
37
1A
43
F0
79
F5
62
7B
4A
E0
24
4F
D0
5A
B6
92
8E
E1
F8
E4
99
AA
FC
15
D4
67
85
52
B2
89
60
43
95
60
1D
04
86
6F
76
04
79
E5
32
92
20
19
6D
DC
CD
89
23
3C
9B
FB
C9
4C
F7
FB
30
75
F2
E1
A7
A1
E7
0D
5D
53
43
EE
1D
AB
51
7F
97
E7
21
F3
4B
11
C6
63
55
78
75
4B
50
E1
C6
C7
73
6F
AC
84
98
47
22
1B
0C
8F
5A
79
94
67
72
A8
9E
D6
10
6B
EC
DF
3B
33
A8
FD
D1
3F
CA
FE
A1
71
19
4C
5E
5A
DB
19
70
FD
C8
E5
8E
27
E4
C0
E8
BF
A5
C1
77
20
CD
66
E8
5E
7D
CC
B4
37
55
9A
39
88
8D
03
17
0B
37
E8
9A
C7
80
32
58
5F
92
D3
5F
C5
0D
82
8C
87
B0
56
C1
32
BC
41
1E
F6
62
8F
05
06
83
C9
B8
2C
D9
1B
2F
3E
2C
2B
B1
E7
F5
91
60
44
AE
01
EB
C3
91
CD
D1
EF
B1
AB
37
E3
74
93
A3
A7
36
37
73
C7
D7
F7
19
E7
CB
77
87
36
06
67
7E
DD
74
96
F8
06
21
75
6E
3C
2E
3B
05
7D
D8
C6
C8
59
A8
AC
39
66
BB
2E
19
C3
98
4D
EF
87
6A
A4
BF
9F
2B
87
CB
8B
E3
F1
41
52
DF
84
2B
F9
59
16
C3
C2
DA
68
B0
43
A2
09
20
14
D6
70
BE
63
A2
1A
CC
33
66
F8
5F
30
2F
62
7A
1A
D3
00
0B
EC
48
46
81
44
D8
EE
6D
7F
EA
72
43
1D
FF
87
46
F4
2E
8A
93
25
F5
3C
E7
47
7C
A5
08
30
03
CA
C4
62
BC
7F
26
A2
73
6B
21
1D
9D
97
BC
76
40
9B
C7
77
14
A8
15
F8
90
91
52
BC
10
30
8E
B7
18
D4
15
15
4E
99
ED
35
E0
02
9A
24
6E
FA
64
F3
22
4C
FC
74
46
A5
25
5F
96
DB
12
C6
A6
8D
6B
89
08
FA
97
F2
31
80
2D
9D
4F
5B
97
42
B4
7A
3D
54
26
E3
34
ED
C5
75
28
54
FA
F1
63
D3
1F
0A
D5
13
03
EA
3C
9B
A6
A7
94
36
5A
03
AB
20
F6
A1
BB
82
4D
C0
E6
5C
31
B7
A2
49
A8
09
12
C8
E8
50
C9
6E
0E
46
F5
25
9B
66
A5
84
CF
BF
29
48
97
8C
1A
6E
77
15
CE
4A
0D
37
E7
E8
73
79
9B
90
BF
C0
E6
0E
3A
5B
1A
70
7A
60
B4
73
7D
8C
E2
9E
B8
00
1F
28
5D
25
7E
26
CF
F6
42
C1
3E
FF
84
17
86
B9
C1
2D
2B
98
31
7E
43
29
33
74
BA
54
18
3E
24
A0
ED
5C
24
B8
BB
16
29
24
DE
00
2B
F5
6D
EF
DD
B8
F2
BA
93
61
D0
A2
1F
3D
37
E0
39
82
4F
7B
62
1D
B2
99
75
F6
05
93
55
C2
FD
8B
8D
BE
80
8E
DD
51
07
41
46
16
1F
4A
7A
C7
2B
F3
57
C8
1C
17
FF
41
1D
D0
35
BC
9E
AF
BC
01
61
DE
75
29
3D
C9
10
C6
26
61
0E
27
71
9A
4B
0D
00
C5
81
63
12
0B
68
5A
EE
AB
61
8A
91
8F
88
BE
60
B5
79
69
17
8A
7C
30
CB
A2
29
A4
7D
D7
B7
69
78
17
17
89
7D
32
79
B5
DD
BD
BF
06
10
75
E7
50
04
E4
3E
FC
8A
5C
61
F3
97
E8
CC
8B
C2
7E
86
E4
99
29
C2
64
65
D2
00
36
F5
C8
32
A3
7B
7B
4F
F9
B9
85
E8
06
BA
D7
DD
97
9E
49
29
21
43
65
55
7D
BE
11
CC
C0
D1
D0
40
1C
19
A8
6B
19
3D
25
8B
49
28
DA
2E
C0
A7
27
14
2C
10
28
F0
10
46
17
88
E8
0A
98
F6
A3
0A
BD
4D
C8
55
E9
82
E6
07
13
62
3E
D2
1B
78
96
E5
96
CA
5C
90
9D
E6
41
79
76
A9
D1
69
9C
98
5B
02
34
72
74
1B
1B
44
EE
1B
D8
93
29
BA
D9
6C
F0
DA
50
C4
46
61
03
D6
FE
AE
EB
BE
4A
57
0C
DC
46
3E
71
2F
2A
DF
72
F0
D7
0A
09
4D
36
77
CB
49
37
0E
26
59
4E
62
11
AE
9E
C5
02
30
F2
ED
81
11
52
03
1D
03
B7
C1
D4
B9
78
1E
89
2C
C9
DA
2D
90
AF
19
E9
CE
B3
AB
F0
3F
47
71
C1
8B
00
F5
95
A7
81
E6
76
57
5C
4B
9B
22
29
76
BC
9B
49
54
74
55
