D7
31
77
DF
64
EE
CE
64
F4
C6
13
77
1E
6E
12
1A
AD
EF
86
1A
21
59
69
53
FF
A4
58
E2
A8
8F
4A
6A
CD
1C
AD
7C
DA
F5
E0
45
EE
BB
52
70
43
BC
6A
87
D6
8C
48
68
79
2A
0B
4E
A5
91
71
5D
2D
FA
69
1A
44
4A
A8
86
1A
42
25
30
AA
36
C3
9A
F4
46
0C
EB
CD
19
68
77
C6
2D
2D
A1
ED
BB
8A
E5
2C
89
76
50
11
3F
52
51
1F
55
EE
5D
F8
3E
0C
94
01
5C
4E
7E
A8
C7
C9
4C
EA
3F
52
AC
13
8C
DB
C0
DC
BD
09
95
B9
9B
24
1A
EA
4D
C5
EE
D9
93
4E
30
25
13
31
A0
00
89
1B
CD
C4
A9
29
E9
B5
09
E6
2E
F8
DE
63
01
8D
E9
30
A0
98
B4
FB
E3
EF
DF
61
F8
88
82
B1
B8
DD
28
DC
85
D2
DE
14
2C
BC
36
F9
2F
B3
75
56
43
E7
CE
18
52
87
98
F5
8A
0F
26
CE
D2
71
F2
FB
1F
07
73
06
5A
16
E5
0D
C9
48
0A
38
B9
DF
5E
8A
CA
E4
69
00
C7
21
FE
0A
4D
F4
84
4D
80
ED
86
DF
11
11
AC
80
C8
6C
1B
25
FD
2B
8E
20
51
8E
C4
2F
40
F4
09
23
84
0E
86
4B
11
5C
48
C2
AF
7E
95
78
54
78
D7
06
2B
16
99
10
F8
D6
16
0C
46
C0
4D
FD
CA
15
51
BE
FC
53
81
B4
10
2E
0B
CE
A0
65
42
19
84
4F
44
D0
ED
C1
6E
8C
6C
18
23
48
49
5A
5A
4C
74
42
20
79
3D
D6
30
BF
9E
9F
91
3A
84
90
9C
78
9D
27
32
34
82
D3
6E
6B
64
1D
D5
FA
39
3A
82
E5
DC
1B
A2
1C
B3
2E
FC
C5
A6
EC
14
96
07
74
40
D1
E3
96
28
CD
B0
52
74
C4
E9
38
9C
09
75
D8
F6
D4
2A
D7
CB
62
B0
80
4D
39
AE
DB
F4
21
7A
1C
75
48
51
EB
8B
32
FA
F1
36
20
D6
B1
E9
AD
55
3F
29
9C
BB
62
E6
89
FB
F1
20
E1
32
D0
21
A2
10
CA
A8
50
F0
24
F2
0A
AF
F5
7A
F8
AE
BC
B5
47
74
7F
9E
D9
F2
86
9C
77
D2
59
73
B0
33
56
47
24
CA
3F
FE
A4
DE
11
93
DA
CC
1C
D2
06
AB
E6
C9
40
18
71
A7
62
8D
E1
8E
86
D2
3B
22
0D
D2
E5
55
CB
36
35
5E
03
A2
47
FB
92
06
94
EA
6A
AB
94
B9
BD
37
39
8E
F0
40
B0
6D
B2
7A
23
6E
2A
D1
90
02
FB
BD
F9
3C
7A
A6
4F
4C
F8
37
B4
E3
29
D8
0E
10
EE
1C
CE
AB
FD
59
27
1C
5E
A5
50
F4
EA
54
FD
BD
E0
FB
32
81
1E
06
C0
A2
D2
99
8C
51
C3
C4
A5
22
E9
B0
C9
7B
8F
54
3D
C2
B4
B6
0C
06
B8
E0
B9
60
99
0A
A4
36
42
B1
09
72
29
71
02
EF
1A
E5
A1
38
74
D1
21
FD
75
AE
9D
17
1B
EF
A4
4D
BE
70
C3
68
BE
3A
21
60
B3
F2
9F
1E
46
94
54
66
97
F6
39
96
E8
CD
68
C7
6D
50
97
C9
9D
C0
08
A7
B9
5A
28
95
6F
9E
97
F7
F9
61
18
F2
C8
04
23
28
78
D2
07
95
50
B9
7D
85
88
CA
71
38
F3
C5
68
6E
AD
FB
5C
AA
0C
B9
58
3E
18
77
BA
11
0C
C4
A2
C4
9C
BC
25
70
50
6E
5B
08
52
DB
76
8A
66
FE
D2
8E
A2
38
9F
4A
52
C5
64
B8
DC
9E
70
5F
24
94
FA
91
36
8C
B2
28
27
EF
1B
E9
29
BE
B7
AF
7F
E8
62
91
07
B2
87
77
87
D0
28
2D
13
D0
75
4F
4E
90
16
36
A7
4F
B5
17
F0
86
E7
21
63
37
ED
33
26
54
16
81
21
CE
1F
8A
39
40
89
E2
4D
5C
50
FE
29
83
A2
6B
9E
49
62
81
E9
93
3E
BD
39
56
C2
48
99
3E
23
93
FC
10
5C
98
2F
EC
B0
C9
EC
C5
2D
82
A9
8E
1A
B4
14
B7
9E
0D
C9
86
A1
40
7D
8D
4B
FF
85
6F
64
58
51
B7
BA
C2
DD
0E
B5
A7
85
5F
D8
0D
E5
E1
C1
4E
9D
4B
9D
88
26
51
EB
C1
BF
DC
4A
D2
0A
93
CD
63
F4
B2
A9
1A
59
9E
36
47
24
05
5B
C5
2F
91
BA
C5
08
85
F4
BF
4D
CC
B2
22
7C
41
57
80
07
52
B4
3F
99
21
D0
C9
5D
B5
08
AF
66
B5
ED
61
B7
FD
DD
C4
01
0A
E4
57
D4
63
02
3E
A5
E7
75
24
82
CA
87
D0
8C
84
D1
03
01
3F
BA
68
F2
A5
1D
62
2A
48
42
1A
E1
40
36
3D
53
EF
A1
33
A4
2E
7A
E5
A3
06
2A
A3
66
3E
9B
51
A9
37
A4
8D
77
3B
D8
B0
A0
7B
9D
FA
4F
DD
46
7C
DF
66
3D
13
8F
C9
6D
44
11
A1
1C
F1
4C
DA
72
3B
56
31
01
93
20
BC
59
5E
0F
12
68
B7
BF
A4
38
A2
8C
5E
B8
CB
22
87
29
25
3C
86
F2
9D
F6
43
30
5A
DF
8F
B8
AA
92
B4
C6
7A
FB
99
11
32
F7
22
C5
1C
75
8C
FA
ED
D4
82
E8
99
E9
3E
E7
86
FD
31
1A
88
B9
C3
FB
E7
37
81
75
C4
78
16
35
84
3D
4B
F7
51
C7
32
E8
D7
B0
0D
97
E0
47
BD
E0
12
F3
80
DE
21
9C
47
A1
6C
8C
2E
95
46
54
7E
D7
74
41
29
3E
3B
C3
53
A3
CD
65
62
5B
85
C9
81
53
15
9E
5C
3C
6F
BE
58
51
F3
F0
DD
29
6A
84
FE
5F
0D
8C
90
A0
A6
83
5B
49
EE
C4
DA
B5
B4
52
7C
3C
B6
F8
D7
BA
11
E6
97
DA
4F
66
85
EA
12
2E
CA
F1
BA
11
EC
81
C8
5B
D9
4A
67
61
34
07
C7
FA
13
92
9D
2E
1A
F8
A1
70
E7
CF
42
FD
9F
C3
C7
FF
EF
8D
16
EC
B4
15
78
C7
97
10
BC
61
5F
6A
E3
CE
2F
3E
8B
80
03
79
A2
83
D1
19
B1
2E
68
E2
3C
70
8C
A3
75
D9
3B
74
C9
33
D1
2C
C5
F3
58
F0
43
97
D0
1D
A9
BA
81
73
E4
33
16
94
AC
CC
B3
93
C1
65
9B
A9
EE
95
F6
59
58
AF
7B
76
2C
DD
24
B7
E2
34
F2
8B
E3
0D
AE
07
AF
F0
4B
E2
BE
B3
3B
5C
6C
BC
34
74
1A
80
38
E9
7B
A7
E5
BE
99
30
A2
37
39
12
26
86
E7
A7
C6
3D
BD
BF
AF
78
40
50
FA
3C
19
CE
4C
89
18
D2
C4
E6
56
5E
91
31
CB
45
28
93
8E
C0
9D
1B
FD
B3
39
8D
B6
D8
6A
4B
6F
EA
C2
07
4E
97
F9
F8
AD
E8
86
86
D1
BF
21
04
DC
9F
4B
00
BB
32
64
6E
C9
C6
78
48
63
2E
6E
EB
19
36
EA
F5
4A
8C
A1
D1
F5
6E
C1
EA
2C
42
68
69
ED
60
73
09
5A
D7
18
F1
94
05
FB
B9
C5
8A
F2
40
E7
7C
CB
BB
28
84
6A
93
C1
80
01
39
77
B9
57
AA
19
C4
1C
83
DD
F1
7C
22
C4
C6
BB
5E
89
CC
5C
BC
2B
6A
AC
1A
49
FE
5F
7C
B2
EA
58
DF
C6
5E
6E
A0
76
53
C2
0C
B2
1A
04
A4
70
E7
D7
AB
41
63
15
01
55
7F
BE
A5
D3
4A
81
24
CF
DC
C6
BA
69
6E
26
71
FA
29
5C
77
FC
5C
C7
44
88
95
F1
11
A9
44
46
2F
C2
B0
6C
50
F3
0F
19
41
15
A5
E5
B0
B7
36
3C
69
65
99
DB
39
CA
6A
5B
A2
27
D4
1F
4D
82
0A
09
F2
81
5D
F7
CB
D8
44
24
B9
3F
10
FF
E0
9E
E7
52
06
6B
2C
9B
F9
A5
7B
4F
66
E6
79
C8
6C
24
E6
CC
08
1D
06
EF
44
97
DF
D7
83
51
20
05
9F
E1
83
31
84
D3
13
EE
37
86
BA
1F
37
11
9B
A0
FB
78
58
A2
F3
B7
15
D4
2B
CF
FB
CD
47
C6
6C
8A
8C
8E
B6
F6
83
DD
D1
87
B3
66
BD
01
CA
C0
C3
E5
0E
CF
E6
69
77
AF
E9
81
6D
A0
E6
BB
51
30
C7
78
53
76
1C
D4
00
43
B2
9B
C0
F8
F1
0F
8A
00
C1
84
DC
C0
3C
AE
BC
DC
3F
72
5C
E3
F7
49
57
CF
36
2E
53
C9
18
13
DD
09
BC
65
BE
D3
35
7D
A5
25
34
48
C4
BC
7C
28
2C
DB
84
66
49
86
AC
BC
C5
38
D9
97
43
55
C3
BD
03
B5
DD
9B
B6
DE
21
11
74
EB
15
67
79
3D
5D
29
B0
97
78
D6
E6
8E
B0
07
A7
06
DB
06
0E
EC
7C
A8
C5
1D
E7
02
C0
EC
45
A2
E8
34
CC
0B
06
1D
F7
35
BD
D1
1D
78
35
80
3F
26
B3
C2
CC
94
B2
97
4B
25
03
30
DD
9F
00
A1
07
F4
68
CD
2B
BB
41
83
89
B1
EF
BC
91
30
E1
A9
DE
95
A2
16
25
43
ED
7F
8E
52
CC
79
56
3E
50
EB
DB
6E
89
24
30
26
C2
4D
E3
16
43
B5
90
3E
D8
E1
86
FF
E4
56
18
9D
EA
47
4D
C1
65
26
CD
5D
DC
8D
17
9F
C0
E8
95
C4
32
E9
77
96
1D
BE
52
89
26
BF
1A
81
F6
32
48
36
89
C3
E6
41
DC
58
A6
77
AB
B8
F4
39
9F
04
E7
97
AB
28
AE
8C
3E
F4
BE
DD
3C
AE
F8
11
40
84
6E
D5
A8
84
10
13
50
C8
2D
6D
F6
7A
91
8F
0B
15
CE
A5
7B
CD
78
EB
01
EF
3C
4C
48
B8
0D
EA
4B
81
0C
A2
BB
A4
C5
02
18
C4
AC
E9
F8
2F
7E
1B
E3
08
E2
9F
75
94
44
95
BC
FD
C3
4D
6B
B4
35
D9
F1
18
DC
A4
62
C6
56
F4
15
EE
1A
E7
E0
1D
4F
DC
F6
81
15
23
F1
0D
78
AD
37
A4
81
7B
94
9C
55
33
36
65
30
52
27
52
97
12
B2
CF
D0
3D
82
A6
B9
3B
C3
8A
65
7B
3E
21
C5
00
1D
3D
E3
A1
E0
F8
4A
B1
5C
5D
72
4F
83
79
2E
97
4D
D3
FF
A3
54
DD
44
CF
46
A7
40
AC
94
AE
7F
0A
F7
85
0B
D6
46
60
BC
ED
80
D4
00
BB
BB
01
B5
54
21
BD
DC
51
56
F2
BE
E9
82
A1
67
73
11
F8
6C
1B
2A
16
D1
1E
4B
94
71
BE
4D
07
DE
41
28
D2
50
94
DB
A7
5C
85
69
6B
B2
5B
6C
75
CB
19
17
AD
42
14
17
41
13
92
02
03
D0
9A
BA
55
E9
63
B9
C3
C4
06
48
71
E6
08
17
06
54
80
FB
F9
37
6F
C1
69
AD
9A
76
CD
F8
47
27
AD
86
BB
DB
6D
25
11
46
1B
C8
FD
88
49
1A
4B
6C
80
95
42
66
D1
49
4B
BB
23
88
52
A6
1B
E6
5A
20
4D
55
57
A1
4D
D1
5D
3D
01
49
BB
54
81
05
6E
3C
B5
8B
EE
5C
91
8A
17
1A
48
6D
F9
7D
E2
59
01
90
B1
20
F2
3B
F9
6A
BC
A9
3E
1F
E1
2E
56
5C
56
6F
B1
B0
FD
56
A9
15
9D
B4
FA
3D
60
6C
D5
99
4E
94
2F
C5
F2
87
B3
F3
FB
48
34
D2
C2
79
AC
BF
50
60
2F
20
2B
B9
30
E4
9A
43
9B
A3
0B
3E
09
50
38
BA
6B
E8
36
51
B2
8E
84
DF
3B
5C
C7
1D
06
4F
94
