88
F8
9D
70
11
A7
2C
4E
2B
7A
52
79
F6
AA
8C
10
94
F4
BD
90
37
30
50
17
AF
2E
A3
B4
63
39
A9
24
00
2D
17
0C
9A
CB
61
B6
2C
93
A3
14
3E
2C
BD
07
39
77
94
0F
A7
87
4F
15
3E
94
53
6C
25
03
B6
F1
1C
8C
B6
0A
27
86
6A
15
92
2E
FF
BE
57
22
97
89
37
8A
16
39
2B
AD
7F
A4
C0
3A
70
F0
63
62
66
F5
D6
F4
84
7C
8C
78
59
E6
9D
67
42
72
FA
95
D0
70
30
62
D1
C7
F2
A9
31
F1
72
42
91
B6
F5
F9
A8
6E
E4
9A
78
9B
FB
CA
7F
AB
4A
C6
65
EF
BE
AC
75
42
0B
C6
FF
41
01
5C
3C
BE
6A
F7
6A
4F
94
72
E8
36
8D
D2
7D
7A
21
33
C3
0B
CE
BC
DF
04
54
11
1A
F7
BF
42
22
4C
96
D9
EC
6C
54
63
50
79
31
21
2F
99
FA
6D
AA
1B
8D
67
79
47
D4
9D
53
20
FB
E6
23
C2
CB
AE
96
76
69
A3
61
32
2D
86
20
BB
75
0F
73
C9
EE
91
70
D5
04
CD
08
3B
41
3A
DB
8B
95
C6
10
19
45
26
89
79
6B
1D
94
7A
01
36
60
62
1C
FA
2E
D0
FF
1A
65
31
3C
7E
86
62
63
16
85
25
7F
43
64
07
C6
B9
B9
CA
8F
B4
A5
8D
BF
AC
0A
77
60
5F
33
AE
4C
79
F8
09
73
09
D5
49
CE
34
4A
25
E4
1C
CA
FB
44
4A
91
52
8D
9C
D2
97
CD
2E
70
58
AD
82
99
4A
C4
0A
09
D9
4A
FD
24
6D
9F
13
DE
02
32
67
2B
42
C4
E6
1F
A4
E3
52
24
08
0E
B1
9D
21
B4
47
8F
D7
C6
42
BE
D2
44
E1
DF
4A
DD
93
50
C7
0E
16
A2
D6
1D
D3
FA
7F
4D
B7
82
7A
97
AB
72
36
D7
2E
D2
2E
22
4A
6E
A2
44
44
47
CD
8B
8B
00
28
D3
60
8A
60
2D
66
A5
30
7D
BD
2D
B5
C4
BF
6E
A0
F7
AE
54
D6
A3
25
C1
FD
54
3A
86
F6
2F
90
1C
E4
E6
F0
F7
15
5C
38
66
92
7B
16
DC
B4
3C
B3
07
3E
8B
18
08
DF
8C
BF
BC
D6
39
05
82
BF
0A
F0
05
7B
BF
A9
11
B4
9E
CB
97
A4
8A
E9
2E
B7
F8
F5
48
CB
79
51
96
B8
68
61
33
E5
AA
9A
21
61
F8
6B
68
BB
23
96
6E
6C
81
B2
15
26
56
3F
48
4B
3C
A2
C2
DA
A3
67
F4
25
4D
1F
5B
9E
E4
8B
5C
75
30
E6
04
9C
9A
13
63
E6
8B
F9
DC
EB
B9
48
B9
A6
DC
6C
B3
3F
05
D6
61
0E
2B
9D
55
3D
AE
CC
AA
CF
16
A7
60
83
72
79
76
EF
C9
8F
38
C0
61
07
55
D4
FC
5D
7E
72
6B
27
40
BA
