CB
5D
F3
49
02
12
A0
C5
14
C2
2A
E2
67
EC
C0
5B
40
EF
A6
6D
91
91
54
CE
0C
0F
F6
2B
C6
7B
95
F4
4C
4D
60
FC
D0
8A
57
41
6C
EB
37
2D
5F
4A
7F
DB
5C
88
4F
91
2C
1E
08
C6
3D
C2
BC
91
1D
C6
D2
AB
CA
B3
70
5F
0D
27
8A
62
B4
C1
94
F3
09
EC
1F
1C
C7
29
08
D8
9E
A9
E0
7B
05
0E
6F
D4
D2
F7
0C
1B
76
05
62
F9
12
A6
09
80
0B
1E
05
75
74
BD
FE
D1
BF
2A
E1
18
66
36
65
FF
71
EB
F4
C3
F9
B2
B0
32
F3
EE
7C
61
51
2F
36
35
B6
75
BA
30
C2
0C
96
CF
08
19
B6
7B
FA
39
14
78
85
EA
FB
EC
80
2B
72
EA
A9
0D
DE
2B
E7
EF
DC
C4
5C
53
44
D9
B6
87
86
BC
B0
7A
0F
6B
62
A3
19
1A
62
74
05
23
1D
24
2F
09
22
95
2F
D9
3E
5E
17
51
E6
09
39
F8
95
DD
A0
37
AA
B7
90
4A
1B
E0
59
B6
91
8C
B4
4D
1F
49
63
73
44
D2
FA
63
B5
EB
EC
85
FB
D8
6A
D0
A1
5C
51
D0
9E
B3
AA
02
6D
48
7F
7A
60
37
55
39
83
4A
80
8B
8D
D9
B5
B4
0E
4D
A2
D7
BB
FC
D7
67
13
06
6C
6E
13
41
8E
54
B0
CA
47
15
62
EE
4D
DF
F6
78
8E
85
FF
B8
F2
47
84
6D
DA
9D
C6
14
A0
02
8B
F7
8E
D9
BA
D5
BC
EA
50
77
14
E9
B9
FC
A3
AF
57
51
24
2E
A4
C2
8A
B0
6B
98
65
50
52
42
84
92
2C
6F
7A
A6
4F
AC
76
B0
FC
0C
A6
8E
18
58
5B
FB
1A
D9
FE
A6
32
DE
99
62
76
0B
DA
6E
A9
13
68
B6
6B
9A
95
69
C6
17
0A
5C
ED
90
1E
1E
A9
AB
B2
DA
3B
69
A7
9F
47
C3
A7
DB
CE
49
00
2D
B9
EE
FA
E6
4F
12
C8
AB
47
0B
66
01
E3
0B
92
F7
5F
46
56
4C
7D
45
A4
41
D0
DD
48
22
E3
17
64
24
95
70
38
74
5F
59
30
06
B9
C9
D5
7E
8A
D1
FA
60
6C
ED
82
41
05
C0
F0
36
15
CA
33
B9
CD
7F
EA
7D
DB
A0
0F
45
66
EB
38
86
0B
A0
98
DA
1A
8B
6D
59
80
15
7B
2D
BF
DA
F9
BF
C9
21
03
5E
E0
68
A1
E7
4F
F9
4A
9F
A6
60
26
36
3B
3D
F7
9A
73
9C
17
D6
45
B7
F9
13
B5
87
95
21
98
67
A4
D8
F1
39
8C
3A
93
C8
1A
99
23
F0
B8
8F
96
1D
AF
DE
CF
1F
7C
4E
80
5D
1D
DE
F4
8E
AD
0A
DD
53
C1
8B
9A
BD
7C
4B
33
F9
28
E9
81
92
A5
E7
EF
40
31
D9
94
E3
99
2C
88
8B
47
F5
6E
2D
85
C3
57
FA
C7
E1
33
A0
43
76
7C
F8
B4
23
05
61
37
78
BA
6B
88
20
74
07
18
45
0B
7F
D1
4D
3E
0E
07
54
23
DE
66
29
08
36
C9
D8
49
49
53
1C
42
2D
FE
57
F0
50
A6
AD
1C
15
7D
DE
46
57
BD
36
59
06
26
4E
07
7D
C1
AA
2A
95
02
57
CC
64
A7
DC
22
91
6E
8F
D2
18
EB
A6
6D
85
66
1A
15
D7
8E
1E
CF
45
0C
EC
CE
FA
D5
92
41
B9
05
D2
65
D9
C4
64
94
23
A6
AB
5D
28
E7
57
C6
C2
F5
FC
5E
47
8B
51
A8
88
18
04
28
45
EF
ED
B0
3F
3B
69
F6
F7
14
BE
E2
5E
BC
DB
03
EA
43
22
61
38
DA
6E
C0
7E
DB
79
09
7F
57
01
5D
11
77
51
DF
92
62
28
42
2A
5A
FA
89
5E
1F
6F
48
1B
60
FA
90
A1
FE
AA
EE
02
CD
51
C2
B5
A3
29
DA
15
24
5A
34
F3
B2
72
A2
35
73
99
03
1C
46
03
43
DD
B3
7A
70
79
3D
7A
5F
C7
8D
36
65
4E
5B
E5
8A
C5
10
A9
2B
CA
C5
98
76
74
89
55
BB
CE
CE
70
E6
F6
59
A7
EC
D3
89
29
C5
F3
38
62
F6
B3
D1
33
BD
F4
40
B3
E2
27
96
13
F4
E7
F4
AA
6D
A6
0E
BE
9F
8D
41
82
2D
23
BF
13
16
D7
69
B4
69
78
4A
62
3D
8C
59
3F
E2
28
38
83
AD
28
86
D6
FB
B3
22
57
85
04
56
2B
1C
1D
FA
76
12
2F
B7
32
71
66
94
A2
6B
9C
30
1C
8E
38
F6
28
38
72
8B
DB
25
55
A1
E4
14
91
B6
1B
EB
15
3A
8F
32
46
5B
23
A6
E7
A7
05
D6
75
F2
3E
13
49
E2
A0
E9
00
9A
92
F1
E4
92
76
01
7D
53
E1
EC
9E
9E
B3
1F
00
11
6B
6E
6D
B6
C8
5B
65
D9
8B
F7
22
58
F0
83
0C
9F
2A
06
97
93
FF
02
07
15
44
18
B3
B3
8C
6F
F5
48
22
F9
02
BF
8F
08
71
F0
68
D6
F8
BE
05
D6
3C
20
97
F0
CF
7B
DD
19
81
B5
48
E7
0F
5A
07
3F
2F
93
D8
11
52
F6
A1
D7
6F
32
FB
5A
57
3C
19
EC
77
C2
1E
01
B8
2C
49
00
7A
92
04
2F
A3
EC
23
CF
D1
2E
CA
BE
45
2C
23
6A
F5
CD
30
D7
0C
19
13
A3
D0
67
5A
BE
B6
60
51
4A
56
EC
64
19
6A
74
6C
FE
41
A6
EA
05
B7
E7
76
19
9F
A9
A8
DC
B4
90
70
2A
62
65
0A
79
AE
10
86
80
9A
CA
03
08
FF
1A
DC
1A
E5
16
33
46
6C
BD
A1
74
B7
73
51
75
D5
6C
04
02
C1
09
7C
BC
99
46
2C
C8
A4
7C
D6
81
C6
54
59
7B
E5
97
50
49
87
F4
F2
1E
B2
B4
B4
54
7F
1D
2B
FA
E6
18
E0
39
AC
E2
C5
44
C9
AC
23
92
DA
0A
26
69
94
23
66
B4
65
AF
6A
54
98
7C
48
01
54
6A
BA
B4
75
7A
02
C2
B9
53
45
2E
7F
D6
48
72
DF
5C
50
34
5E
2C
61
B8
A5
D5
AA
DD
B4
9B
17
E1
2B
0D
30
18
54
05
91
22
24
A8
F3
9C
9A
17
62
CB
63
54
30
56
E9
E4
0B
DB
B3
FF
BF
6D
F5
37
B4
90
1E
77
CD
4F
15
B2
BA
B0
BD
D6
5F
B7
EB
9F
D5
C8
49
FF
27
82
63
4C
7C
15
A7
78
2A
DE
05
FA
F7
8D
79
46
FC
82
1B
00
EA
25
77
B4
B9
56
61
25
8D
14
4F
36
73
B2
5E
E8
71
17
AD
E1
41
5F
DD
C6
00
2C
4B
D7
04
C4
BC
03
B6
E0
84
A3
AB
AB
DB
A0
90
2E
78
F8
F4
B8
E4
02
F0
92
13
5A
1B
A1
98
1F
98
82
56
26
C1
26
D1
2B
FE
5B
88
3A
27
4A
E6
93
DA
BB
67
C7
CA
89
FE
1E
F4
A7
DC
DD
5E
01
B5
E1
53
ED
AA
49
B6
2C
E2
3A
26
E6
D7
20
ED
9A
CF
FF
CB
34
71
C1
9E
88
36
44
C9
66
EE
B2
EB
80
84
21
36
A0
8E
2A
3C
25
4E
C6
C3
38
FA
66
FA
A0
34
FC
94
AF
F8
72
DF
02
D7
09
1C
1F
ED
89
1B
0D
8A
EE
22
5D
89
88
EC
39
E4
34
4B
A2
01
68
5B
88
E4
17
80
7F
42
39
9F
24
C8
0C
AE
ED
91
AC
2C
66
41
1D
ED
0B
47
81
C2
54
94
DE
97
D1
9E
6E
FA
8A
BA
E1
AB
1A
C2
94
C9
57
11
5D
4F
E8
DA
A4
9D
AA
68
F2
AF
B1
26
BE
72
61
03
13
70
13
68
61
58
8C
D7
5F
DB
2E
69
44
6B
07
A3
77
64
E4
B3
0A
54
C4
AC
E0
77
46
79
2C
D5
3F
12
BE
6E
2B
EE
A2
E4
F3
BE
A5
CF
0B
C4
1C
F3
68
A1
25
F4
03
CB
19
6B
27
61
C8
53
92
05
D5
8B
B5
6D
9B
79
00
6B
AF
93
76
95
B7
B4
EA
B6
AD
A6
F6
BA
37
E5
8C
FA
A0
00
31
2B
63
7E
B4
82
BA
D7
F3
71
E0
1B
A9
DD
A4
44
6C
3F
61
5E
98
BE
DF
78
2B
84
E4
8C
6C
04
71
D7
61
E4
E2
6A
E2
F6
31
FF
BC
1D
C2
2F
50
7C
7D
CB
D9
24
78
09
94
78
5B
06
B2
03
FA
AF
4B
AC
66
5E
4F
06
24
FE
33
32
49
3F
3E
20
51
EB
53
56
D1
F6
B5
D7
EA
AE
89
81
A4
43
56
7F
6E
D7
F6
65
7F
F1
6E
5D
77
41
DD
25
01
F0
FE
DC
57
9F
3A
98
E3
D6
07
C2
83
0F
32
3B
1B
19
84
01
0A
B5
4B
C2
82
00
AE
C0
CD
A1
20
64
B4
CF
D4
E6
0D
38
CA
EA
15
EF
8C
2D
96
5C
FD
68
80
E9
37
22
3B
CA
42
B1
81
8F
0C
98
2A
BD
31
B8
DA
53
F7
E6
9A
93
E8
BC
D0
A3
B8
7B
0F
25
E1
BB
5A
4E
1B
5E
A4
CD
67
7A
8A
69
61
1B
BB
4E
5F
08
1B
72
56
71
87
C5
57
9B
4C
4D
C0
E8
C6
A5
97
FF
81
57
FE
A9
A0
43
C2
45
DF
01
7C
D4
5D
36
50
5C
0D
4C
06
50
83
21
49
01
E9
78
52
30
F0
3D
17
36
4A
2C
88
7B
67
28
71
CA
3A
CE
0E
12
F7
9D
70
94
A2
89
B7
D9
49
99
79
C3
3B
CB
55
5F
0F
96
F9
62
CB
20
FF
E3
52
A4
90
06
0D
D2
12
B8
95
D0
08
B8
50
F5
3F
97
DE
E9
B8
6C
3A
5A
25
E4
F9
3A
D2
1A
B1
48
87
63
78
96
85
C0
96
A5
B0
D7
0D
14
65
44
CB
A2
AC
A7
C1
1E
94
B4
CA
1C
F7
C7
82
A7
5C
10
40
ED
21
8B
90
7C
8B
6C
A3
7A
26
0D
22
C2
5F
CB
B0
C3
05
33
F9
6C
50
3E
FC
5B
1F
4A
AA
20
BB
10
F4
42
87
E8
3E
DF
A5
50
7C
1C
DC
2D
38
15
DE
DB
46
46
92
FC
5F
30
F4
80
51
FE
B6
F4
E7
46
08
14
70
A8
B3
B5
CA
FE
9B
24
83
CD
0D
00
10
C7
E5
DC
6C
5E
5A
50
12
B7
93
CD
71
2C
F8
2D
33
8A
03
C0
04
74
FD
6B
25
62
97
7E
32
C3
DA
0C
52
68
4B
AE
9B
13
1B
F3
E1
6E
62
EF
28
12
D7
F0
4D
59
9E
B4
6F
51
FA
9E
F6
B2
42
E6
40
6A
DD
36
1B
20
BF
B2
6A
37
DA
12
AB
F7
74
9D
E3
06
10
98
6B
C7
85
0F
35
38
EE
69
54
4C
6A
66
74
6F
D1
65
E4
0A
BB
59
55
14
E2
F6
17
B6
DA
AF
44
B7
50
F4
FE
BB
0A
7B
56
8D
A5
F8
AF
F6
64
79
37
6F
E9
D8
F2
40
A1
4C
CA
84
AE
78
2D
15
9F
E6
E2
A7
6A
45
46
EA
77
1D
AB
FE
B8
D2
36
42
AD
44
6E
C6
ED
48
B6
B8
A2
3C
55
8A
DB
63
87
0F
F5
B3
41
C5
95
AF
B5
C2
8F
4B
A8
79
ED
C4
84
20
69
B6
97
4F
75
F2
11
B2
E7
E4
0F
43
4B
A2
47
88
04
46
44
66
D9
DE
9A
F4
19
A3
95
00
4C
6F
73
09
97
FB
4C
2D
EB
B4
C3
4A
42
7D
64
20
1F
56
CB
11
96
F9
D8
F5
B0
18
13
E1
F3
DD
99
10
E4
E7
09
98
76
C0
3F
80
BD
C4
F3
88
65
A2
72
EB
6C
39
A7
21
E5
71
86
9B
CC
37
31
7D
4E
F4
C9
7E
41
71
11
66
8A
D0
34
BE
