96
1A
58
6F
6F
BD
C2
94
74
BF
A8
50
D3
B7
20
9F
40
25
D0
86
EE
05
62
19
6E
A3
96
11
C4
EB
76
D4
B0
1E
06
94
AB
6A
96
8E
8A
16
BB
B5
72
E9
8F
8C
D6
5B
CC
AE
BB
B3
90
81
EF
7E
4A
70
85
B0
EA
98
9A
87
13
96
A8
15
24
B8
3E
B9
4C
16
40
45
18
33
EA
EF
62
E4
AC
A1
8D
0F
18
A3
19
58
42
10
EE
8C
EA
79
9F
0D
4E
00
21
2A
33
8C
E2
77
6B
22
13
0F
20
E5
F2
6B
84
5B
AF
3D
10
49
BF
E2
90
A1
2C
CB
95
53
F6
84
50
E5
A5
F9
5A
3C
65
AC
5B
0E
3F
01
54
24
C5
50
06
AC
C4
8F
3F
FE
F6
25
4A
AF
39
EF
EF
CC
69
5E
B1
F0
34
29
BA
FC
3B
B3
3F
28
71
57
F2
42
A9
4C
D3
E7
9C
6E
68
19
1F
88
25
08
40
FB
7B
0B
B4
85
21
1F
C5
94
74
4F
22
F8
72
99
CF
85
FF
0B
97
C5
2B
42
80
09
16
F9
89
6A
57
F3
06
BE
EF
8A
D5
4A
1C
CE
D6
88
DC
F7
0C
5A
F5
43
91
F0
73
60
26
66
A4
16
58
04
72
B8
9C
FB
03
E7
8F
8C
B3
68
A2
1D
91
57
84
65
66
03
B3
8A
0C
F4
12
93
42
D6
AA
F1
27
37
AF
52
F8
DF
3D
26
42
55
B9
D1
9C
2F
5E
97
9B
98
83
3E
28
95
15
1F
78
A0
66
BF
27
44
FA
D3
29
36
EF
9E
85
7A
80
85
B1
A7
02
8C
D3
00
55
AB
DA
E9
1F
29
00
26
E2
2C
DB
14
2E
AB
F0
DF
AB
8C
8F
72
9F
BB
EA
F8
F5
FA
39
27
5B
46
D5
B0
55
3C
CF
3C
EF
51
DD
03
72
FA
6A
59
8C
F4
97
1D
D1
FF
49
B3
1C
56
09
74
D0
14
5F
11
31
90
61
A8
EF
87
13
AB
E9
64
9D
F8
9A
95
7D
BD
39
AF
56
ED
E6
C6
D8
EF
BC
FE
EE
7D
B5
27
DF
B9
7C
21
6A
1B
87
53
02
84
55
1B
5A
03
1B
4E
8F
15
47
C7
