47
11
D5
24
D2
28
96
B0
D6
DA
34
02
9A
F3
0B
F2
27
F2
1C
05
DF
9F
D2
A1
19
88
2B
96
1A
58
6F
6F
BD
C2
94
74
52
7C
70
86
7F
A7
9C
84
B1
DF
1A
33
A9
1A
E9
01
9C
A9
23
C0
A6
30
35
6C
BB
5E
15
BF
A8
50
D3
B7
20
9F
40
25
D2
5F
54
71
E4
30
C3
E0
D2
B7
72
BB
60
9E
E9
44
6E
21
A7
3B
0F
22
75
FB
16
13
2A
D0
86
EE
05
62
19
6E
A3
96
5F
CF
89
2D
0B
92
F4
35
47
54
0A
5A
84
B6
99
3C
69
A8
AF
70
DB
9A
C6
A0
74
27
BE
11
C4
EB
76
D4
B0
1E
06
94
19
95
66
6A
84
70
FE
98
15
FA
1F
42
CE
8B
2A
BD
0C
79
F4
DD
9B
AD
77
07
A0
2A
55
AB
6A
96
8E
8A
16
BB
B5
72
60
57
8B
0D
EA
06
E7
7C
11
30
7E
B3
F1
26
4A
34
74
30
44
0E
1D
23
76
A0
19
FF
66
E9
8F
8C
D6
5B
CC
AE
BB
B3
26
9A
E2
FE
A0
4B
E4
81
99
4E
ED
7A
AF
66
06
71
C0
FF
62
7C
F0
C2
73
21
A5
A9
DB
90
81
EF
7E
4A
70
85
B0
EA
85
1A
74
DE
2D
6A
02
CD
31
38
8A
E7
A5
42
7D
73
69
00
31
00
D7
AC
FC
B7
91
52
19
98
9A
87
13
96
A8
15
24
B8
47
C4
0B
7E
DB
33
66
9E
49
9B
3B
31
10
F7
E8
14
F6
86
C4
76
BD
D1
BC
37
9C
F7
ED
3E
B9
4C
16
40
45
18
33
EA
CD
E7
EB
D4
95
38
DD
55
F5
3C
94
76
05
93
C7
F3
19
C6
A0
7C
A6
4F
76
88
8B
26
55
EF
62
E4
AC
A1
8D
0F
18
A3
15
25
FE
8A
32
16
0F
E6
96
16
1F
21
AF
C3
DD
74
C6
D1
35
60
67
74
41
26
B1
A3
61
19
58
42
10
EE
8C
EA
79
9F
D4
B2
6D
75
E8
58
66
72
89
65
7F
2E
F4
05
2A
C7
B6
CE
69
4D
FA
C0
70
38
08
66
01
0D
4E
00
21
2A
33
8C
E2
77
81
63
05
68
98
9B
66
DA
0C
B3
34
ED
E1
20
FF
EE
32
34
DE
B5
B9
04
BF
EE
21
94
3E
6B
22
13
0F
20
E5
F2
6B
84
82
48
CE
61
FE
FB
8E
15
E9
FF
39
07
77
2A
0D
FC
BA
1D
EC
DA
45
AB
99
AA
F6
6A
D7
5B
AF
3D
10
49
BF
E2
90
A1
F0
89
F7
95
92
95
03
B7
42
09
07
1C
D1
4C
0A
6E
66
12
41
F7
48
01
73
4E
73
B5
BE
2C
CB
95
53
F6
84
50
E5
A5
42
B3
E8
F6
8A
1A
D6
3E
78
80
18
4A
5D
1A
B2
B7
C3
B5
C8
7A
C4
C3
DD
C6
80
50
0C
F9
5A
3C
65
AC
5B
0E
3F
01
3E
D6
4F
9D
1C
48
A5
69
D1
DA
78
E4
0B
96
B7
19
4C
E1
20
14
28
2D
58
82
81
D4
B6
54
24
C5
50
06
AC
C4
8F
3F
CF
7E
2A
68
AF
7B
EE
FC
17
BC
7F
38
62
0C
AF
63
95
E5
86
88
63
81
8C
BB
8A
70
F9
FE
F6
25
4A
AF
39
EF
EF
CC
AD
F4
4A
36
1C
00
7C
D8
A2
F3
2E
3D
EF
B9
A0
A2
F5
43
02
48
8E
AA
A3
0A
3B
A3
3F
69
5E
B1
F0
34
29
BA
FC
3B
E8
07
D1
EC
2A
E1
07
05
CF
96
B9
5D
49
E7
1F
E1
B0
EF
87
1A
BF
34
32
F7
9F
D6
D0
B3
3F
28
71
57
F2
42
A9
4C
01
63
A8
56
97
CE
D3
44
D6
C4
D0
01
41
73
7B
FF
A5
E8
24
AE
1E
FE
AE
DB
72
07
50
D3
E7
9C
6E
68
19
1F
88
25
1C
66
F2
FA
C2
E4
DF
28
F9
D1
6D
A6
4D
E5
42
CA
FF
2E
F5
BD
18
3B
C5
9D
2F
3D
11
08
40
FB
7B
0B
B4
85
21
1F
42
3D
5F
9F
F5
DD
11
A2
59
3B
15
4F
91
6F
26
E6
88
C5
64
5E
25
AB
AD
9F
56
1E
0D
C5
94
74
4F
22
F8
72
99
CF
40
73
A2
1D
94
C5
7D
66
1A
91
1C
D8
69
9D
78
F2
7A
51
A9
23
C5
F0
0D
68
F6
EB
2D
85
FF
0B
97
C5
2B
42
80
09
63
61
DF
7B
1B
C6
A6
14
AC
AD
C4
E5
10
04
1F
AC
7E
0A
63
E8
7A
31
6E
B0
A7
F2
60
16
F9
89
6A
57
F3
06
BE
EF
82
33
32
37
4B
40
56
D3
E6
50
4F
D0
CB
56
93
CA
C1
13
94
37
F7
EC
6E
33
2D
49
C2
8A
D5
4A
1C
CE
D6
88
DC
F7
9D
4C
A2
D9
44
A8
D9
25
88
C1
05
4A
54
44
DD
F0
0A
51
C7
F3
44
14
D2
2E
62
A2
C3
0C
5A
F5
43
91
F0
73
60
26
C1
93
83
60
D7
EA
9E
89
9E
8F
05
F7
A0
22
67
93
A6
D9
06
46
5D
8E
28
A5
AD
FC
4F
66
A4
16
58
04
72
B8
9C
FB
DB
98
DA
F5
BB
1F
56
89
1E
20
6A
0B
0A
5E
AC
80
56
B5
9F
24
78
C5
FD
41
81
74
96
03
E7
8F
8C
B3
68
A2
1D
91
1A
F2
AD
03
E2
0A
A9
EE
01
DC
AC
0C
66
83
7B
AA
64
90
6F
99
14
AE
99
D2
39
FC
77
57
84
65
66
03
B3
8A
0C
F4
AC
83
C1
8A
54
81
37
E7
5C
EB
A5
75
13
74
B5
B6
FE
5C
BC
7F
3C
FD
71
D1
25
90
7C
12
93
42
D6
AA
F1
27
37
AF
18
26
26
20
81
0D
D3
80
78
A6
FA
C3
9F
CB
E0
C3
19
24
CF
35
C5
01
3C
7C
A8
26
CD
52
F8
DF
3D
26
42
55
B9
D1
E0
2A
F4
A5
00
BE
59
89
32
83
21
2C
04
13
25
DC
0C
40
55
DF
92
7B
89
36
8B
2F
F5
9C
2F
5E
97
9B
98
83
3E
28
38
53
73
15
72
C9
5B
F6
22
A5
9F
A4
4B
99
B3
84
5D
6E
35
C3
04
79
A9
12
E1
07
BE
95
15
1F
78
A0
66
BF
27
44
CC
A4
D1
40
B8
12
06
08
AE
DA
BE
CD
B5
33
94
1E
82
C9
5C
D1
7B
3F
4F
9F
34
4B
9C
FA
D3
29
36
EF
9E
85
7A
80
44
70
DF
34
D7
0D
78
74
67
AC
2A
BC
F5
C6
E3
C0
A0
BC
CF
DD
C7
98
E9
21
D7
88
58
85
B1
A7
02
8C
D3
00
55
AB
FB
E1
D6
8B
0F
D8
A4
D0
F1
B5
E7
16
73
9B
BB
42
4B
01
01
6B
CC
5A
01
4C
6C
DF
70
DA
E9
1F
29
00
26
E2
2C
DB
58
56
8D
F6
AD
A3
67
19
FF
38
E4
EA
DF
7B
39
17
FD
BE
BA
C3
D7
02
40
43
6F
53
3E
14
2E
AB
F0
DF
AB
8C
8F
72
88
C2
FF
20
E7
93
15
1A
F1
B5
51
B8
D6
59
13
04
7F
FD
E5
19
B1
2A
BE
9D
4C
F6
85
9F
BB
EA
F8
F5
FA
39
27
5B
DF
5B
22
E7
F1
43
F6
C9
0E
86
5E
B2
23
23
D3
3B
F0
6F
BD
18
3E
BB
A2
A3
44
9D
2F
46
D5
B0
55
3C
CF
3C
EF
51
A8
70
B2
B6
49
CD
5D
C3
17
5D
A9
DF
D1
33
60
CD
30
15
76
20
91
50
96
62
06
37
D9
DD
03
72
FA
6A
59
8C
F4
97
C4
F1
64
0B
3B
50
8A
20
36
DD
04
4A
0F
62
73
6D
E2
6C
87
73
FF
23
2E
29
D9
99
F2
1D
D1
FF
49
B3
1C
56
09
74
96
2E
45
C2
F4
BA
69
DA
0D
7B
15
1B
4E
74
D1
94
B0
61
92
81
20
BF
34
14
98
44
8B
D0
14
5F
11
31
90
61
A8
EF
16
BD
7B
79
38
E8
75
83
EA
6B
8A
5C
D0
7F
45
F3
B9
88
D5
5B
8D
E9
22
89
5C
12
7E
87
13
AB
E9
64
9D
F8
9A
95
12
D7
23
D9
B4
1E
FF
CB
66
1D
34
7E
B7
95
49
57
4C
9A
CE
78
D1
09
33
CE
96
1E
85
7D
BD
39
AF
56
ED
E6
C6
D8
20
DB
30
0E
E6
1E
FA
D4
E7
3D
DF
8D
11
16
4D
67
48
C4
80
96
A0
23
53
55
9F
07
3E
EF
BC
FE
EE
7D
B5
27
DF
B9
10
38
A1
92
12
26
F3
EA
DA
AA
03
3D
45
71
89
E8
E2
A3
40
CB
77
5E
C5
9A
64
22
8A
7C
21
6A
1B
87
53
02
84
55
98
73
B4
8E
C3
9E
58
1B
49
E3
73
FA
C9
F4
24
3D
57
51
EE
C5
54
17
04
F3
0A
3E
34
1B
5A
03
1B
4E
8F
15
47
C7
