<<<<<<< HEAD
EC
60
E0
9A
1D
14
41
03
1A
C4
70
CE
70
2A
BA
B3
79
20
4A
2D
18
0C
6D
C1
50
36
CF
55
CE
B8
9E
A3
72
08
CE
B7
78
F3
D7
51
96
FB
51
66
EA
F3
3C
79
C3
92
C2
99
1B
89
4A
EF
E9
6C
0F
69
61
D2
B5
A8
EA
FF
73
5D
68
13
1B
FA
52
47
DE
8A
40
CF
04
35
8C
6A
05
35
CD
D3
41
DA
9C
5A
99
9C
A7
0C
44
DC
9F
28
21
2B
8E
3F
7B
B1
CB
92
09
E3
B7
6B
0B
09
71
89
93
69
E0
60
8E
FF
70
E9
86
50
B8
11
70
46
86
8E
E1
7D
99
D8
BF
37
91
F4
87
8C
1D
BF
71
06
B1
E5
25
9A
C5
DC
DF
CB
00
DE
FC
6F
05
84
FA
AA
79
AC
B7
98
CA
66
F1
5A
93
9D
7A
75
97
3E
2F
D9
C6
FD
2E
0A
46
6A
E2
EC
0E
EF
D3
D6
0F
D6
A7
C7
00
8C
85
C1
E0
31
7F
62
B9
9D
3D
CB
F7
97
5A
2F
80
D8
6A
6B
BA
C0
A3
D2
8F
C0
C4
84
25
ED
7A
15
7C
B4
58
88
D4
1B
8F
5C
16
A7
7A
CA
0B
D8
95
A0
32
4F
92
D1
87
87
93
E5
F2
38
4C
08
C1
03
B4
77
B8
C1
9C
A1
95
71
5C
CF
4C
23
4F
A5
8E
DB
B3
7D
56
C4
9F
06
C6
6E
EA
A7
25
52
BF
FA
AE
FE
C0
A5
C3
DD
40
E3
9D
6F
CF
04
A2
11
20
95
D7
11
F1
82
59
2F
77
98
A1
CF
52
B5
A9
6B
11
DE
EF
1F
CB
D0
6D
C1
4F
60
3C
A9
2C
29
63
59
05
78
96
8D
05
7A
A6
B3
83
E0
93
9B
20
F5
F1
8F
F9
F8
6A
FD
EC
0D
C2
5D
16
30
4A
45
C1
F8
A9
77
FC
01
2D
42
6E
6B
5D
DF
77
93
CB
12
AA
83
D5
C2
93
3E
C4
1B
3A
37
32
9D
88
26
78
06
95
52
8B
AB
C3
E2
46
EB
D6
31
54
98
A5
60
DF
97
58
A5
09
BA
58
46
11
F6
8A
57
CA
7E
5F
16
68
BB
9B
6A
81
33
30
88
F2
E7
2D
88
F9
EE
B4
CF
A2
D1
7C
98
1B
DB
70
F7
1C
A0
CC
31
9D
CE
AE
71
7E
9A
5E
49
AE
38
E0
4B
6C
90
AF
07
17
A1
28
3F
26
1B
1C
F3
9B
CB
08
45
70
5A
F0
A3
7C
59
D9
74
4A
AA
C2
3A
05
E6
35
EE
31
42
A9
8C
0E
07
20
5B
E5
33
4E
9B
F6
CA
A5
29
AC
84
56
C5
5F
4C
9B
F8
6A
24
D2
52
26
36
54
95
AB
6D
D1
C8
AA
F2
76
51
45
8A
94
EE
1E
DB
6C
F8
82
83
98
66
87
F3
A7
97
2F
B9
D4
16
2D
DD
2F
A2
76
B0
9B
C6
6C
DC
DB
0D
76
3B
C2
D6
F4
CE
BA
9F
AA
FB
55
2D
08
3B
D7
7A
82
89
F6
50
BE
C9
4E
21
CA
D7
13
AC
0B
B6
62
A5
0E
D7
D3
D5
91
47
F0
91
AD
8B
D1
15
6C
EF
A7
29
DA
02
8C
A3
1E
4B
A5
CD
D8
C9
EF
3D
4E
63
94
92
BE
E9
D6
CE
CC
5E
FD
67
C1
54
79
69
B5
AC
4A
ED
2B
02
DC
5B
68
DD
D3
41
4E
DA
6F
2F
6B
61
E7
B1
84
4A
59
5C
75
5B
F2
3B
7C
2C
2E
1A
3F
AA
E6
8F
B3
E6
F0
5D
51
76
73
F2
AA
03
6A
90
49
D6
54
8B
5B
72
27
58
0E
36
19
4C
08
3F
9A
E3
6C
CC
43
46
45
68
30
76
93
FE
76
22
D1
C3
51
1F
AB
DD
A1
B3
CB
46
EE
2A
A4
3A
D6
72
F9
76
AC
10
AF
D4
DF
8C
99
0C
1A
7C
30
4E
36
87
02
04
E7
CC
17
D2
0D
59
8A
8A
20
8F
17
09
E8
E5
4A
74
8F
45
BC
6E
70
64
3A
C2
6A
79
04
34
BE
97
E9
EB
0B
74
05
FA
CA
4C
6B
60
DF
4B
17
1A
90
D8
DA
76
70
45
69
80
10
4E
D1
1C
69
F4
07
0C
96
F8
8C
D6
76
7D
DD
FD
F4
42
CD
18
52
65
33
5B
C0
2B
26
2B
B7
D4
45
7D
9B
79
BE
AE
DB
0D
CB
9D
55
F1
F6
1D
5F
70
A3
01
6C
E9
A8
59
E8
7B
92
FA
01
F7
5E
CE
A5
CB
B3
FF
16
CC
86
C6
45
65
DE
F0
D3
6E
38
0B
0C
4D
2E
46
7E
1C
56
CC
D7
7C
29
B0
C9
7B
6F
09
6B
91
9E
10
DA
71
AC
7A
7D
62
86
B5
E7
6E
A5
10
60
B7
F0
DC
A2
8C
A8
8B
D1
80
E7
D8
EF
0E
88
BC
5B
30
40
05
2B
9F
6E
63
CA
D0
A8
5D
53
A4
45
7D
EB
1F
6A
DB
C9
C1
E9
60
0D
ED
4B
87
5B
DA
9D
A1
53
EB
D5
7F
8D
AA
20
75
5C
39
00
A7
E5
F4
5D
AB
A8
91
E9
38
33
67
A4
5A
74
E7
46
05
A6
D0
89
58
1D
B7
BB
F0
9E
D7
A8
95
FD
FC
71
5E
A9
92
5F
58
4A
27
5B
13
5E
C7
6D
CA
F2
5D
63
58
4B
CA
D2
30
3C
BF
57
71
55
43
BF
03
D7
C1
A1
24
E8
68
87
FA
CF
1D
84
CB
02
BF
A5
09
45
43
45
F7
C1
38
B0
AC
A8
11
7E
94
69
C7
81
2F
A7
BE
6C
2B
84
86
F7
7B
BD
73
BB
7F
C5
F5
C7
2C
17
5C
6D
64
A6
73
87
1F
76
DF
18
E1
78
46
F7
A0
6D
30
4F
7E
3A
C1
89
9E
B3
28
99
0C
A5
D8
8C
BD
F2
B5
B7
C8
A7
E4
7E
24
E3
BB
92
A0
91
DB
55
B5
10
97
16
3D
5E
B6
94
AD
19
C2
EB
F9
51
A7
6B
A5
74
D0
55
BD
6C
83
A9
71
87
85
FA
33
9F
84
5C
6D
2A
1C
88
2A
18
E2
33
46
3D
E0
4C
49
12
EB
B7
D9
D5
C5
4C
6B
BE
D6
1F
0B
9D
D0
EA
5D
25
A2
E8
44
5C
0E
2C
8B
CA
0F
3C
B0
DE
AC
EE
0C
7F
FB
70
24
25
30
E6
48
C8
67
FB
F9
F9
87
31
5D
69
EE
D4
46
4C
84
51
A6
57
6B
74
41
53
16
62
6C
0F
C5
B3
C4
54
A6
1A
6F
0A
30
C4
97
06
EB
0F
D1
03
CD
80
F0
68
42
06
62
5E
48
E2
32
EB
08
B4
6A
E9
12
AE
5B
39
A2
DF
77
C9
03
94
29
26
BF
77
2C
1F
9B
3B
2E
A2
B0
03
A2
F5
CA
31
D7
2B
51
D1
CA
FE
2F
97
74
C7
AB
D6
0F
67
31
1D
3F
FE
1F
82
00
0D
DE
8B
AF
7C
30
A4
5D
0F
80
22
AC
C7
6D
B5
15
66
2A
51
BF
D4
76
6B
E6
CD
AF
32
D9
89
65
00
84
A6
EA
EF
BA
7B
3B
12
2D
77
47
FA
F7
BE
1D
A3
7B
42
D9
E7
36
E7
05
03
7A
AE
BA
89
DB
8F
5F
E1
F0
5A
3D
43
83
1C
F3
AC
71
94
F5
F2
EA
25
5C
E3
BC
A8
AC
73
BF
81
77
7C
A1
DB
81
D0
59
2D
3B
7A
34
83
80
AA
88
45
55
BC
6E
A2
BF
9E
F7
B3
FB
48
AA
A9
5D
D7
9A
7E
60
F4
59
09
5C
29
67
FF
CF
8B
6E
30
FF
98
E2
64
BE
25
03
DA
AB
01
20
AB
59
37
68
C4
A1
1A
10
22
70
96
B4
B6
4C
ED
40
0D
44
1B
8D
18
8F
1D
8D
EA
03
21
D0
FC
9A
5E
F0
FE
28
88
62
42
1D
F7
71
78
B3
59
9F
F2
AE
7E
8E
A9
4B
84
13
2E
7E
B8
85
AC
58
1B
11
10
D3
1B
A4
67
24
24
EC
13
64
20
63
45
55
54
93
57
53
A5
E6
28
95
BC
76
D9
93
E0
CA
F5
24
DC
70
71
51
34
82
E4
14
4B
1D
C0
0D
5B
B7
7B
F8
B5
69
6A
B6
67
73
85
F5
19
D3
8A
11
62
A5
82
B9
C1
28
93
54
37
61
07
52
8A
07
81
31
33
04
9E
EE
67
CF
FC
13
5C
93
AF
3F
95
FC
47
55
29
52
B3
B7
51
14
DF
66
0F
21
EA
9C
5E
8E
92
A3
27
A6
3C
D6
D3
11
A4
98
49
0E
3F
E5
38
69
29
16
BA
35
0F
7C
73
1C
D0
3C
10
FD
41
91
5E
41
C6
A3
3C
BC
93
01
10
59
A4
A0
E7
8A
28
3A
E2
CC
85
E0
AD
1C
6F
6F
6A
7A
48
15
2E
8C
92
E0
DE
84
43
A0
6A
44
11
5C
7B
45
33
EC
D4
E4
13
72
A8
D2
CE
94
44
8B
18
39
E3
D7
C8
4A
B3
39
90
E5
59
1C
01
FD
C5
4B
95
4F
5C
49
D0
E8
CE
63
BE
A5
A4
39
53
56
21
55
9C
A0
AC
80
D8
C9
98
D7
35
B7
C9
73
6C
B8
36
28
1B
24
EB
88
9F
FD
3E
EB
B5
E6
DA
BF
E7
96
25
E4
28
16
46
1D
48
9A
BC
AD
98
39
2B
F0
08
33
E0
B9
99
9D
CC
60
2D
A6
44
B0
84
91
7C
1F
86
0C
C0
81
FA
04
04
61
4C
F4
BA
76
32
32
0C
C0
A2
F2
28
58
28
35
37
70
19
B7
F9
99
85
F3
54
A8
77
CD
DB
18
F7
D0
07
14
4A
2D
E6
54
BD
37
71
C5
0F
8E
63
6A
1A
B6
CF
ED
B4
61
5B
51
C6
18
9D
0D
AA
2B
9C
03
66
CF
24
AD
2A
0D
BE
1E
C1
C8
AF
18
7C
21
93
66
5E
DF
DF
79
43
9F
3F
C0
26
5E
C1
6F
5F
29
34
6E
2F
9A
F1
7C
7F
AD
4B
A4
C8
C2
5A
0A
60
90
F7
D1
DC
CB
39
37
AB
D2
1F
D5
35
D1
DF
9E
A2
1B
9C
60
E8
D3
80
54
B4
4C
B5
7E
4D
4A
BC
8E
24
CC
F5
46
14
8E
BD
53
DA
06
D8
69
DC
0E
BE
D7
82
D8
C3
52
26
C7
4B
E7
F3
15
F1
32
06
BD
88
B5
2E
4A
D6
CF
D8
BF
D9
30
22
13
61
A1
F4
E2
28
6B
1F
8A
60
47
58
1A
AA
47
29
F4
E3
3D
86
A3
6C
7D
D2
69
10
18
47
68
25
15
66
F0
08
9D
80
6C
3D
36
FB
0E
F4
2C
8E
AC
37
4F
FE
FB
55
AE
05
46
46
8F
13
5B
20
FB
1B
F6
12
BF
54
56
33
9F
55
43
9C
93
18
2A
39
D1
03
B9
23
72
50
FB
42
68
21
D0
15
B4
83
75
2A
72
39
2D
74
7B
04
94
91
92
3B
1B
A5
00
E9
9D
48
32
9D
C2
21
85
65
82
D7
EF
FE
98
71
66
92
6D
26
C9
60
80
7A
53
BC
F6
A1
15
66
1F
71
EE
FF
80
CD
3B
E8
4B
19
37
1E
29
57
36
92
3E
41
87
9E
FE
E7
98
61
33
F8
19
B0
9E
7D
B1
99
E5
02
FD
7E
A7
2C
E5
E6
64
6F
1B
63
42
B9
95
53
F7
59
12
DE
30
28
CE
72
02
3F
E1
83
80
EE
AA
08
A8
36
D1
C5
1B
F9
8D
75
D7
09
2E
21
24
CA
E2
D9
52
AD
C6
69
5B
2C
00
A2
2E
03
41
AD
5D
46
2E
D4
B6
77
64
67
21
63
07
02
D6
EA
B2
63
67
55
7C
66
C8
E6
D2
30
66
88
65
95
AA
D3
10
B9
2C
61
A3
BD
50
E8
B9
52
C7
6D
EF
C6
16
C8
EB
59
42
FC
6E
48
1D
50
3F
CF
5A
0A
5C
23
E9
47
3A
0C
B2
14
DC
AA
E3
D2
4F
A8
73
02
B0
BD
37
5D
4A
A4
DB
59
40
6C
93
BC
CA
C8
95
46
9F
D7
67
86
4C
EE
62
9C
70
29
EE
A0
68
7B
73
DA
7A
DD
20
39
A4
FF
44
93
27
6E
D7
23
5C
77
45
5B
51
9D
F9
29
BB
42
8D
44
DD
90
1F
B0
E4
AD
53
04
F4
11
08
B4
CC
40
A8
66
99
05
60
E9
F6
8C
9E
A5
AA
D3
50
9F
D1
13
E2
40
2F
68
B7
D6
D1
47
E5
80
63
6E
AF
D1
C9
74
2B
66
9E
39
9F
06
0E
1A
0C
8E
F3
A8
4C
29
AF
C4
81
B3
57
84
AA
37
BE
79
46
35
0F
D4
2C
35
2D
5B
9A
A1
BD
06
D7
05
1D
A6
63
FC
2C
EA
F8
6A
0A
6A
0A
CA
E2
83
6C
AD
7D
C4
AA
12
D7
53
D3
77
D7
3C
C4
4C
55
FB
C1
FB
78
D5
BC
81
CA
70
69
93
08
B1
1B
0E
D1
D6
32
60
A0
8F
46
24
FB
04
6E
16
56
10
CC
CB
49
04
0B
43
6F
4C
4F
F9
76
37
8C
10
72
A3
29
1E
C7
9C
72
9C
77
69
08
F3
ED
66
34
87
C1
50
65
9C
25
55
E2
E4
C7
67
70
5D
79
13
FA
98
34
86
E3
7E
A9
4E
06
E7
DC
F9
73
0E
44
74
1F
01
8C
B8
54
E0
08
D7
FD
84
4E
0C
27
CC
A3
EF
2F
39
6D
85
1D
3C
97
8D
9D
7B
A9
70
35
06
19
62
C0
46
0B
E9
46
17
9A
8E
12
6C
7D
32
91
41
7B
25
87
90
10
57
2C
59
9B
04
A0
=======
A4
51
53
E4
DE
FE
94
53
4C
D9
3D
8B
14
A9
CE
55
11
6A
0F
AD
43
83
A4
B7
CF
D0
69
61
D8
E3
F2
D3
33
E6
83
5A
89
20
80
9B
B8
47
7F
50
EF
E0
36
4C
F0
6D
3C
E0
4F
0A
F2
3C
2D
5D
CD
0E
57
9F
3D
E5
D1
A6
69
94
EE
B9
8C
67
9F
40
F5
80
3C
DA
C2
EE
09
B0
38
B8
C3
59
77
71
1E
63
3D
9D
4C
07
AD
13
AE
4E
35
9B
81
8A
07
31
16
5C
89
B5
14
9A
2B
C4
12
32
57
3D
5B
4F
BE
D4
A7
F5
32
2C
D7
DB
0A
2B
3D
92
BB
6D
86
FC
FB
CF
09
1E
C7
48
63
05
68
42
D6
BD
F6
BD
EA
91
E1
D4
43
44
0B
61
B2
C8
94
B5
3F
97
EE
FE
3D
0D
14
58
24
10
62
22
18
71
B1
7C
BA
F1
93
72
7B
08
D2
D5
45
75
12
8E
7D
8E
00
01
4D
E6
59
FD
6A
67
AD
CF
D1
C3
6F
0D
D1
4C
C7
63
A1
7D
60
7F
81
EF
06
3E
6E
16
6E
FA
04
43
3A
88
9F
0E
7F
09
F0
92
3E
52
D1
EB
55
BF
E4
FF
41
9F
06
DE
C3
08
97
22
B3
04
EC
96
12
97
15
9A
B9
9D
FE
BB
8B
47
17
0B
AB
35
52
5B
89
FE
41
4F
3C
E6
92
82
46
F0
96
C6
E3
FF
49
E7
07
9D
35
2C
F3
30
3E
09
1E
2E
87
EF
0D
A9
E1
1A
F1
56
75
68
2A
11
3B
B0
CD
EE
46
AF
53
88
39
DA
10
C5
3C
F1
5A
1F
A7
0C
EB
7D
7B
A0
CA
01
C4
0F
B6
09
12
C0
46
E3
5C
48
F1
0A
5E
E9
7C
55
D8
4C
01
E9
E4
10
BD
BC
0C
1D
54
20
B9
52
35
C6
43
21
0F
E1
0B
DF
F5
FF
EE
81
6C
11
6B
71
D4
BB
BF
13
F6
D4
AB
D0
47
75
80
E5
E3
51
0E
F3
38
76
85
19
1E
BB
69
D1
94
52
DD
5B
82
14
A1
9F
B7
6E
18
DC
BA
0E
CD
21
7B
2A
A9
5E
D1
4B
64
07
E3
19
19
DA
DE
79
AC
4E
3E
F6
80
9C
E3
1F
53
10
D5
CE
3B
7C
49
C9
64
3A
98
2D
5E
7A
80
C5
72
38
41
19
F3
E5
9A
C1
BC
54
29
2D
EF
1C
4D
CF
C4
0E
61
2B
77
07
A6
B4
EE
DF
89
D6
B5
84
65
56
2E
15
40
DE
D6
48
70
C6
54
19
68
E7
F8
77
B7
2B
16
F4
45
DF
9C
1A
D3
7F
1A
CA
D0
D4
90
8C
F8
02
32
F2
4E
5E
30
F9
E5
5B
9F
53
41
17
7F
D8
F8
57
11
31
61
6C
2A
FE
C3
8F
8B
BA
4C
3A
E3
1E
7A
AB
56
2A
B9
61
72
A9
D8
34
F1
C0
1E
63
1D
92
99
71
C2
2C
88
7A
BE
8B
DE
DC
CE
10
0E
89
EA
EA
3A
4D
D5
31
B9
E9
43
41
A3
0E
EE
0C
37
36
6D
FB
41
CA
49
66
53
45
F0
BE
30
BE
D5
B3
49
14
24
33
64
14
5A
79
EF
48
E5
44
31
1A
52
07
2F
02
20
6E
C9
02
5D
12
C2
40
E2
1A
FE
EE
B8
23
9B
E1
A0
65
5F
9F
64
F9
09
87
48
B0
01
28
F3
AE
FD
CB
F2
8C
58
56
2B
1B
C0
DD
72
10
28
92
46
37
A7
3B
B1
CA
7C
A1
BB
37
29
6E
6D
25
FD
4A
E9
B1
D1
B5
41
82
1A
3F
D5
26
2D
80
84
F7
A9
04
1D
71
10
17
23
23
AB
7C
02
46
FD
52
57
2C
EC
F2
C8
C2
1D
DE
B3
0E
3F
35
35
5D
1E
69
11
3C
DA
64
6B
30
0B
28
0D
19
F1
E2
2E
66
0E
B4
F4
BB
84
EC
DA
6B
BC
44
33
1B
EF
31
65
B5
EF
66
D4
35
07
A1
B1
1F
68
A7
77
74
E5
05
9C
9E
54
2D
7B
50
A5
70
A6
CD
0A
13
E3
CE
AD
C2
92
10
C5
AD
E0
3E
78
F4
3B
F7
B1
59
B4
31
90
1F
EA
7A
A7
5A
4F
BB
30
CF
31
0F
1B
8F
E3
A1
E6
6C
A9
24
AB
9A
CC
DC
5F
4C
67
8C
B2
40
40
12
45
BC
96
C7
51
97
B2
FC
3C
0A
62
D7
18
CD
25
16
E5
4F
AC
D2
F9
14
FC
8F
52
06
AF
32
E4
2E
>>>>>>> 3c744f089472803f0ea1f05f1e58404e4e422e63
