A4
51
53
E4
DE
FE
94
53
4C
D9
3D
8B
14
A9
CE
55
11
6A
0F
AD
43
83
A4
B7
CF
D0
69
61
D8
E3
F2
D3
33
E6
83
5A
89
20
80
9B
B8
47
7F
50
EF
E0
36
4C
F0
6D
3C
E0
4F
0A
F2
3C
2D
5D
CD
0E
57
9F
3D
E5
D1
A6
69
94
EE
B9
8C
67
9F
40
F5
80
3C
DA
C2
EE
09
B0
38
B8
C3
59
77
71
1E
63
3D
9D
4C
07
AD
13
AE
4E
35
9B
81
8A
07
31
16
5C
89
B5
14
9A
2B
C4
12
32
57
3D
5B
4F
BE
D4
A7
F5
32
2C
D7
DB
0A
2B
3D
92
BB
6D
86
FC
FB
CF
09
1E
C7
48
63
05
68
42
D6
BD
F6
BD
EA
91
E1
D4
43
44
0B
61
B2
C8
94
B5
3F
97
EE
FE
3D
0D
14
58
24
10
62
22
18
71
B1
7C
BA
F1
93
72
7B
08
D2
D5
45
75
12
8E
7D
8E
00
01
4D
E6
59
FD
6A
67
AD
CF
D1
C3
6F
0D
D1
4C
C7
63
A1
7D
60
7F
81
EF
06
3E
6E
16
6E
FA
04
43
3A
88
9F
0E
7F
09
F0
92
3E
52
D1
EB
55
BF
E4
FF
41
9F
06
DE
C3
08
97
22
B3
04
EC
96
12
97
15
9A
B9
9D
FE
BB
8B
47
17
0B
AB
35
52
5B
89
FE
41
4F
3C
E6
92
82
46
F0
96
C6
E3
FF
49
E7
07
9D
35
2C
F3
30
3E
09
1E
2E
87
EF
0D
A9
E1
1A
F1
56
75
68
2A
11
3B
B0
CD
EE
46
AF
53
88
39
DA
10
C5
3C
F1
5A
1F
A7
0C
EB
7D
7B
A0
CA
01
C4
0F
B6
09
12
C0
46
E3
5C
48
F1
0A
5E
E9
7C
55
D8
4C
01
E9
E4
10
BD
BC
0C
1D
54
20
B9
52
35
C6
43
21
0F
E1
0B
DF
F5
FF
EE
81
6C
11
6B
71
D4
BB
BF
13
F6
D4
AB
D0
47
75
80
E5
E3
51
0E
F3
38
76
85
19
1E
BB
69
D1
94
52
DD
5B
82
14
A1
9F
B7
6E
18
DC
BA
0E
CD
21
7B
2A
A9
5E
D1
4B
64
07
E3
19
19
DA
DE
79
AC
4E
3E
F6
80
9C
E3
1F
53
10
D5
CE
3B
7C
49
C9
64
3A
98
2D
5E
7A
80
C5
72
38
41
19
F3
E5
9A
C1
BC
54
29
2D
EF
1C
4D
CF
C4
0E
61
2B
77
07
A6
B4
EE
DF
89
D6
B5
84
65
56
2E
15
40
DE
D6
48
70
C6
54
19
68
E7
F8
77
B7
2B
16
F4
45
DF
9C
1A
D3
7F
1A
CA
D0
D4
90
8C
F8
02
32
F2
4E
5E
30
F9
E5
5B
9F
53
41
17
7F
D8
F8
57
11
31
61
6C
2A
FE
C3
8F
8B
BA
4C
3A
E3
1E
7A
AB
56
2A
B9
61
72
A9
D8
34
F1
C0
1E
63
1D
92
99
71
C2
2C
88
7A
BE
8B
DE
DC
CE
10
0E
89
EA
EA
3A
4D
D5
31
B9
E9
43
41
A3
0E
EE
0C
37
36
6D
FB
41
CA
49
66
53
45
F0
BE
30
BE
D5
B3
49
14
24
33
64
14
5A
79
EF
48
E5
44
31
1A
52
07
2F
02
20
6E
C9
02
5D
12
C2
40
E2
1A
FE
EE
B8
23
9B
E1
A0
65
5F
9F
64
F9
09
87
48
B0
01
28
F3
AE
FD
CB
F2
8C
58
56
2B
1B
C0
DD
72
10
28
92
46
37
A7
3B
B1
CA
7C
A1
BB
37
29
6E
6D
25
FD
4A
E9
B1
D1
B5
41
82
1A
3F
D5
26
2D
80
84
F7
A9
04
1D
71
10
17
23
23
AB
7C
02
46
FD
52
57
2C
EC
F2
C8
C2
1D
DE
B3
0E
3F
35
35
5D
1E
69
11
3C
DA
64
6B
30
0B
28
0D
19
F1
E2
2E
66
0E
B4
F4
BB
84
EC
DA
6B
BC
44
33
1B
EF
31
65
B5
EF
66
D4
35
07
A1
B1
1F
68
A7
77
74
E5
05
9C
9E
54
2D
7B
50
A5
70
A6
CD
0A
13
E3
CE
AD
C2
92
10
C5
AD
E0
3E
78
F4
3B
F7
B1
59
B4
31
90
1F
EA
7A
A7
5A
4F
BB
30
CF
31
0F
1B
8F
E3
A1
E6
6C
A9
24
AB
9A
CC
DC
5F
4C
67
8C
B2
40
40
12
45
BC
96
C7
51
97
B2
FC
3C
0A
62
D7
18
CD
25
16
E5
4F
AC
D2
F9
14
FC
8F
52
06
AF
32
E4
2E
