32
E5
05
88
F5
DC
AC
51
20
05
54
66
1D
47
0E
F8
BA
EB
25
F4
4B
2D
DE
EE
0E
56
61
A4
51
53
E4
DE
FE
94
53
4C
5B
0A
FD
6B
FD
F5
5F
20
16
27
F9
B0
CD
A6
B1
D7
5D
D2
1F
E7
E0
EE
B7
5C
2C
BF
B5
D9
3D
8B
14
A9
CE
55
11
6A
C6
6C
87
78
0E
55
C5
1C
F3
0F
ED
32
E9
82
5C
13
2D
22
08
9A
3F
78
BA
93
E5
EC
88
0F
AD
43
83
A4
B7
CF
D0
69
F8
48
8F
D9
F5
F4
EE
8B
AB
43
E2
4A
4A
C6
A0
6F
9C
58
DF
2A
DE
FA
A8
BF
BD
86
06
61
D8
E3
F2
D3
33
E6
83
5A
B5
2F
70
C5
57
7C
E9
21
38
A5
EF
09
52
B7
1A
AC
41
6C
B2
31
95
A2
39
82
13
1C
5F
89
20
80
9B
B8
47
7F
50
EF
18
F7
49
5A
2D
BA
BF
D5
48
38
61
53
61
57
B0
D7
38
BB
FA
78
56
0D
9F
4D
84
C4
9D
E0
36
4C
F0
6D
3C
E0
4F
0A
58
2F
80
78
07
86
09
CE
0F
81
49
28
F5
F8
75
5E
AF
14
F4
07
EC
4F
C8
DA
73
3A
68
F2
3C
2D
5D
CD
0E
57
9F
3D
C0
6A
48
59
95
4A
6D
3D
82
E4
A1
B1
65
54
58
15
35
B1
DD
28
0D
AF
B2
ED
23
B5
72
E5
D1
A6
69
94
EE
B9
8C
67
68
ED
C2
AA
51
E1
A3
74
42
1A
5D
E9
09
A0
AC
B4
30
90
7A
58
E6
95
22
D2
6E
1A
1B
9F
40
F5
80
3C
DA
C2
EE
09
38
3E
4E
A9
1A
53
D0
2F
CA
FB
59
64
70
86
CC
D4
84
50
63
5E
46
EE
4A
C4
52
88
A5
B0
38
B8
C3
59
77
71
1E
63
5C
A9
76
60
0E
91
9A
58
E2
05
97
88
6E
C8
FC
D5
64
CB
0F
00
76
3B
ED
19
4B
30
C2
3D
9D
4C
07
AD
13
AE
4E
35
A4
77
AC
3F
82
A6
1F
40
48
B1
F7
03
79
D8
4F
CE
28
10
B1
2A
A6
B4
98
47
99
2B
4E
9B
81
8A
07
31
16
5C
89
B5
16
69
17
81
FA
0A
64
05
D4
E9
9A
DD
8F
2D
53
09
08
18
C9
3D
0C
00
0D
E7
9B
F3
1A
14
9A
2B
C4
12
32
57
3D
5B
3F
1F
E9
E4
33
1C
66
BF
D0
14
69
3A
25
0E
FA
8C
63
CE
71
BD
C0
5E
19
D1
91
AD
4A
4F
BE
D4
A7
F5
32
2C
D7
DB
88
ED
EB
CA
8C
02
51
B3
A7
D6
92
9A
36
3F
DD
66
6C
A2
4B
7E
CE
8E
88
13
AA
F7
41
0A
2B
3D
92
BB
6D
86
FC
FB
C3
28
EC
9D
A0
D1
2B
62
97
D2
BE
00
A3
6D
F8
26
F2
56
69
02
7F
6E
AD
AA
68
0E
0D
CF
09
1E
C7
48
63
05
68
42
93
90
F5
95
FD
A7
D9
A2
E8
6B
36
96
6C
65
47
74
6B
59
1B
72
CA
BF
09
DD
8B
DE
0B
D6
BD
F6
BD
EA
91
E1
D4
43
5D
CA
2E
FF
EB
95
D9
72
EF
D7
57
27
E4
30
A6
89
3E
36
EB
DC
53
4F
E3
A9
18
FA
19
44
0B
61
B2
C8
94
B5
3F
97
18
17
12
65
0A
54
7A
81
3F
55
63
A5
C8
DE
9A
04
7D
70
8E
26
31
19
CA
EE
BD
06
C2
EE
FE
3D
0D
14
58
24
10
62
62
1D
2F
B0
73
EA
C1
BA
5F
35
F6
C8
B0
12
35
05
0D
FC
97
CB
00
25
87
34
D0
C4
AF
22
18
71
B1
7C
BA
F1
93
72
47
27
D5
E0
44
73
55
D4
84
31
FA
86
68
62
7C
4D
E2
FD
0B
EE
92
60
BE
77
16
1D
DA
7B
08
D2
D5
45
75
12
8E
7D
5D
4E
AB
76
B1
B9
A7
1E
8F
58
49
E3
20
E1
7A
CD
81
05
83
74
0D
20
39
3F
ED
3F
50
8E
00
01
4D
E6
59
FD
6A
67
B9
C6
2B
E9
58
3D
CA
75
8F
C5
7C
F1
CE
74
E2
03
59
D3
2D
85
AE
8B
A3
48
AB
04
56
AD
CF
D1
C3
6F
0D
D1
4C
C7
DC
84
40
A2
97
2C
8A
21
6E
9A
36
73
B6
54
D8
99
8E
2D
7B
56
52
BF
C7
08
47
70
5A
63
A1
7D
60
7F
81
EF
06
3E
1A
C5
A3
27
49
A8
AB
EC
62
09
D4
2E
D6
F6
90
85
F0
C1
73
5D
47
CD
6E
03
DB
33
B4
6E
16
6E
FA
04
43
3A
88
9F
8D
03
14
F9
BE
BD
0D
13
74
01
B1
38
69
F1
F1
80
5C
58
3C
CE
40
85
C0
2E
43
21
EB
0E
7F
09
F0
92
3E
52
D1
EB
DF
F2
2C
A3
E0
CA
D9
DF
70
7F
84
8E
59
29
33
92
50
EF
00
BD
66
BC
4D
02
D6
7C
EA
55
BF
E4
FF
41
9F
06
DE
C3
73
87
25
68
CE
D2
C9
6E
0C
C3
C6
75
FB
83
F3
7B
C1
AC
34
4C
7B
05
EA
A5
92
45
6F
08
97
22
B3
04
EC
96
12
97
57
2A
6C
A7
0A
00
2F
86
BA
98
5B
9E
D5
BA
72
48
0E
24
52
4F
09
CB
B8
09
28
9D
F6
15
9A
B9
9D
FE
BB
8B
47
17
48
72
63
7B
33
64
58
EC
7F
7E
89
C1
1B
9C
74
B0
40
DA
CA
73
10
CC
89
20
5E
35
0D
0B
AB
35
52
5B
89
FE
41
4F
3E
F7
AC
97
E4
BC
F2
51
FD
06
E8
D5
DC
4B
9E
D6
D1
5C
2D
0B
AE
9D
7B
A7
25
FD
93
3C
E6
92
82
46
F0
96
C6
E3
45
CE
BD
F7
67
AC
58
02
CB
90
50
52
34
E4
8E
33
CD
43
8C
FF
AB
9B
82
F5
76
95
04
FF
49
E7
07
9D
35
2C
F3
30
13
E5
FC
42
4E
CD
0F
50
1E
54
26
11
86
64
6D
7C
39
8C
37
07
68
80
02
AA
09
9D
A7
3E
09
1E
2E
87
EF
0D
A9
E1
FC
50
2D
F8
26
51
79
6A
9B
5A
57
B9
9D
C4
67
B8
24
92
48
36
76
BA
14
EB
42
AC
E7
1A
F1
56
75
68
2A
11
3B
B0
CE
8D
F7
30
D4
56
90
28
33
D7
61
84
64
30
A5
C9
37
2C
78
E8
4B
19
A0
4F
43
7B
EB
CD
EE
46
AF
53
88
39
DA
10
E6
AE
C3
02
69
73
4C
B1
7C
79
75
B3
5B
E0
67
92
16
3F
FF
1C
BE
81
4F
E8
6C
80
DB
C5
3C
F1
5A
1F
A7
0C
EB
7D
2B
97
B6
88
D5
8F
C6
C8
97
77
24
E1
B2
35
7C
95
B9
51
F7
68
D9
58
1A
15
DD
04
64
7B
A0
CA
01
C4
0F
B6
09
12
15
61
DE
11
F0
6B
34
47
38
32
8C
7A
3D
DE
12
53
F1
13
1F
2C
6A
8B
F3
F1
D1
09
99
C0
46
E3
5C
48
F1
0A
5E
E9
59
7E
FB
75
47
36
DB
8D
45
9B
DA
AB
1D
20
F3
86
66
D9
84
29
96
17
93
C3
1F
7D
87
7C
55
D8
4C
01
E9
E4
10
BD
EA
3A
F2
EA
38
39
EA
DD
6C
01
8C
32
08
87
52
A0
1E
37
EF
FB
46
17
47
AB
88
23
7B
BC
0C
1D
54
20
B9
52
35
C6
82
68
1E
F2
22
EB
FC
A7
E0
5F
F0
21
14
EB
BE
78
3F
F7
50
C6
5E
31
56
92
B3
00
CB
43
21
0F
E1
0B
DF
F5
FF
EE
78
CF
BB
9F
A2
44
4F
B8
0E
F7
47
A0
77
EF
F9
C0
5F
BC
25
E4
05
43
14
38
FD
B1
72
81
6C
11
6B
71
D4
BB
BF
13
60
01
29
9E
1F
DB
62
4E
B3
FD
1C
C5
52
54
D7
A7
E0
14
9D
1A
9B
11
40
3D
DE
92
5D
F6
D4
AB
D0
47
75
80
E5
E3
E1
41
0A
D2
BF
90
35
45
4E
FA
95
95
4D
6A
A0
D2
92
DA
2E
82
6A
E0
B0
84
7D
11
86
51
0E
F3
38
76
85
19
1E
BB
F3
C0
7E
50
48
EA
A7
49
64
5B
BA
94
D3
31
B0
BC
61
03
DA
BA
A5
2B
F2
11
19
E6
32
69
D1
94
52
DD
5B
82
14
A1
7C
96
E3
7F
F6
2B
06
B3
B2
0F
42
70
48
14
0C
B6
DF
07
6C
9C
7A
A6
4D
0D
34
0D
CB
9F
B7
6E
18
DC
BA
0E
CD
21
C5
16
50
75
4D
86
98
C1
5B
B3
2D
43
B9
3C
A3
46
57
47
E4
3D
FC
94
AB
E7
0C
D0
A6
7B
2A
A9
5E
D1
4B
64
07
E3
32
E4
A4
58
12
63
DB
60
94
00
C8
CE
DA
06
EE
BF
79
68
3C
5B
D2
1C
C9
18
17
B5
D7
19
19
DA
DE
79
AC
4E
3E
F6
9B
24
DF
FD
ED
EC
10
A7
77
69
3B
C5
51
F0
C2
74
EB
31
E5
35
63
79
D4
65
E9
77
5E
80
9C
E3
1F
53
10
D5
CE
3B
43
26
40
FB
2B
FC
D8
68
EC
CB
7E
22
3C
96
B3
C7
7A
10
97
50
5C
FD
6E
C5
C3
92
49
7C
49
C9
64
3A
98
2D
5E
7A
DE
D3
16
EC
42
79
AB
78
6E
8C
B2
97
01
2B
00
2D
F8
B7
42
61
58
4C
1A
25
B0
D9
7E
80
C5
72
38
41
19
F3
E5
9A
C7
62
1E
EA
62
FC
54
8F
1A
0A
F1
1C
58
0A
85
7C
91
9C
E6
C1
B5
46
43
81
00
B1
EE
C1
BC
54
29
2D
EF
1C
4D
CF
66
43
0F
D0
82
3B
F9
E2
F6
CD
B0
8A
C3
56
56
43
28
73
8E
21
A4
BA
7C
39
32
DF
22
C4
0E
61
2B
77
07
A6
B4
EE
25
E2
DC
43
71
B4
82
F2
52
BD
FB
BB
37
F2
77
5E
AE
EF
CC
A2
D9
3B
B1
22
66
31
FF
DF
89
D6
B5
84
65
56
2E
15
4D
F5
D3
1C
B0
E6
42
EA
A8
CC
19
EF
52
E5
18
4B
1D
13
FF
2E
04
25
9E
7D
76
43
B5
40
DE
D6
48
70
C6
54
19
68
D2
C8
A3
C2
1E
11
17
62
B3
F6
9A
6B
F9
06
6F
CB
E6
B2
8C
F1
D7
2D
D1
74
E1
75
0C
E7
F8
77
B7
2B
16
F4
45
DF
2F
DE
67
44
6C
FC
3D
12
27
41
55
82
05
A8
B0
DA
25
8A
BF
25
A8
42
19
C8
63
77
95
9C
1A
D3
7F
1A
CA
D0
D4
90
44
81
7F
1B
38
BB
F6
B6
10
DF
E5
19
F3
68
0D
F0
46
B1
E6
02
DA
83
89
E9
2E
4C
73
8C
F8
02
32
F2
4E
5E
30
F9
6D
AE
A5
3E
0C
A4
4D
70
8A
43
AE
21
7B
15
6F
8A
6C
01
62
4D
59
DE
CC
F7
55
4D
24
E5
5B
9F
53
41
17
7F
D8
F8
DC
B4
C4
DB
48
B8
FC
DB
E9
3E
E0
8B
03
1F
2A
1C
70
36
C9
91
2D
A4
8A
F2
F7
3D
DA
57
11
31
61
6C
2A
FE
C3
8F
CF
28
62
02
A0
77
B9
12
5C
B7
40
71
66
AE
BF
C3
7B
30
CB
0B
09
4C
E1
48
48
95
3B
8B
BA
4C
3A
E3
1E
7A
AB
56
9B
76
2B
5E
3B
08
33
79
F8
1E
90
24
82
BB
F8
9C
75
4B
25
B2
B6
BF
69
DE
0D
CB
21
2A
B9
61
72
A9
D8
34
F1
C0
8E
D3
1D
6F
01
34
D6
F7
17
06
C6
D1
CD
C6
90
C7
3F
3B
D4
E7
EF
3B
BF
05
C6
96
A8
1E
63
1D
92
99
71
C2
2C
88
17
6F
06
B2
9A
C6
D5
48
A4
3C
51
D3
E5
33
0C
0C
DD
2A
56
0E
5A
E0
25
AB
A6
58
E8
7A
BE
8B
DE
DC
CE
10
0E
89
19
FD
B3
29
40
C4
4B
2B
77
57
FA
CF
03
12
8C
52
9C
24
78
DA
F8
5E
B2
70
00
37
12
EA
EA
3A
4D
D5
31
B9
E9
43
6D
A7
ED
ED
D5
77
69
E7
8A
51
E0
A0
49
F4
16
52
BA
20
1B
65
3D
06
66
8D
50
2D
08
41
A3
0E
EE
0C
37
36
6D
FB
6E
CA
3B
0B
D9
32
A7
FB
EF
60
6A
B8
14
4A
CB
EC
8C
70
C9
71
08
9D
21
C9
8A
60
9C
41
CA
49
66
53
45
F0
BE
30
80
F1
26
D1
75
12
82
AB
C5
A8
A6
68
CC
50
1A
00
D5
66
A7
53
37
E2
4E
CE
1E
7F
AF
BE
D5
B3
49
14
24
33
64
14
AE
76
05
31
5A
9B
6E
0C
71
63
E0
62
F3
17
AD
72
CD
B3
1F
7C
7F
62
15
72
AE
F5
E0
5A
79
EF
48
E5
44
31
1A
52
B9
91
4B
20
23
33
C3
F6
1F
89
8F
1F
E1
90
3E
A4
3F
74
BF
25
C6
B3
FF
05
A9
CB
9C
07
2F
02
20
6E
C9
02
5D
12
F1
91
00
E0
50
3B
ED
A8
9D
3B
2C
4D
94
4F
7C
6E
3B
D8
34
18
8C
7D
7B
C3
00
81
25
C2
40
E2
1A
FE
EE
B8
23
9B
20
7F
B6
A8
25
00
00
92
18
A8
EA
0C
99
31
B7
0D
CC
A1
C4
1A
3A
BE
F7
23
DB
7B
89
E1
A0
65
5F
9F
64
F9
09
87
7E
F1
33
35
28
87
28
D3
9D
BC
0A
81
38
F2
4A
DB
B0
5D
7D
8B
2F
14
7C
ED
47
ED
93
48
B0
01
28
F3
AE
FD
CB
F2
37
10
09
8E
40
BA
AB
D7
0B
19
4D
57
44
78
ED
B8
D7
C6
3C
F6
FF
67
F7
13
85
D3
22
8C
58
56
2B
1B
C0
DD
72
10
18
EB
26
7E
00
01
8D
A4
9F
82
24
29
E9
81
72
96
E9
9A
6F
FA
82
AE
52
E5
30
C8
94
28
92
46
37
A7
3B
B1
CA
7C
EA
7F
5B
59
9C
09
37
5D
B1
91
5A
F7
01
D4
AE
A3
48
EF
36
CD
B7
87
08
21
90
0C
63
A1
BB
37
29
6E
6D
25
FD
4A
A3
11
53
46
3C
56
A0
5F
10
AF
43
E3
30
26
83
AB
4B
D3
63
0A
BB
55
6D
12
93
0B
EA
E9
B1
D1
B5
41
82
1A
3F
D5
2A
36
C2
B6
38
98
2D
4C
31
7E
E2
7A
C3
F3
0E
CA
D0
43
03
67
B1
9C
FD
07
24
ED
C5
26
2D
80
84
F7
A9
04
1D
71
0E
ED
CE
86
A0
11
4C
C5
4F
D3
A3
4D
8A
58
96
43
F6
40
D2
5C
93
CC
61
01
E5
F0
FF
10
17
23
23
AB
7C
02
46
FD
BF
0E
FE
F8
75
09
0F
0A
4F
FC
58
9B
5D
FE
A7
A7
E1
32
B3
1E
40
24
57
71
57
90
1B
52
57
2C
EC
F2
C8
C2
1D
DE
D5
D6
F9
3E
CB
94
89
3B
90
D7
36
88
7D
F5
91
9B
58
B2
7B
7B
DB
75
15
67
3C
0E
EF
B3
0E
3F
35
35
5D
1E
69
11
32
6F
3B
D0
1A
2A
9C
31
D5
30
2A
BE
49
B8
ED
36
3C
08
5E
A9
B9
72
F7
BC
1E
8E
80
3C
DA
64
6B
30
0B
28
0D
19
2D
5B
D0
92
9E
2D
7F
93
1F
38
1A
37
9F
D4
BD
8D
E8
73
93
DC
FA
FF
39
30
EC
10
33
F1
E2
2E
66
0E
B4
F4
BB
84
3C
4F
A9
14
2D
EA
30
5A
54
3D
26
FE
C9
35
EB
3B
4F
F4
98
C8
86
72
BE
0C
03
5F
07
EC
DA
6B
BC
44
33
1B
EF
31
F6
FE
7B
A7
D8
D1
E7
F5
9E
1E
9B
88
CA
FE
84
24
6F
B0
AC
F1
D3
2F
53
82
23
6D
72
65
B5
EF
66
D4
35
07
A1
B1
76
B6
8C
59
7E
41
44
7D
10
90
C1
6C
EC
31
38
83
4A
BD
D0
20
9D
DB
8C
44
E2
CE
77
1F
68
A7
77
74
E5
05
9C
9E
95
5D
85
78
74
B0
EF
AC
2A
86
E6
B4
6F
43
FF
C6
72
C8
CD
F0
1A
B7
82
8E
24
66
4E
54
2D
7B
50
A5
70
A6
CD
0A
22
DE
75
03
83
32
0D
7F
4F
05
84
29
4F
D1
61
8B
D4
5F
23
FC
99
EB
1E
2B
78
4F
74
13
E3
CE
AD
C2
92
10
C5
AD
79
50
24
FC
50
C0
13
2D
AC
4A
1E
F2
99
DE
7A
B7
95
8A
75
32
76
C9
BB
B4
39
CE
17
E0
3E
78
F4
3B
F7
B1
59
B4
9B
C2
06
45
C0
49
2F
74
AB
0D
9F
A7
63
7B
65
8A
AA
AD
DC
63
A4
65
7F
D9
41
E5
CD
31
90
1F
EA
7A
A7
5A
4F
BB
A5
84
8A
5F
54
36
76
27
BC
77
45
7E
88
76
0B
DB
CC
D9
41
94
CA
61
C1
83
BC
64
67
30
CF
31
0F
1B
8F
E3
A1
E6
7A
B9
AE
B1
01
84
97
AC
69
DE
E7
84
6B
E9
1D
A2
47
80
4D
4C
AA
95
78
19
7D
8A
2B
6C
A9
24
AB
9A
CC
DC
5F
4C
38
47
F7
1E
50
A9
55
43
E6
87
25
14
D7
3D
E2
29
C2
D8
FD
86
9D
4E
DE
5C
F3
F3
1C
67
8C
B2
40
40
12
45
BC
96
06
90
F5
AE
88
43
D7
16
D2
8B
12
AF
EC
E7
54
6E
35
9A
78
80
67
D2
BE
2C
55
5F
27
C7
51
97
B2
FC
3C
0A
62
D7
56
8A
A7
8F
01
93
6B
94
B1
DC
FB
AF
F1
88
72
9E
CA
9C
4E
53
1E
36
6B
48
20
CF
40
18
CD
25
16
E5
4F
AC
D2
F9
0A
5E
32
06
A0
45
48
49
FD
02
3E
59
7F
B1
7E
6C
86
E9
C7
B8
7F
7B
5D
A6
1E
BF
80
14
FC
8F
52
06
AF
32
E4
2E
