13
49
69
5C
06
B4
48
AD
5A
1C
95
76
23
1F
EB
7B
38
AC
67
A9
D9
80
82
4C
B9
DE
26
05
0E
66
00
6F
BF
2E
85
39
EE
38
09
33
35
5A
E2
0F
4B
9A
40
F9
98
2E
0E
4D
64
CC
7D
CE
D2
55
4B
07
6B
94
98
C8
81
AE
E4
B1
6C
BF
A6
80
5D
61
91
48
84
6A
A7
0E
7A
40
82
9D
FB
F0
00
17
C6
4E
44
F9
1B
FC
72
C1
9B
8D
A6
D7
65
18
73
2D
28
EF
B8
79
93
1E
AD
71
83
CA
C9
96
B9
28
43
8B
CE
34
9D
41
D7
56
47
41
5E
46
C6
70
C5
B7
AA
FA
0D
5E
8A
3A
52
E9
A3
6C
86
A7
96
46
33
36
8E
9A
AF
E1
BF
3A
ED
FB
5A
7C
8C
66
B0
24
33
A5
30
94
C2
2B
6E
9A
74
39
AC
8B
8E
63
64
96
5C
6F
4F
62
3B
FD
95
E3
34
61
A1
9B
2C
18
41
22
9D
41
3F
14
81
CC
1B
4F
39
88
08
AC
D8
D5
F5
51
B3
F5
EE
76
3E
54
2C
9D
CE
AF
44
37
7C
13
12
63
06
B7
2B
6A
6C
B5
93
AE
25
4A
E5
F6
7A
57
2E
A7
08
03
8C
6D
88
2B
8F
04
D0
C8
93
99
F2
34
C6
AB
FD
37
6C
1E
CB
04
E9
C5
0D
50
00
DB
89
16
FC
17
60
06
CB
9D
F3
1B
8F
7C
54
54
59
0E
BB
EA
F5
4F
E2
AE
6C
C2
01
12
62
7F
95
5D
19
20
D1
F6
D5
30
CC
97
C7
F2
B7
E9
A4
1C
03
29
8E
0C
B8
A3
35
F4
EA
05
79
FF
5B
3C
60
5A
48
F4
36
C4
01
E3
E4
41
F6
BA
F4
14
CE
AA
5A
00
D3
07
36
82
D1
D6
1E
06
D4
76
33
57
C5
9E
E5
86
6A
2F
8D
03
A3
CF
41
E6
57
62
EF
25
07
CD
6F
39
FD
72
1E
45
03
5D
17
C9
ED
F7
12
11
DE
50
35
69
B7
70
79
3E
2F
AC
01
FE
92
F9
33
C8
64
B7
29
31
B0
C9
B2
5B
2A
36
8B
0F
30
55
07
24
D9
1D
77
0A
95
D4
8B
10
1C
31
B2
C7
38
9D
A1
F9
A1
5C
4D
28
02
FE
29
F1
34
01
2B
FF
1F
0A
7E
DF
41
08
59
CB
E3
34
93
F0
F4
69
CC
D5
98
56
7F
4F
A2
46
C4
72
38
20
12
57
78
34
49
B2
32
79
68
32
DD
EF
4C
D6
D8
BB
56
69
4E
2D
DC
D6
19
34
7F
E5
4A
A9
25
1E
C1
2C
F1
78
D9
59
D4
24
85
05
EA
EF
8A
E2
44
68
29
48
D6
11
D9
F3
EB
EE
9A
04
D0
96
69
DC
D8
AA
10
62
55
29
88
50
72
E0
DA
6A
B5
52
47
C2
EF
EC
7C
57
1C
66
CF
91
9F
F3
1B
8C
98
13
A7
AC
0C
D3
53
E9
6C
09
BC
B1
3C
31
45
88
82
AC
47
3E
01
0C
53
81
2F
3B
42
23
29
91
16
05
14
04
B8
51
DD
5C
9D
15
44
FE
CA
32
46
4D
21
96
7C
E5
BD
11
CD
11
D6
A5
13
E9
D5
B2
E5
3C
A9
90
E7
D8
0D
A4
57
92
53
4E
97
A2
DD
38
34
AF
37
A1
B7
E2
D1
A4
B9
85
50
2F
B9
44
C7
E6
AC
D8
21
8D
63
F5
86
A9
CD
67
8E
ED
18
14
79
0C
19
AA
CC
49
25
4B
92
8B
B3
13
09
14
13
17
F2
70
C9
C2
B1
86
BF
4E
8A
1D
5C
DE
76
59
10
7D
15
66
9E
2C
B0
39
BC
2D
5E
E7
5B
6B
02
4F
0F
F4
A7
55
AD
0D
FB
FC
1C
71
01
66
C7
21
AD
4C
E9
F8
24
60
17
8B
2A
CD
D3
C1
BF
46
DB
4F
DC
9E
EE
B7
8A
45
4B
0E
58
E2
11
2F
08
0E
C1
DE
DB
02
EE
CC
35
12
16
5E
B0
81
89
8E
4B
F5
C3
F5
AE
6B
2A
CB
55
8F
6C
54
24
53
4E
69
C0
E7
60
0E
CD
37
E5
FE
97
D2
72
9A
AA
63
E8
E9
59
02
E5
34
87
CA
2F
71
D8
47
B0
C9
49
9B
9B
94
9E
EC
92
CD
F6
0B
B7
7A
0C
0F
FD
2F
21
FE
1A
0F
D3
8E
3D
0A
98
D3
48
64
EC
50
5B
A3
78
BE
78
41
50
AF
ED
E5
C0
ED
08
99
48
1D
1A
07
82
51
A7
A5
25
28
88
DE
34
98
17
D0
19
D8
27
09
95
07
14
1C
62
A3
D6
F3
50
EC
13
B6
A0
B4
7E
1F
8D
29
EF
1F
BE
5F
02
88
B3
D9
4C
4D
AF
D5
73
DE
9D
48
6D
57
47
03
9D
98
5F
16
6D
98
E8
58
03
13
12
48
A7
C6
53
FA
5B
D0
6E
F1
16
DC
D2
0F
3C
BC
2A
9A
75
81
02
11
33
F4
E8
42
5C
07
E8
53
78
10
9F
1C
DD
7B
25
18
3D
77
C5
3D
04
82
72
11
DE
03
B7
DD
60
15
BB
A7
24
3B
07
F3
06
46
F5
81
8D
20
C6
8A
7C
B8
2D
CF
F1
7A
CE
2D
9B
73
C5
DA
B7
E1
4F
65
A9
08
02
72
7B
AD
39
91
C5
42
49
B5
3B
09
91
5E
DE
FE
42
62
74
2B
C7
8B
FD
4C
3B
28
13
59
5F
4F
7C
16
DD
77
8E
33
CD
85
7C
6B
D2
0F
DF
C2
C1
BB
1D
B4
93
F1
84
8E
F2
AA
89
BA
04
A2
F1
8B
88
7F
48
3F
1B
0B
24
1C
FF
37
AB
2A
7A
14
4F
17
05
78
44
A1
BE
36
4A
B1
D6
0A
3C
C6
3B
2A
B1
95
97
58
F7
7E
9E
56
21
88
9B
B9
72
EF
58
AE
79
01
3F
18
9F
1D
78
71
B3
2F
B7
16
59
B8
6C
4F
F6
3A
89
A7
B8
A7
5F
CA
C8
78
EE
75
6D
37
72
B3
AA
10
2D
77
FF
E8
11
CA
EE
E6
E7
69
64
DD
83
F7
E5
56
F1
73
51
D4
A4
8D
4F
78
21
12
B6
A1
A4
9E
8F
CF
16
5D
D6
00
93
5F
9A
2A
12
09
B2
E8
B0
6E
88
85
8A
24
3E
6E
AA
6C
D9
DF
FF
65
0B
BE
CB
16
2B
CC
4F
00
37
BA
C6
3C
95
A7
F5
C2
B2
9F
99
66
AD
47
12
2D
0B
AF
70
8E
26
FD
44
54
8A
89
88
8D
D7
F1
7D
67
C5
A9
25
D1
6C
66
2F
49
A7
AD
6F
A4
F8
72
D4
41
34
3C
3B
1E
CC
D1
5C
26
EF
8F
42
2B
57
C7
BC
84
F1
83
01
5D
D4
A1
B6
8F
AC
83
04
CF
86
00
4A
0B
0D
A6
2C
1A
8A
FB
D2
81
A1
95
B9
B5
F7
8F
F0
36
D3
E5
87
E7
D6
6D
F1
CE
26
FC
68
BF
C8
4D
37
A9
66
D8
8E
D4
2F
55
C4
15
2A
AF
54
17
28
2E
6B
AE
C9
BD
49
2B
6D
98
77
B8
59
7F
7E
78
26
32
51
2A
7C
3D
98
EE
8C
FD
A3
23
69
48
4C
23
5C
C3
DB
ED
9A
3C
F4
DD
FE
A5
44
49
04
3E
FF
C9
40
B7
37
E8
D9
10
06
23
DB
7E
DA
D4
F4
FA
88
02
A2
E1
F5
CA
FA
80
27
76
FF
6F
59
D7
0F
1E
7B
CC
0C
93
79
7C
EB
12
7B
95
E5
67
45
C3
52
2C
A0
FF
92
49
6B
EF
68
7E
A8
12
D7
F3
81
FF
FE
43
D1
26
C4
E7
7B
FA
43
7C
FD
81
BE
88
78
FC
46
3C
2F
CE
D3
93
AF
E2
2E
C9
E0
1E
27
40
C9
D6
46
94
47
92
41
44
5D
35
A1
66
F8
FD
58
6F
65
85
A8
13
96
4C
EA
5F
CE
E7
F4
E0
83
F2
24
FE
8A
98
6F
5D
12
FD
8F
40
C7
BC
1F
EB
DF
F3
63
25
6B
F7
B0
51
40
A3
8E
F2
A3
D7
74
CB
B2
E3
FD
E8
C1
D7
3C
C2
19
04
1E
86
3F
12
E3
35
C3
09
B0
09
13
58
54
C5
B1
9C
05
A6
F3
D9
32
F8
D6
22
89
D5
1F
9D
A1
B8
E3
43
0C
45
D1
1A
C5
65
2A
0C
EF
34
DF
06
36
34
D6
14
3D
4C
3B
62
CD
E0
61
9D
64
4A
44
49
0E
21
C1
76
E5
2C
9E
61
77
86
8C
8D
BD
DB
7F
FA
CF
34
46
93
1A
58
9D
F6
CA
2A
97
D9
B4
B6
9E
68
5C
DB
2F
38
FF
D0
34
85
7D
A5
06
69
7E
6D
7B
F8
92
35
ED
7A
1F
FE
1C
C5
07
C7
C0
69
CB
A4
DA
B3
32
9B
2B
25
4F
59
67
44
19
B5
51
7A
85
A7
17
E8
A2
C7
FE
95
18
8C
28
AA
D8
87
62
44
56
E1
57
DD
DA
6C
2E
87
97
87
F2
26
BD
4E
71
E7
48
E5
1A
B0
93
99
AB
5E
B1
82
88
F1
E7
43
29
E7
52
43
AA
BE
F5
AD
B8
B0
1D
52
D1
4B
C1
A8
1C
C6
40
F6
08
1C
35
75
4A
E0
66
B5
5D
C8
82
82
B2
D1
D2
53
0E
70
26
8F
7E
4E
21
8D
23
93
EC
54
AF
DD
15
35
DE
A8
4C
B8
BC
B6
5C
84
15
27
2B
0B
ED
1D
AD
DF
C0
89
5D
3C
69
E1
30
44
2F
BE
41
C2
8C
76
79
0A
60
22
0F
F8
F6
A1
79
F3
34
A8
35
CA
6B
C5
AA
87
BD
99
91
AF
0D
F0
CC
42
82
E7
6B
39
0C
C6
1A
5A
2C
85
32
54
DB
05
9B
D7
38
D4
BA
AE
D2
1E
A9
76
1E
E1
FD
6C
C1
DC
C2
F0
72
35
DD
08
27
2D
F5
19
F5
9E
8A
38
AA
65
4F
F9
98
2F
A3
BC
65
84
86
81
B3
06
BC
45
3B
9B
9D
83
8D
0D
07
88
CE
9E
1F
75
57
7E
A9
3E
7F
34
16
DD
81
7F
EB
81
4F
D7
F7
C2
9B
12
AD
27
9F
5F
92
8A
0E
05
C1
BD
29
B7
C6
E6
99
8C
33
CD
67
F0
E6
C7
EB
76
2C
06
81
CA
5A
12
1F
DA
A2
CF
C1
F1
F0
12
CA
A0
50
0D
76
13
6A
E4
2A
DD
80
5A
36
55
37
3E
EB
52
85
E2
B7
16
6B
E9
3C
C6
5C
A0
FB
3D
D6
C4
AC
64
5C
E7
14
E7
A9
DF
3B
51
B3
2D
13
EB
46
43
53
57
80
AA
07
94
F3
02
E9
E8
C6
68
4D
34
B6
B3
04
75
2B
08
6D
22
5A
DA
E2
1C
66
B9
93
DE
7E
B5
A7
FA
F8
5D
C6
CB
AC
BC
07
7A
9B
9C
B5
EA
84
50
11
0F
C4
06
D4
62
F4
BD
75
20
7E
4C
E1
04
70
F5
57
36
FC
EF
E0
52
83
41
FE
75
C9
B6
55
A6
A5
DA
3F
9C
93
D5
A1
9A
7A
89
31
C6
9D
AA
FA
F9
B9
FD
9F
7E
F6
70
B1
E7
67
40
95
C2
B4
2B
A1
ED
0A
E3
E0
BD
8C
0C
FE
95
01
7A
8B
FC
5D
A4
14
C6
85
69
64
B8
22
0D
1C
AE
55
49
7A
12
94
33
02
96
C5
D3
8E
03
C0
16
AC
E5
FA
DC
9A
93
F9
8C
3A
D5
E6
56
7A
94
98
C0
52
E3
AE
E0
17
64
BD
E0
03
36
92
BD
A7
FA
5E
CA
52
DF
5C
11
21
72
D4
A5
9A
D5
0C
5B
EB
FD
1C
81
A7
F3
F4
EC
2F
83
FC
F2
65
54
74
8C
B4
46
E9
BF
8D
FA
E3
D5
65
21
CE
3D
89
45
0C
8E
2C
3C
2B
02
1E
6E
FC
3D
A4
79
17
1A
8A
A9
32
6A
D8
E7
2F
A5
36
48
BC
85
5A
A1
2E
37
FC
BC
11
2F
1C
A2
C9
4D
ED
47
A2
E0
90
C7
90
EA
F8
D9
15
74
6F
F7
4D
1D
A8
9D
68
B5
C9
3D
41
A0
38
5A
42
1F
AE
CB
7A
4E
08
46
C5
B8
4A
C6
98
4B
63
70
34
C3
92
9B
3F
25
12
83
E7
1E
00
F2
D3
40
D7
95
77
74
1E
ED
F1
44
BB
67
05
16
EB
CB
A5
07
E0
7E
D5
E4
41
D2
CC
F8
0E
38
CC
5F
0C
2C
13
FE
97
DC
10
3A
1D
DA
AF
33
28
25
2D
F3
65
4A
62
22
FF
65
DA
6D
F0
46
8E
4D
1A
A5
06
AB
A1
6F
1F
DF
14
A0
48
1E
8E
98
5C
4F
C3
C8
36
AE
FF
2B
B3
A1
B2
8B
89
34
B3
51
FA
0D
DD
38
B8
C1
56
AD
B9
A4
71
08
09
D1
88
A7
83
29
3F
F4
7F
17
C8
EB
55
04
64
FA
FF
94
5F
27
AE
AD
AC
59
AC
27
76
C2
DE
30
F9
B0
B9
C3
9C
0D
33
EB
5E
BA
16
9D
90
A7
1E
24
C2
85
B1
2F
9F
79
2C
23
3A
FA
F6
4F
75
CE
D8
CA
95
68
7D
88
24
B3
99
12
55
52
11
5C
2A
11
EE
18
6A
76
73
AE
2F
DC
CD
B3
D6
18
1C
81
7E
D5
9D
D4
7B
4E
EB
19
F0
61
40
5B
33
92
9A
53
D9
AA
53
B8
03
B7
D8
97
AA
34
F1
37
B7
4C
DF
06
54
89
BF
1D
E2
50
F0
79
44
35
22
1A
F9
8F
87
B3
65
83
0C
87
6A
30
24
A4
F8
A5
B5
BB
A0
76
5E
90
AF
18
32
8A
