92
90
D2
DE
75
DD
B3
9B
AF
46
E8
8E
A2
E2
51
38
9F
05
26
53
AE
EA
AD
7A
ED
95
1B
4B
2E
4E
E7
AC
FF
14
8E
08
BF
5B
D9
52
AD
A2
D9
D0
66
64
63
14
78
50
4C
73
A2
09
5C
95
5D
E9
3B
53
90
9E
A7
F2
29
B0
9A
78
6E
AD
2D
7C
1C
D0
98
D1
C5
C3
F6
E7
7B
B7
E6
1F
10
1B
C4
D5
D0
57
8F
DB
0D
D8
BC
25
97
23
C3
E5
B8
9F
4A
B5
31
73
5B
F2
38
AB
7A
6F
E4
C5
C1
65
BC
24
10
40
67
83
96
37
26
31
DB
AF
B6
EC
A6
5F
5F
03
1F
BE
23
BA
39
55
71
AF
0D
2E
24
6C
18
2D
EF
0B
19
EA
0D
D4
75
9B
9A
2F
4B
C0
7A
0A
04
7A
52
B2
F1
EE
9E
94
9E
DD
ED
B5
2B
51
48
55
38
08
65
42
78
F0
50
87
D4
A4
52
2C
57
5E
2B
9E
50
C3
43
F6
D0
0D
2F
B6
6D
C2
38
F6
51
C3
4A
BE
D5
E2
15
1C
19
B4
83
F4
A1
BA
D0
B1
10
99
C7
F5
84
ED
2D
AD
69
7D
BA
FB
28
55
A1
FB
3B
08
0A
55
D2
80
1E
9B
E5
9F
8A
B9
9A
03
77
AC
B5
6A
F5
F8
C7
01
37
E2
69
8F
25
F0
78
3D
F4
00
E8
6D
14
80
CE
19
6D
74
4F
F7
5D
36
9D
42
89
E1
A6
9A
99
B5
52
2D
DA
F3
CD
BF
87
16
4D
07
E6
6E
B4
EF
07
28
C8
E8
BB
0D
73
97
47
E9
1A
02
76
87
16
03
21
E1
6F
BC
FA
56
C7
08
FE
29
F3
26
8F
73
CC
B3
68
E1
87
E9
8C
1F
72
47
56
46
8E
E4
CB
3A
52
94
DA
10
66
A7
FE
6F
C8
33
95
89
17
AC
DF
07
2F
45
F8
E7
5D
01
FC
27
30
81
F0
8A
20
FC
9A
EB
BE
F9
C9
AB
C9
8E
F3
FC
7F
B9
9C
F6
BD
A6
CF
51
ED
48
C0
81
71
27
90
13
A2
C0
1D
53
83
A5
19
C3
D5
07
B4
41
C2
2E
7C
17
87
48
ED
56
22
C0
12
72
A6
7F
34
72
CE
56
54
06
89
0B
10
B5
BB
B5
AD
ED
9F
2F
67
EB
40
0C
D4
D0
3D
EF
B4
83
69
68
68
CF
11
FA
67
24
7D
B4
BF
40
60
BD
AC
2F
14
3A
B0
2E
90
40
92
EE
97
CB
7B
45
B1
42
C6
C7
7A
A1
50
84
52
A5
C0
72
6A
96
24
02
1B
1E
78
2D
82
5A
45
67
C4
F2
99
F0
81
7B
81
56
8D
39
3A
E2
EB
98
DF
1E
E8
FF
F8
46
F3
78
EF
68
E8
7E
75
A9
C4
B2
84
6F
7C
C5
24
C3
06
6F
1E
23
8F
00
CB
2C
C8
33
62
E2
84
E3
5D
5D
C4
36
AF
DA
1E
45
05
5B
7C
01
0E
E7
FD
AA
8E
90
0B
4D
BC
4C
6D
CE
0F
11
B9
BF
13
96
05
2A
4C
3F
4E
CB
2B
4D
48
71
A9
E9
D4
33
2D
08
6C
7E
5E
E8
83
F5
A1
0F
E7
4F
3F
78
9D
80
9C
59
54
7B
82
1E
BF
EA
08
AC
4A
51
CA
91
EE
B4
CA
F6
59
5C
98
65
F1
B8
D5
49
59
AB
29
6B
C5
15
F9
A1
F1
A1
AD
56
51
38
48
C4
75
3B
53
B0
41
02
3A
70
C1
E5
14
24
54
B7
C9
B5
DF
DC
95
1B
2D
58
9C
48
53
82
3E
0F
62
C9
48
85
E9
6E
3C
86
C4
56
3F
A2
79
60
44
DB
BF
D1
A7
82
0F
B5
CA
70
75
21
80
4E
F2
AB
F4
2E
62
2C
69
E4
38
32
40
AF
43
57
79
AC
E4
AB
3D
A1
92
68
B5
54
9F
40
66
96
44
59
3B
3D
C0
04
2D
5F
7E
C3
04
57
FF
B2
70
CE
D1
18
95
31
11
A5
E3
28
94
AF
D6
C5
6E
B5
2C
AF
93
04
0F
52
DA
81
EF
09
5B
37
1E
70
D4
CD
A1
70
C9
11
31
27
69
B6
C0
D2
04
92
D1
E2
2E
5E
79
85
A8
C1
BD
41
30
56
E7
EA
4E
1C
AA
11
A0
40
B7
4E
9D
D6
F7
89
96
93
0E
D6
35
8E
AF
67
BE
F6
30
CF
A1
B0
D0
92
37
33
AB
CA
AD
F8
09
77
62
18
13
1E
6C
15
45
0A
91
1E
07
9E
B6
E6
AC
27
79
C8
21
44
48
20
FC
77
A0
59
DF
F2
98
64
B2
1A
70
39
F5
E2
F7
D9
E9
FD
53
5A
03
47
00
E8
6B
66
34
A5
F1
92
A1
81
A6
3D
FA
8B
D3
3D
17
98
17
E0
5B
BE
D7
24
49
B5
36
90
CD
56
19
AC
2F
D5
18
25
B8
73
23
5B
1B
1F
46
99
1A
1A
C9
B3
60
CF
B9
F8
B3
12
EE
E9
34
7B
0B
5C
56
76
80
0E
5C
73
73
6F
35
4D
B1
B1
84
6C
98
7F
E0
9C
CF
B0
5B
82
84
30
02
0B
52
D5
EE
F1
C3
14
2C
1F
05
15
57
8C
19
25
7D
DD
70
71
03
F4
66
CC
F9
90
77
7E
27
2E
B6
34
49
B6
A6
F9
60
B9
08
7C
8B
D7
2C
EE
EE
CF
F3
D8
BD
76
0D
63
DB
AD
6F
DA
D4
C2
36
42
5F
9B
88
3D
4B
86
0E
92
97
90
24
10
06
39
B1
F0
65
DC
7E
A2
70
56
74
6E
57
D2
53
9B
87
7D
47
50
4E
1F
5F
69
1F
51
6E
0A
3D
D9
94
24
E5
55
B8
66
00
6A
68
60
5F
56
92
46
F2
40
DC
70
72
1F
39
27
A9
DE
5E
23
AB
15
75
2D
99
6E
05
2A
E7
0B
03
FD
F0
CE
2A
A1
67
1C
5C
6B
6E
43
29
30
FD
57
02
83
01
01
80
FB
07
98
EB
69
D6
7E
B6
65
2A
30
F5
FE
D5
14
6D
AE
32
61
62
40
ED
02
F0
88
4D
E3
EA
65
6D
6D
C9
50
79
67
79
E2
0B
69
FC
7D
EE
9F
74
1E
07
FD
5F
1C
A5
E3
E9
F2
44
78
E9
31
B7
35
42
A2
A4
41
77
4F
5C
FB
D9
9C
27
E4
0E
3A
B3
B3
10
A1
B6
7D
DA
D4
01
7F
11
93
63
99
72
CF
50
6E
92
BE
7D
18
4B
3D
51
F4
57
CF
06
62
C4
61
AA
34
97
A4
B8
F1
5A
79
CA
4F
2F
D3
E9
96
9D
81
CB
4E
0E
46
31
58
AE
51
FC
49
7A
B9
2B
A0
E5
1B
F2
77
7E
B3
10
E9
AB
D9
3A
FD
61
3F
24
46
9A
87
87
E3
53
54
4F
81
BF
80
F4
53
28
C0
6C
F5
5F
37
41
6C
43
27
22
2C
04
17
63
AB
34
E5
3B
B8
79
0D
64
04
87
A0
4E
9D
15
97
F5
D1
69
30
FF
AD
06
72
3A
E1
95
87
E9
59
2D
7B
71
DB
1D
66
5A
50
7D
90
03
60
64
5D
28
AF
8F
99
45
76
4E
D8
2D
37
84
E1
2B
03
42
7E
6E
6B
16
C6
3E
66
BC
36
2C
30
49
88
DE
75
04
44
20
02
96
77
2F
E8
CE
AD
55
F8
51
60
DC
E4
18
16
84
6E
07
23
52
F7
DE
4B
27
F8
94
3D
96
E2
01
3E
EC
23
15
71
19
02
47
AB
5D
96
56
C7
36
A4
DF
08
73
33
47
06
78
11
43
4C
42
CA
3F
BD
C8
45
5D
C2
A0
C8
12
F8
0B
94
7F
D2
D3
1C
56
6D
5B
B3
51
0E
7D
E9
FD
F6
95
A7
B4
3F
D3
31
DC
16
8F
0C
56
15
EC
9C
60
C8
85
1A
33
7C
52
FC
AE
10
EB
20
51
BD
E4
E1
B5
EE
66
17
AB
5F
E1
F4
60
C5
A0
2D
86
8D
B4
57
72
BC
40
B0
5B
01
07
1B
00
C0
B1
D4
6E
65
4A
46
3B
24
8C
62
26
B2
50
08
7A
06
00
3F
23
71
23
D2
14
1B
D1
93
A8
37
96
46
75
5F
F6
6A
2F
9B
EA
CB
19
47
72
2A
BE
A0
C8
49
CC
C1
6B
27
23
5F
BF
31
97
3A
1C
B5
7F
D7
53
F9
E8
18
84
F9
D9
C9
94
5C
94
0D
AC
3B
91
CA
F3
99
0E
11
ED
C5
4E
BF
27
9C
85
64
6D
16
AA
30
7B
8F
9E
F5
AE
61
1B
80
29
EA
87
50
B6
81
9C
2B
A8
AC
94
99
CC
44
D0
0B
5B
67
77
73
92
87
F8
F5
C4
DC
F0
04
F3
E1
57
23
5A
2E
B9
AF
C6
F1
BB
19
53
8B
B1
19
BE
19
E3
44
57
F3
FC
B1
97
45
1E
0F
1A
A0
2E
85
A8
FA
21
D8
24
D1
01
24
3A
45
69
C1
4F
A7
C2
44
55
B1
5D
02
E1
D6
47
57
E2
40
33
F5
C9
F1
86
C6
3A
5B
CB
32
DE
45
F9
A8
F7
30
92
E8
6E
2B
59
7D
36
DB
5B
D1
E6
7B
FD
44
F5
E1
8E
41
AD
B3
4D
75
02
4C
AF
34
29
3A
7C
C8
D6
D2
FA
CA
0C
01
8D
B9
B5
5B
82
98
CA
57
31
56
59
19
5C
2A
07
F8
7B
4B
11
C2
35
63
E9
B1
85
B3
B0
98
B0
43
BD
66
96
ED
3D
46
DB
AA
4C
31
4D
97
C4
40
4D
B1
28
5B
13
74
C2
F9
CC
98
7A
2B
5A
DE
CC
DC
BB
DB
36
1B
62
F1
4E
CF
AC
44
20
E8
BC
C4
C5
20
37
03
66
FF
01
F4
53
C1
68
67
03
2A
AC
1B
EC
36
A7
30
F5
0D
6F
29
36
FA
17
42
69
54
9C
B7
55
0D
C2
4B
2F
76
6C
BF
25
5A
43
2A
6F
34
71
DD
BB
6D
C1
2E
2A
4D
53
F6
FE
D2
B5
43
6C
33
B4
2D
27
C4
CE
F0
35
C6
30
7C
FF
5F
3F
6A
57
99
6E
4F
1B
0F
F7
BF
D5
3D
C1
81
97
89
7B
C1
8E
7D
BA
3A
81
24
6D
79
F9
12
E2
24
F4
2F
75
DC
E4
08
9B
E9
3B
E4
B6
EB
FE
77
63
31
E5
01
FD
88
0E
66
1E
1E
1B
D1
A0
96
0A
23
D6
E2
56
84
BB
A5
06
B0
A8
EA
2D
8F
50
EC
2E
FE
2D
FC
F8
AB
30
1C
49
65
C0
2D
73
6E
29
13
E3
9F
96
BD
98
1D
6F
97
85
F6
1A
6D
52
1A
D8
79
DF
D4
9F
E1
1D
C1
D2
5B
AB
76
57
C2
95
38
78
1C
CC
BC
02
AC
31
07
3B
75
CD
20
CB
F9
C7
FA
E2
3C
19
83
4E
F0
FA
FA
90
7E
70
47
F1
DE
CD
60
1F
06
42
29
06
BB
88
06
D2
BE
20
6D
46
04
2E
BA
7F
2B
8A
21
C4
34
BD
D4
39
B0
F0
B2
A7
E5
00
20
D4
25
CC
74
6F
6A
AD
22
2F
18
F9
87
B2
45
7D
D2
B8
E4
78
25
6E
1F
02
EC
46
13
C8
23
A4
E8
6E
CA
D6
B6
5A
95
4A
05
64
33
49
99
29
FC
78
74
59
69
D4
E0
A3
18
36
CF
D0
99
FA
B1
25
49
28
FE
08
29
60
DF
94
DE
93
0B
EA
35
20
6B
80
12
A7
38
6B
48
E2
0B
3A
E0
21
76
6F
82
3D
9B
37
86
E3
1B
C4
82
DA
2B
84
68
12
9B
75
D0
AA
39
47
4F
C4
46
C5
C0
BE
DE
0F
4C
DC
94
EA
E9
F7
13
49
4E
09
0C
39
D5
77
74
82
E2
7A
1E
FE
40
F6
A4
4A
B9
67
DD
CF
54
8C
F7
72
AB
DC
BC
1B
80
04
D3
7A
CC
F9
45
A7
03
39
44
D2
41
3A
1F
66
E7
CB
0D
38
9E
7F
24
5A
0B
BA
E6
C6
75
CC
82
8B
52
55
18
4E
C8
67
70
B5
91
8E
68
2B
4F
CC
40
91
84
