1D
FC
08
79
D8
A1
B1
9E
2C
3A
58
AD
4F
20
2E
15
26
94
DF
DF
EF
60
F0
D2
2C
B2
CC
BF
4D
82
56
AD
50
25
47
F0
8B
3F
EC
32
5C
47
CC
0D
1F
BF
69
14
B7
37
1E
03
17
15
47
D6
73
74
4D
A9
0C
E9
32
14
F7
FF
12
4A
93
F7
62
17
4E
71
E5
40
37
A1
6A
6D
34
04
B5
54
43
1C
82
22
B5
5A
11
45
21
40
E6
E9
1B
7F
ED
82
31
87
64
78
81
91
AD
70
F8
E0
B3
91
6E
84
2E
83
5D
5C
98
ED
99
F5
36
AC
B2
54
BF
87
2E
FC
1A
63
19
F3
84
5A
53
B3
55
40
69
5B
12
CC
5B
1E
8C
2A
77
A1
5E
71
D3
22
77
59
4A
36
87
51
79
07
E7
BD
C9
90
25
B9
BC
69
B7
C1
96
07
36
CD
A4
4F
BA
AA
28
E9
AD
CA
33
45
E9
3B
D2
DE
48
FA
EC
D1
8C
96
51
01
63
C9
B0
B7
18
92
9A
5B
1A
C5
85
DE
F8
7B
49
27
84
DB
41
6C
CB
8C
17
23
0C
00
A5
FD
E5
7D
1B
4E
C8
5C
9B
BF
C1
90
74
8E
D3
BC
EC
65
2B
B7
71
2F
87
99
E6
97
10
1C
C1
5B
75
2D
3C
79
E7
BF
AD
73
C1
4D
44
6F
C9
22
71
0A
38
56
4A
88
0E
11
C9
2E
5D
91
AA
5B
E0
F9
3A
A0
E3
D4
81
69
FD
F4
0E
C8
B7
EE
E6
C4
78
0F
68
0E
06
C0
A4
0E
79
71
C6
98
CB
D7
93
BF
AD
2F
61
35
58
78
22
90
3F
7C
A1
50
C8
63
F4
7E
86
D4
D5
8B
88
64
1E
4B
5B
F3
7E
B3
B4
9D
D6
61
5E
A2
12
FA
CD
1F
C3
8F
99
5A
17
BB
59
94
53
8B
73
9A
A6
25
46
AA
5B
51
DF
4F
B5
52
5C
70
A6
33
EA
E8
90
C3
02
F4
2F
9C
A3
18
3D
DC
6E
5E
44
94
D6
96
92
BE
30
D5
66
EF
5F
A0
6D
B9
89
53
A1
94
BF
89
E2
56
53
BA
B0
03
85
A9
CF
7B
0A
18
E7
05
BE
1D
F1
CF
CC
A8
AE
B1
15
8E
E6
57
16
51
5A
C3
86
49
E8
CD
EF
BF
E5
60
AF
F0
71
69
E1
22
B1
20
17
C3
58
AF
DB
E5
99
B5
F6
F8
37
8A
19
3E
4D
46
9D
09
0D
3D
67
5A
CD
7C
FE
48
18
0B
3F
F3
E3
36
07
32
83
6B
17
94
EE
06
DB
02
CE
33
A3
5D
1F
0F
09
3E
51
20
19
F3
4D
43
C4
AD
F9
6A
3E
54
C0
A4
28
3B
69
72
49
18
BC
0C
4E
82
13
7D
31
FF
49
0C
48
E3
09
7C
91
44
7A
1E
9A
B1
D7
08
EC
D9
21
69
06
65
BC
E1
60
2A
DB
1F
5A
5F
9A
03
3A
BB
27
1A
AB
74
C0
50
42
86
7E
96
52
2D
20
B1
1C
FB
C3
DF
4D
A2
46
4A
86
8D
88
1E
39
5D
8F
64
67
06
84
9D
34
DA
61
BF
97
9A
7B
6F
AD
C1
96
75
33
25
2A
97
4A
9C
71
2D
6D
CC
58
5B
3C
5D
B8
0D
48
DB
B2
17
BE
35
0C
7B
6A
7B
7F
E3
B1
C6
97
33
81
C8
8A
4E
85
7C
33
FA
25
25
F2
37
89
39
10
D6
F8
7D
A4
F6
F6
31
0C
88
D9
64
BD
B6
57
2A
DA
4B
7F
9C
53
09
F4
C6
60
DB
62
0B
69
E7
9E
3A
5F
1F
8B
C0
07
07
D2
86
37
D1
41
14
DC
8A
98
73
67
84
0E
A8
52
61
61
94
C5
9C
B9
04
2B
39
8D
E0
BB
9D
F6
D4
66
B1
24
DE
6F
1D
B9
2C
A8
B8
79
73
94
A4
F7
83
F8
0A
EF
03
FF
32
F1
42
D5
6B
2B
6D
29
68
FF
B8
FF
7F
2F
9B
C9
10
44
52
FC
A4
A1
FF
A8
CC
A1
D2
4E
13
DE
6E
3B
B9
50
8A
CC
8E
F5
B3
29
DB
14
39
73
01
C3
2E
F7
6A
3A
68
6C
5B
20
9C
D0
1B
ED
FC
46
16
E2
B9
9B
20
97
C8
65
8A
81
50
0C
DC
38
93
FB
99
32
D4
D0
61
7B
1D
0E
93
79
9A
23
B3
F5
6A
DB
90
9D
63
0E
58
57
43
ED
A6
C1
8E
74
20
2D
12
4A
99
A6
93
37
E8
CD
8A
5E
85
60
2A
83
AC
A1
E3
E2
77
19
67
E1
1C
F4
AC
33
11
EB
57
DA
0D
EB
3F
89
8F
A1
66
DD
70
D6
92
AC
24
D8
C2
53
CD
77
F1
1C
A3
87
7B
F9
F5
10
B9
34
8F
B8
F0
9C
5C
81
B0
96
60
2E
4B
B8
36
D9
F7
B1
8C
6B
6A
14
F6
82
CC
6F
00
76
C9
AA
C2
F9
22
89
44
C8
8B
E8
9C
FE
58
4B
09
0A
8C
1D
76
13
F7
7C
B3
A7
0D
32
55
5D
7D
A0
A0
0A
66
91
45
94
1C
4D
CE
4E
45
15
21
67
75
3F
6D
D4
FF
14
26
6E
B2
80
5B
F0
4E
F0
51
5F
FF
6A
5D
6E
E2
73
75
EB
52
7B
A7
1D
AD
8E
32
9B
83
23
4C
46
57
2E
C1
32
E1
B5
11
25
8B
D5
CA
F2
5A
1F
5C
2D
D7
B9
90
F8
1B
AD
6C
24
E2
35
76
ED
F2
A0
92
0F
29
F9
74
0A
7D
E8
43
EE
56
FA
6E
B6
80
A6
2F
D1
55
16
F9
06
9F
AA
72
C3
0A
B6
C6
E7
00
01
1C
26
99
C1
9C
5E
EE
A5
7C
D5
DA
F6
0E
88
5C
F2
DB
AE
61
9C
53
9D
65
F3
FE
72
BD
6D
6C
92
2C
7B
F9
B0
A0
42
8B
CE
60
E6
83
2A
60
46
3E
CF
CD
A3
7E
1C
24
1C
41
CC
CC
76
3F
96
B5
A4
61
90
EF
70
C8
C4
DA
F9
0B
3A
67
49
40
53
1A
06
EF
9B
EF
E3
A1
8F
0D
0F
30
56
18
0D
C6
08
DB
4F
C5
8C
AC
18
3B
61
ED
68
47
26
22
03
9A
30
17
9C
7B
41
E1
7E
94
09
1D
37
1B
BE
82
05
1A
7E
08
80
30
11
15
FE
01
C1
1A
A6
A1
E1
9D
80
89
9C
35
72
07
55
02
E7
F0
56
F8
BE
63
A9
C6
38
E3
F8
AA
C2
BC
8C
A6
40
40
4F
C7
40
93
6E
36
66
12
B1
C6
14
AD
EF
5F
EC
97
FA
88
9D
9E
FF
01
DF
3C
28
CC
20
43
95
B1
AF
D7
86
98
15
61
9A
52
DD
17
86
50
B5
A6
53
92
6D
E9
A4
8F
03
1A
EC
F4
D6
04
94
88
B6
D9
A9
4C
AB
D1
CD
D2
D8
3A
80
FD
8B
79
52
FB
D0
7C
FA
A1
F4
15
3A
69
CE
85
F9
3D
49
92
6D
C3
E2
AC
D0
6F
76
11
8A
19
F3
55
8E
BD
B3
6B
DE
C6
5C
60
4C
72
CB
2D
15
5F
40
B6
89
11
40
79
15
0A
09
9C
29
2B
91
B3
FD
5C
2E
7D
92
CA
41
15
53
9C
30
C7
FB
A5
C7
2D
87
1E
15
15
E0
91
55
86
8D
EC
19
46
E9
2A
D9
56
E2
13
88
45
77
D6
94
EB
14
EE
5E
10
F3
F5
F3
F6
06
B5
BE
93
77
0A
6A
04
68
54
85
E5
F9
13
F7
36
08
64
0D
4E
7D
E2
A0
AE
A5
BD
46
08
C8
D0
97
02
FA
99
C8
F3
30
9E
4A
CA
F0
AB
77
3D
E9
F1
D6
4A
A0
63
6F
79
7C
A5
32
58
E1
7C
81
CF
4A
37
8E
F4
67
FD
A2
4D
88
BA
23
A6
C3
36
F3
45
4D
A5
75
9F
F8
6A
DB
C3
59
FC
A6
EC
B4
4A
EB
DE
C1
36
03
59
DE
C3
BF
FC
0E
99
C9
54
96
C3
05
0F
B9
C7
B8
B4
DD
4A
9D
98
C7
56
E9
2A
33
29
AF
9A
A4
FE
87
41
66
2E
C8
03
35
BC
8E
28
C7
90
1F
14
41
37
B4
68
26
A3
42
AA
BD
D8
03
7E
4A
BD
1D
EB
2B
6A
0C
51
59
2E
EB
4C
41
09
14
7D
81
F5
28
AA
48
52
78
6A
84
A3
ED
17
78
C3
12
11
D8
D8
E6
12
D0
F5
2F
BF
41
8A
55
E0
B0
46
3E
0C
0E
6A
93
B1
1B
3F
BF
A8
28
FA
24
2D
49
90
FD
E7
05
95
1E
84
CA
CF
49
6D
EB
DD
91
4E
1C
BF
6A
F8
0A
F4
66
77
59
8F
6D
0A
E4
AC
13
C1
A2
A1
D1
3E
87
8C
8A
32
FA
3D
55
16
E6
00
FA
2F
BD
6E
2B
BA
3E
0A
51
A4
5F
41
3F
FC
6A
33
79
37
69
E2
A1
3F
9E
2F
56
5F
D0
1C
40
DF
37
41
36
7A
03
AE
49
32
10
4E
74
EB
A1
42
80
40
2D
5C
FF
70
BF
79
A5
5B
A8
6B
E6
50
A6
4C
F0
4D
4F
19
88
34
C0
52
5E
3B
D8
0A
C6
1D
A9
42
90
9F
87
AC
62
09
B7
C0
6F
C6
8E
89
E4
8D
9F
5D
33
6F
B3
71
91
88
F2
B9
FF
A7
6A
A2
BE
FF
C0
74
20
CC
E2
D3
03
51
18
8C
56
48
7D
6D
4A
E3
14
8B
B3
67
20
A4
08
71
D1
F9
3F
4F
1D
F4
1D
CE
F7
5D
87
A1
F1
D6
E7
C8
2A
35
84
63
0E
6D
4B
32
6B
E9
BE
29
0C
A5
80
44
C2
2C
0E
85
54
2D
58
BC
9C
D5
D1
61
7E
8F
A5
7B
74
26
A9
54
38
FB
7F
28
A2
A8
AD
4C
B0
84
B4
D7
89
26
19
B4
79
ED
3C
5A
4F
EC
FE
19
47
68
E7
61
A4
90
7A
4B
B4
FF
42
4A
4B
54
B5
C3
47
94
95
31
EC
23
19
24
D2
0A
52
74
06
5F
EB
8F
35
96
6B
31
7C
B4
10
3C
D0
67
C7
8C
7B
1B
1F
DA
9A
91
D3
FC
7C
B2
B2
A9
68
CA
10
15
18
35
21
C1
77
B2
22
E3
17
ED
E2
69
DA
FE
E5
37
37
37
E9
60
80
03
97
C1
71
41
B5
02
EA
5A
91
84
09
4C
31
72
F1
47
AD
E9
BE
C4
AF
21
27
43
66
9E
77
6D
20
B6
F7
38
F0
E9
BF
D1
D6
23
89
B5
58
2C
EC
C8
E4
CB
B2
15
9A
15
F3
ED
80
13
DA
BD
54
CF
B0
C1
3A
5B
84
B1
F0
0C
4A
0D
09
B3
34
40
DE
10
58
D6
EB
B6
B9
40
98
86
25
F0
D3
01
FD
A0
38
6A
62
FE
41
A5
1D
C3
76
89
11
20
6F
5C
61
E0
0E
7A
FF
9C
9B
D1
25
DA
0C
B9
0F
33
71
92
02
F7
FB
D4
33
43
F3
A3
D5
94
75
9D
DE
BE
8D
A6
9D
E8
71
6E
48
FA
C1
B9
FA
CE
21
73
48
98
E2
EF
08
E5
64
E7
BF
D9
18
F6
F9
02
6F
35
46
02
35
6B
45
F7
FE
B0
60
09
CE
45
39
79
0B
ED
C2
98
7D
B8
55
CC
88
65
94
63
F9
72
90
20
1E
2B
C7
E3
4D
65
5C
65
DC
AF
4E
4D
34
72
7E
45
6F
E5
9A
6E
2A
26
AA
4A
A5
0E
25
87
29
AE
8D
1F
7B
DF
E5
45
C7
89
46
CE
AF
1E
93
E8
42
B4
5D
02
41
AC
EB
76
8F
5B
00
50
52
76
95
6C
5D
2B
A6
2C
68
6A
89
D9
8F
41
CB
96
1E
D1
DD
4F
75
AF
16
41
B9
68
45
D1
1B
B9
4D
42
03
46
4D
1F
89
BA
03
7D
B2
3A
CB
2E
EC
A0
16
A7
11
5C
6A
F3
2E
D3
0D
1F
9F
A3
AA
D7
9D
51
EE
2C
A3
57
4D
63
08
D8
46
3F
A3
E1
71
A3
1C
90
47
F9
8F
7E
66
F1
5B
C9
AB
65
94
62
3C
36
