B1
32
3D
C3
C6
F7
8B
B0
79
D5
6C
6D
4A
92
25
78
67
B8
6B
A0
25
47
8D
70
A7
8E
43
BA
C1
D7
3F
72
72
B2
E7
AD
EF
27
32
69
26
BC
72
78
C9
99
E0
89
6B
51
4D
63
10
0F
1D
40
86
E8
3E
60
75
31
1C
E4
E7
3C
DA
A3
26
18
45
55
C3
D7
AA
7E
22
1F
C4
25
32
BB
60
D9
2E
88
B7
18
23
78
EC
DF
3F
AF
6F
03
5E
D8
A9
2B
D8
4B
40
6C
68
35
E0
22
0C
46
07
30
91
F4
61
A1
94
B7
8A
05
6F
21
1D
4D
40
00
20
85
E3
0C
C1
04
F1
12
13
AE
07
16
7E
E3
F3
C7
F3
15
2F
2B
16
3A
54
E7
FE
75
2A
56
E5
ED
F3
72
5E
BE
B4
C8
A9
B7
F4
D5
5D
FC
54
42
3D
C3
9A
FC
CC
AA
12
FB
92
33
16
CE
AD
3E
72
2A
F4
3B
31
0F
70
B7
B2
CD
71
85
2A
E7
11
99
62
BC
0E
2C
67
7A
38
36
73
C5
30
4E
32
66
E2
D9
69
5D
4B
52
6F
60
6A
6D
C4
81
DD
28
F3
2A
44
F6
A8
DC
86
34
47
0A
10
B9
8A
88
DE
C9
4F
17
02
A5
E6
58
CD
2A
EE
54
75
BA
D7
FB
48
07
FC
90
64
7A
D4
67
1D
A1
B3
85
56
81
96
07
DA
F9
30
BA
E8
D9
A5
6D
CA
54
2E
55
51
AE
47
38
60
1E
06
BD
B1
E5
41
E7
04
92
DD
38
0D
E4
4C
D4
06
E8
3D
40
FB
F9
D6
45
B8
C8
9C
44
41
B3
25
33
5D
9F
7C
D8
96
80
E4
8A
A7
50
53
67
93
2A
A0
A8
B8
8A
1C
D2
93
B4
71
D2
5B
17
4E
D6
A4
4A
16
5E
CF
AD
69
40
6F
48
82
E4
9F
B9
64
6D
00
3D
F7
4F
0C
F7
DC
FF
07
E0
AC
66
A9
42
07
EB
32
DE
B0
12
E9
56
81
D6
FC
F2
C2
DE
1E
AE
0A
E8
64
D3
31
DB
E1
0E
FA
95
05
5A
A2
91
DA
ED
79
84
E7
E7
8E
23
F7
38
EA
AC
4F
FB
4A
95
EA
FF
1E
46
9E
59
5B
E9
E8
2B
BD
CB
B3
42
9B
11
84
C5
DF
B4
02
8C
98
90
31
39
D3
34
E9
2F
5B
60
B2
14
98
0F
5A
08
4A
A1
FB
DF
D2
FD
21
F2
5B
1F
D7
DB
80
56
FD
EC
BA
63
50
67
C4
AE
A3
29
C9
3B
D0
B3
29
AA
61
68
6D
DF
9B
8E
A1
CB
BE
D4
E3
54
5B
DA
C1
50
37
A9
11
82
A7
50
4C
CB
10
65
F2
64
0F
86
84
FD
81
BE
13
5D
41
7C
C1
E5
A4
E5
7E
92
99
5A
4A
B6
18
ED
3D
66
36
E4
DD
49
FC
60
DF
F9
76
2A
1F
79
6E
2C
B9
32
46
26
B1
CE
AF
E9
FD
57
B0
93
A5
B6
B1
17
B6
8A
51
A8
1B
92
C0
B8
49
91
D2
31
D5
A1
F7
23
F6
0E
06
64
50
DB
AE
63
15
02
52
F2
AA
B7
5B
69
D2
51
22
3F
D0
5B
A4
28
D7
AF
19
AB
A3
D9
34
EC
5F
6E
7A
BD
79
DC
AE
00
F7
8F
B8
72
F9
A2
D0
E4
ED
B3
01
F0
7A
A3
42
E2
33
89
95
BC
A3
87
24
51
9B
8B
3A
75
4D
F9
4B
B4
B9
F3
BF
91
A3
15
B8
40
45
1D
4F
B1
FD
FB
3E
C2
88
C6
99
97
14
8B
A5
8F
3F
53
F2
E0
4B
93
DB
4C
3C
0E
5D
5B
F9
C8
75
66
DD
4F
C5
4C
5E
8C
9C
B0
27
25
BE
36
B7
00
F6
E7
03
25
AC
09
1E
4B
77
21
9A
F6
02
0B
B9
E8
44
92
F8
EF
BB
DE
98
65
F4
40
44
2C
AB
AD
45
BB
26
CD
04
A7
18
A9
72
12
FB
11
5A
3B
59
9D
07
68
5F
B0
0D
4B
87
B0
A1
28
A1
8F
6F
FA
A9
68
4A
D7
49
62
B8
FE
C5
34
CC
52
CB
44
60
DC
1A
67
78
65
ED
A6
36
22
72
13
C1
05
79
22
E1
33
06
B2
74
F4
C3
84
5C
BE
B3
40
24
7F
A0
C4
C3
47
B8
4F
CB
6E
0F
2A
19
2F
FF
1E
F9
9D
D5
C0
BC
4C
5A
DD
DB
6D
C3
C2
42
5D
52
7E
53
5A
57
0F
C9
37
78
92
B3
0C
CF
04
11
57
C6
91
B4
D4
53
F9
BE
13
16
69
B4
86
81
31
F4
A3
49
31
1A
B7
77
D2
1E
05
C1
BE
DA
71
D5
8F
69
C2
86
20
80
72
B4
43
05
79
97
1A
0A
BE
45
21
A1
10
CC
B5
E6
3D
26
7F
D3
57
76
35
BE
67
48
68
B4
A8
88
4E
D4
32
EA
B2
D4
81
A8
79
11
97
77
E7
14
B0
08
73
12
BD
24
CE
03
71
65
B5
4C
7D
42
46
D1
39
99
9F
73
C4
01
E1
9C
25
F7
A4
18
22
59
D5
B7
43
CC
B6
4C
DF
DB
ED
FD
AA
E8
4A
BE
CB
6A
75
9A
6F
84
52
BB
57
C1
C4
D2
9E
20
70
30
E7
76
97
40
D7
B5
4E
A5
1B
7D
4F
52
E3
24
FC
B3
07
93
FE
00
B5
65
D0
A7
84
CE
09
50
CF
26
2A
14
B2
8A
29
55
9E
6E
01
0E
A8
7D
E4
31
D8
F3
0A
E6
0B
81
0F
2F
F1
7A
3E
E6
AD
06
E3
9F
31
42
1D
30
C1
18
B7
C3
D8
88
88
6B
1F
64
09
2C
93
A5
DB
1F
EB
E7
6D
83
A9
9B
BC
F4
0A
25
C1
C0
27
32
37
60
0F
46
95
C6
79
38
66
C8
42
95
EF
C0
5A
05
82
4F
EB
1D
DE
91
A6
69
CF
35
65
28
55
7E
AC
D0
D6
AE
20
AA
15
85
4C
E3
E8
41
D4
BA
F1
88
E5
5D
82
C3
E7
6C
84
B1
FB
83
D4
E6
14
53
63
15
82
65
DA
91
61
32
62
4F
8E
41
38
81
00
06
04
23
E9
94
10
13
B1
34
75
8F
CB
23
BD
42
87
7C
06
77
BD
26
36
9D
6B
02
92
36
30
B8
64
41
8E
BC
81
E2
2A
6B
10
19
CC
0A
D7
B8
CD
EC
39
FC
92
EF
94
C4
A4
FB
CA
81
22
CC
52
F2
EC
EC
CD
37
B7
27
84
D3
82
03
35
BD
F4
1F
B3
21
73
FE
55
E1
02
0E
18
F5
72
5D
22
37
B6
FE
9E
36
FA
FC
12
13
05
A8
EA
31
F7
FE
FD
98
CD
93
4C
53
01
D5
A7
98
80
6A
A0
34
D6
C6
8A
8D
A5
42
D2
BB
B5
F7
C3
6E
BE
05
83
EB
4B
0F
D7
AA
81
CD
B7
EA
DB
84
CE
BD
5F
9E
4F
E6
ED
3B
04
CB
D8
59
4E
6F
A4
D2
2F
44
C9
E6
AA
BE
DF
A7
A7
01
AD
95
B4
B5
C3
31
60
0F
DE
DF
EF
B6
FB
83
FB
5D
05
8F
39
EE
F7
57
AA
AA
1B
DD
77
BC
63
E0
F4
A5
A6
21
40
2C
FF
91
33
7D
EB
80
14
B2
49
2C
DD
A9
1D
3A
67
17
25
44
52
72
C1
C3
5F
9D
1E
54
FD
A4
2B
3B
45
F8
48
5E
28
7A
DB
07
4C
B4
D8
2E
84
BE
F2
43
5C
E6
DB
F7
CA
8A
76
24
FD
4D
A8
C1
6E
96
EB
6F
C8
74
5B
D4
77
4F
59
47
12
31
D0
81
FC
54
78
56
DF
B6
FE
E0
6C
B6
2A
20
A2
03
78
A4
9A
E0
F3
FD
E3
B5
4F
F6
0D
3C
49
7A
57
6E
14
9B
D7
4D
B5
EA
76
52
57
EE
A5
FA
22
6F
E5
84
DC
6D
67
63
5A
C7
45
DE
AF
23
04
EC
43
5E
EA
91
9B
77
97
AB
8E
18
D4
1E
8B
3D
03
76
D8
05
FB
5D
E1
4E
00
94
8B
02
53
50
C2
AC
94
F5
1C
CB
45
5A
7B
D2
7B
86
39
F5
81
F3
DF
94
BA
87
69
C9
50
47
F9
FC
70
D6
C4
B7
FD
5F
17
B1
56
EA
4A
72
6E
6E
69
21
4B
51
28
AB
DE
25
EB
22
36
35
AB
81
E5
4B
F4
07
44
0E
8E
04
D6
DB
CE
46
18
F6
85
01
0C
E5
9E
CB
58
B1
87
9F
F2
B7
A3
5C
09
DE
45
F5
20
73
D1
B8
2F
08
AD
CE
08
07
59
2C
BF
6D
20
14
6A
92
EF
51
53
32
89
D3
31
C7
94
11
AB
E1
80
27
2F
B8
B8
85
B7
C3
8B
AE
49
1E
90
C8
94
65
82
97
3F
02
37
6D
F5
62
C0
4E
AF
52
15
7D
05
2A
A3
D0
2F
1C
57
18
BD
09
CD
09
8B
8B
0A
73
F5
2D
73
86
FC
1D
D7
BD
DC
5D
9D
B0
6E
FB
03
FB
2A
D1
CB
51
A4
D7
7E
AA
53
1F
BE
28
F8
C8
CD
25
2C
2E
4F
3C
23
57
58
EF
99
3E
D4
29
6B
99
F3
51
B6
82
35
A6
D9
16
BF
2B
51
CA
95
AB
EE
49
1A
1D
8A
31
9B
EA
99
A3
2B
E0
B0
7B
36
B7
24
0C
ED
DC
6B
7D
D7
C6
E6
1C
C3
A0
DA
A5
87
A8
2C
FA
4B
84
C5
F4
33
56
5A
CC
EB
8D
10
78
4A
21
60
59
11
02
9F
D3
B2
81
72
84
4B
3E
3C
93
4E
48
CA
4D
84
B9
8E
6C
55
59
CD
0D
A4
F6
F4
87
50
3B
B8
2F
35
0A
E1
8C
39
AA
05
17
63
8E
67
4E
B0
99
90
F2
A6
A0
4A
C0
B2
5B
BF
D5
03
02
3C
A1
F5
D2
71
F1
E4
52
88
32
54
E7
F1
E7
62
3F
1D
02
3F
E5
D2
7F
49
9D
8C
76
21
5E
A3
D9
66
57
00
CD
18
FB
0F
39
CF
E7
52
E8
29
00
A7
7C
9D
4D
38
C7
47
5D
E9
4D
6D
BB
F1
0A
56
85
93
46
22
F1
04
9E
D2
C5
F3
D7
B6
23
F7
19
52
4C
71
1D
07
36
26
A1
C4
D8
B0
AD
B1
C6
D1
65
46
31
93
44
DC
A2
46
84
28
40
2D
BC
A0
C7
59
D2
86
91
97
F2
6E
7D
37
A5
16
45
8A
9B
3F
E4
95
99
9F
70
7E
3C
CA
1C
59
69
AF
6F
83
16
E9
4A
A8
AD
1D
FB
29
70
76
01
04
1D
7A
A6
76
42
DF
7A
10
DB
17
0C
9B
A0
64
83
19
E9
8A
4C
7D
82
2B
43
6B
C4
89
1A
7D
78
7B
96
D0
52
33
D8
13
A9
A0
5F
E3
3D
93
D6
30
B9
EA
AB
3E
38
44
2B
52
EF
E4
09
93
00
53
5A
6B
65
91
B3
C4
C8
48
0C
98
BB
B9
F0
49
44
2F
04
DD
3A
BB
B4
68
2D
05
BF
28
69
2C
23
86
21
CF
DC
03
64
28
87
22
60
34
01
73
98
C6
A6
06
A9
4B
9E
6E
1C
48
1E
27
F9
65
49
8D
98
7A
79
A0
B5
05
4E
D5
7A
A5
D8
12
48
80
67
CD
FD
F0
8F
30
C2
6F
9C
19
8E
97
7D
56
03
52
1A
EF
EC
4A
EF
13
25
1E
44
1C
13
34
13
31
70
36
73
A2
16
FA
48
E9
A4
D1
22
AC
BD
C9
F0
04
6E
73
0C
AE
87
50
47
A7
F8
0D
EE
43
A4
9F
68
62
F7
7E
91
54
2C
B5
32
AC
60
16
76
8C
20
80
B4
96
86
2A
18
33
FE
36
37
39
15
11
33
05
84
B8
E2
D8
ED
B2
E8
8F
0E
CE
EF
7D
14
7F
1C
77
7D
B8
91
D2
58
89
1F
A8
10
70
F0
67
37
2B
8E
25
31
5A
14
FC
86
DA
46
D7
75
CA
3E
C5
79
C5
6E
25
31
83
48
F7
3B
18
2F
E4
7C
E6
AA
83
D2
D1
13
73
73
D2
43
79
86
09
C0
8C
