55
8F
B9
04
74
47
87
A1
1C
FF
AC
8B
01
48
15
79
E8
38
F0
B4
70
B1
0F
AC
FA
24
58
CA
B1
63
73
9B
EC
DF
98
31
40
8F
6D
6A
6B
3C
02
43
13
7D
2F
61
B3
28
39
83
D4
CE
FE
61
24
41
A2
54
47
72
D1
96
1A
7B
4A
DC
AE
A8
CD
A5
7A
58
48
79
E2
58
A5
73
85
2F
B1
CC
BB
29
FC
F7
2C
7F
A3
94
AB
E9
76
15
52
3C
E9
C5
FC
12
D8
58
91
0E
2A
55
77
7A
48
6B
40
B8
D7
D4
18
F5
54
04
1A
5F
4A
46
86
D5
6D
5D
AB
21
CD
8B
69
DA
11
46
9C
2B
C9
36
DE
97
8B
81
2B
1B
BC
79
6A
00
1F
56
23
EE
73
51
92
12
E7
B9
05
AD
46
44
98
EF
8A
82
9E
54
8C
F7
08
19
38
21
D3
9D
FA
28
C9
04
04
C0
A4
2F
8E
C9
9A
10
67
19
0C
3C
F2
FB
28
ED
CB
D6
7F
43
18
05
41
AF
71
EE
F1
75
F3
B2
54
C6
8B
52
E0
D3
BE
40
17
AF
17
ED
F4
68
5D
0A
2B
95
02
CB
69
C5
23
67
61
BD
24
EC
3B
6F
6A
EF
08
AE
90
AA
81
09
03
03
F6
2A
53
3C
37
AD
7F
96
9D
79
FF
E4
15
85
5B
80
ED
FE
2B
2F
CA
1A
96
DF
F6
22
8B
36
EA
22
81
15
50
62
64
45
63
7D
78
AE
0C
16
E3
4D
46
AB
1B
AE
0F
F0
B4
83
E0
D3
48
AB
2C
24
A5
B6
40
D5
3C
F1
8A
FA
1B
ED
45
DD
B5
D2
93
D8
A3
16
62
B9
BE
0A
EB
8C
51
F4
BE
E2
98
78
64
D2
DB
EB
68
40
E0
65
D9
E5
D2
0D
F9
CE
65
4F
8B
01
3E
5C
BD
CD
8A
73
5D
2A
2A
D0
DB
8C
5A
62
DA
47
90
9C
29
6F
AD
6E
52
B3
72
C7
08
6D
66
D9
0E
43
C9
2C
E3
C5
F2
7A
F8
B6
AC
98
68
3E
D3
DE
06
F3
EF
D5
DF
96
04
5C
47
F7
4C
C1
EE
B3
3C
ED
72
DD
C0
C0
0E
2F
DB
B2
A4
82
91
84
52
5C
D6
41
26
E7
07
E4
85
DE
67
90
FA
0F
8E
96
D2
B0
74
88
38
75
E2
EA
5B
56
4D
23
50
E5
E8
8B
E9
B1
5B
97
92
F5
86
81
7E
CA
95
50
BE
20
EC
38
9E
BA
66
0D
4A
23
77
8B
4E
21
DB
F2
09
5E
FD
23
6A
B6
38
A4
56
04
A4
DE
42
C2
7D
E0
3D
40
07
AD
82
01
12
AD
91
E4
5E
FE
98
48
63
5B
6A
B2
93
17
93
86
3F
83
B9
BA
9C
3D
5C
BD
FD
AC
55
77
8D
E0
B1
18
D3
F5
78
5F
2F
65
4E
7B
F0
40
E6
A1
5F
77
09
7F
FE
DF
94
AE
53
DC
F6
5C
90
EC
FD
34
96
85
F3
59
A0
AB
1C
A2
87
31
5F
7D
67
EE
FF
15
5C
E4
09
5F
DB
65
0C
A8
F3
07
2E
DE
F8
F3
96
B0
38
E5
31
94
E9
B3
D6
E4
EE
0C
DE
E3
C0
0A
83
1A
75
AA
73
D1
28
E8
70
94
59
12
FB
68
06
7C
C2
5F
CA
B4
54
FD
D7
75
34
58
B2
08
81
F4
03
91
43
4F
AB
D7
C0
10
3E
26
4E
1A
48
77
38
44
1B
78
60
98
EC
17
C5
C0
C4
D4
86
1E
F2
B4
92
A8
F6
03
AB
1E
42
7D
3E
E6
DD
45
40
06
E2
30
26
DD
A0
00
D2
1A
03
04
6C
0E
6C
6A
19
EF
01
6B
AB
E2
72
BA
0B
CC
EB
15
95
4F
7C
CC
4C
81
1B
18
DB
F4
F7
F1
8D
B5
6F
44
55
F5
C6
9B
1D
B7
65
A1
FF
39
2F
41
AB
38
A8
87
D3
F5
94
EC
EB
26
A9
11
DA
17
7B
C6
A5
1C
EB
F7
6C
FD
BB
B1
16
B9
0B
13
F5
F2
9E
1C
6A
19
0B
D1
EC
C6
B6
90
AA
70
56
DE
32
44
AA
3F
47
55
B1
A3
66
FF
84
6E
98
F2
8F
72
4F
22
51
A2
A2
2B
84
A9
90
D4
C9
41
11
39
E9
B4
FB
FF
5B
0D
9A
9C
9D
E4
8E
AF
9E
02
FB
59
B3
F4
50
3F
AC
05
6A
89
AA
83
44
35
23
02
4F
23
6A
CC
8E
3A
40
1C
29
19
EA
F6
ED
21
4F
3D
21
E2
B7
26
2F
F9
A1
38
D2
35
AD
04
87
B3
9E
FC
EE
68
74
DE
89
6A
56
4E
FD
6E
FD
31
04
A6
9E
20
73
E3
DF
0A
AF
FC
A9
8B
74
0F
FC
28
99
19
A3
DB
D5
5A
55
62
6B
5D
95
AD
16
CC
21
38
3D
09
CC
4B
0C
1A
25
4E
88
13
C6
8F
F0
DE
AC
F9
13
CD
00
B7
FF
EB
53
B4
5B
0E
65
BA
6B
32
52
B6
B8
43
A2
AA
E4
4C
3D
18
97
6E
ED
DE
6B
CC
6A
BB
20
3B
BF
DE
93
AB
45
BD
BB
2F
35
94
AF
0C
E5
A8
3F
11
0B
6E
1D
CD
7A
3A
6B
F3
3D
A4
48
19
4C
6C
6C
57
76
D1
F0
92
A5
D8
90
6A
72
01
63
55
92
AB
0D
84
F3
FD
12
BD
96
BB
46
20
D2
2E
3A
2B
5E
96
C2
3C
62
78
60
1B
18
73
2B
57
3D
DF
9F
3B
51
C2
6E
3F
9C
39
0A
96
63
11
69
40
0F
7A
01
43
54
AC
D9
E7
F0
21
7C
CB
48
FF
C3
B8
23
65
90
A8
BA
C7
D0
BF
58
2D
DB
5E
62
4A
5D
B5
16
5D
A7
2D
1F
47
D6
59
9B
5F
AD
D6
CE
AA
D7
70
40
FE
5C
B4
56
E5
03
11
AC
FE
A5
83
F4
93
3E
A2
62
1D
1C
D6
03
87
12
17
D9
B9
5A
EF
0E
29
1C
31
3F
0D
F7
2F
28
B7
AE
A2
B8
9D
1D
52
5A
3C
36
6C
63
30
68
B1
B3
54
C3
8A
1F
31
C4
ED
63
F4
28
CE
3C
A7
AC
4A
44
55
49
19
BF
0D
DA
B8
B1
90
CF
58
3B
50
9D
86
57
67
4C
2B
41
26
E3
AE
6E
65
54
70
86
94
AC
42
81
31
F4
70
69
A9
67
0B
7E
89
FE
5B
9C
B8
AC
8E
72
D9
4E
D5
56
41
D3
0C
AB
0C
53
12
D9
16
AC
5A
A4
E3
B6
9C
24
14
BA
6F
5C
AA
84
44
18
6D
F5
8B
E2
9D
F5
DB
22
F2
7B
FF
3A
A0
1F
17
BD
37
05
57
D8
4B
5D
D1
B9
41
19
E9
46
6A
24
D9
D3
19
0C
45
9E
CC
5C
A7
06
9B
C4
FC
6E
4E
18
26
0C
AE
8C
3E
53
78
D7
23
97
A4
DE
9E
06
05
13
08
73
DC
F6
7A
CA
BB
47
67
86
7C
BB
87
EE
6A
C8
C6
6B
22
94
E9
7D
86
72
74
16
4A
7E
47
5C
1D
BC
02
95
A9
D3
FB
E0
FD
CE
8F
F5
9C
19
88
6E
4D
35
D2
EF
87
A9
AE
8E
A2
8A
C1
D6
AE
A4
E7
CB
94
E8
0B
2C
A3
7C
CD
FB
C8
0A
82
9E
E1
1A
E6
38
4B
5D
2B
05
96
52
74
84
C1
21
6B
52
C7
25
A2
EB
61
BC
45
AB
3F
56
D8
41
69
B4
5F
9D
AD
40
E3
36
AC
82
31
F6
E6
C2
F3
C6
C8
9B
5A
BF
62
8D
C5
B7
AA
33
5F
73
C7
1D
81
5E
E6
B9
CA
8B
B9
B5
2E
00
49
C4
1B
3D
0F
70
D1
8E
E6
8E
BA
DD
94
A5
45
80
21
CD
16
54
21
8D
FA
D6
A8
B8
3A
A2
F7
BA
85
31
8C
F0
66
B8
CF
07
76
A0
7E
FF
DB
16
1C
47
EE
97
4F
92
23
2B
1F
1F
A1
F4
80
5E
70
2F
98
9C
FA
69
29
28
A8
4A
58
4A
D1
8B
5E
70
CB
A1
F8
36
55
23
61
76
8D
2C
BA
77
DA
8F
D6
4F
E2
82
59
29
54
2B
50
14
B2
C4
17
09
4A
F2
91
38
0B
4D
84
98
24
FF
A5
37
85
A4
36
25
15
91
AD
55
72
53
89
70
C0
EE
E1
BC
4E
DA
D5
6F
34
10
3C
AE
94
A4
9D
35
A7
2A
43
2D
F5
3F
A2
C3
07
3C
B4
03
F6
80
8A
DD
92
5C
2D
C1
47
61
ED
DC
6C
DA
76
AA
2C
91
EE
3D
F9
20
05
E3
D3
41
83
D4
38
17
24
FC
40
46
4E
7B
E0
C8
AD
7F
7E
A7
75
D4
A4
59
BF
6F
42
C2
2F
54
8C
85
1D
03
76
E7
A2
40
2C
4B
3A
3D
0D
06
80
59
CD
51
19
77
E6
71
1A
F2
24
F4
6E
81
0B
99
32
88
24
49
20
F6
28
C9
7A
B8
A1
F2
6F
2C
08
39
E3
91
CA
6A
BB
6F
FB
FE
90
AF
8E
F2
AE
F8
13
79
AE
29
42
CC
47
28
93
CA
56
CA
B3
7B
AC
58
04
48
92
D9
8A
7E
ED
FC
7B
87
72
B9
5B
F7
58
E3
BC
BC
A8
29
27
41
54
22
85
F2
0C
A5
CD
49
92
42
EC
48
7E
FA
34
D9
3E
28
2C
C6
4B
62
E0
CD
A6
31
DD
80
53
67
1B
0F
D5
55
AF
FE
F5
C7
E5
95
75
4E
16
C5
2E
2C
31
F4
AD
C6
C4
AD
4F
92
F6
E1
A6
E7
51
88
82
69
FC
E5
09
90
55
EF
DC
C0
5E
F4
2E
EC
E3
AA
6A
DC
61
BE
E4
79
F4
6D
BE
4C
3C
5B
F0
37
55
3B
DB
6F
E4
CA
C7
5C
3B
5D
4F
28
EB
D6
EB
A9
46
8B
64
05
C2
5F
4E
C4
44
47
5B
61
FC
69
3F
CA
09
36
D5
48
7F
61
62
E5
50
5A
0B
A7
E4
2A
0E
28
AF
F4
4E
08
BF
53
CF
07
B8
ED
AD
AB
EC
F2
FB
A7
6B
65
C1
AC
5A
86
E5
BA
C4
5A
E1
F1
19
C7
4C
57
42
D2
F6
CA
36
8C
2E
68
D5
15
53
36
C7
1C
72
3F
E7
77
CC
C0
D9
8E
3E
B5
DE
EC
35
5F
C7
20
87
A7
C2
AA
8B
B4
4C
77
46
2B
87
0A
2E
BE
2F
4F
DD
81
08
EF
58
CE
9F
79
9B
94
80
6D
EE
D7
C5
0F
00
31
33
66
25
D0
86
33
CE
6E
06
E5
A1
B3
CB
88
54
F3
D9
CB
97
88
26
F9
51
62
B5
E8
1E
93
67
10
62
D2
5C
73
53
91
E2
58
A1
53
8E
1F
90
1D
E4
2A
71
E7
EF
EA
2F
40
42
EE
A0
17
AC
F5
CC
D7
6B
93
25
AE
3F
DF
F8
D2
B2
5C
F8
DD
78
FA
36
59
7A
C7
BA
69
76
D9
2F
AB
92
0D
40
FB
9F
76
74
E5
32
63
B9
9C
8B
6D
BF
4C
DE
34
93
43
FA
16
48
6C
CF
F3
1B
90
D9
16
05
FD
47
9E
2D
60
6F
8D
8A
84
2B
93
0A
5B
C6
E3
F4
FF
39
2A
CF
57
B8
2A
64
D0
85
3C
8D
31
F0
8D
6B
66
70
16
51
6F
F1
09
F8
A7
23
58
20
EB
CD
D1
B1
2D
6E
EA
7B
B2
A6
1B
B8
0A
87
77
86
0B
3D
0D
90
8C
E5
B2
B3
3F
FD
7F
F9
07
CE
4D
F8
C0
8D
59
B0
08
97
58
6F
DB
DD
20
E5
81
DB
F1
67
4D
7E
0A
B3
8C
BB
B3
5E
EF
8C
30
BC
01
49
B1
D3
C3
5E
58
4A
CB
67
04
28
AF
C7
B0
4D
49
1F
04
58
82
AE
71
C8
C3
AF
97
B9
85
F1
F4
4B
56
95
04
04
04
B3
11
90
F1
DA
14
4A
82
8D
D5
3F
89
E1
35
A4
AA
D2
25
D1
92
8E
9A
2F
0D
D1
49
1C
94
70
7E
4D
7B
9D
56
D4
2A
73
6D
7C
1B
80
4C
9A
94
BC
09
6C
