7D
24
6D
CF
ED
6D
DB
96
2E
30
5D
89
CD
BE
5B
8F
DB
3D
39
47
B4
67
2A
BD
6A
8A
C5
0F
CF
61
07
D0
12
7F
99
29
50
97
EA
20
7A
F0
20
E5
D9
9D
B4
04
85
48
9F
AF
6A
26
8C
B0
30
8F
F9
3F
48
03
28
4D
31
36
CB
10
50
7B
40
A0
5E
2A
CC
B0
0B
17
8A
26
16
50
89
92
35
02
13
78
75
97
8E
67
FD
FA
21
81
C4
A3
15
5D
EA
A8
C7
95
E3
23
81
37
3A
1C
5F
83
A3
A4
6B
AB
02
97
E5
7E
39
B3
7D
F8
D7
10
2E
55
B6
AC
FB
2C
38
DE
38
12
90
A2
DC
98
A6
CB
EA
16
59
64
97
6C
C3
17
0C
6F
36
31
5A
72
2C
42
15
5B
CB
CB
0F
41
00
69
21
84
14
0A
3C
D3
D2
DF
09
4E
14
B6
39
7C
33
E0
1A
B0
51
A5
1C
8B
AA
24
2C
DD
B3
CF
04
4E
42
4C
82
4C
FC
FF
8A
2E
70
66
67
31
2B
39
FE
15
9F
02
BE
1D
09
83
D0
B6
3F
D3
C2
9D
E7
68
3C
32
CE
8B
A0
71
44
C7
A8
B0
43
CC
21
30
F9
B5
EF
63
1B
F8
33
A7
B4
37
70
6A
73
FE
02
26
32
04
1C
78
B4
A6
E6
8D
03
25
22
5E
4E
32
F3
86
10
3B
C2
19
6B
5A
F6
BB
C2
07
44
4F
49
AA
1B
0E
AE
7E
EA
A9
E9
A3
4B
E3
B7
D8
70
AA
16
44
F7
B3
11
FF
45
49
80
08
54
37
22
49
C9
75
3F
A7
F3
2E
F4
C1
85
31
B9
48
81
6E
DE
F1
DA
35
3A
F6
4B
D1
EB
69
E6
05
00
92
CB
D7
82
2E
91
E5
42
9C
3C
85
24
DF
F0
35
D2
19
5E
DC
1C
A9
3F
3A
58
C2
64
01
A0
F5
93
47
63
34
01
09
BC
D0
9D
20
DC
23
6D
E9
79
BB
A6
A3
59
27
7C
C6
83
91
3C
13
F0
78
61
73
0D
17
5B
22
F1
97
EC
C0
DA
C6
0E
A5
A0
C9
A4
F4
95
FF
F3
56
AF
A8
A7
C5
82
11
3C
B5
D6
A5
A5
D7
54
63
B3
8E
E8
1C
B7
C2
96
9A
8A
41
C3
E1
0F
2B
14
A9
9C
A6
E4
1C
65
D5
AA
1C
C4
1D
DE
A6
F2
31
D4
30
52
89
19
2D
82
E4
28
F0
E8
6F
79
14
6A
75
E2
5C
93
44
25
59
4E
AD
57
12
A0
9A
0A
2D
4B
7F
E8
B7
0F
DF
1C
CA
0F
18
EE
37
B8
FF
F6
C6
6C
4A
3B
57
96
9B
C2
D9
D5
FB
C0
CD
9A
67
F3
66
F1
F5
3C
2C
A7
39
F5
6D
0B
52
92
0C
D1
41
AD
4E
0D
FF
B0
8F
BD
7A
15
0B
76
D8
4D
E9
05
5E
70
D7
67
9C
B8
BF
EF
E9
7A
9B
45
0A
8D
9C
48
5E
2B
38
C5
E6
8F
10
9A
5F
60
AF
B3
8E
4C
51
2F
62
E5
73
54
DE
F0
BD
2C
D6
8B
25
9D
D5
36
10
9A
A6
32
E5
3F
D5
65
2B
3A
9D
A6
85
BB
B2
A0
65
8A
55
A0
2E
9A
4A
1C
2B
62
D1
44
99
0E
56
C5
36
D2
09
9E
D6
F7
4E
4F
90
EC
DE
1E
BC
21
05
D8
93
43
83
6F
3C
23
95
2D
BA
F3
65
60
C3
E6
B2
CC
5A
46
7F
33
F6
96
DA
89
BE
DB
AA
D7
E1
E1
23
49
98
44
03
28
96
4F
8B
DE
05
1E
DF
4C
D2
0C
02
82
85
5D
72
BA
0E
58
18
71
A7
CC
57
33
D2
E0
0D
A1
0F
64
23
B0
ED
B8
B9
9B
CD
80
70
D2
51
C0
14
56
02
0F
7F
6C
76
69
B7
DF
63
55
67
8C
67
E7
3F
E0
AA
BC
AD
E1
CB
B1
E0
E0
DF
BF
6B
F7
98
2A
D0
44
76
1F
F6
77
5C
34
F5
42
40
6A
99
3C
3A
3E
E2
BB
DF
B6
CE
46
AD
EE
EE
97
BF
FE
1B
BE
8A
D6
DB
D5
E1
B4
65
EC
79
81
B1
BC
A6
3B
56
96
1A
96
2B
1D
99
C9
91
BB
9F
8E
45
91
EF
71
DC
5F
46
75
36
37
F9
0D
14
34
99
84
9A
06
43
94
12
60
3C
ED
80
C4
6B
AE
D9
70
F4
F8
DD
DB
57
7D
36
7C
5E
E2
F3
C7
69
33
AB
CE
E5
A4
67
B3
0F
FA
8A
83
30
A0
81
A1
83
38
D5
C4
4B
B5
F8
A0
D3
05
20
78
98
B7
46
C4
74
39
21
25
1F
DA
CA
E1
A5
8B
8E
79
52
A9
39
19
DF
45
F2
80
2B
74
AE
03
4B
3D
6A
26
F4
EC
40
35
7A
B2
53
FF
59
3C
E2
D9
FD
4F
9B
A0
04
BD
8F
20
E1
31
EE
C7
58
99
2F
13
E7
40
D6
0F
42
70
39
94
03
D8
FE
AC
E6
6C
7E
F6
0D
C7
05
F7
8C
2B
F6
7E
45
E4
1C
D9
44
07
C5
56
14
06
9C
51
DC
01
7D
3D
4C
11
D2
1E
C3
74
56
F3
C5
05
49
29
DC
9C
8C
0B
F0
3C
3D
40
93
94
BF
E9
3E
77
C9
48
8B
AF
C8
82
0A
6F
0E
FB
8F
19
53
72
DC
8F
5E
D9
E4
9D
B8
88
B6
7C
81
69
D8
64
A8
B2
02
73
8F
0F
62
88
F5
D7
85
86
BA
F1
EE
5B
EE
4D
2B
D7
5A
7C
C3
14
CA
82
E1
D8
9C
E1
64
30
B9
E0
29
DB
95
F1
96
27
46
97
91
30
8C
C8
2D
91
D8
8C
B6
F6
A3
81
03
71
6D
C6
42
6B
42
6F
8E
B1
45
7E
8A
AB
15
14
5C
58
62
92
96
88
1E
58
DE
FF
D5
2E
3B
7E
39
95
D3
0C
26
CA
F8
0C
80
A0
D1
C6
74
9F
41
27
D7
BF
25
0B
7E
FF
F5
87
B3
54
90
60
09
A6
90
FE
C9
7F
69
1C
32
D3
89
D9
59
47
64
A5
D3
29
63
97
67
E4
2B
AD
D4
08
56
C8
64
18
B7
DB
4A
D8
99
1E
31
E0
43
F9
DF
01
E5
AB
0F
12
91
93
C5
ED
46
46
97
13
FC
FB
6A
E9
4D
3D
FD
E8
8E
97
BF
E9
59
B5
2A
DC
06
1A
F6
45
89
F3
0B
10
0A
7F
75
7B
63
8F
C7
58
90
09
3D
E5
79
A9
40
C3
E2
1A
F1
5D
89
63
D4
53
FC
8E
9A
82
31
35
B4
56
A8
F2
1A
32
A9
17
F2
51
57
9B
92
99
74
AF
68
B7
11
26
80
E3
DA
76
A9
BF
DF
07
DB
07
B9
00
77
D0
A3
DB
87
DE
42
6E
A1
A4
E9
56
41
EC
E9
18
73
78
02
F7
AC
E0
33
4A
30
9A
39
E6
8A
AC
90
05
82
03
D0
A8
3B
55
4B
51
87
7F
46
D9
92
D9
BB
83
CF
DF
27
50
D2
D7
15
4B
BC
6D
6C
50
07
62
3F
EE
A9
24
74
7F
A1
DF
EF
06
1D
46
6A
7E
59
20
4F
7A
B8
1E
84
EC
4A
B6
FF
13
80
7C
A1
80
64
0B
B5
E3
E4
0A
CC
8E
57
57
A9
7C
EB
47
9F
0D
D5
1F
BE
1E
0E
38
26
59
46
A5
90
15
D2
BB
EA
AF
BB
55
89
A6
09
E1
4D
14
18
12
D4
FE
5D
73
B6
8E
F3
D3
2B
D4
8A
B7
24
50
9F
0D
EF
E9
25
20
82
EB
B4
09
6C
0E
BF
4F
4E
4C
4C
BF
88
23
02
3F
29
7F
69
BD
4E
29
2B
43
8A
49
39
DA
19
AF
94
5B
AF
BA
EE
7C
1A
E2
B6
AA
69
F4
7C
4F
1F
A9
EA
3A
0C
65
A1
B3
6D
9B
B4
60
40
F9
BB
EF
B9
F9
AB
12
CF
00
5F
94
8A
F3
64
15
95
58
B8
08
2D
54
00
08
D8
0D
AD
C8
C1
C2
1E
1A
17
A6
B4
10
91
D8
88
AB
2B
3E
7D
F8
4F
D5
AC
2C
2F
08
62
07
E4
DD
6A
CF
60
DA
38
91
C7
0D
BB
7C
B6
1A
D3
7A
C4
98
85
20
D4
BC
9B
00
36
FD
12
CB
10
C1
71
05
FA
27
31
28
B7
A9
F1
B6
1F
0A
D7
04
2A
3F
0C
BA
E1
93
B9
4F
DE
A4
D9
11
1F
0F
E5
B0
92
61
FF
51
3B
18
1E
40
A3
0E
E3
52
39
7F
FD
B5
C5
78
CF
BC
AD
9B
35
87
84
D2
5F
82
01
04
03
F9
67
37
3B
18
1C
57
FF
F9
29
1F
BC
44
75
F4
47
B6
A6
F8
4D
A7
52
03
AB
D2
EF
10
2D
51
0D
3B
2D
B1
C2
59
C9
74
DB
89
94
5E
DC
02
50
20
D6
6E
E7
6E
DA
18
EA
91
64
F7
51
7C
B3
33
D7
B8
C3
95
AB
E6
F4
FE
D8
0F
73
1A
30
FE
97
85
C5
4F
97
F2
9F
EE
71
81
E1
25
9C
21
56
A8
6D
45
CE
86
BE
11
36
4D
2F
3E
9A
EA
B2
2C
50
B4
09
BB
4B
3E
87
C8
2D
6F
AD
61
E3
58
F9
E3
E6
9F
CC
31
D7
25
0A
AE
65
95
9E
0E
79
FA
9F
CA
3E
8F
0F
01
0A
33
DB
CA
72
1C
9A
77
A3
8F
A8
0E
52
4B
EA
F3
0C
90
42
92
BE
E4
AE
20
ED
3F
DE
A1
F8
5A
77
2D
F6
58
F9
22
70
0C
6D
82
30
47
AF
6C
DC
B7
DA
27
AD
04
67
DC
90
0B
F1
9E
17
A8
98
40
28
02
9F
C1
BA
E2
A6
CC
B0
20
D8
E7
58
78
71
70
83
D5
4C
59
AE
31
26
8E
A6
B7
D5
74
5F
EB
8D
C2
E3
88
E9
43
25
E8
51
C0
70
D1
D2
F6
67
B1
93
B3
E6
1C
2C
D8
1C
26
D8
2B
C0
5A
9F
AE
93
63
36
15
7D
AC
CC
7B
0A
10
C4
6C
9A
37
6C
FE
86
E1
48
59
53
2D
0E
E9
E2
42
08
CD
FB
C4
DC
7E
D6
8D
86
D7
AA
42
FB
FD
E1
16
8C
39
0B
E6
63
0B
EC
5D
7E
9D
53
F1
56
C2
1A
EC
88
91
9F
BC
93
F5
20
96
DB
6B
0E
9A
FF
97
8E
35
46
1D
06
89
64
DB
E4
D8
C9
34
73
4C
F7
6E
F9
0F
2F
2B
55
28
D2
D7
0B
61
56
34
70
B6
02
14
5B
7F
DE
3F
43
E4
3C
80
36
3C
F1
2A
2A
55
FA
86
C1
FF
B2
6B
B0
D0
BE
E3
A3
D6
EE
BA
83
75
FB
B0
1E
63
4E
3D
33
30
1A
C8
7B
C8
9C
D0
51
B3
07
79
AF
01
B9
80
97
DF
E5
6C
C7
77
9F
7D
12
B1
2C
22
05
F4
7A
BF
25
7A
D0
F5
E3
55
39
C0
12
AA
6C
BC
91
4C
07
F4
CF
87
46
D9
CF
3A
E4
9D
C0
C0
06
D5
CE
D0
1D
D9
C0
0B
2F
9A
30
03
19
61
B7
74
3D
34
1C
CC
D7
5C
AB
5E
48
A6
B8
7C
24
1C
7A
28
98
0B
28
7A
57
6C
A4
FD
80
95
D9
06
10
D2
09
D6
8D
E7
B9
D7
4A
18
9F
FE
DD
81
D7
44
FE
22
C7
44
18
8C
4C
50
7C
17
80
1D
92
0C
51
48
FE
85
5B
05
2D
D5
AB
58
70
05
47
92
D7
0C
08
CF
AC
8E
A4
D4
B0
FB
B9
41
6B
5B
B1
09
E1
F5
D5
8F
BB
F7
DE
24
29
48
6A
CE
34
A3
57
4C
19
CF
C3
4C
CC
0F
C5
1F
4D
B3
2C
EC
03
B5
8F
2E
A8
7F
52
6D
92
01
E2
C7
0C
6C
F9
AA
B1
1E
87
D1
00
80
FC
77
63
83
84
A3
15
3A
83
99
C0
EF
93
09
4E
2C
EF
9E
21
D3
BF
60
AD
D1
85
9C
F4
F5
F6
04
85
A5
4A
4C
0C
D5
12
00
83
53
44
D6
E3
AD
0D
E7
15
F4
ED
82
4C
03
F0
42
72
25
2C
C6
ED
A5
87
E3
CA
62
94
A2
48
6A
9D
0E
E4
36
8E
E7
1C
80
7B
C2
D8
57
BD
5C
EF
F9
17
1D
62
CE
7F
66
81
A1
C4
51
83
B4
45
4A
1D
4A
BF
AA
91
5D
2B
F0
C9
CB
4F
3B
FB
ED
9E
E5
B1
65
4E
27
C7
0F
B8
C0
C5
7C
D6
9C
25
CC
91
49
01
86
12
DB
96
04
BD
78
1B
90
E1
DE
BB
3A
24
92
94
B4
41
02
91
E9
E1
23
D9
CD
97
2A
DF
17
95
8E
50
9D
EF
E0
D7
78
20
A8
6F
99
AD
EA
BA
40
76
72
12
18
6A
6C
45
44
D8
59
50
85
B0
CF
A2
C6
E5
A3
0C
0F
58
E0
11
C0
43
53
68
FA
46
4C
84
15
B6
A0
A2
26
FF
04
A2
98
19
E4
C9
33
C0
4D
76
96
08
5A
5E
0C
A5
56
4E
76
8F
0D
43
F4
5A
67
38
E0
B1
C3
CD
95
0C
E6
AD
B8
CB
F3
57
F3
07
52
69
18
57
AE
D2
DE
8D
35
A6
AB
01
83
93
14
C3
DD
C5
C1
7A
D2
AE
91
89
5E
FA
0E
04
DE
B0
3D
D7
08
4C
8C
17
34
A4
8E
08
4C
E4
A1
53
CD
76
E3
5D
F6
81
EA
6F
3B
A5
B0
3C
2D
4F
8B
47
35
7B
80
72
49
1F
F5
94
6F
42
87
12
5E
67
2B
0E
A4
F8
41
F4
16
2D
03
25
1A
44
27
39
45
74
FC
B1
D9
5C
1C
EC
C1
57
63
24
6C
55
07
6D
BC
4E
C8
A3
4C
4F
4B
FC
B2
CF
FF
0D
31
C5
D6
8D
7B
34
4A
68
12
10
4B
EE
00
B5
6A
2D
27
8D
5E
01
9F
1F
11
1C
15
94
8C
BF
6F
0F
29
91
DC
53
2E
E7
C1
69
A7
ED
27
BA
C4
23
25
86
06
0E
2F
B4
9B
18
B6
FA
EA
6B
4A
CA
B0
6C
D0
0A
21
B5
B6
94
05
EF
B2
B5
72
76
6A
D8
D9
8A
BB
84
76
CE
07
63
07
87
55
3C
FD
2D
43
D7
20
24
4A
F7
A7
F5
C7
BD
33
00
88
04
9A
62
59
57
65
CF
81
1B
71
57
4F
49
6B
16
5E
2A
E6
DF
45
FB
43
A2
F4
96
59
90
D4
4D
24
EA
59
B2
35
84
3A
36
6A
35
92
39
1B
BA
1B
52
4F
AA
47
04
70
94
0D
97
25
14
17
A0
9A
29
6F
B2
8F
9A
2B
37
98
AC
E4
6D
F7
29
37
04
2B
22
D9
73
67
BC
DE
B0
4C
CE
77
7E
1D
4D
B2
60
5F
FD
1F
CB
A0
76
B1
79
9C
60
A8
47
74
99
C1
85
DB
71
18
93
D8
2B
73
13
E3
0B
EB
F9
DB
BD
BC
04
84
03
41
D6
79
4D
29
23
E2
EB
C0
33
91
A9
A3
81
ED
20
F8
3C
85
28
4B
8E
1E
72
88
7A
28
B0
A3
14
BB
D0
E8
EE
D0
20
FE
64
AA
E3
DB
29
E4
6C
25
3F
F7
84
A0
E5
48
3F
A9
F8
A5
90
3C
85
95
BF
AD
68
70
AB
D5
B9
14
43
58
29
1D
F6
BC
39
B8
E1
11
94
48
9A
45
54
4E
E4
51
C5
39
8F
73
FA
49
32
4F
82
B8
03
0E
02
25
9D
AF
1E
B9
14
C7
A9
74
16
0C
85
C1
93
76
C6
3B
64
2A
73
AD
EF
BB
40
9C
B6
FC
7B
DF
DD
38
F6
CF
A8
C6
4A
8A
FB
10
62
EC
9F
B1
21
20
87
1F
99
54
48
95
D7
B5
C9
36
3E
C6
60
F2
79
24
D7
B8
AD
5A
1A
0C
67
E5
A5
2E
E1
11
B8
56
50
B8
56
3D
DB
FE
80
B5
81
50
78
1C
AA
71
B5
15
74
A0
DB
40
C3
BA
3F
1C
A3
6D
4C
2F
62
0E
53
04
6E
7A
EC
F9
22
8F
55
A2
96
D4
3A
F6
0D
97
06
C9
4E
E0
BF
D2
E9
4E
57
64
54
6C
A1
46
5E
A5
CD
AD
BF
E5
BF
A2
5A
B5
E5
AC
02
F6
6F
8C
F4
A9
84
89
90
C1
EE
41
C2
9B
74
C5
B2
E9
A1
47
1F
E4
07
E3
C0
CD
49
18
89
13
E1
AB
CA
71
A3
3B
A3
54
03
AE
C1
6C
49
27
24
DB
F1
06
7E
2B
4B
AD
46
3D
7D
96
16
4C
66
D2
04
89
57
2D
E1
38
DA
55
94
99
EC
8C
85
13
80
FC
7C
3E
06
14
72
CC
AD
00
43
D8
94
7A
FF
57
64
92
D7
86
8C
7C
A5
7B
43
BB
61
25
38
20
4C
63
F4
03
91
CB
6D
E9
4C
84
9A
02
C6
FA
A6
5A
6F
17
EF
33
45
25
BA
E8
DF
12
34
E2
FA
2E
00
1B
DB
9A
25
45
A0
D5
EF
C5
35
17
DB
B6
55
1E
2A
38
97
50
AE
6B
ED
CB
3B
D6
9B
C3
2F
FD
FE
72
43
E0
C1
F4
44
8F
94
AE
09
FE
4F
F8
CC
17
58
80
1F
C4
BB
30
74
A8
6D
81
FC
E9
8A
A8
AB
4C
0B
B2
50
AE
84
7F
51
4B
5F
84
1D
44
49
98
61
64
C7
63
1B
9E
56
9F
FD
5B
87
2E
B8
5B
D5
63
3F
1D
03
C5
DA
11
20
A7
81
2B
A0
C7
41
9A
C0
2A
D8
62
53
5A
05
99
BB
3D
3D
78
6D
1C
39
E6
72
4B
6A
F0
CF
77
0E
72
9F
76
9D
3B
17
78
1A
91
25
2F
7B
E0
50
77
6E
D8
F0
A1
75
37
EE
DB
3A
1E
70
CD
5C
64
07
15
84
3A
74
2E
96
7B
F7
E4
40
81
E3
D6
9F
60
0D
C7
F0
A6
FB
3D
A7
BC
F1
EB
E7
EA
A4
03
12
6A
34
1A
91
BE
74
8B
A1
DF
87
BB
5A
11
5A
07
F4
90
D7
92
61
E1
12
7E
8A
A6
26
6F
69
46
BE
1B
B7
69
A3
42
BA
35
02
86
8E
F4
9C
9E
73
E2
47
D0
DA
5D
A7
52
DB
4B
28
F9
ED
22
32
B0
F1
0A
09
29
2F
3C
91
00
56
2B
0F
D6
6F
78
AC
89
8F
43
27
73
64
18
A0
55
18
AF
2D
BC
67
9F
F0
51
33
53
5A
22
20
71
E4
D8
69
DE
1E
49
D0
83
B3
C9
34
F5
F9
27
09
A5
44
66
E0
F4
DB
39
87
BE
72
85
28
AE
DC
70
A9
00
30
A6
74
82
B7
1C
35
E4
1A
0F
9B
55
CC
E5
E7
3D
FE
1D
B1
3F
29
AB
D6
90
D5
10
62
7D
F1
98
78
CD
46
7D
DE
68
0E
41
69
3D
5D
7D
91
22
B7
8F
3C
F9
94
83
70
0C
D6
E0
BA
A2
AE
36
11
2A
F6
B9
21
81
E3
F5
76
B7
0F
24
AE
6E
BE
1B
D2
CC
42
AB
D7
7F
8F
52
9D
FF
1C
7D
3A
32
99
08
D5
B5
2F
CE
DD
8F
8C
77
7E
91
DE
87
08
86
81
53
1E
2C
6F
AC
E9
A3
E6
7D
03
A8
FC
4C
1E
DD
CB
9F
4D
29
79
50
A5
E8
80
AF
B2
86
67
05
40
0E
79
4E
CA
3B
4C
28
D6
27
75
B6
4B
D2
1D
26
83
EA
2C
E3
7E
A4
2A
9F
22
C1
72
CE
6B
E9
80
2C
92
6F
05
18
69
B6
FE
6A
68
4C
AB
39
3B
E7
A4
54
A9
68
37
E9
22
EA
69
C4
E1
6A
2E
5A
32
F6
B9
CD
68
79
43
2A
0E
DE
9E
35
4A
4F
B2
B8
32
E9
42
B7
03
7C
FD
5A
02
B7
A6
28
93
AB
01
94
A0
B8
7A
FB
66
85
FA
FD
50
DB
02
E9
5F
1F
03
20
F9
6B
D9
D4
2E
C9
70
97
31
71
1B
18
6E
91
38
88
58
43
63
04
FC
7E
7A
9B
5B
C8
9D
39
4C
86
E0
29
02
71
3A
86
99
07
55
D6
D6
3F
D8
C7
C6
EA
C9
30
08
86
CE
C8
BF
28
A0
AF
F0
27
8D
2A
54
02
FC
5E
E4
90
53
61
9C
C1
F6
17
89
CE
33
0B
DF
6D
14
29
8B
DC
5C
F4
03
71
FD
5D
A7
6F
49
8C
6F
B3
B5
15
63
95
FB
69
39
03
5C
B0
A5
F8
67
7D
63
F3
F0
75
0B
85
4B
7E
6A
A5
10
D6
0D
19
D4
25
BF
8A
0D
0D
75
D9
B5
04
18
10
0C
B4
8C
D7
B2
38
83
5B
04
48
E3
E2
11
6F
90
1E
0A
CB
1A
CC
1C
81
7E
F5
0D
99
D2
A2
0B
5C
BB
8F
A9
C5
35
CE
24
40
62
6A
AA
E2
64
91
5C
E9
F1
6E
DB
0C
51
64
78
57
7B
6F
93
70
66
3D
13
3B
92
6F
DF
86
26
F0
FC
55
D3
E8
F7
E9
80
9A
DF
75
46
F6
72
38
CD
A2
70
40
13
73
5F
08
71
AC
54
31
B5
F5
D9
98
7D
22
AA
A6
7B
1B
D5
48
D9
66
4D
81
E5
7C
39
C0
B4
65
EB
90
FB
88
6B
8E
7D
CB
07
2C
66
8E
57
F8
41
14
36
5A
6A
33
8F
8A
E2
A2
3C
70
68
E9
9B
B7
93
60
FA
15
53
32
21
9D
38
52
A5
1C
C8
36
08
E5
44
D6
8B
4D
C2
4C
21
9A
CD
7E
78
88
7A
AB
1F
4D
0B
C0
EA
6E
0B
F2
C0
F9
FD
5C
47
3F
4F
57
BA
5E
21
4F
5F
D4
4A
98
25
CB
CB
F6
69
A3
CF
D6
FE
0F
65
5B
5A
6B
16
2E
E1
01
7E
CF
BD
40
CE
EA
50
72
E1
B7
9E
4F
AB
25
8C
B4
69
8A
48
81
BB
C2
30
99
89
0E
86
A5
6E
00
E7
9E
0C
86
82
02
AE
00
D8
99
00
30
52
E9
9B
5F
34
AB
3E
C8
E2
DB
C4
9C
B1
3A
AE
19
82
5F
72
56
37
0B
1F
AC
19
0B
79
EA
80
1F
1D
5C
69
C1
A4
F3
B6
34
69
65
F7
AA
1B
E0
A5
D8
A5
46
B7
AD
6F
8B
59
4A
B6
5E
C5
D1
F8
9F
F1
AE
2D
75
07
9D
09
93
E3
5F
14
76
AF
E5
50
32
DC
BD
F0
50
80
69
50
23
08
BB
42
42
B4
2A
A2
80
EA
74
DA
71
BB
15
1B
9A
C6
0D
DD
F4
42
E8
A0
6E
0A
C4
C5
A7
8E
54
18
E0
AD
38
2B
D3
E1
4E
18
8D
94
61
D2
63
39
6A
BA
C4
9A
ED
C4
D6
85
FA
52
6C
D6
C2
98
FB
63
38
FA
77
DF
52
56
4E
F6
8F
09
85
C3
33
43
A0
82
F2
71
B6
21
34
1F
12
7A
F6
1C
7E
70
7F
82
CC
F8
F3
59
1C
A8
D3
95
BC
81
8B
FF
C5
A3
FD
5B
CE
2E
8B
E3
CF
21
B1
79
17
FD
5E
0C
96
48
0F
5D
EF
88
31
90
09
F9
18
A4
B5
AE
D7
A5
68
EC
B8
E6
A8
0F
A4
35
B0
AD
F6
29
90
A3
25
25
F0
01
A4
61
B7
85
85
E7
EB
F6
0F
24
AC
5A
04
F8
9D
50
FC
9F
AB
B0
EC
FD
ED
41
97
BA
C9
D3
2D
CA
36
D5
91
EE
92
45
DB
A9
9C
26
64
47
01
C7
81
58
A3
0A
41
F3
92
C2
E0
2B
86
FB
31
10
99
12
38
14
CE
1D
5F
9A
6E
F1
7B
B1
F7
3F
A0
0E
25
A2
E3
C8
82
62
CE
E4
65
77
92
D3
FE
90
A1
87
CF
80
EC
E9
C1
69
5A
AB
5E
10
43
E1
5B
07
E2
D4
46
0B
EF
FF
DD
C1
7A
26
AA
FA
7A
3E
F9
22
E1
09
BD
20
68
C3
C6
5A
FE
E0
E3
35
22
96
DC
76
9F
50
17
F6
E0
42
F3
C2
04
21
A6
25
5E
FB
43
13
ED
77
7F
A6
DC
E5
5C
96
2A
99
2B
67
E6
20
84
B0
ED
07
36
50
B2
06
DC
8F
5F
46
FD
71
36
B0
9D
92
65
08
1C
4E
A8
9A
99
19
9B
6B
D2
9C
91
EF
99
46
25
E5
24
C5
E7
3B
DA
1B
8F
FB
DD
72
9A
15
72
8C
15
A3
B4
EF
5B
42
9D
16
61
29
02
71
D8
04
FA
BE
E5
E7
79
44
30
09
2A
D1
28
84
06
1F
34
EA
7C
1D
5C
27
30
C2
1D
5A
78
47
F6
EB
48
C7
2A
69
F4
7D
E9
C1
28
01
B4
04
69
09
51
BB
4C
EA
40
45
CE
DD
8C
B5
B5
85
02
CE
7E
78
49
33
C4
D0
90
9D
DC
88
04
36
E2
C3
F7
C0
5A
F8
33
B0
9A
99
7C
72
07
C0
3F
38
1F
6A
4A
4F
D3
C9
4C
70
3F
71
99
7B
89
45
31
C8
0C
C9
B4
52
BE
1C
B1
C8
5C
CF
C6
D6
A2
F6
08
74
3C
58
34
4C
B5
F5
CC
CA
07
45
E6
A8
1C
EB
AF
D6
5E
44
11
23
28
62
9F
A7
9D
7B
D6
AF
D5
1D
7A
3A
94
02
CE
E9
CB
A2
25
46
0A
1B
CC
9B
01
6E
99
50
B1
AE
52
8F
A8
DF
E6
1D
C1
D8
0B
F6
E1
C9
ED
45
82
0F
9D
A0
4F
0D
A3
35
B2
E5
71
42
C3
6C
90
74
56
23
DA
4A
F8
5C
8F
E8
F1
F9
8E
B4
D3
38
BF
1A
98
92
45
BC
9D
7A
63
B8
D1
ED
B1
4D
69
C7
F1
AF
8A
76
68
58
DC
58
83
18
10
E1
B5
FD
99
B4
2D
EC
F7
8F
19
1A
F8
64
87
91
16
D1
96
67
B7
1D
1D
5D
B3
8F
FC
0F
2F
83
AC
C1
13
31
32
D2
EC
B3
E2
41
01
FA
A3
17
57
DC
89
B1
1E
BF
8B
AC
9A
83
2A
0A
81
B2
75
0E
F8
71
E3
D6
4D
3A
40
AC
03
53
BB
72
F0
44
D1
D7
8C
4E
FE
A2
E3
2A
19
66
A2
0A
A3
38
EB
14
AA
85
F5
B3
54
AD
7F
70
CB
66
F6
89
B1
C5
C7
D4
EC
4C
C1
7F
24
79
85
AB
A2
CD
1E
5A
23
9E
F5
F5
A1
45
89
C6
D1
74
EB
D1
12
B9
14
2C
E3
E4
E9
54
C9
34
C9
5A
74
7F
16
6B
F6
3F
82
C6
80
D7
9F
51
22
56
93
68
25
CD
C9
F3
D2
96
1C
D8
16
69
68
05
55
74
33
D1
E6
3A
72
CF
C1
BE
AD
FF
F4
67
A1
58
AC
36
64
FB
82
D3
53
6B
BB
02
3C
20
46
3A
7C
78
CC
C6
C7
75
41
86
46
9C
57
D2
45
5B
5C
CE
8A
17
3A
0F
FF
7F
7D
5A
6B
6F
64
9C
D1
D9
67
A4
F2
28
D2
60
E9
B5
E1
3E
F8
BE
3C
CB
DC
BC
F9
1B
D8
A1
D9
DF
BE
C3
5C
CB
14
62
DB
D9
ED
01
56
19
82
DB
F6
C6
51
40
79
45
57
9B
E0
44
6E
73
E8
DA
E5
FF
D7
CF
09
36
B2
58
9A
0B
92
88
0B
80
19
F9
06
75
81
0D
90
DE
CF
FA
C0
F1
F9
74
BF
BC
AD
44
F9
42
31
F1
71
8C
7D
0A
19
C0
4A
E3
0E
07
7F
B4
F2
FD
2D
1A
FB
D9
73
73
20
16
7F
BE
3D
F0
CA
19
E4
70
48
CE
2E
37
20
B5
5E
B2
79
45
22
14
FB
07
C0
56
BB
78
C7
35
C5
DE
4B
4E
03
B6
7A
BB
7E
23
F5
05
65
70
F8
82
97
20
52
42
E0
1C
18
DC
F8
2C
38
B6
B4
B4
1F
04
D4
F5
3E
27
61
E9
0B
8C
73
B1
3E
3D
09
A7
4C
AF
26
CD
5B
CE
17
C6
00
68
CB
65
B2
A5
BD
5B
45
97
18
56
87
14
E6
2E
C3
24
07
3C
84
D0
8C
A4
D8
BF
0B
7B
55
D0
E8
53
DB
A5
44
8D
26
C7
2D
DC
16
FF
BB
A1
43
8D
64
1F
B3
84
D2
41
03
7A
F7
6E
7D
FE
DA
F2
AE
F0
8F
65
FA
4A
75
2B
14
4C
24
F0
E4
0B
35
F7
B7
D7
33
27
68
9C
CD
03
41
52
85
02
BA
0D
2B
7B
06
27
F3
3C
30
98
57
55
0F
AA
FD
D1
90
C0
F9
72
53
1D
96
35
F9
12
17
92
56
2F
AA
3D
61
C5
82
6F
4A
0C
41
21
21
67
33
6A
A0
D3
26
B7
19
C3
93
BB
41
66
B5
11
7C
96
95
AF
3E
11
CA
54
56
44
51
D5
28
D6
51
48
D5
4F
FD
3F
B9
F2
1E
8E
61
0F
0A
9C
7B
8F
FC
BA
4E
53
CF
95
09
97
6A
88
0E
23
A7
5E
29
B8
57
EE
5C
44
6E
7C
B8
BE
91
F3
D6
06
54
50
FA
FD
88
5C
10
EA
4F
24
BB
0F
16
C7
08
AD
BB
36
71
16
22
BD
23
F1
02
1B
C8
53
99
E4
CF
A5
DD
AE
23
6F
AC
72
2F
6E
25
A9
32
17
CD
87
60
F0
5A
F3
76
2F
70
6A
5E
34
CC
BA
45
4D
B2
D9
49
E0
52
0D
4F
C5
CD
3A
43
E4
5D
E2
F5
92
5D
3D
95
47
D8
DC
4C
0C
63
5F
CF
70
7D
71
73
BF
F7
3A
FD
1E
FB
95
DC
24
9E
8F
05
45
E0
F9
99
F1
6D
22
4A
19
45
88
57
B9
F7
51
DC
2B
C3
E7
02
83
D7
E9
33
07
42
15
49
00
C3
68
7C
C6
E8
30
BB
3E
8C
BF
FD
50
D5
70
BE
DB
0B
1D
40
9F
B2
95
33
63
60
3F
EA
4E
F4
D0
D9
33
AE
CE
F9
BE
FE
FC
4B
81
53
C3
8D
C5
8B
63
58
1D
DB
62
47
6E
23
0C
EA
5A
53
F4
43
93
19
CD
9B
E6
1F
E9
C6
B1
B8
9A
89
57
59
F6
72
B4
D3
32
38
D1
8B
6D
F9
13
AD
7E
E3
A0
8D
32
41
0B
08
BE
59
B3
6C
A0
F4
B4
39
C5
31
4B
4D
AF
0D
FE
E6
7F
F9
F3
1C
20
0F
8A
22
4E
B5
F3
56
C9
AA
31
47
F9
29
98
9F
04
D0
21
D2
A9
6D
16
94
7B
15
41
82
68
43
7B
BD
54
12
70
CC
47
41
80
84
BD
A6
90
29
BB
48
16
11
50
FB
BB
FF
3D
92
A1
A9
D3
8F
2F
F5
2B
35
DF
4E
98
98
31
A3
87
6F
98
3C
CB
11
9D
3C
4A
96
6D
45
FD
74
ED
FF
A0
54
52
DD
AD
8A
3A
31
1E
26
B4
25
FC
68
38
AA
A7
43
D1
61
07
18
1F
86
48
BE
57
90
56
DF
EB
0F
00
9D
45
9C
1B
AC
E1
7E
20
7A
6A
26
43
D9
6A
01
EF
78
5B
C1
D6
3C
F4
0A
DE
63
56
46
08
32
CD
CD
3B
61
B5
2A
85
88
61
43
C7
CB
58
2F
91
01
59
CB
9B
E5
99
A7
8F
04
36
8D
F8
BD
11
AD
79
C4
9E
A4
5F
B3
F4
64
CA
FF
33
74
AE
55
E1
2F
22
84
E0
43
10
BA
F9
81
4F
43
77
70
65
FC
38
A0
9D
08
C1
BC
F6
5C
30
E2
B0
95
A6
FA
89
9A
45
76
67
89
78
B2
49
CF
54
18
E0
E9
13
CA
1E
7C
C6
5D
6A
E9
6E
1A
B4
3C
56
1C
67
32
49
15
A5
09
E1
44
09
85
72
BA
5F
3D
99
17
8D
70
E4
70
F3
84
1B
6C
B5
79
15
AF
05
C5
D1
4B
1D
BE
D8
C0
4D
7A
D7
30
4E
B7
35
CB
EB
BA
74
00
C8
3E
D3
28
52
6E
E5
AC
5D
58
A4
93
40
BA
A8
D9
3D
32
AB
C2
88
B1
57
15
AC
FC
AB
E4
D2
83
C8
5E
32
67
D3
67
1A
7A
82
49
E5
2F
CE
69
F1
1F
7F
08
1B
77
E5
89
CB
B2
72
E0
B4
B3
6A
66
2E
62
6C
E2
7F
49
27
46
B6
21
B4
B3
DE
A3
A7
8C
62
45
52
4E
20
AA
C8
FC
66
6D
85
8A
AD
0F
B3
85
C8
3A
2C
72
92
B4
10
79
F6
12
30
E7
7A
E1
84
6C
20
D8
DD
CC
7D
5E
6C
AE
6B
70
7B
D3
B8
28
FD
1E
7B
50
D6
0F
F0
AE
F8
55
60
DD
44
5C
17
66
F6
F9
5C
35
20
FE
04
B6
7A
61
0D
5E
AB
42
CE
92
75
7F
AF
3D
FD
B0
1B
62
BF
AB
6F
5C
29
98
FC
BA
01
DE
31
40
9B
8D
9E
43
92
E7
D0
1B
2E
9F
A6
11
9F
74
CD
19
91
EA
32
67
29
84
7C
92
1B
85
3D
36
43
67
4C
76
2E
CB
A8
7B
0B
5A
A3
B8
DB
E3
E8
85
56
C4
49
80
F2
7D
FB
07
04
6B
3C
E0
27
B2
32
32
02
03
BB
EA
A9
55
22
54
C1
52
0A
D7
51
70
0E
18
BF
42
18
AE
B6
48
DE
B6
DE
BC
01
BF
6E
72
4B
F8
48
27
27
EA
C0
76
00
52
54
A9
11
5C
24
4C
39
74
E7
EC
FE
89
25
27
57
37
73
EF
49
0B
45
B1
FD
A0
6D
36
26
77
D2
06
86
46
EE
B1
3D
10
22
68
34
FC
EC
A5
EF
BC
A7
B6
55
79
38
29
85
7B
0B
8F
54
09
B8
64
5D
1E
BF
0C
05
3B
95
96
DF
45
5B
9B
22
10
15
1E
65
31
65
F8
B1
24
1F
C3
55
D1
C4
C8
1E
BD
77
10
35
D9
66
11
3B
F0
4A
B7
60
75
EB
C9
59
CF
39
12
51
C7
EA
FA
C1
D7
CA
63
AD
CC
3A
18
95
9C
17
22
4A
9F
4D
62
B0
D7
5C
C3
93
4F
B8
27
91
0A
4F
DE
10
DF
E9
FF
AE
85
53
F8
30
7A
43
BA
00
22
B6
4B
68
20
57
4F
EE
11
E8
DB
EF
A4
44
65
1C
0C
96
93
60
C9
F0
FF
67
E4
C2
00
AA
59
C5
62
C5
6D
65
4D
41
D0
47
6B
6F
BF
45
85
20
00
46
64
F2
3E
41
FC
0E
D8
E8
B3
77
21
94
2F
4E
66
07
FC
DF
09
79
5C
28
7F
6E
92
CF
D3
F2
8B
2C
06
EB
21
FB
37
1F
C1
C2
4F
3C
32
ED
A4
F6
0D
04
9C
71
EB
E5
FB
A4
CC
8E
0B
6C
4A
BB
90
61
24
61
2F
97
F3
5D
D3
42
AD
81
19
09
2B
1B
6F
A4
15
90
D2
0A
4B
B0
79
DD
38
50
EE
12
89
FA
0B
41
8C
4B
94
BF
02
BA
29
39
C0
BB
3C
35
C1
ED
39
02
0C
DF
FC
E9
E6
CD
B5
07
4D
31
21
E2
C1
29
06
8B
FD
18
6C
D1
CB
3F
22
F2
D5
E5
0E
81
84
57
C0
BF
92
59
D9
1D
13
2B
E2
22
23
8D
18
1A
E7
94
E9
04
0B
5C
3A
20
B7
F9
FA
94
34
20
4E
F7
EE
C2
55
70
DE
96
FA
12
63
6C
85
A1
6F
86
B3
34
27
01
CE
62
F7
33
57
DB
32
50
94
B0
AD
73
46
B2
D9
86
78
C0
04
CC
FC
1A
02
53
5C
2A
26
97
FF
C8
6C
1C
FD
92
CF
18
5F
0B
59
71
1F
23
4B
8C
34
2D
D5
40
3A
A8
E6
B3
FD
73
C3
E8
44
9C
EE
CA
BD
95
0C
1A
83
D9
0D
A1
55
44
95
0C
11
9B
14
27
E2
44
5C
01
50
EA
CD
B5
F1
5F
FC
53
71
46
66
AD
B7
1C
0F
A9
17
D7
40
06
41
65
FC
BA
8C
4B
68
69
3D
F5
08
74
35
3A
3C
55
8E
29
30
AF
C4
96
5E
AB
82
53
23
5C
24
AD
54
37
24
59
F5
AA
E4
61
43
97
82
7F
64
0A
BE
DD
C7
E9
22
63
08
64
B3
C6
3C
CC
D6
1F
75
CA
7B
A7
E4
EB
9B
CD
91
CD
FB
5D
7F
FA
DD
86
55
B7
11
47
BB
02
79
FB
48
34
F3
F8
6B
9F
A3
D5
48
3F
A0
D7
AF
69
BF
AB
FF
FE
99
6C
1F
DC
2F
FB
76
1A
A7
ED
76
40
10
E9
3F
2E
A7
BF
24
FB
86
66
49
21
38
F7
1B
9D
07
32
E1
53
7F
44
25
CB
74
15
CE
35
37
DA
E9
15
7D
7A
68
7F
9E
18
F7
2E
3A
7E
DC
79
39
BE
26
C2
8B
12
C9
E6
AF
E8
A0
05
9E
B7
E4
08
6B
EA
1E
D1
D2
A0
E3
51
BE
29
92
03
49
92
BE
98
A6
F0
38
A8
CB
49
D4
9A
93
CB
76
5D
64
8D
E9
7A
2F
ED
8A
9C
E8
74
CF
D0
46
1D
2F
B2
73
8F
0E
10
B5
74
AC
57
79
CE
C3
D0
4D
6D
A3
1B
CA
36
A8
7E
C6
4F
D4
11
1C
24
3E
22
C9
82
C4
96
5C
5C
BD
E2
48
AB
49
85
63
DB
33
A6
AF
E2
00
BE
49
21
DE
29
D2
06
7E
82
B7
44
9D
08
5E
68
25
6C
10
C3
1F
24
88
0A
E9
65
EC
2E
DA
9B
60
39
C5
06
A1
5B
E6
2D
AC
13
E7
55
D7
9B
CB
39
08
75
DC
F9
86
8E
6F
06
8F
56
A1
DF
12
FC
11
B9
E6
1E
52
54
85
0A
74
CF
71
C2
79
96
F2
3D
FE
CB
8A
70
E8
D8
7C
4E
A8
20
CB
5A
F7
70
3C
BE
3E
E7
F9
E2
98
04
29
77
1A
AC
0C
1E
13
13
8B
6F
C4
E5
FE
18
A9
82
54
1C
79
72
C9
2D
2D
F8
13
46
DC
6F
31
2E
76
B1
A3
62
D7
C8
5B
90
27
12
57
5E
E2
17
44
F4
79
30
24
00
58
85
FC
6E
75
C5
FB
46
1D
D6
8B
98
68
D7
F9
7F
87
D4
62
3B
21
9E
7C
1F
C5
F4
A7
EA
F8
A4
35
FE
C1
B2
81
1F
41
07
B1
74
30
35
28
8F
1A
D4
2C
17
31
05
66
67
CC
C9
69
FE
BA
7A
88
20
50
42
BD
18
82
83
7F
D6
6B
B5
55
D9
81
3D
2E
B6
00
37
04
2C
EC
1F
CB
13
53
0A
00
BD
11
96
2B
AF
7D
33
95
42
A6
C3
25
9F
BA
2D
F2
58
3F
FE
12
A7
76
56
CF
1E
20
C2
9E
81
1F
6B
72
7E
2B
CB
C2
9A
2F
82
56
61
D0
9D
A9
8A
0C
7A
7A
6D
65
FC
51
EE
4A
45
99
2E
D4
A3
8C
BA
77
07
39
8F
39
DC
91
F0
E7
9A
42
F1
1E
F2
79
88
4F
65
FB
34
0B
EE
56
C7
75
4C
82
6F
A4
61
36
D9
EF
DD
58
32
23
14
DA
91
2A
BF
39
EA
FF
2B
EB
85
96
DB
3E
42
29
0F
5A
31
B7
7E
33
4B
FB
1A
E6
B5
84
21
D8
4D
45
2F
7D
91
3B
B2
17
F5
51
57
47
40
C1
34
08
6A
25
8B
6D
6D
F4
70
A4
CB
30
B6
5D
E4
A3
10
74
55
FF
35
52
69
47
D3
B4
6D
2A
AC
4F
A5
3D
20
97
52
4A
B4
EB
65
31
E7
94
DF
01
8F
63
37
3E
DD
27
80
53
E7
66
E5
EE
76
EE
27
6A
1C
3D
EA
8E
BE
FD
D4
57
2D
C5
F3
93
9E
44
FA
BC
6D
8D
5D
96
CD
F4
3E
70
20
6C
C7
8A
6E
A9
C8
F8
90
B1
BE
2A
C9
BC
92
FD
65
FE
91
63
76
03
45
DB
48
47
22
E3
F0
D7
73
84
2B
CA
E1
82
7C
10
BA
D8
55
71
37
6E
76
54
39
A3
9B
38
78
FA
C8
D9
A8
66
93
6A
EA
52
D2
2F
43
E3
29
AB
FF
F2
8D
AC
BE
FA
1F
DA
3A
07
2E
CF
49
D4
06
F6
00
BF
77
D9
52
2E
03
74
99
D3
F7
A0
41
3B
E1
1E
B4
C3
C0
6F
F1
8A
0B
2E
5A
A8
CF
85
4E
31
BB
6B
40
67
08
47
6A
3A
DF
46
A3
C5
77
A1
51
1A
19
6B
F6
88
A5
34
73
B1
6F
8D
05
7D
D4
0F
7D
59
F6
AA
32
9D
0C
73
1C
8A
D5
48
6F
39
DA
49
3E
5D
7D
FF
00
64
8C
50
DC
37
C3
0B
2B
83
32
7F
3C
58
D5
45
A3
37
51
92
4B
18
59
EA
88
2C
48
28
22
64
E4
B4
60
E6
87
9C
F0
70
78
C5
45
3B
0D
3A
62
1E
87
58
D3
95
28
F8
D6
EC
FF
BF
A6
0C
D0
17
B4
E2
D7
D8
55
F2
21
8F
F5
9C
5C
B3
DB
BF
3B
4F
02
A6
02
85
18
10
74
A4
F1
4C
A0
D4
08
62
84
83
AB
33
B4
E1
F9
7B
C3
5B
01
9B
A6
A5
60
84
72
A8
D3
C5
F7
5B
91
34
CA
50
AB
EB
DC
8D
F1
4B
9E
46
A2
E6
72
D5
1A
F4
1C
B2
6D
17
10
40
56
05
28
DC
FC
DE
79
33
71
E1
6F
DE
4B
72
B0
1D
8B
9A
65
B8
DE
92
9B
CE
EA
58
BE
D1
59
C3
89
62
30
AB
94
F1
84
04
78
9D
B0
5C
63
61
FA
33
4B
29
F2
B6
2B
8A
32
00
47
1A
FF
11
3A
97
2B
0F
80
E2
08
54
93
A6
49
1D
29
47
7C
66
6C
F2
28
37
57
11
4A
D2
83
4C
4E
F0
52
2C
84
B1
2B
D7
55
4E
96
72
39
B4
A9
56
17
12
11
8B
FA
3F
DA
B0
2A
65
D4
DD
52
08
42
9E
07
F8
8F
5B
E0
D3
7D
15
4C
BB
AB
AB
28
BC
F9
5B
F6
FD
B3
BF
54
4F
55
4C
B4
9E
4A
18
F5
54
98
6B
45
6A
78
B2
10
17
17
ED
88
CC
F4
86
CC
23
9B
6C
CB
46
C4
85
1B
F2
16
17
E1
34
F8
12
74
90
F5
52
86
0A
BF
E3
AA
35
B7
72
21
F4
2C
08
D7
C4
C9
6F
6C
85
10
FA
2E
40
B4
A3
9E
E1
93
65
7B
F8
96
A7
A6
99
5B
FA
7B
2D
73
DC
68
84
46
97
5B
BE
DB
2F
61
A5
CE
BE
2E
F3
F4
44
45
F3
5D
B4
D5
C0
7F
B5
F9
26
51
A9
14
79
EE
76
C9
98
D9
2C
4E
55
95
7C
49
A6
D8
D9
8B
D3
89
0D
D8
3A
5B
E6
FA
58
74
9C
A2
1E
D5
F3
E1
93
35
85
9E
CC
D9
86
C5
F3
00
24
B6
86
6C
34
5A
D3
3D
11
62
04
11
D6
37
7D
82
EB
D9
67
00
25
0E
45
61
BA
7E
F6
85
80
ED
CF
72
C3
54
15
58
F2
C2
0B
FB
2B
09
44
FF
2E
73
AB
59
22
BA
BC
C5
D6
42
C2
73
DA
F2
E2
C2
3B
13
2E
22
59
CA
8A
F4
33
F5
46
0C
FE
E7
41
E3
FB
3C
81
C6
07
BC
74
51
FF
4A
18
92
6A
23
7E
2A
CF
8C
BD
C2
A8
CB
F2
BE
82
68
5D
26
DF
8E
D6
60
C4
5E
63
92
D3
D7
21
79
8D
B6
EE
40
FB
BE
61
A1
5F
42
62
3A
19
58
6A
E8
6E
5E
F3
02
C5
55
49
6B
7A
02
5E
21
B9
74
87
C8
E3
31
2C
4F
A7
EA
B1
44
32
C4
EB
1D
7A
47
AE
B2
04
38
61
FC
4C
82
67
00
9F
8C
02
4F
CF
18
1B
DF
00
E9
5C
21
CC
F4
C6
07
FE
0E
F7
32
B5
07
77
B6
0A
B8
73
96
B4
93
D7
0B
07
28
65
10
98
AD
28
44
A7
7B
C8
DC
1F
A8
48
7F
D7
D7
24
F6
1B
1A
81
6B
CD
D6
2A
3F
EC
2B
1C
31
82
71
39
73
E3
E4
74
55
7F
9A
AA
05
FE
F6
4A
BA
DA
95
05
A4
D3
6E
54
AB
EE
0E
F7
69
CE
70
62
12
3D
8D
22
45
1A
17
50
BF
F4
46
F3
34
2C
6A
94
0D
68
0E
6E
A7
5B
39
FD
8A
18
33
8D
6A
E9
78
93
42
BC
26
FE
2D
2B
DC
72
96
ED
73
69
B0
E0
6A
E6
42
AD
93
A8
90
8D
34
26
FC
87
EE
D1
DB
AF
58
4A
4F
8D
E6
12
1E
C0
21
F1
3D
4F
72
21
C9
51
80
49
47
86
98
6B
AC
CE
3E
7F
E5
57
5B
71
1D
B0
3C
DF
A2
7E
C5
DF
B1
F2
1C
0E
BB
36
3E
09
71
8C
BC
02
EB
C8
85
EA
F1
B7
79
70
E9
37
A4
40
24
0E
8E
2B
BD
B8
BA
90
A4
39
9F
A4
32
A2
71
C9
61
57
50
E7
D7
60
CE
F1
F4
8F
AA
2A
34
07
3C
79
54
DC
9D
2E
BE
D6
D0
51
F6
AC
AE
83
AF
DE
C6
C7
E6
27
8A
46
C2
F0
D5
37
45
B5
16
5E
88
F6
E9
B4
CD
0D
8F
83
A3
BA
EA
DF
FE
F4
C8
0C
F4
DD
85
AE
40
34
F1
E0
19
E6
A0
D0
6F
7E
9D
10
4F
9A
90
2A
85
AE
E4
81
9C
4F
9B
80
4B
72
40
CC
F6
85
65
E8
03
36
91
77
18
E0
63
5A
38
2B
C9
C5
05
11
04
2D
48
0F
9B
45
0E
0B
C0
8F
71
93
75
6A
0D
2C
5F
CD
2B
BF
9E
66
E8
E7
98
8D
DF
BA
5B
A4
B8
5C
0E
75
B4
DD
D7
56
AD
D9
B2
CF
15
15
55
C7
85
60
75
6C
A6
F9
0B
2E
C8
F4
07
56
A7
E6
8B
D8
27
2E
E9
CA
F4
1C
42
56
64
D5
F9
C5
00
2C
EB
70
7D
4C
80
78
3F
FB
CB
43
1C
08
BE
83
ED
17
40
65
6B
0E
54
A0
EE
A3
42
06
51
0C
5A
78
B8
5A
E9
1B
09
AB
10
09
C4
64
17
01
23
46
6D
6B
17
C7
EA
97
C3
E4
5D
8D
83
E8
21
9E
04
CD
05
49
3B
79
39
2B
EF
4B
4E
64
2E
A3
EC
1F
16
73
09
70
CF
3C
DE
9A
CC
E7
DB
91
22
D0
BB
0B
E6
A7
8D
F9
77
F4
42
EE
F0
DC
A9
46
F0
7D
F9
12
DE
9A
B0
92
2F
00
E1
9C
49
F3
C6
5D
FA
A1
32
45
55
43
A8
89
FE
57
19
32
6D
14
ED
3C
8E
A0
F2
A8
23
86
79
8E
2B
C0
A5
B3
05
E8
3F
EC
50
02
C1
7E
DE
EB
8F
AB
6C
32
61
DB
8D
4E
DF
2F
4F
5E
44
D5
9B
B5
BB
D7
47
CF
1D
4F
ED
C9
0B
E4
F8
F5
50
45
AA
DC
EA
42
27
7A
C6
DB
B0
BA
60
BB
BB
05
C7
76
C9
9C
E3
1A
00
10
03
C9
1D
74
6D
9F
98
3B
96
33
5C
95
3D
7B
EA
97
79
DC
F7
7C
0C
B6
49
50
25
45
EC
54
A1
7E
2F
32
C2
52
E2
B1
7C
D4
A6
8A
12
BC
73
B7
0B
6D
B6
46
FF
70
DB
A9
C4
22
B0
26
AC
63
0C
44
C0
BE
51
EB
3C
05
26
2F
56
90
40
7C
C9
F9
69
38
18
B7
F4
14
95
BF
7B
51
5B
5D
EC
62
34
75
43
93
B3
12
75
0E
0E
42
5B
44
29
A0
D8
CC
B1
AB
29
B2
78
CB
73
4B
E3
37
7D
3D
C2
A4
6C
76
50
39
CB
D4
9D
21
28
24
EA
4E
A9
85
F2
28
6D
C6
45
98
1B
19
28
94
89
E9
25
D2
7C
EF
D7
C2
05
07
F4
98
B2
C8
63
B1
71
DA
37
A7
87
03
F6
06
C8
14
DA
44
64
9E
7F
17
AE
94
C8
35
9F
E7
A5
99
A2
18
B4
F8
F7
E6
9F
D8
E8
8E
E2
4B
18
F4
BE
9D
04
A2
17
D8
63
B0
AB
9A
8E
2A
52
17
68
A8
B1
8F
C9
24
21
B4
93
B8
F4
94
8A
29
EA
F4
26
AE
D1
EA
52
5B
7A
38
2D
3C
51
E1
22
8D
71
0D
49
43
55
37
E3
34
E6
B3
F4
53
E2
83
78
21
8A
EE
BB
4B
28
CC
E0
60
BB
64
A9
97
67
FA
95
93
23
24
D1
C4
DA
97
AC
E5
D9
A8
20
1D
0F
E4
CD
57
3C
FD
DB
EA
6A
BE
A8
E7
F4
46
98
