79
BB
A6
A3
59
27
7C
C6
83
91
3C
13
F0
78
61
73
0D
17
5B
22
F1
97
EC
C0
DA
C6
0E
A5
A0
C9
A4
F4
95
FF
F3
56
AF
A8
A7
C5
82
11
3C
B5
D6
A5
A5
D7
54
63
B3
8E
E8
1C
B7
C2
96
9A
8A
41
C3
E1
0F
2B
14
A9
9C
A6
E4
1C
65
D5
AA
1C
C4
1D
DE
A6
F2
31
D4
30
52
89
19
2D
82
E4
28
F0
E8
6F
79
14
6A
75
E2
5C
93
44
25
59
4E
AD
57
12
A0
9A
0A
2D
4B
7F
E8
B7
0F
DF
1C
CA
0F
18
EE
37
B8
FF
F6
C6
6C
4A
3B
57
96
9B
C2
D9
D5
FB
C0
CD
9A
67
F3
66
F1
F5
3C
2C
A7
39
F5
6D
0B
52
92
0C
D1
41
AD
4E
0D
FF
B0
8F
BD
7A
15
0B
76
D8
4D
E9
05
5E
70
D7
67
9C
B8
BF
EF
E9
7A
9B
45
0A
8D
9C
48
5E
2B
38
C5
E6
8F
10
9A
5F
60
AF
B3
8E
4C
51
2F
62
E5
73
54
DE
F0
BD
2C
D6
8B
25
9D
D5
36
10
9A
A6
32
E5
3F
D5
65
2B
3A
9D
A6
85
BB
B2
A0
65
8A
55
A0
2E
9A
4A
1C
2B
62
D1
44
99
0E
56
C5
36
D2
09
9E
D6
F7
4E
4F
90
EC
DE
1E
BC
21
05
D8
93
43
83
6F
3C
23
95
2D
BA
F3
65
60
C3
E6
B2
CC
5A
46
7F
33
F6
96
DA
89
BE
DB
AA
D7
E1
E1
23
49
98
44
03
28
96
4F
8B
DE
05
1E
DF
4C
D2
0C
02
82
85
5D
72
BA
0E
58
18
71
A7
CC
57
33
D2
E0
0D
A1
0F
64
23
B0
ED
B8
B9
9B
CD
80
70
D2
51
C0
14
56
02
0F
7F
6C
76
69
B7
DF
63
55
67
8C
67
E7
3F
E0
AA
BC
AD
E1
CB
B1
E0
E0
DF
BF
6B
F7
98
2A
D0
44
76
1F
F6
77
5C
34
F5
E1
48
59
53
2D
0E
E9
E2
42
08
CD
FB
C4
DC
7E
D6
8D
86
D7
AA
42
FB
FD
E1
16
8C
39
0B
E6
63
0B
EC
5D
7E
9D
53
F1
56
C2
1A
EC
88
91
9F
BC
93
F5
20
96
DB
6B
0E
9A
FF
97
8E
35
46
1D
06
89
64
DB
E4
D8
C9
34
73
4C
F7
6E
F9
0F
2F
2B
55
28
D2
D7
0B
61
56
34
70
B6
02
14
5B
7F
DE
3F
43
E4
3C
80
36
3C
F1
2A
2A
55
FA
86
C1
FF
B2
6B
B0
D0
BE
E3
A3
D6
EE
BA
83
75
FB
B0
1E
63
4E
3D
33
30
1A
C8
7B
C8
9C
D0
51
B3
07
79
AF
01
B9
80
97
DF
E5
6C
C7
77
9F
7D
12
B1
2C
22
05
F4
7A
BF
25
7A
D0
F5
E3
55
39
C0
12
AA
6C
BC
91
4C
07
F4
CF
87
46
D9
CF
3A
E4
9D
C0
C0
06
D5
CE
D0
1D
D9
C0
0B
2F
9A
30
03
19
61
B7
74
3D
34
1C
CC
D7
5C
AB
5E
48
A6
B8
7C
24
1C
7A
28
98
0B
28
7A
57
6C
A4
FD
80
95
D9
06
10
D2
09
D6
8D
E7
B9
D7
4A
18
9F
FE
DD
81
D7
44
FE
22
C7
44
18
8C
4C
50
7C
17
80
1D
92
0C
51
48
FE
85
5B
05
2D
D5
AB
58
70
05
47
92
D7
0C
08
CF
AC
8E
A4
D4
B0
FB
B9
41
6B
5B
B1
09
E1
F5
D5
8F
BB
F7
DE
24
29
48
6A
CE
34
A3
57
4C
19
CF
C3
4C
CC
0F
C5
1F
4D
B3
2C
EC
03
B5
8F
2E
A8
7F
52
6D
92
01
E2
C7
0C
6C
F9
AA
B1
1E
87
D1
00
80
FC
77
63
83
84
A3
15
3A
83
99
C0
EF
93
09
4E
2C
EF
9E
21
D3
BF
60
AD
D1
85
9C
F4
F5
F6
04
85
A5
4A
4C
0C
D5
12
00
83
53
44
D6
E3
AD
0D
E7
15
F4
ED
F4
9C
9E
73
E2
47
D0
DA
5D
A7
52
DB
4B
28
F9
ED
22
32
B0
F1
0A
09
29
2F
3C
91
00
56
2B
0F
D6
6F
78
AC
89
8F
43
27
73
64
18
A0
55
18
AF
2D
BC
67
9F
F0
51
33
53
5A
22
20
71
E4
D8
69
DE
1E
49
D0
83
B3
C9
34
F5
F9
27
09
A5
44
66
E0
F4
DB
39
87
BE
72
85
28
AE
DC
70
A9
00
30
A6
74
82
B7
1C
35
E4
1A
0F
9B
55
CC
E5
E7
3D
FE
1D
B1
3F
29
AB
D6
90
D5
10
62
7D
F1
98
78
CD
46
7D
DE
68
0E
41
69
3D
5D
7D
91
22
B7
8F
3C
F9
94
83
70
0C
D6
E0
BA
A2
AE
36
11
2A
F6
B9
21
81
E3
F5
76
B7
0F
24
AE
6E
BE
1B
D2
CC
42
AB
D7
7F
8F
52
9D
FF
1C
7D
3A
32
99
08
D5
B5
2F
CE
DD
8F
8C
77
7E
91
DE
87
08
86
81
53
1E
2C
6F
AC
E9
A3
E6
7D
03
A8
FC
4C
1E
DD
CB
9F
4D
29
79
50
A5
E8
80
AF
B2
86
67
05
40
0E
79
4E
CA
3B
4C
28
D6
27
75
B6
4B
D2
1D
26
83
EA
2C
E3
7E
A4
2A
9F
22
C1
72
CE
6B
E9
80
2C
92
6F
05
18
69
B6
FE
6A
68
4C
AB
39
3B
E7
A4
54
A9
68
37
E9
22
EA
69
C4
E1
6A
2E
5A
32
F6
B9
CD
68
79
43
2A
0E
DE
9E
35
4A
4F
B2
B8
32
E9
42
B7
03
7C
FD
5A
02
B7
A6
28
93
AB
01
94
A0
B8
7A
FB
66
85
FA
FD
50
DB
02
E9
5F
1F
03
20
F9
6B
D9
D4
2E
C9
70
97
31
71
1B
18
6E
91
38
88
58
43
63
04
FC
7E
7A
9B
5B
C8
9D
39
4C
86
E0
29
02
71
3A
86
99
07
55
D6
D6
3F
D8
C7
C6
EA
C9
30
08
86
CE
C8
BF
C1
7F
24
79
85
AB
A2
CD
1E
5A
23
9E
F5
F5
A1
45
89
C6
D1
74
EB
D1
12
B9
14
2C
E3
E4
E9
54
C9
34
C9
5A
74
7F
16
6B
F6
3F
82
C6
80
D7
9F
51
22
56
93
68
25
CD
C9
F3
D2
96
1C
D8
16
69
68
05
55
74
33
D1
E6
3A
72
CF
C1
BE
AD
FF
F4
67
A1
58
AC
36
64
FB
82
D3
53
6B
BB
02
3C
20
46
3A
7C
78
CC
C6
C7
75
41
86
46
9C
57
D2
45
5B
5C
CE
8A
17
3A
0F
FF
7F
7D
5A
6B
6F
64
9C
D1
D9
67
A4
F2
28
D2
60
E9
B5
E1
3E
F8
BE
3C
CB
DC
BC
F9
1B
D8
A1
D9
DF
BE
C3
5C
CB
14
62
DB
D9
ED
01
56
19
82
DB
F6
C6
51
40
79
45
57
9B
E0
44
6E
73
E8
DA
E5
FF
D7
CF
09
36
B2
58
9A
0B
92
88
0B
80
19
F9
06
75
81
0D
90
DE
CF
FA
C0
F1
F9
74
BF
BC
AD
44
F9
42
31
F1
71
8C
7D
0A
19
C0
4A
E3
0E
07
7F
B4
F2
FD
2D
1A
FB
D9
73
73
20
16
7F
BE
3D
F0
CA
19
E4
70
48
CE
2E
37
20
B5
5E
B2
79
45
22
14
FB
07
C0
56
BB
78
C7
35
C5
DE
4B
4E
03
B6
7A
BB
7E
23
F5
05
65
70
F8
82
97
20
52
42
E0
1C
18
DC
F8
2C
38
B6
B4
B4
1F
04
D4
F5
3E
27
61
E9
0B
8C
73
B1
3E
3D
09
A7
4C
AF
26
CD
5B
CE
17
C6
00
68
CB
65
B2
A5
BD
5B
45
97
18
56
87
14
E6
2E
C3
24
07
3C
84
D0
8C
A4
D8
BF
0B
7B
55
D0
E8
53
DB
A5
44
8D
26
C7
2D
DC
16
FF
BB
A1
43
8D
64
1F
B3
84
D2
41
03
7A
F7
6E
7D
FE
DA
F2
AE
F0
8F
65
FA
4A
75
2B
14
4C
24
F0
21
94
2F
4E
66
07
FC
DF
09
79
5C
28
7F
6E
92
CF
D3
F2
8B
2C
06
EB
21
FB
37
1F
C1
C2
4F
3C
32
ED
A4
F6
0D
04
9C
71
EB
E5
FB
A4
CC
8E
0B
6C
4A
BB
90
61
24
61
2F
97
F3
5D
D3
42
AD
81
19
09
2B
1B
6F
A4
15
90
D2
0A
4B
B0
79
DD
38
50
EE
12
89
FA
0B
41
8C
4B
94
BF
02
BA
29
39
C0
BB
3C
35
C1
ED
39
02
0C
DF
FC
E9
E6
CD
B5
07
4D
31
21
E2
C1
29
06
8B
FD
18
6C
D1
CB
3F
22
F2
D5
E5
0E
81
84
57
C0
BF
92
59
D9
1D
13
2B
E2
22
23
8D
18
1A
E7
94
E9
04
0B
5C
3A
20
B7
F9
FA
94
34
20
4E
F7
EE
C2
55
70
DE
96
FA
12
63
6C
85
A1
6F
86
B3
34
27
01
CE
62
F7
33
57
DB
32
50
94
B0
AD
73
46
B2
D9
86
78
C0
04
CC
FC
1A
02
53
5C
2A
26
97
FF
C8
6C
1C
FD
92
CF
18
5F
0B
59
71
1F
23
4B
8C
34
2D
D5
40
3A
A8
E6
B3
FD
73
C3
E8
44
9C
EE
CA
BD
95
0C
1A
83
D9
0D
A1
55
44
95
0C
11
9B
14
27
E2
44
5C
01
50
EA
CD
B5
F1
5F
FC
53
71
46
66
AD
B7
1C
0F
A9
17
D7
40
06
41
65
FC
BA
8C
4B
68
69
3D
F5
08
74
35
3A
3C
55
8E
29
30
AF
C4
96
5E
AB
82
53
23
5C
24
AD
54
37
24
59
F5
AA
E4
61
43
97
82
7F
64
0A
BE
DD
C7
E9
22
63
08
64
B3
C6
3C
CC
D6
1F
75
CA
7B
A7
E4
EB
9B
CD
91
CD
FB
5D
7F
FA
DD
86
55
B7
11
47
BB
02
79
FB
48
34
F3
F8
6B
9F
A3
D5
48
3F
A0
D7
AF
69
BF
AB
FF
FE
99
6C
1F
DC
2F
FB
76
1A
B4
D5
C0
7F
B5
F9
26
51
A9
14
79
EE
76
C9
98
D9
2C
4E
55
95
7C
49
A6
D8
D9
8B
D3
89
0D
D8
3A
5B
E6
FA
58
74
9C
A2
1E
D5
F3
E1
93
35
85
9E
CC
D9
86
C5
F3
00
24
B6
86
6C
34
5A
D3
3D
11
62
04
11
D6
37
7D
82
EB
D9
67
00
25
0E
45
61
BA
7E
F6
85
80
ED
CF
72
C3
54
15
58
F2
C2
0B
FB
2B
09
44
FF
2E
73
AB
59
22
BA
BC
C5
D6
42
C2
73
DA
F2
E2
C2
3B
13
2E
22
59
CA
8A
F4
33
F5
46
0C
FE
E7
41
E3
FB
3C
81
C6
07
BC
74
51
FF
4A
18
92
6A
23
7E
2A
CF
8C
BD
C2
A8
CB
F2
BE
82
68
5D
26
DF
8E
D6
60
C4
5E
63
92
D3
D7
21
79
8D
B6
EE
40
FB
BE
61
A1
5F
42
62
3A
19
58
6A
E8
6E
5E
F3
02
C5
55
49
6B
7A
02
5E
21
B9
74
87
C8
E3
31
2C
4F
A7
EA
B1
44
32
C4
EB
1D
7A
47
AE
B2
04
38
61
FC
4C
82
67
00
9F
8C
02
4F
CF
18
1B
DF
00
E9
5C
21
CC
F4
C6
07
FE
0E
F7
32
B5
07
77
B6
0A
B8
73
96
B4
93
D7
0B
07
28
65
10
98
AD
28
44
A7
7B
C8
DC
1F
A8
48
7F
D7
D7
24
F6
1B
1A
81
6B
CD
D6
2A
3F
EC
2B
1C
31
82
71
39
73
E3
E4
74
55
7F
9A
AA
05
FE
F6
4A
BA
DA
95
05
A4
D3
6E
54
AB
EE
0E
F7
69
CE
70
62
12
3D
8D
22
45
1A
17
50
BF
F4
46
F3
34
2C
6A
94
0D
68
0E
6E
A7
5B
39
FD
8A
18
33
8D
6A
E9
78
93
42
BC
26
FE
2D
2B
DC
72
96
ED
73
69
B0
E0
6A
E6
42
AD
93
A8
90
8D
34
26
FC
87
EE
D1
DB
AF
58
4A
4F
