1B
E9
FD
B7
69
28
08
3C
68
84
50
1C
B6
4D
D7
BF
E3
70
1C
09
BB
9E
F7
EA
45
6E
8C
FE
3D
C9
A7
1B
CF
15
94
3B
21
13
8E
3B
56
D6
C7
0D
71
17
11
C0
91
DF
9A
60
85
43
73
38
2C
38
DC
69
60
2C
9B
2F
16
15
31
0A
16
DA
68
F3
99
15
24
46
CC
D9
BB
35
86
71
A5
F4
4E
8F
CB
42
2B
44
21
F4
1A
C0
38
F8
5B
30
28
F6
B0
3D
CE
9F
51
D9
E1
71
DF
95
52
D4
B4
46
32
7D
82
EC
B9
30
C1
B9
05
5A
E0
F7
CE
EA
29
2B
D8
E8
12
03
B6
8D
10
11
A7
91
EB
77
9A
4C
79
B2
E0
B9
90
07
F4
19
90
B6
0D
1F
C2
63
B9
CA
BD
AB
82
4D
DE
2E
C3
CF
72
03
50
88
00
4F
76
7B
0B
9B
7D
90
66
E3
AB
0E
03
D2
BF
99
A9
EB
B1
2C
38
50
AD
E9
6F
78
1D
8C
04
C0
40
9C
99
2D
23
2A
9D
55
E1
8B
B5
6C
5A
10
0C
3C
EF
3F
52
65
40
51
1C
E7
E0
57
02
D5
66
38
59
D8
1F
DA
67
0A
EB
83
44
2C
C8
4C
61
E3
0B
4A
E9
4A
6C
79
00
FE
8D
5E
A6
5C
03
2B
5F
0B
EB
A9
D9
FE
D3
5A
10
DF
44
1E
6F
49
65
66
FA
C0
35
F4
5A
3B
B1
0E
57
13
96
DD
B5
82
58
47
18
F0
F3
E3
9B
A0
78
F5
04
AE
41
43
77
7A
8F
24
14
47
E5
78
11
B6
6F
94
AE
37
07
53
C5
36
55
48
38
B4
BF
F3
5C
16
6D
47
12
70
DA
D2
93
81
89
BC
7C
33
F6
3A
A5
6A
39
0D
36
CD
3D
1B
43
90
9E
0C
CE
5D
5E
D2
57
C0
E3
62
D8
78
93
23
00
38
7D
5A
86
E4
4E
BF
B8
56
CD
50
5E
15
44
0C
B1
57
13
42
CF
39
38
72
98
BF
C7
76
8B
99
D1
8D
C6
EA
1E
22
26
C6
46
4C
90
BE
80
ED
2C
D6
7F
74
8A
B9
21
DE
45
A9
DE
29
7C
9F
26
B5
96
0F
DB
4D
00
25
30
0A
8F
0E
0D
03
A4
B5
01
99
02
E1
C2
23
B3
63
A4
DE
2E
78
3A
B7
5E
93
0D
E4
0C
02
09
F9
77
23
F4
72
CF
20
AA
FB
36
ED
94
75
EA
6A
75
7E
66
24
79
4B
28
A1
F8
E7
E9
AB
C3
5A
B1
A8
31
0E
D6
3C
89
90
C6
BB
41
D5
3A
39
98
40
26
B4
32
75
02
71
50
EA
CB
4E
4B
42
06
F8
03
44
30
88
F5
E0
75
3D
C0
22
44
B6
0D
FD
9E
63
39
FA
2C
92
24
58
88
DA
DF
F6
E9
A8
CF
0F
1F
24
EA
29
20
5D
FE
BB
7D
FE
A6
4C
42
52
90
85
1D
C2
A3
19
71
88
94
36
